#version: 0.2
ï ¼
ï¼ Į
č Ċ
Ġ Ġ
ä ¸
â Ģ
ç ļ
çļ Ħ
ä º
ĠĠ Ġ
ä »
ã Ģ
ãĢ Ĥ
è ¿
å ı
äº Ĩ
å ħ
æ ľ
âĢ ľ
å ¤
å °
âĢ Ŀ
ä¸ Ģ
ä ½
æ ĺ
ä ¹
å ľ
å Ī
å Ĳ
æ Ī
âĢ ¦
å ®
æĺ ¯
å ¾
ä¸ į
æľ ī
Ġ âĢľ
å ĩ
è ¯
ä ¼
è¿ Ļ
æ ī
æ Ĺ
æ Ŀ
æ ģ
ä» ĸ
å ¥
æ ĸ
è Ģ
å į
é ģ
åħ ĭ
ç »
é ĩ
ç ľ
è İ
å ¼
ç Ķ
åľ ¨
æ ĥ
æģ ©
å Ľ
ç Ŀ
æĪ ĳ
é Ĥ
ĥ ½
è §
è ®
éģ ĵ
âĢ¦ âĢ¦
å ¸
æ Ģ
å Ĭ
å Ĩ
æ ²
é Ĺ
èİ ±
é Ŀ
ç ī
å ·
ä¸ ª
åħĭ èİ±
åħĭèİ± æģ©
éĤ £
çĿ Ģ
å ¿
å ¯
ç ¥
è µ
äº º
å Ĵ
åĪ °
åľ °
æ Ń
æ ł
å º
è ĩ
åĩ º
ï¼ ļ
ç Ľ
æ Ħ
æĿ ¥
è ¡
æ İ
ç §
ãĢĤ âĢĿ
ä¸ ĭ
å° ±
ç İ
éĩ Į
é Ģ
åĴ Į
ç º
ä¸ Ĭ
æ² ¡
è ĥ½
å İ
ä¼ ļ
å° Ķ
å ĳ
å Ń
- -
é »
æ ķ
å ½
æĹ ¶
ä¹ ĭ
é ĺ
å ¹
èĢ ħ
èĩ ª
æ Ĭ
ç Ħ
ï¼ Ł
ç ģ
æ ĭ
è¿ ĩ
ä¹ Ī
å ī
ç ¬
ç¥ ŀ
å¤ §
çĦ ¶
å¯ ¹
è º
æĸ ¯
ä¸ º
ä» ¬
ä½ ł
æ ŀ
åĲ İ
è ¾
ç Ĥ
å¾ Ĺ
çĶ Ł
èº «
æĥ ħ
é ļ
å ģ
äºĨ ä¸Ģ
æ ³
çľ ĭ
æ µ
ä» ¥
ä¹ Ł
èµ ·
çİ °
è ¦
åı ¯
éĿ ¢
äº İ
è ½
è¦ ģ
é Ļ
æĥ ³
å ĵ
ä½ į
çĤ ¹
å ±
é ¢
å £
åī į
è¯ ´
é ķ
ï¼ ģ
æĸ ¹
è ´
ç Ł
å¼ Ģ
è ¢
âĢ ĺ
âĢ Ļ
ç Ń
æ Ķ
åĽ ŀ
æ ı
æĪ Ĳ
è¿ ĺ
å¾ ·
èĢ Į
äº ĭ
æ ¯
åı ĳ
æ °
åı ª
å Ģ
è ī
æī ĭ
ç ½
ç ķ
å¥ ½
å Į
çī ©
æ Ľ
æ²¡ æľī
ç «
æ ¬
é Ľ
å¤ ´
å° Ĩ
ä ¿
çī ¹
åİ »
å· ±
èĩª å·±
é ĥ½
ä» Ģ
ä»Ģ ä¹Ī
è® ©
çľ ¼
æ Į
å¥ ¹
è Ħ
éĹ ®
å §
å¿ ĥ
æŃ £
å¾ Ī
åĨ ħ
å¤ ļ
æĦ ı
ä¸ Ń
åŃ Ĳ
è§ ģ
çĶ ¨
æĹ ł
åħ Ī
æł ·
æ ¸
Ġ ä»ĸ
å° ı
ç Ļ
çģ µ
-- --
é» ĳ
éĹ ´
å ¦
å Ł
å® ļ
ä ¾
ä¸Ģ ä¸ª
æ Ł
ç ©
è¢ «
æ Ļ
Ġ è¿Ļ
çŁ ¥
æ³ ķ
åĬ ¨
åº Ķ
ä½ ĵ
åģ ļ
ãĢ ģ
é ¡
ï¼Ł âĢĿ
åħ ¥
æ ·
é £
åı £
äº Ľ
èī ²
éĿ ŀ
å¤ ©
æ ļ
æİ ¥
åĲ Į
æ ´
åĲ ĳ
è ¶
åı Ī
å® ¶
åĬ Ľ
å£ °
ä½ Ĩ
æľ Ģ
åħ ī
å Ŀ
é Ń
çŃ ī
æł ¼
æ¬ ¡
é ľ
çľ Ł
é ĵ
å½ ĵ
çļĦ ç
ä¸ ¤
è °
äºĭ æĥħ
çĻ ½
éķ ¿
è Ĥ
ç§ į
æ ¶
å¤ ĸ
ç½ Ĺ
æľ ¬
ç ®
æĺ İ
è ·
åĪ Ĩ
å· ²
è¡ Į
ç¬ ĳ
å® ŀ
é ĥ
æĦ Ł
ç ´
å¤ ª
æı Ĳ
åĩ ł
ä¸ ½
ç» ı
æµ ·
ç ¼
åĽ ł
å¥ ³
åħĪ çĶŁ
å¸ ¸
åı ĺ
çĽ ¸
ä» İ
æĢ Ŀ
çĽ ´
ç§ ĺ
æ ±
ä¸ »
è¾ ¹
æī Ģ
éĺ ¿
å® ĥ
éĹ ¨
åĪ° äºĨ
æľ Ľ
è§ ī
å¦ Ĥ
æķ Ļ
è Ļ
æī į
æŀ ľ
å½ ±
æ° Ķ
ä½ ı
é «
è į
åĨ į
éŃ Ķ
ç Ĳ
è Ī
å® ī
é« ĺ
ç ĸ
ä½ ¿
åĪ Ĺ
ä¸ İ
éĥ ¨
ä¿ ¡
éĩ į
Ġ åħĭèİ±æģ©
å ¡
å¹ ¶
è¡ ¨
æĢ §
ç ĥ
åĩ ¡
ï¼Į âĢľ
å ķ
ä¼ ¼
å ĺ
è¿ Ľ
çķ Į
åį Ĭ
æ ¢
åı¯ ä»¥
æ Ĥ
å® Į
ç¬ ¬
é Ĵ
çĽ ®
æĽ ´
å¥ ¥
è Ĵ
è¿Ļ ä¸ª
åº ı
ç ª
è Ĳ
è ĥ
é ħ
ä¸į æĺ¯
è® °
ä»ĸ ä»¬
èµ °
âĢ¦âĢ¦ âĢĿ
æĪ ĸ
éĿŀ åĩ¡
éĩ ĳ
è® ¤
æ· ±
ç ¦
å¿ «
è Ĭ
åºı åĪĹ
ç» Ļ
ç ±
æ ĳ
æľ Ī
å° ĳ
èĢ ģ
æī ĵ
ç Ī
é¢ ĺ
å ĥ
æŃ ¤
å°± æĺ¯
é» Ľ
å¤ ±
æ į
æ »
å ĸ
å° ¼
ä¸ ī
æī ¾
è ĭ
å¤ Ħ
å ¨
çŁ¥ éģĵ
è§ £
æł ¹
åĲ ¬
èĩ ³
æ ħ
ä¸ ĸ
ä¼ ¦
åį ģ
ä¹ İ
æ² ī
ç ĭ
ç ¡
å¥ ĩ
ä½ ľ
æŃ ¥
åĪ ļ
è¯ Ń
åħ °
åĪ ¶
è½ ¬
çº ³
è ģ
æļ Ĺ
å ¢
ä» ¶
âĢĿ ï¼Į
éļ Ĳ
è½ »
æŃ »
æĭ ī
æ ®
çĲ Ĩ
éĹ® é¢ĺ
æĶ ¾
è¯ Ŀ
æ ¡
è¡ Ģ
åĥ ı
å¾ ®
ä½ Ľ
è¿ ĳ
æĪ ´
è® ¸
ļ èĢħ
é Ķ
é£ İ
æ £
å¼ ł
ç¦ »
åĳ ¨
éĢ ļ
çº ¢
é ©
è £
çľĭ è§ģ
æ¸ ħ
åĮ ĸ
è ±
è§ Ĩ
å¥¥ é»Ľ
å¥¥é»Ľ ä¸½
é ¦
åĲ Ī
è¾ ¾
æ¯ Ķ
äºĨ ä¸ĭ
åħ ¨
ç© º
éļ ı
çģ °
è¯ ¥
éļ ¾
ç Į
å Ĺ
å¾ Ģ
åĢ Ļ
å Ķ
ä¸ĸ çķĮ
å¹ ´
æĪ ¿
å ł
å¼ º
æĦ ļèĢħ
çİ ĭ
æĪĳ ä»¬
åı ¥
äº ļ
åĩº äºĨ
ç ¨
æĹ¶ åĢĻ
åĲ į
ç¡ ®
å¸ Ī
æľ ª
å£ «
åĳ ĺ
é ª
åĽł ä¸º
éĿ Ļ
è´ Ŀ
åı ¤
---- ----
åį ³
æŀ Ĺ
è¯ Ĩ
å± Ĥ
éĽ ¾
å¼ Ĥ
æĭ ¿
åı¯ èĥ½
æ ¼
å·² ç»ı
éĻ ©
å¦Ĥ æŀľ
æĶ ¶
åİ Ł
åĪ ©
ç ¤
åĬ ł
æĿ ¡
èĲ ½
ç´ ¢
å¼ ı
å¤ į
¥ ¿
åħ ¶
åŃ ¦
åĪ «
ç Ĭ
æĺ ¾
æ± Ĥ
æ¶ Ī
åħ ¹
æ° ´
ç ²
å¸ ¦
åıĳ çİ°
å¸ ķ
çŃ Ķ
åı į
ä½ İ
éĤ£ ä¸ª
æĬ ¥
âĢ Ķ
é Ł
äº Į
åħ ³
ç® Ĺ
æľ º
åı Ĺ
å »
å® ¹
ç¥ Ĥ
éĩ ı
åį ķ
éĵ ¶
ç» ĵ
çī ĩ
éĺ ³
å¤ ľ
åľ º
å· ¨
ä»ĸ çļĦ
è¯´ éģĵ
ç ¾
ç© ¿
åį ł
åĵ ģ
åĢ Ĵ
çļĦ äºĭæĥħ
èĦ ĳ
è¿Ļ éĩĮ
åĲ Ĺ
ä¼¼ ä¹İ
èį ¯
å¯¹ æĸ¹
æĮ ĩ
è ħ
åĽ Ľ
åķ Ĭ
åĮ º
æĽ ¼
éŁ ³
æĢ ģ
½ çĦ¶
éľ Ģ
ä¹ĭ åīį
åĬ ©
å¤ ĩ
ï¼ģ âĢĿ
ç ł
å§ Ĩ
è¶ Ĭ
åŃ ĺ
çº ¿
äº ¤
ä¿ Ŀ
çº ¸
åŁ İ
å¿ ħ
æģ ¯
åĩ Ĩ
åĪ Ļ
ä¸į ä¼ļ
åĵ į
çĸ ĳ
å§ ĭ
æ ¥
åº ¦
éĢ Ķ
æĢ İ
éĢ ł
è¿Ļ æł·
èĦ ¸
ç ³
ä» £
è ¥¿
åĩº çİ°
åį ľ
ä¸Ģ çĤ¹
æĸ °
åĪ »
ç§ Ĵ
å¯ Ĩ
èĴ Ļ
çª ģ
æĹ ı
è¯ ķ
æĢİ ä¹Ī
æŁ ¥
çķ Ļ
æİ Į
çĽ´ æİ¥
åı ·
åįł åįľ
ç ŀ
é© ¬
ç« Ł
å¹ ³
ç± »
èĢ ĥ
èĥ½ åĬĽ
ç ¿
è¿Ľ åħ¥
å¸ ®
ç« ĭ
ä¹ ¦
éĹ® éģĵ
éĤ£ ä½į
æ´ »
å± ŀ
çĶ ·
åĨ µ
èĩªå·± çļĦ
åıª æĺ¯
åĿ Ĳ
æĹ¶ éĹ´
è¿ĺ æĺ¯
åĵ ª
å½ ¢
åħ ·
å¤© ä½¿
å ĭ
éľĢ è¦ģ
åĩº æĿ¥
å¡ Ķ
ä¹ĭ ä¸Ĭ
æ» ¡
æĺ Ł
ä¹ ī
æķ ´
è± ¡
Ġ âĢ¦âĢ¦
é» ĺ
åĽ ´
å¾ Ħ
æĬ Ĭ
è¿Ļ æĺ¯
æ¢ ¦
ä» »
çļĦ äºº
éĿ ł
å¡ ŀ
æ º
éĢĶ å¾Ħ
è´Ŀ åħĭ
è Į
ä¸ Ķ
ä¸Ģ ä½į
å§ Ĳ
æĹł æ³ķ
åį ´
æĢ ª
çº³ å¾·
å° ģ
åº ķ
èº« ä½ĵ
åĲ Ħ
æĢ ķ
ç» Ī
å¤ Ł
æ£ ®
éķ ĳ
æµ ģ
æİ §
å¾ ħ
è Ĺ
åĽ ¾
é¡ ¿
åĺ ´
ç ħ
ç» ´
åħ° å¾·
å¯ Ł
é» Ħ
å°ı å§Ĳ
ç¼ ĵ
è§ Ĵ
æı ¡
è´Ŀåħĭ åħ°å¾·
å°Ķ æĢĿ
ä½Ľ å°ĶæĢĿ
åºĶ è¯¥
çİ° åľ¨
æĸ Ļ
æĸ¯ å¸ķ
ä¼¦ çº³å¾·
æŁ Ĳ
ç« ł
åŃĺ åľ¨
å¤ª éĺ³
å® ¤
äº ®
æł¼ å°Ķ
çī© åĵģ
æİ ¢
æļ ´
è· ¯
èµ· æĿ¥
çľ¼ çĿ
éĺ Ł
ä¸Ģ ä¸ĭ
éĢ Ł
æĪ ĺ
åĳ Ĭ
ç¥ŀ ç§ĺ
èĤ ¯
æ³ ¨
Ġ éĤ£
å¸ Į
æĪĳ çļĦ
éĻ ¤
åį °
èĥ Į
çľ¼çĿ Ľ
ç´ §
åı Ĭ
åĪ ĩ
ç Ĺ
Ġ å¥¹
æĥħ åĨµ
é¦ ĸ
æĸ¯å¸ķ ç½Ĺ
åĳ ½
èĻ ļ
ä¸Ģ æ¬¡
æł¼å°Ķ æĽ¼
è¿ĺ æľī
æīĢ ä»¥
åĪļ æīį
æĿ °
èĹ ı
æİ ī
ç» Ń
è¢ ĭ
é»ĳ èī²
æĸ Ń
æĹ ¥
è¶ ³
éĿŀ å¸¸
ä¾ Ŀ
èĤ¯ å®ļ
åı ¦
ç½ ®
éŃĶ èį¯
éĺ¿ å°Ķ
å¢ ĥ
èī ¾
çģ «
ä¾ §
åį ±
åĹ ¯
åŁ ĥ
é ²
ä» ½
çĦ¶ åĲİ
çģ° éĽ¾
åĽŀ çŃĶ
çķ ¥
æķĻ ä¼ļ
ç ¢
çļĦ éĤ£
åı ĸ
éĿŀåĩ¡ èĢħ
çļĦ æĺ¯
è¡ £
æģ ¶
è¿ ŀ
åĲ Ĭ
åľ° æĸ¹
éĺ¿ èĴĻ
è½ ¦
å· ¦
ä» ª
éĥ¨ åĪĨ
é£ ŀ
ç§ ĳ
åŁ Ł
çĶ ±
çªģ çĦ¶
åĲ §
è¿ ľ
åģ ¶
ç¥ ¨
éĤ£ éĩĮ
åı ³
æĮ ģ
ä¼ ĳ
ç» Ĩ
æĦŁ è§ī
éĿ¢ çļĦ
¨ Ģ
åĬ ŀ
è¡ Ĺ
è ¨Ģ
æŀ ģ
å¿ µ
æ¯ ı
åľ £
ç² ¾
¶ æĢģ
ç¦» å¼Ģ
è¯ ·
å¸ ĥ
éĩĮ åħĭ
èİ ·
èĪ ¹
è¿ Ĳ
å±ŀ äºİ
åİ Ĩ
ä»ª å¼ı
é Ĩ
åĲ ¦
å¨ ģ
ç» ª
è§ Ĥ
è° ĥ
æĸ ĩ
äºĨ åı£
åĩĨ å¤ĩ
å¨ ľ
ç¨ ĭ
åı Į
æĹ ģ
ä» ¿
åĨ ³
æº Ĳ
æħ ¢
ä¸ Ŀ
å¤ «
éĺ¿å°Ķ æĿ°
çŁ ³
æĹ ©
éģ ĩ
åį ¡
åĪ Ŀ
ä¼ Ĭ
ä¼ ł
åĲĮ æĹ¶
åľ¨ äºĨ
è¿ ¹
è¿Ļ ä¹Ī
åĲĳ äºĨ
ç¬ ¦
å¸ Ŀ
éħ į
åį± éĻ©
ç¬ Ķ
äº Ķ
éľ ²
ç¬ĳ éģĵ
æĢ Ģ
æŃ£ ä¹ī
å¼Ģ å§ĭ
èĬ ±
æĬ ¬
å¤§ çļĦ
èĪ ¬
åĩ »
æİ ¨
å ²
ä¸Ĭ çļĦ
æĳ ĩ
åĽ ½
çĪ µ
æĪĲ ä¸º
çĽ® åħī
åĳ µ
æĢ »
çħ §
æ Ĵ
ä¸ ľ
éķ ľ
éĽ ħ
æĪ´ éĩĮåħĭ
0 0
äºĨä¸Ģ åı¥
-------- ----
é¢ Ħ
å® ³
ä¸į åĲĮ
æ¥ ļ
åħ ¬
çİ ¯
ç» Ħ
ä»¿ ä½Ľ
åĢ ¼
åıĺ å¾Ĺ
åº §
æ¡ Į
æĿ Ĳ
æ¸ħ æ¥ļ
è¿Ļ ç§į
äºĨ åĩł
ĠâĢ¦âĢ¦ âĢ¦âĢ¦
ä¼ ¯
æł ĩ
ç± ³
æŃ£ å¸¸
åºĶ çļĦ
ä½ł ä»¬
éĨ Ĵ
å¼Ģ åı£
éĹ ª
åĢĴ åĲĬ
æĻ ļ
ä¸Ģ æł·
å¸ ½
å°ģ åį°
åĨ Ļ
å½± åĵį
Ĥ çļĦ
ä¸Ģ å®ļ
çļ ®
æľ ¯
è° ģ
ç® Ģ
å§Ĩ æŀĹ
åŁĥ å§ĨæŀĹ
æľī äºĨ
æĪĸ èĢħ
åĢ Ł
æ Ĳ
èµ· äºĨ
æĤ ¨
çī¹ æĢ§
éĺ ´
åģ ľ
âĢĻ ï¼Į
å¹ »
è¾¾ å°¼
èī² çļĦ
åĢĴåĲĬ äºº
è¾¾å°¼ åħ¹
Ġ èĢĮ
èİ İ
é¢ Ĩ
éĶ Ļ
å· ´
éľ į
éĢ ı
é ¥
æķ Ī
æ ĵ
æ® µ
äºĨä¸Ģ ä¸ª
æĪĲ åĳĺ
ä¹ ħ
çĤ¹ å¤´
å¿ Ļ
çĶ »
ç¤ ¼
å½ĵ çĦ¶
éģ Ĺ
èĴ Ĥ
è§ī å¾Ĺ
è¡¨ æĥħ
åĽŀ åºĶ
è ĸ
éĺ µ
èĦĳ è¢ĭ
åıª èĥ½
æĪ¿ éĹ´
éħ Ĵ
ä¹ĭ åĲİ
å¼ Ĺ
è ĵ
åı ²
çľĭ çĿĢ
ç« Ļ
äºĨåı£ æ°Ķ
æ¡ Ī
Ġ ä¸į
èģ ļ
æĿ¥ çļĦ
å®ĥ ä»¬
åį ĩ
ä»¶ äºĭæĥħ
èĩª èº«
ç½Ĺ å¡ŀ
èĻ ½çĦ¶
ç½Ĺå¡ŀ å°Ķ
æ· ¡
èĤ ī
çī Į
æį ¢
è¿ °
æĮ ī
åĳ¨ åĽ´
å ŀ
ç¥ Ī
åĨ ·
ç» §
äºº çļĦ
ç ĵ
åįĬ ç¥ŀ
ä¸į å°ĳ
å· ¥
æĬ ķ
ä¹ Į
éĽ ·
æĿ ¾
åĬŀ æ³ķ
å± ķ
å¥½ çļĦ
éĴ Ł
èģ Ķ
ç» Ŀ
åĬĽ éĩı
æĹ §
è¿ĩ åİ»
çĽ Ĺ
ç³ »
é¡ »
å¸Į æľĽ
ä¹Ł ä¸į
å¥³ å£«
ç§ °
èĦ ±
ä¸º ä»Ģä¹Ī
è£ ħ
ç ĳ
åŃ Ĺ
æĦ ¿
ç® ¡
èº« å½±
è¿Ļ ä½į
èİ «
æĿ Ģ
æĭ ľ
çĶ ļ
èĭ ı
è Ń
åł Ĥ
èŃ ¦
æĺ ĵ
çľ ¸
çĸ ¯
å®Į åħ¨
¤ Ĳ
åħ¥ äºĨ
åĴ Ĵ
ç Ĩ
çĥ Ī
å£° éŁ³
ç¤ º
ç ı
åĲ ¸
æİ Ĵ
æķ °
ä½į ç½®
çģ°éĽ¾ ä¹ĭä¸Ĭ
å°± åľ¨
äºĨä¸Ģ ä¸ĭ
æīĢ æľī
çĻ ¾
æĥ Ĭ
æĪĲ äºĨ
âĢĿ ãĢĤ
éĵ ľ
ç¬¬ ä¸Ģ
åĳ ³
æľ į
éĢ ī
æľº ä¼ļ
æİ¥ çĿĢ
ç¿ »
åĨ Ľ
ä» Ĭ
å°± åĥı
ç¾ İ
ä½ ķ
è´ ¨
èĬ Ĵ
çĶļ èĩ³
æľī çĤ¹
å¿ ½çĦ¶
ä½ł çļĦ
åıª æľī
åĸ ľ
èĵ Ŀ
æı ı
è¿ĩ æĿ¥
& #
è¾ ĥ
èĢĮ ä¸Ķ
æ ¨
å Ļ
æį ®
çļĦ ä¸Ģ
å¥ Ĺ
æŁ ĵ
èİ· å¾Ĺ
ä¹Ł è®¸
æľī äºĽ
è ¸
çģµ æĢ§
è¶ ħ
æģ Ĳ
æ¯ «
ä» ħ
åį Ī
ä» ·
çĶ µ
; &#
ä¸į èĥ½
åĮ ħ
æĳ Ĩ
çł ´
é º
æķ £
åı¦ å¤ĸ
åħ ħ
æĺİ æĺ¾
æ ¤
é£ Ł
æĶ ¹
çĻ½ éĵ¶
å¯ »
ä¹Ł æĺ¯
çĭ Ĥ
éĵ ģ
èİ ī
å¾Ĺ åĪ°
çŁ Ń
å¿ħ é¡»
æĦı è¯Ĩ
çľŁ å®ŀ
äº ²
èĩ ´
åİ ħ
å¡Ķ ç½Ĺ
çĮ İ
æľ ¨
çļ ĩ
å» º
æ ½
æĶ ¯
çĽ¸ å½ĵ
éĢļ è¿ĩ
é² ģ
æ¶Ī å¤±
åı ¹
å¥³ ç¥ŀ
å¼ ķ
éĤ£ ä¹Ī
âĢĶ âĢĶ
é¡ ¶
åĲĮ æł·
æĿĲ æĸĻ
éĿŀåĩ¡ çī¹æĢ§
å® ¢
ä¼ Ĺ
è® ®
èµ «
åĳ ¼
åľ Ī
å®¶ æĹı
éĽ Ĩ
å¹¶ ä¸į
éĤ£ äºĽ
å¨ģ å°Ķ
çŃī å¾ħ
è½ ®
ç¬¬ äºĮ
çľŁ æŃ£
æľ¬ èº«
æľ Ł
èĦ ļ
å¹ ½
æ¨ ¡
äº §
ä¼ ¸
éļ¾ ä»¥
å¼Ĥ å¸¸
ç±» ä¼¼
åĨ Ĵ
ä¸Ģ è¾¹
çļĦ åľ°æĸ¹
å® Ī
æĿ ĸ
ç§ĺ åģ¶
ç» ĩ
å¾ Ĵ
ä¸Ģ çĽ´
å¿ĥ éĩĮ
è Ķ
åħī èĬĴ
åı «
è§ ¦
æĥ³ æ³ķ
åĩ Ŀ
èĻ ĳ
å° ¸
éĻ Ħ
æ¶ ²
æ´ ¾
å® ĺ
ä¼ ¤
æ´ Ľ
è¿ ·
çº ¦
è®¤ ä¸º
åŁ º
éĥ½ æĺ¯
ä¸ ĥ
æĹ ĭ
é¢ Ŀ
åıĳ çĶŁ
äºĨ ä¸¤
æ¢ ħ
å° Ŀ
æĭ ħ
å·¨ äºº
æµ ®
çĽ® æłĩ
åİĨ åı²
éĴ ±
çĻ½éĵ¶ åŁİ
åĿ Ĺ
æĸ Ĺ
ä¸į çŁ¥éģĵ
ç¥ Ń
æıı è¿°
åĽ ¢
æī ĺ
é»ĳ å¤ľ
ä»» ä½ķ
æĿ ¿
æ¢¦ å¢ĥ
æ ¦
å¹ ²
åĺ ī
è° ¢
å¯ ¼
ä¸ ¥
çĶŁ çī©
è¯ į
ä» Ĩ
è¯ ģ
å· ®
æĬ ĵ
å°ģåį° çī©
ä¾ ¿
çļĦ æĹ¶åĢĻ
ä½ Ļ
èµ Ħ
çĽ¸ åºĶçļĦ
åħ Ń
ä¹ ±
ç¡® è®¤
èĻļ å¹»
è´ ¹
å° ½
è· Ł
é£İ æļ´
è¯ »
éģ Ń
äºĨä¸Ģ å£°
çĿ ¡
æ¼ Ķ
å¼ ĥ
èĲ ¨
å¸® åĬ©
æ¯ į
æľĢ åĲİ
ä¸½ éĽħ
åĺī å¾·
åĬ ¡
æŃ ¢
åĭ Ĵ
åĺīå¾· ä¸½éĽħ
ç© ¶
åĳĬ è¯
é ¾
å¿ į
ä½ı äºĨ
æĺ¯ ä¸Ģ
éĺ¿ åħ¹
éĺ¿åħ¹ åħĭ
è¿ ½
æĹł å£°
èĬ Ĥ
ç»Ī äºİ
é ½
äº ¡
çº ¯
çĬ ¶æĢģ
åĬ Ł
æĥ ĳ
ï¼Į âĢĺ
çļĦ åħĭèİ±æģ©
æľī ä¸Ģ
çľĭ äºĨ
ĵ æģ©
å¼ Ħ
éĤ ĵæģ©
éĩĮ éĿ¢
èĢĥ èĻĳ
ç»§ ç»Ń
çĨ Ł
é ¤Ĳ
è¯ ¡
çŀ ¬
æķĻ åłĤ
ä¸į çŁ¥
å± ħ
çª Ĺ
æĹģ è¾¹
éļĲ ç§ĺ
è® ²
åŃ Ķ
éĢĶå¾Ħ çļĦ
å°Ŀ è¯ķ
çļĦ æĥħåĨµ
åİ ĭ
æĻ ®
è¿ĩ äºĨ
é»ĳ æļĹ
éļ Ķ
å± ĭ
æ¸ Ĳ
åĲĦ ç§į
éĢ ģ
éª Į
åı ¬
èµ ŀ
è¡ ¥
é©¬ è½¦
äºĨ èµ·æĿ¥
ä¸į è¿ĩ
è¶³ å¤Ł
çº §
åĳĬè¯ ī
çģ ¯
è®© ä»ĸ
éŃĶ æľ¯
æĿ¥ è¯´
å£ ģ
Ġ ä¸Ģ
ä¸į è¦ģ
å¾· æ£®
æ¦ Ĥ
åĩº äºĨä¸Ģ
æµ ĭ
å¾Ī å¤ļ
æµ· çĽĹ
åħĭèİ±æģ© çļĦ
éŃ Ĥ
æ¸ ©
æľĪ ç¥¨
å¿ĥ çĲĨ
å¾Ī å¿«
æ¤ ħ
çŃī åĪ°
æķ ¢
å² Ľ
çļĦ å¤§
åĬ ¿
çĦ °
æ¯ Ľ
åĮº åŁŁ
çİ° å®ŀ
æĻ ¯
é¡ ¾
æ¥ ¼
èį ¡
åĶ ¤
åİŁ æľ¬
çĶ· åŃĲ
éħį æĸ¹
æ ¿
æĿ Ĥ
æĢª çī©
åľ° è¯´éģĵ
ç®Ģ åįķ
èĭ ¦
æĢ ¥
æľĽ åĲĳ
é ¼
ä» ĺ
æĬ ½
Ġè¿Ļ æĺ¯
æĢĢ çĸĳ
è¿Ļ ä¸Ģ
è®© äºº
ä¸į åĨį
Ġè¿Ļ ä¸ª
çľ ī
åı ĭ
æľī ä»Ģä¹Ī
æģ ¢
çľŁ çļĦ
ä¸Ģ çľ¼
çĽ¸ ä¿¡
ä½ľ ä¸º
æĿ Ł
ç²¾ ç¥ŀ
å±Ĥ æ¬¡
ç»Ħ ç»ĩ
çļĦç Ĭ
å°± èĥ½
è´ Ł
é¾ Ļ
çļĦ éĹ®é¢ĺ
æĹ ħ
ä¸Ń çļĦ
åĲ Ĳ
éŃĶæľ¯ å¸Ī
è® º
å¸ Ĥ
æľĪ äº®
¥ æľī
æĺİ çĻ½
åĨ °
åĵ Ī
æīĵ ç®Ĺ
éĩĮ çļĦ
åĵ ¥
æĻ º
åł ¡
æ³ °
æ° ĳ
åı¤ èĢģ
é¡ º
æİĮ æı¡
åı °
æĥ³ åĪ°
æ²ī é»ĺ
äºĭ çī©
æĽ ¾
åıĺ åĮĸ
é£ŀ å¿«
æĺ¯ åĲ¦
ä¾Ŀ æĹ§
çŀ¬ éĹ´
åŃ ©
éĢł çī©
ä¸Ĭ äºĨ
æŀ ļ
çļĦ ç¥ŀ
è¿ Ķ
èµ Ľ
å¼Ģ äºĨ
ç¬ĳ å®¹
åħ¶ ä»ĸ
ä¹ Ŀ
ç¥ ·
æĥħ ç»ª
æ¿ Ģ
åĨ ²
åĢŁ åĬ©
éº »
éĢłçī© ä¸»
åī ©
åĨį æ¬¡
çº ª
çľ¼ çľ¸
ä¸¤ ä¸ª
æŃ¤ æĹ¶
æī ¿
Ġ å°±åľ¨
ä¸ ´
æķ ħ
æĸ¯ çī¹
çģµ çķĮ
æİ§ åĪ¶
è Ľ
ç«ĭ åĪ»
ä¸į åĪ°
éĢ Ĳ
æī¾ åĪ°
ä¸ĭ æĿ¥
æī Ń
éĿ Ĵ
éĤ ª
åĬ ª
ä¾ Ľ
é²ģ æģ©
äºĨ ä¸ª
æĬ Ĺ
è´ µ
çĿĢ ä¸Ģ
çľŁ æĺ¯
ä¹ Ĳ
æĹĭ åį³
çļĦ å£°éŁ³
è¿Ļ äºĽ
å¼ ¹
éĺ ¶
å° Ĭ
è¿Ļ ä»¶äºĭæĥħ
æĪĲ åĬŁ
åĲ «
æī ®
è ł
æŀ ª
æĸ¹ éĿ¢
æ¬ ¢
Ġ åľ¨
ä»Ĭ å¤©
ä¹ °
è¿ ħ
å½ »
äºĨ è§£
æĬ µ
è§ Ħ
å® ¡
è· ³
å¢ Ļ
èĦĳ æµ·
åĪ ¤
åģ ĩ
ç¡® å®ŀ
åĹ ĵ
ä¸» æķĻ
çľĭè§ģ äºĨ
æģ¢ å¤į
æĢĿ ç»ª
éģ ¿
åĪ º
çĽ ĸ
æ® ĭ
åı¬ åĶ¤
æĭ ©
åı³ æīĭ
ï¼ Ľ
ç« ¯
éĻ į
è¿Ļæł· çļĦ
æľĢ è¿ĳ
æ³¨ æĦı
æĬ ¤
ä½¿ çĶ¨
è¿Ķ åĽŀ
è¿ħ éĢŁ
å½» åºķ
çŁ¥ è¯Ĩ
è® ¡
ä¸º äºĨ
åĨħ çļĦ
éĢī æĭ©
åĹĵ éŁ³
æĿ ĥ
æĿ¥ åĪ°
ä¸Ģ æŃ¥
è¯Ŀ è¯Ń
æĻ ĭ
Ġ è¯´
åĪ« çļĦ
èº« ä»½
åıª è¦ģ
æļ Ĥ
é½ Ĳ
æķ ĳ
çľĭ åĪ°
äºĨ åĩºæĿ¥
å®ī éĿĻ
æł ĳ
çģµ ä½ĵ
å¾ ģ
åħĪçĶŁ çļĦ
æ¯ ķ
å Ĥ
åģļ åĩº
åĳ½ è¿Ĳ
æ½ ľ
ä¸į ä½ı
åº ŀ
éģŃ éģĩ
åĶ Ĳ
æķĪ æŀľ
ç ĩ
çļ ±
éģ į
ľ æµĭ
éĻ¤ äºĨ
åħ ´
åİ» äºĨ
å¯Ł è§ī
èģļ ä¼ļ
åĿ ¦
å¡Ķç½Ĺ ä¼ļ
èĩ³ äºİ
æŃ» äº¡
ç³ Ĭ
æĽ¾ ç»ı
ä¸ ĵ
æĽ ²
ä¿ ®
æ± ¡
ç» ķ
éĢ Ģ
æ· ·
è Ĩ
ĠâĢľ âĢĺ
ä¹ĭ çİĭ
æ³° æĸ¯
åĶĲ æ³°æĸ¯
çİ ĩ
äº ī
åĢ¼ å¤ľ
æĻĭ åįĩ
äºĨä¸ĭ æĿ¥
å¤± æİ§
åı ¸
ç§ »
å°± ä¼ļ
å¥¹ çļĦ
åĨĴ éĻ©
è ¹
è½» è½»
å¿ Ĩ
èº« ä¸Ĭ
æŁ Ķ
åĬ¨ çļĦ
ç¼ĵ æħ¢
æİ¢ ç´¢
çļĦçĬ ¶æĢģ
åĢ¼å¤ľ èĢħ
éĩį æĸ°
åĸ Ŀ
éª ¨
å¯» æī¾
èł ķ
ä¸Ģ äºĽ
èĪ¬ çļĦ
åī ¯
éļĲ èĢħ
çĵ ¦
æĺ ı
æĵ į
ä¹Ł å°±æĺ¯
å®Į æĪĲ
ä¸Ģ èµ·
éĩ Ĭ
å± ±
çļĦ ä¿¡
ä¸½ èİİ
åį ·
å®ī å¾·æ£®
è§£ åĨ³
æķ´ ä¸ª
åı Ĥ
çº µ
åħ «
éģĵ æģ©
æĪ¿ å±ĭ
éĻ Ĩ
åħ ±
ä¹ ł
éĹ Ń
ä¸Ģ éģĵ
åĽ Ń
åĪ© çĶ¨
éĢ ĥ
æıĲ ä¾Ľ
åĽŀçŃĶ éģĵ
çı Ń
çĶ ²
åīį æĸ¹
åĺ´ å·´
ç¢ İ
æ²¡ æ³ķ
éĩį è¦ģ
çĬ ¹
ç»ĵ æŀľ
ç¼ ©
ä¸Ģå®ļ çļĦ
æ² »
å¸¦ çĿĢ
ä¸ľ è¥¿
åŀ ĭ
åĩ Ģ
ä¼ Ļ
éĻ Ĳ
ç§ĺ å¯Ĩ
æ²¡ ä»Ģä¹Ī
åĨ³ å®ļ
éĢı æĺİ
P S
å®¹ æĺĵ
æĪĳ æĥ³
ç¥Ī ç¥·
Ġ PS
è± «
æĢĿ èĢĥ
çĽ® åīį
è£ Ĥ
ç»ĵ æĿŁ
åĪ Ĵ
æĪĸ è®¸
ç«Ł çĦ¶
æĹ ¢
å± Ģ
æł· åŃĲ
åı ł
æ´ Ĺ
çĮ Ľ
å Ħ
æķ ²
å¹ ķ
æıĲ åīį
è§Ĩ çº¿
åĵª éĩĮ
è¯ ¢
åĲ¬ åĪ°
åįķ è¯į
è°ĥ æŁ¥
ç¬Ķ è®°
åħ į
æł¹ æľ¬
åħ¶ å®ŀ
é ¬
æĿ¥ èĩª
æĻ® éĢļ
æīį èĥ½
çģ« çĦ°
çĬ¹ è±«
è®¤ çľŁ
çļĦ æīĭ
èĻ «
æĽ´ åĬł
çĹ Ľ
ä¸Ģ éĺµ
ä¸ ĩ
æĦı æĢĿ
è¯ º
è¡¨ çİ°
å° ¾
çº ¹
å¼ ¥
èµ ı
å¤§ å¸Ŀ
é¢ ĩ
éĿŀåĩ¡ èĥ½åĬĽ
åľ¨ å¿ĥéĩĮ
ç¡® å®ļ
çĬ ¶
å¤ļ çļĦ
å¦ ®
åĲ ¯
æĢ ¨
Ġä»ĸ çļĦ
èĩ³ å°ĳ
éĺŁ éķ¿
å® «
åĳ Ī
æ³ ¢
åĶ ¯
æľĢ ç»Ī
åĲ¬ è§ģ
æİ ©
ä¸į éĶĻ
é¡¿ æĹ¶
ä¸ ¾
è· Ŀ
åİ ļ
æĪĲ çļĦ
æł· çļĦ
è¾ Ľ
çĸĳ æĥĳ
çķ¥ æĺ¾
èĸ Ħ
æľī çļĦ
å¼ ±
ä¿Ŀ æĮģ
ãĢģ âĢľ
äº§ çĶŁ
åħ¨ éĥ¨
è¿ĩ ç¨ĭ
è§Ĥ å¯Ł
çļĩ å¸Ŀ
è ķ
å½ Ĵ
æ¸ ¸
ç¨ ³
å® Ŀ
æµ ª
è¡Į åĬ¨
åį³ ä½¿
Ġ å¥¥é»Ľä¸½
çļĦ æĦŁè§ī
çľ ł
âĢ¦âĢ¦ âĢľ
ç¥ŀ çģµ
è¡¨ éĿ¢
èİİ ä¼¦
éĢĲ æ¸Ĳ
éĻ ·
æĳĩ å¤´
å ´
ãĢ Ĭ
ãĢ ĭ
ä¸į çĶ¨
çº¿ ç´¢
æĬ¬ èµ·
æ® ¿
æ¬ ²
æľī çĿĢ
æĶ¶ åĽŀ
åħ· ä½ĵ
å¾ ĭ
æĥ³ è¦ģ
è ľ
åĨħ å®¹
è¿Ļ æ¬¡
æĪĳ ä¼ļ
ä»» åĬ¡
é ¸
å¹ ¸
éĿ¢ åīį
åįłåįľ å®¶
åĺ´ è§Ĵ
çļĦ ä¸»
çĪ ±
æĥħ æĬ¥
åĳµ åĳµ
éĺ´ å½±
åĮ »
è®© æĪĳ
å½ĵ åį³
åħ¶ ä¸Ń
å®³ æĢķ
ä¸ĭ çļĦ
æĸ¹ å¼ı
æºĲ åł¡
å¤§ éĹ¨
çĪ ¶
åĳ ¢
æĿ¥ è¶Ĭ
å¹³ éĿĻ
è¯ ļ
éŃĶ å¥³
è ı
è¶Ĭ æĿ¥è¶Ĭ
æŁĲ äºĽ
å¥ Ķ
èĥ ¸
çĶŁ åĳ½
èĢ ³
æīŃ æĽ²
ä¹ĭ ä¸Ģ
åĨħ éĥ¨
ï¼ Ī
ç¼ º
çĹ ħ
ç¨ĭ åº¦
å¼Ģåı£ éģĵ
åĲ ĥ
åľº æĻ¯
æķ Į
é¦ Ĩ
ï¼ ī
è®¤ è¯Ĩ
æľ Ĺ
æĺ¯ ä»Ģä¹Ī
åį ĥ
è¢ į
æ° ¸
æ¶Ī åĮĸ
æĹ¥ è®°
æĦı å¤ĸ
çģ° çĻ½
å¿µ å¤´
ç¬¦ åı·
åĸľ æ¬¢
æĭħ å¿ĥ
åĶ¯ ä¸Ģ
çľ ·
å¸ ģ
ä¸ĭ äºĨ
å§ Ķ
åĦ ¿
åĩº åİ»
åī §
ç§ĳ æŀĹ
ç¥Ī æ±Ĥ
å¯ Į
åĪĨ éĴŁ
ç©¶ ç«Ł
æĵį çºµ
åģ ·
è¶ £
ä¸ ļ
æ² ¹
å¤´ åıĳ
å¥ĩ çī©åĵģ
ç» ¿
åıį åºĶ
æĥ §
åº Ń
æŀ ¶
èĮ ľ
çĸ¯ çĭĤ
å¤§ æ¦Ĥ
å°¼ å°Ķ
ä¸į æĸŃ
å¤§ éĻĨ
åıĺ æĪĲ
éĺ ħ
ç¼ ĺ
æľĽ çĿĢ
çĲ ĥ
æĿ ¯
ä¾ ¦
å¦Ĥ åĲĮ
åį Ĺ
èĢĮ æĺ¯
è¿Ľåħ¥ äºĨ
é¬ ¼
äºº ç±»
æī® æ¼Ķ
æī §
éļı åį³
å¤ ı
ĠâĢľ âĢ¦âĢ¦
éķ¿ æ¡Į
è´Ŀ å°Ķ
æĪĺ æĸĹ
ä¸» åĬ¨
è®¸ å¤ļ
åĵª æĢķ
è¯¢ éĹ®
ä¸ĭ æĦıè¯Ĩ
åĩł ä¹İ
è§£ éĩĬ
ç¬¦ åĴĴ
æ ĩ
èº ²
åĬ¨ ä½ľ
å®¶ ä¼Ļ
è· ĥ
ç¥ŀç§ĺ åŃ¦
çļĦ èĥ½åĬĽ
å¥½ åĩł
æ¶ Į
å» ¶
éĹ »
ä¸į è§ģ
å¹¶ æ²¡æľī
è¡£ çī©
ç§ĳ å°Ķ
æ¢ħ ä¸½èİİ
çĩ ĥ
é ±
Ġ âĢĶâĢĶ
èĴ ¸
å¥ĩ æĢª
éļı ä¹ĭ
éľ² åĩº
éĻĦ è¿ĳ
ä¾¦ æİ¢
é± ¼
å¸ Ń
äºĨä¸Ģ éĺµ
é¦ Ļ
éĽ¾ æ°Ķ
Ġ å½ĵçĦ¶
å¥½ äºĨ
éĴ ¢
åĿĲ åľ¨
é¢Ĩ åŁŁ
å¿į ä¸įä½ı
ä¸ ¢
æ¼ «
éļ Ļ
è´ ¥
çĤ¹ äºĨ
æ¸ ¯
æ¶ ī
æĮī çħ§
åĽ º
èĪ¹ éķ¿
æ®µ æĹ¶éĹ´
è ĳ
çļĦç ²
ç Ĵ
å¤ĸ éĿ¢
å¯Ĩ æĸ¯
æģ¶ çģµ
ç¬¬ä¸Ģ çĻ¾
åĿ ı
åķ ª
èĲ¨ åħĭ
æ¯ķ ç«Ł
æ¸ İ
è· ĳ
æ³¨ è§Ĩ
å· §
äº Ī
ä¸į å¤Ł
å°ı éĺŁ
éĿł è¿ĳ
ä¸Ģ æĿ¡
æĬ ±
éĴ Ī
åĪ¶ éĢł
è¡Ģ æĹı
äºĨä¸ĭ å¤´
çĲ ³
éĩĮ å®ī
æī «
çĽ® çļĦ
æµ® çİ°
å¿ ĺ
èĩ Ĥ
åĽŀ åĪ°
å¤ļ ä¹ħ
æĻ ¶
çİ°å®ŀ ä¸ĸçķĮ
å» ·
è·Ŀ ç¦»
å®ļ çļĦ
è¸ ª
åį İ
åĩº çļĦ
æ¯Ķ å¦Ĥ
ç¾ ¤
å ©
ä¸į åı¯
çĥ Ľ
æ·± å¤Ħ
èĭ į
è¯ķ åĽ¾
é² ľ
è§Ĥ ä¼Ĺ
äºĨåĩł ç§Ĵ
çļĦ èº«å½±
æŀľ çĦ¶
åº Ĭ
åıĪ ä¸Ģæ¬¡
çİ¯ å¢ĥ
æ¨¡ ç³Ĭ
æ±¡ æŁĵ
ç¬ ¼
åı¯ æĢķ
ä¿¡ ä½¿
éľį çĦ¶
ä» °
èį Ĳ
é¥ °
ä» ĭ
æµ ĵ
å®ĥ çļĦ
æīĵ å¼Ģ
èĦ¸ åºŀ
æľ¬ èĥ½
æ±Ĥ æľĪç¥¨
ç©¿ çĿĢ
çļĦ éĿŀåĩ¡èĢħ
å° ĸ
çģ Ń
çī¹ æ®
å¤Ħ çĲĨ
çī¹æ® Ĭ
æľ ĭ
å¤§ éĥ¨åĪĨ
æµ· ç¥ŀ
è¡Ģ æ¶²
æĶ¹ åıĺ
èĩª çĦ¶
å¾® å¾®
èħ °
æĲ ľ
ä¸į æķ¢
è½¬ èĢĮ
çł °
çĽ Ĵ
é¢ Ķ
Ġ ç´§
èģ Į
æİ¨ èįĲ
æľĭ åıĭ
å¿« éĢŁ
è´µ æĹı
ç´ ł
éĥ½ æ²¡æľī
çĮ ®
çĳ ŀ
èĽ ĩ
Ġ ä¸İ
æ¯« æĹł
å°¸ ä½ĵ
æĤ ł
è®° å¾Ĺ
è ŀ
è¿ ª
æľī äºº
éĻ ħ
æĻ ĥ
æĪ¿ éĹ¨
åĪĿ æŃ¥
çļĦ éĤ£ä¸ª
æĮ ĳ
æİ¥ åıĹ
èĢģ å°¼å°Ķ
ķ è¿¹
åľ° éĹ®éģĵ
ä¸ĭ åįĪ
åıĹ åĪ°
çľ¼ åīį
éĶ ®
çľī å¤´
éĺ ²
æĸ° çļĦ
æĦ¿ æĦı
å®« æ®¿
Ġ çĦ¶åĲİ
æĸ¯ çļĦ
æīĭ å¥Ĺ
æĽ ¿
ç»Ļ äºĨ
çļĦ åĬĽéĩı
ä¸į éľĢè¦ģ
åı¯ æĺ¯
çĥ §
èģĶ ç³»
ä¸ °
äºĨ è¿ĩæĿ¥
ç¬¬ åĽĽ
æī °
æİ¥ è¿ĳ
æĤ ī
è±¡ å¾ģ
èĢħ çļĦ
æİ¥ è§¦
ä¸ĢçĤ¹ çĤ¹
é¢Ķ é¦ĸ
çĥ Ł
åĲ¦ åĪĻ
èĸ ĩ
è¿ Ī
æĭ ¥æľī
æŃ£ æĺ¯
èĥĮ åĲİ
åĽ °
çĤ¹å¤´ éģĵ
å¿ ½
æ¢ ¯
è¿Ļä¸ª æĹ¶åĢĻ
æĹ© å°±
åī ĳ
Ġ å¯¹
Ġ çŃīåĪ°
æĺ Ĥ
çŃī äºº
ä¹ Ķ
æł¹ æį®
ä¼¯ çĪµ
åĽŀåºĶ éģĵ
ä¾ į
æŃ¤ åĲĮæĹ¶
æŃ» ç¥ŀ
ä¹ĭä¸Ĭ å°Ĩ
æľī æīĢ
é¡ µ
ç»ı è¿ĩ
æĪ´ çĿĢ
æĭ¿ çĿĢ
æĬ¥ çº¸
æĭ ¢
æĶ »
éĹ¨ åı£
èį ī
çĥ Ń
é ¥¿
ä¸į å¾Ĺ
æīĭ æĿĸ
å¿ĥ çģµ
çĭ ¼
çº³ é»Ľ
åĪ« äºº
è´Ŀå°Ķ çº³é»Ľ
æī ĩ
åĨħ å¿ĥ
èĭ ¥
çĮ ľæµĭ
æĭ¿ åĩº
åĩºæĿ¥ çļĦ
èŀ į
åħħ æ»¡
åĪ¤ æĸŃ
ä»¥ åıĬ
èĪ ŀ
çŃĶ æ¡Ī
ä»ĸä»¬ çļĦ
èĮ «
åĨĴéĻ© å®¶
å¿ Ĺ
æĹł å½¢
ç¬¬ ä¸ī
åĭ ¾
äºļ çī¹
æļĤ æĹ¶
æĦŁ è°¢
éĶ ģ
éļı çĿĢ
èĮ ĥ
èŃ¦ å¯Ł
çľŁå®ŀ éĢłçī©ä¸»
æĺ¯ ä¸Ģä¸ª
ä¸į å¤ª
æĥ³ äºĨ
æ¬² æľĽ
ç§ ¯
ä¹ĭ éĹ´
å¥½ å¥ĩ
çŀ Ħ
è¿ĩ çļĦ
å¾Ī æľī
ä»Ģä¹Ī æĹ¶åĢĻ
åĸ Ħ
ç¡ ¬
ç±»ä¼¼ çļĦ
é»ĳå¤ľ å¥³ç¥ŀ
æĬµ è¾¾
ä¸Ģ å£°
èĥ½ å¤Ł
çĤ¹ äºĨä¸ĭå¤´
å°Ĩ å®ĥ
çĨŁ æĤī
èĦĳæµ· åĨħ
æľ «
å°± ç®Ĺ
èĥ ¡
çĭ ¬
ç»´ å°Ķ
çĵ ¶
äºİ æĺ¯
å¿ĥ ä¸Ń
çĪ Ĩ
æĪ Ĵ
çİ «
èĤ ¤
åħ³ éĶ®
äºĨ ä»Ģä¹Ī
æ± ½
çĶ» éĿ¢
Ġç´§ æİ¥çĿĢ
åľ Ĩ
éĤ£ æł·
é¢ Ĺ
æĤ ¬
èİī ä¸Ŀ
å ³
åĽŀ äºĨ
éļĲ çº¦
äº¤ æµģ
ä¿Ŀ æĬ¤
é¦ĸ å¸Ń
æĢ» æĺ¯
äºĨä¸Ģ çľ¼
ç½ ©
åĮ Ĺ
éĹª çĶµ
ä¼ ´
å°ı å¿ĥ
è¾¹ ç¼ĺ
æ¢ °
è¡Ģ èĤī
æŁĲ ä¸ª
éŃĶèį¯ éħįæĸ¹
é¥ ¥
éģĹ è¿¹
éĢ Ĥ
å¯¹æĸ¹ çļĦ
è´ £
ç ĺ
é»ĳ çļĩå¸Ŀ
èµĦ æĸĻ
Ġ æĪĳ
é» ¯
åİŁ åĽł
èĹı çĿĢ
äºĨ ä¸įå°ĳ
éĢ Ĵ
æĮ ¥
çİĭ åĽ½
ä¸ ĳ
åħ ľ
ç§ Ł
æķ ı
ä¹ĭ ä¸Ń
çľĭ æĿ¥
åıĳ åĩº
å®ī æıĲ
åıĮ æīĭ
é¼ »
åĪ Ľ
çĿ ģ
æł ĭ
å¥³ çİĭ
å¹´ è½»
ç»´ æĮģ
æĢ ĸ
è´ ´
ç¤¼ å¸½
è¿Ļ æĹ¶
æŃ Į
èĩª è¯Ń
çĥ ¦
éĤ£ å°±æĺ¯
å½ ķ
æĥ³ çĿĢ
éĽ ª
åĽĽ åĳ¨
åĢ ¾
åķ Ĩ
åįĬ ç©º
åįģ åŃĹ
çļĦç² ¾
Ġ æŃ¤æĹ¶
éĺ »
çļĦç Ī
é¥¥ é¥¿
å° ¤
çĤ ¼
æĥ³ è±¡
è° ¨
å¿ħ è¦ģ
æĴ ĳ
æģĲ æĢĸ
çī §
åĸ Ĭ
æ£ ķ
çĮĽ åľ°
æĺ ł
æĸ¹ åĲĳ
ç¦ ı
åħ³ ç³»
æŁ¥ æĭī
æľ µ
ä¼ļ æľī
æŁ¥æĭī åĽ¾
éķ ĩ
æĦı åĳ³
âĢĿ ï¼ģ
äºº åĳĺ
ç»ı éªĮ
ç¾ Ĭ
æģ¶ éŃĶ
æ¶ī åıĬ
åľ¨ è¿ĻéĩĮ
æĦ £
åĲİ ç»Ń
çĶŁ æ´»
å¤ļ å°ĳ
åĮ» çĶŁ
Ġ å¦Ĥæŀľ
Ġ ä¼¦çº³å¾·
æľº æ¢°
äº¤ æĺĵ
ç½Ĺå¡ŀå°Ķ å¤§å¸Ŀ
èĴ¸ æ±½
² Į
è ²Į
åį ĸ
å°ı çļĦ
è£ Ļ
åĩºçİ° äºĨ
ä¸Ģ ç§į
è¯ ¯
çº¢ çļĦ
æĸ ĳ
çľ¼ éķľ
å¦Ĥ æŃ¤
æĭ¿ èµ·
çľ· èĢħ
è¯´ è¯Ŀ
ç¬ĳ çĿĢ
åŃ¦ æ´¾
çļĦ ä½įç½®
å¤©ä½¿ ä¹ĭçİĭ
åĴ ķ
æĥ³äºĨ æĥ³
å°Ĩ çĽ®åħī
å·¨äºº çİĭ
æĢ¨ éŃĤ
éĺħ è¯»
Ġä¸İ æŃ¤åĲĮæĹ¶
ä¸Ģ åı¥
éĤ£ ç§į
çº ·
é¢ ľ
Ġè¿Ļ æĹ¶
éħ ¬
æħ İ
å¤« äºº
è·Ł çĿĢ
å° Ħ
çļĦéĤ£ äºĽ
åį §
çİ ©
ä¾§ å¤´
èĦļ æŃ¥
ä¸Ģ åĪĩ
èĦ¸ ä¸Ĭ
ç¿ ¼
ç»Ŀ å¯¹
æ² ¿
ä¹ĭ ç¥ŀ
è¯Ń æ°Ķ
è¶ħ è¿ĩ
Ġ ä½Ĩ
äºļ å½ĵ
æ² ³
å¹ ¿
å¤§ åľ°
æĸ¹ éĿ¢çļĦ
åĩł ç§Ĵ
çª ĥ
æ» ´
æ¶Ī æģ¯
çľŁæŃ£ çļĦ
åĵ¥ åĬª
å®īæıĲ åĵ¥åĬª
ä¸Ģ æł¹
éĿ¢ å¯¹
è¯´ æĺİ
é«ĺ åºıåĪĹ
å¥¥ å°Ķ
ä» Ķ
æĪĳ æĺ¯
äºĭ ä»¶
æ´ ĭ
åĻ ¨
åŃ© åŃĲ
å·¨ é¾Ļ
æŁĲ ç§į
ç» ĥ
æĶ¾ å¼ĥ
ä½İ æ²ī
çģ ¾
å¯¹ åºĶçļĦ
å§ ¿
åĿ ļ
æľĽ äºĨ
è½» æĿ¾
éļ¾ éģĵ
å¼º èĢħ
è¯¡ ç§ĺ
éĿ¢ åħ·
è¢ Ń
æıĲ éĨĴ
åĩł ä¸ª
è¯¥ æĢİä¹Ī
æĢ Ķ
ä¹Ł æľī
çİ¯ é¡¾
å»· æł¹
æİ¨èįĲ ç¥¨
æĹħ è¡Į
è¿Ļ å°±æĺ¯
æĿ¥ äºĨ
æ¸ħ æĻ
éª ĳ
ä¾Ŀ éĿł
çĳ °
çĥĪ çļĦ
µ æ¸İ
äº µæ¸İ
çİ Ľ
æĳ ¸
ä»£ è¡¨
00 0
èľ ¡
æĶ» åĩ»
Į çĿĢ
ç»ı åİĨ
èĮ ¶
æĪĺ äºī
éĿĴ éĵľ
è ļ
æ´ ģ
å¼Ĺ èĲ¨åħĭ
çİ« çĳ°
æĺ¯ çļĦ
åľ° éĿ¢
èĢģ å¸Ī
åĪļæīį çļĦ
æĲľ éĽĨ
èĮĥ åĽ´
çļĦç Į
åľ Ł
åĩ ¸
åº Ħ
åŃĲ å¼¹
å°ı ä¸ĳ
åł Ĩ
ç¥ŀ å¥ĩçī©åĵģ
å¤ĸ çļĦ
éĩĳ ä¼ļ
åĳĪ çİ°
ä¸Ģ æĿ¥
æĺ¯ åĽłä¸º
æĥ ¯
ä¹ĭ ä¸»
è¦ Ĩ
ä¸Ń å°Ĩ
éĻ ¢
åģļ ä»Ģä¹Ī
åıĺ æĪĲäºĨ
æľª æĿ¥
å®īæıĲåĵ¥åĬª æĸ¯
ç©º éĹ´
æºĲ äºİ
é£Ł çī©
èłķ åĬ¨çļĦ
ä¸Ĭ éĿ¢
æµ ħ
æ¬ §
Ġä»ĸ ä»¬
çļĦç ĸ
æĬ¥ éħ¬
è°¨ æħİ
ħ åĴĴ
è¯ ħåĴĴ
è¿Ļ çīĩ
æ²¡ èĥ½
åĽł æĸ¯
è¿Ľ è¡Į
Ġå°±åľ¨ è¿ĻæĹ¶
çıŃ æ£®
å§Ķ æīĺ
âĢĿ ãĢģâĢľ
æľī æķĪ
ä¼ Ł
è® ¾
æ´ ŀ
æł¼ å¨ģå°Ķ
å½ĵ åĪĿ
èµŀ æł¼å¨ģå°Ķ
ä¸Ģ çīĩ
è¿ĺ èĥ½
å¾® ç¬ĳ
åħ´ è¶£
ä¸Ģ å¼ł
åģ ı
é¢ ¤
èĭį çĻ½
éĹ ²
å¯ Ħ
èµ ¶
åĲį åŃĹ
ä¸įåĲĮ çļĦ
ç¬¼ ç½©
åħ ¸
åĵ ¨
é£ ĺ
åľ£ èĢħ
èķ ¾
ä¸¤ ä½į
å¸® å¿Ļ
éľį å°Ķ
Ł éħ
ä¸Ģ ç§Ĵ
æĸ Łéħ
éģ ®
æ² Ļ
å± ¿
æı ī
æıĲ çĿĢ
æ» ļ
å²Ľ å±¿
èľ¡ çĥĽ
ç» ¯
çŃ ĳ
åĽł èĴĤ
èµ° äºĨ
æĺ¾ å¾Ĺ
è¡Ĺ éģĵ
å®ŀ åĬĽ
æħ ¨
çļĦ æĹ¶éĹ´
åĪ° è¿ĻéĩĮ
å½ĵ æĹ¶
æĬĬ æı¡
ç»Ĩ èĬĤ
ä¹ĭ åľ°
å¦ ¹
Ġè¿Ļ ä½į
è®° å¿Ĩ
éļı æĦı
ä»Ķ ç»Ĩ
æĦ ķ
æĶ ¿
æĺ ¨
åº ·
æĬ ĸ
å°ı æĹ¶
æ¼ Ĩ
å®¡ è§Ĩ
åĲ ¹
å® ģ
çĤ ¸
å¿ĥ æĥħ
æ¯Ķ è¾ĥ
å¿ħ çĦ¶
åºĶè¯¥ æĺ¯
èĩªèº« çļĦ
ä¼ ª
åľ¨ éĤ£éĩĮ
åľ° ä¸ĭ
åĽŀ èį¡
ä¸į ç®¡
æ¼Ĩ é»ĳ
æĥ ľ
æĹ¶ èĢĮ
ä¹Ł æ²¡æľī
ç¼ ł
è® ¨
æ± Ģ
ç¢ °
æĵ ħ
æģĲ æĥ§
ä¸¥ éĩį
é¢ĩ ä¸º
æķĮ äºº
åĲ ĵ
ä¹Ł æ²¡
çī¹ èİīä¸Ŀ
åĪĨ åĪ«
äºĮ åįģ
å»º çŃĳ
åıĪ ä¸Ģ
çº¸ å¼ł
æĬķ åĲĳäºĨ
æ·± çº¢
æİ¥ ä¸ĭæĿ¥
æħ §
åĥı æĺ¯
æĶ¶ èİ·
åĬª åĬĽ
Ġ å®ĥ
æľī åħ³
çļĦç ¾
ä¿¡ å¾Ĵ
ç¥Ĥ çļĦ
åħ¬ åı¸
è¾ĥ ä¸º
æĻº æħ§
æ¯ ģ
å¤± åİ»
æĪ ı
ä¹Ł èĥ½
å¢ ĵ
æĦ Ī
ç½ ķ
åį§ å®¤
çļĦ åĬŀæ³ķ
çļĦ åħīèĬĴ
çļĦ æł·åŃĲ
ç» Ł
éļ Ĩ
æīĢ åľ¨
åį³ å°Ĩ
é»Ħ éĩĳ
æĪ¿éĹ´ åĨħ
æĳĨ èĦ±
ç¦»å¼Ģ äºĨ
è¡¥ åħħ
çļĦ ä»ĸ
æĹ¶ ä»£
ä»¥ ä¸º
éĥ½ æľī
æ°Ķ æģ¯
èİ« éĩĮ
çī Ļ
ä½ĵ åĨħ
èĭ ¥æľī
ç» į
éķ ¶
ä¾ µ
çº³ æĸ¯
å¼Ĺ åħ°
ä»ĭ ç»į
è¿ «
ä¸Ģ ä»¶
åĪ° çļĦ
åŃĲ çĪµ
ç® ±
å² ģ
æĢ Ĵ
æĬ ĺ
åīį å¾Ģ
æ» ĳ
å¿ĺ è®°
èłķåĬ¨çļĦ é¥¥é¥¿
Ġ éĺ¿å°ĶæĿ°
è¯ µ
æĪĳ æľī
çĽ ĺ
å°Ķ çī¹
çļĦç Ĺ
è®° å½ķ
ç² Ĺ
Ġè¿Ļä¸ª æĹ¶åĢĻ
è¿ Ł
åĲ ŀ
è® ¿
éĽ ķ
æ¯« ä¸į
çĤ¹äºĨ çĤ¹å¤´
ç¬¦ åĲĪ
éĵľ åĵ¨
æī ¬
æ²¡ åĨį
å¤§ åİħ
è´ Ń
ä¸» è¦ģ
å¤± è´¥
èģ Ĭ
èħ ¾
è¶ħ åĩ¡
» çĴ
¾ çĹħ
çİ »çĴ
è¯´ ä¸į
éĥ½ ä¼ļ
åĿ Ģ
è½»è½» é¢Ķé¦ĸ
çĲ³ å¨ľ
çİ»çĴ ĥ
Ġ ä½Ľå°ĶæĢĿ
ä¹ ı
ä¹ ĺ
èĢ Ģ
å¯¹ éĿ¢
èµ· èº«
éķ¿ è¢į
ä¿¡ ä»°
éĴ »
éĩĳ å¸ģ
åı¥ è¯Ŀ
Ġä¸į è¿ĩ
äº «
ä¸į ä»ħ
ç§ ģ
éĽ ¨
éĥ ģ
ç»Ļ äºĪ
åı¤ ä»£
èī¾ å°Ķ
çļĦ çī©åĵģ
åľ¨ æĦı
æĥ ¨
æĭ ĸ
ä½ł æĺ¯
éŃĶ æ³ķ
å¤± åİ»äºĨ
ä¼¤ å®³
Ġ èĻ½çĦ¶
åĬ ³
åĳ Ĩ
å¤§ å®¶
å®ī åħ¨
èħ ¹
èħ ¿
éªĳ å£«
åĽłèĴĤ æĸ¯
ĩ ä½
ä¸į åı¯èĥ½
éĵ¶ çĻ½
èĤ¯å®ļ ä¼ļ
åı¹ æģ¯
èİ«éĩĮ äºļ
ä¸Ģ æĹ¶
ä¸į å¤ļ
ç» ľ
æİ ı
æ¬ £
ç½Ĺ å¾·
æĭī ç½ķ
äºļ ä¼¯
æĭľ æľĹ
ä»· åĢ¼
è¯¡ å¼Ĥ
çļĦæĥħåĨµ ä¸ĭ
åıĤ ä¸İ
äºļä¼¯ æĭīç½ķ
ä¸Ĭ å°Ĩ
å·¦ åı³
èĭı èĮľ
æ·· ä¹±
äº Ĵ
èĩª æĪĳ
åı¯ æĥľ
æīĢ æĢĿ
çļ® èĤ¤
éĺ¿åħ¹åħĭ åħĪçĶŁ
å½ ©
çĽ¸ åħ³
çĽ´ åĪ°
èµ° åĲĳ
éĩ İ
ä¹ĭ èĻ«
å¥³ æĢ§
çĽ¸ å¯¹
åł ķ
è§Ĵ èĲ½
¥ æ´Ĺ
± ä¹Ĳ
çĽ ¥æ´Ĺ
ä¸ľ åĮº
èĶ ½
æĬĵ ä½ı
è´Ł è´£
çİ«çĳ° åŃ¦æ´¾
è¦Ĩ çĽĸ
çļĦ æĥ³æ³ķ
çļĦ è¯Ŀè¯Ń
åį ļ
å¼ ¯
é© ³
å½¢ è±¡
åĲĲ äºĨåı£æ°Ķ
æĺĤ èµĽ
ä¸Ģ åĲį
å® ½
æģ į
åľ¨ è´Ŀåħĭåħ°å¾·
çĽ ĳ
è½ ¯
å¼º è¡Į
çķĻ ä¸ĭ
æŀģ åħī
åĭ¾ åĭĴ
çĽ¥æ´Ĺ å®¤
èĢ Ĳ
æĭ Ľ
å¯¹ æĬĹ
åıª è§ī
éĺ¿ ç½Ĺå¾·
è¯Ń è¨Ģ
æĪ´ èİī
æķħ äºĭ
åĴ ³
åľ° åĽŀçŃĶéģĵ
ä¸įæĺ¯ å¤ª
è®® åĳĺ
ä¹ł æĥ¯
åłķ èĲ½
æĺĤèµĽ æ±Ģ
éĤ£ çīĩ
ä¸ī ä¸ª
éļĲ èĹı
å·¥ ä½ľ
æľŁ å¾ħ
æ°´ æĻ¶
æķĻä¼ļ çļĦ
å·¦ è½®
èİ« åĲį
è¿· éĽ¾
Ġ èĩ³äºİ
ä¸Ģ åıª
è¯ ¦
éĤ£ æĺ¯
æĬ ¹
çī¹ æĭī
å¾Ī åı¯èĥ½
ä½ľ çĶ¨
æĺİçĻ½ äºĨ
æŀģåħī ä¼ļ
çļĦ åŃĺåľ¨
æŃ£ åľ¨
åİŁ å§ĭ
èħ Ĳ
æ´Ľ åħĭ
æĹ ¦
æĪĳ å°±
éĤ£ å¼ł
æĭ į
ä¹Ł ä¼ļ
è¡¨ ç¤º
å¸ķ åĪĹ
æĦıåĳ³ çĿĢ
è¿ĺ æľª
è° ĭ
ç»Ļ ä½ł
çĬ ¯
æĿ¾ äºĨåı£æ°Ķ
èĻļå¹» çļĦ
èĭ¥æľī æīĢæĢĿ
© çĮİ
ç¬ĳ äºĨä¸Ģå£°
å®Į æķ´
åĳ¨ ä¸Ģ
å·¦ æīĭ
è®¡ åĪĴ
1 0
çļĦ å°ı
âĢĿ âĢ¦âĢ¦
æľī æ²¡æľī
ä¼ļ ä¸įä¼ļ
æĭ ¬
æı Ĵ
æ¯ Ĵ
æĦı ä¹ī
æıĲ åįĩ
åĽł æŃ¤
æ²ī éĩį
å·¨ å¤§
éħĴ åĲ§
èµ« å¯Ĩæĸ¯
çļĦç²¾ ç¥ŀ
å¸ķåĪĹ æĸ¯
äºĨä¸Ģ éģį
éĻ µ
æħ Į
ä¹Łå°±æĺ¯ è¯´
è¿ĩç¨ĭ ä¸Ń
æĩ Ĥ
çļĦ æĪĲåĳĺ
å®ī æİĴ
ç»Ļ æĪĳ
éķľ åŃĲ
¹ ģ
ä¸į ç®Ĺ
ç¼ Ŀ
åľ° åºķ
æķ ¬
å½ ¼
åĽŀ åĪ°äºĨ
æĦŁ åıĹ
éĩį å¤į
æĭ¿ åĪ°
åĪ© äºļçī¹
ä¼Ĭ åĪ©äºļçī¹
å±ķ å¼Ģ
äºº å½±
è¿ĺ å¥½
èĦ ı
è®° ä½ı
å¸¦ æĿ¥
åĪ ·
åĴ ļ
æķ Ľ
å¯¹ åºĶ
åĽŀ æĥ³
æľĽ åĲĳäºĨ
å¼º å¤§
ç¬¬åĽĽ çºª
æĪ ·
æŀ Ĳ
æ³ ½
è®© å¥¹
åŁ ĭ
åŁİ å¸Ĥ
å¡ŀ å°¼
é»Ħ æĺı
æĬķ å½±
å¯¼ èĩ´
çº§ å°ģåį°çī©
å¿ĥçĲĨ çĤ¼
é¢ľ èī²
Ġ è§ģ
å°Ķ ä¹Į
åĵ Ĵ
åħ° å°Ķä¹Į
çľĭäºĨ çľ¼
éº» çĥ¦
å¡ŀå°¼ å¥¥å°Ķ
çĿĢ çļĦ
è¿ĺ æ²¡æľī
åĮ Ļ
åĿ ł
åĳ¨åĽ´ çļĦ
æ¶² ä½ĵ
å¹ ħ
çĦ ¦
è¿ĺ åľ¨
è§ģ è¿ĩ
æĹł è®º
æĤ Ħ
è½¬ èº«
çł ģ
ä½ł åı¯ä»¥
åĽŀ å¿Ĩ
å¾Ī éļ¾
åĲ¬ å¾Ĺ
åħ° æ¯Ķ
åĲĪ ä½ľ
äºļ å§Ĩ
ä¹ĭåīį çļĦ
å¸½ åŃĲ
æĭľ äºļå§Ĩ
å¤ı æ´Ľåħĭ
èİ«éĩĮäºļ èĴĤ
ç £
Ġ ä¼ĳ
çľĭ èµ·æĿ¥
è¦ģ æ±Ĥ
è¯´ è¿ĩ
çĸ ¾çĹħ
æĢĢ çī¹
æĵ ¦
èµ« æ¸©
å¿ĥçĲĨçĤ¼ éĩĳä¼ļ
çī Ī
å¯¹ ä»ĺ
æŀ Ħ
åıĳ å±ķ
èĤ ¡
é©¬ éĩĮ
ç¥ŀç§ĺ å¥³çİĭ
æİī äºĨ
æ ¹
æī İ
éĿĻ éĿĻ
çĸĳ éĹ®
ä¾¿ å£«
éĻį ä¸´
å¦® çī¹
èķ¾ å¦®çī¹
è¯µ å¿µ
çļĦ è¡¨æĥħ
ç¼ ĩ
æĽ´ å¤ļçļĦ
éģĩ åĪ°
åĮħ æĭ¬
åı« åģļ
é©¬éĩĮ å¥ĩ
ä¼ ĺ
æĭ ³
ä»¥ åĲİ
æĮ º
åħĪ æĺ¯
èĤ ļ
æĽ´ å¤ļ
æĶ¾ æĿ¾
åħ· å¤ĩ
éģĹ çķĻ
Ġ åĽłä¸º
æł¼ æĸ¯
å¥³ ä»Ĩ
è¿Ľ æĿ¥
åĶ ĩ
ç²¾ çģµ
æĬ¬ å¤´
èµı éĩĳ
äºĨä¸Ģ åľĪ
åıª åī©
éľ ĩ
æľ¬ ä½ĵ
æĺİæĺ¾ çļĦ
æĹħ é¦Ĩ
å°Ĭ åĲį
æĹ¢ çĦ¶
åĩº äºĨä¸Ģä¸ª
éĢļ çģµ
å´ ©
ç ¹ģ
æĺ¯ è°ģ
éģĵ è·¯
åİ ī
åĲİ éĿ¢
è¿ĺ æ²¡
ä¸Ģä¸ª ä¸ª
æµ· æ´ĭ
çª ¥
è ĺ
çļĦ çľ¼çĿĽ
åĴ ¬
éĴ ¥
çĭ Ĺ
å§ĭ ç»Ī
åŀ Ĥ
çļĦ é£İ
å¹¶ ä¸Ķ
å°¼ ç§ĳå°Ķ
æĦ¿ æľĽ
éº ¦
ç¼ĩ å°¼ç§ĳå°Ķ
çļĦ æľºä¼ļ
ä¸Ģ åľĪ
äºĨä¸Ģ çĤ¹
åĽŀ æĿ¥
æŁ ±
å¤ª å¤ļ
å¼Ħ æ¸ħæ¥ļ
å¼Ĺåħ° åħĭ
Ġ æĪ´éĩĮåħĭ
æĿ İ
æĬ «
æĸ¯ å¾·
âĢĻ ãĢĤâĢĿ
ç½Ĺ äºļ
é© ±
å·¨ å¤§çļĦ
è¿ľ å¤Ħ
èı ĩ
ç¼º ä¹ı
å½¼ æŃ¤
Ķ ç©¶
äºĽ è®¸
çĽ´ è§ī
åĥ µ
ä¼ĳ æģ¯
å¼ĥ ä¹ĭåľ°
è¹ ¬
èĺ ĳ
éĴ¥ åĮĻ
ç½Ĺäºļ æĸ¯å¾·
åĨ ¥
æµ· æŁĶ
åĬł åħ¥
ç´¢ ç½Ĺäºļæĸ¯å¾·
èĺĳ èıĩ
çļĦ äºĭçī©
ä¹ĭ çº¿
å¤§ æµ·
ç´ ¯
éŃĶ éķľ
èĭı åĭĴ
æµ·æŁĶ å°Ķ
ä¸į æĥ³
å¥¹ ä»¬
éŃĶ çĭ¼
åĺ ²
å¤Ħ äºİ
æĶ¾ ä¸ĭ
çŀ Ĵ
ç®¡ å®¶
çĮİ äºº
ä¼¸ æīĭ
æķħ æĦı
çĹĽ èĭ¦
æ¸ħæĻ °
ç»¯ çº¢
çļĦ æĸ¹å¼ı
å¤ ¹
èº« ç©¿
éĺ³ åħī
é½Ĳ æŀĹ
ä¼ª è£ħ
è ¤Ĳ
æĺ¯ åľ¨
ç¥ ĸ
å¾· å°Ķ
æł¼ ç½Ĺå¡ŀå°Ķ
å°ĳ å¥³
å¥ĩ è¿¹
åĲĦ èĩª
¤ æ°Ķ
é ¹
åĩ Ń
ç¥ŀ å¼ĥä¹ĭåľ°
çģµ æĦŁ
åģļ äºĨ
è¯Ŀ éŁ³
èĦ¸ åŃĶ
æĺŁ æĺŁ
åĳ³ éģĵ
å¢Ļ å£ģ
å®Ŀ çŁ³
ä¸Ģ æĹ¦
å¼Ĥ åıĺ
ç² ¹
çº¯ ç²¹
è¿Ļä¸Ģ åĪĩ
å³ °
å¯ Ĵ
æĭ ¥
çľĭ åĲĳ
éĶ Ĳ
æĢİä¹Ī æł·
æŀģ ä¸º
è´Ł éĿ¢
éĺ¿ç½Ĺå¾· æĸ¯
æĿ¥ åĪ°äºĨ
è½ °
çĲĨ è§£
åĲį ç§°
çŀ ³
æĳĩ äºĨ
ä¿ĿæĮģ çĿĢ
æĦĪ åıĳ
åį «
äºº çī©
æ» ŀ
çĭ ©çĮİ
é»ĳèī² çļĦ
å ļ
ä¼ į
æī £
èĢĮ è¨Ģ
ä¿ ±ä¹Ĳ
æŁ Ħ
å½ĵ åīį
âĢ¦âĢ¦âĢĿ âĢľ
è¿ĳ ä¹İ
æ¸ħ éĨĴ
åİŁ åľ°
çĶ· çĪµ
æĺŁ ä¹ĭä¸Ĭå°Ĩ
æļ´ éľ²
èī¾ ä¼¦
æ´Ľ èĸĩ
éĿĴéĵľ éķ¿æ¡Į
ä¿±ä¹Ĳ éĥ¨
æ´Ľèĸĩ éĽħ
ħ å£«
è¯ §
è¯ ±
ç» ħå£«
åº Ł
æģ¢å¤į äºĨ
åįĹ å¤§éĻĨ
ä¾į èĢħ
çļĦ çĶ·åŃĲ
æī ĳ
éĤ£ åº§
å¾Ĺ åĪ°äºĨ
åĪĨ èº«
èĪ Ĵ
ä¸į äºĨ
è¡ ¬
æĬ Ģ
èĤ ĥ
éĩĳ å±ŀ
ç± į
ç©º æ°Ķ
æī¿ åıĹ
å¹¸ è¿Ĳ
è¯§ å¼Ĥ
èĤ ©
åħ· çİ°
çĻ½ èī²
ç¼ĵ ç¼ĵ
å¹² æī°
æĹģè¾¹ çļĦ
è¯¦ ç»Ĩ
Ġ è¾¾å°¼åħ¹
æĦŁ åı¹
éĢŁ åº¦
èĬ± çº¹
èĶ ĵ
è¶³å¤Ł çļĦ
åĵĪ åĵĪ
æ¼ Ĥ
å®īæıĲåĵ¥åĬªæĸ¯ å®¶æĹı
ä»ĸ åľ¨
æĪĳ å·²ç»ı
åľ° ä¸Ĭ
éĥ½ æ²¡
è¡Į ä¸º
æľª å¿ħ
ä½İ å£°
åĺ´ åĶĩ
åı¹ äºĨåı£æ°Ķ
å°½ å¿«
çļĦçĪ ¶
ä¸ ĺ
æģ Ĵ
è½ ½
æīĭ ä¸ŃçļĦ
ç½ ĳ
è¶ ģ
æīĵ éĩı
å¤į æ´»
éķ ĸ
è¿Ľ åİ»
ä¸Ģ åĪ»
å¯ Ŀ
åĲİ çļĦ
äºĨä¸Ģ éģĵ
æĺŁ è¾
èī¾ å¾·
æĿĥ æĿĸ
éĴ¢ ç¬Ķ
èĮ« çĦ¶
åľ¨ ä¸Ģèµ·
ä¹Ł å°±
çŃī äºİ
æ± ĩ
ä¸» äºº
èĪ ª
éª Ĺ
åĲ¸ äºĨåı£æ°Ķ
é¤Ĳ åİħ
éĻµ å¯Ŀ
Ġ åŁĥå§ĨæŀĹ
ç»ı å¸¸
ä¿Ŀ éķĸ
çº¸ äºº
èī¾ è¾Ľ
ä¸Ģ æ®µæĹ¶éĹ´
æĬ ¢
åĽŀ åİ»
å¤ª å¤ª
æĳĩ æĻĥ
å»º ç«ĭ
èī¾è¾Ľ æł¼
ãĢĤâĢĿ âĢľ
åīį è¡Į
è¢« äºº
å¸ĥ ç½®
æĪĲä¸º äºĨ
èĦ± ç¦»
åĶ¯ä¸Ģ æĢ§
å «
äºĨ è¿ĩåİ»
æĪĳ åı¯ä»¥
éĤ ¦
å¿ §
ç¥ŀ çļĦ
äºĨä¸Ģ äºĽ
å¾· ç»´å°Ķ
æīĭ æĮĩ
å¤ļ éĩĮå®ī
æĺİ å¤©
åħ¶ ä½Ļ
æīĢæľī çļĦ
åĩĿ åĽº
çģµä½ĵ ä¹ĭçº¿
å°ĨçĽ®åħī æĬķåĲĳäºĨ
èļ Ģ
åºĦ åĽŃ
ä» ¤
ä¸ĭ æĸ¹
ä½į æł¼
æ²¡æľī ä»»ä½ķ
æĮ Ĥ
é¡ ¹
ä¸¤ äºº
çĥ Ĥ
åĺ ¶
è¿Ľ äºĨ
åĤ ¬
æĳĩäºĨ æĳĩå¤´
è¿Ļ æĸ¹éĿ¢
å¥ ĳ
ä¹ĭ çľ¼
æī¾ åĪ°äºĨ
å¥ĩ å¼Ĥ
è¯Ŀ é¢ĺ
è£ ¹
æī ¯
åľ° çľĭçĿĢ
å¼Ģ åĲ¯
éĽ ¶
çĻ »
åģļ çļĦ
çł´ åĿı
æĵħ éķ¿
åħ°æ¯Ķ æĸ¯
çļĦ é»ĳèī²
çļĦ åĨħå®¹
çģµ è§Ĩ
¯ å¨ľ
æ³ ¥
éĽ ¯å¨ľ
çĽ¸ åºĶ
åĪ¶ ä½ľ
å¤§æ¦Ĥ çİĩ
èī¾å¾· éĽ¯å¨ľ
ç ¯
Ġ æİ¥çĿĢ
çļĦ é«ĺ
ä¼ ı
åĴ ĸ
æĭ Ĵ
èº º
ç¬ĳ äºĨ
èĥ Ģ
æ±Ĥ æİ¨èįĲç¥¨
çĹ ķè¿¹
çŁ³ æĿ¿
æŃ£å¸¸ çļĦ
ä»ĸ æĺ¯
éĩ ĩ
çī Ľ
æŃ ¦
æĦŁ æħ¨
åķ ¡
æį ı
å·¨äººçİĭ åºŃ
åĴĸ åķ¡
è´ ¢
å°Ĩ åĨĽ
å µ
Ġ ä½ľä¸º
ç» ·
æĪĳ åľ¨
åĲĮ ä¼´
çļĦç ĥ
èį¯ å¸Ī
è§īå¾Ĺ èĩªå·±
éľįå°Ķ ä¼¯çĪµ
åħ°å°Ķä¹Į æĸ¯
èµ ¤
å°± è¿ŀ
è¾ ¨
åħ¥ åı£
æľĢ åĪĿ
çł Ķç©¶
åĩ Į
è¯ ¸
é» İ
éĺ ģ
ä»¥ åīį
ä¿¡ æģ¯
ä½İ è¯Ń
çŁŃ æļĤ
çļĦ åĲĮæĹ¶
è¡ ¡
å°± åı¯ä»¥
æ¬ ¾
å¾Ī å¥½
æĻ ¨
åĲĳ çĿĢ
åįģ äºĮ
åıĳçİ° èĩªå·±
é¢Ŀ å¤´
çªĥ åıĸ
è¯´ä¸į å®ļ
è¿Ļ ä¸įæĺ¯
åĳ ĵ
é«ĺ çļĦ
å°¼ æĸ¯
æ£ Ģ
çĸĳ ä¼¼
ä¼¸ åĩº
åĲ¯ ç¤º
çļĦ å½±åĵį
å¾ ½
æĬ ¿
è¦ģ æĺ¯
éĥ½ åľ¨
éĥ½ èĥ½
æŃ£ è¦ģ
æĤ ²
æļĹ ä¸Ń
éļı æĹ¶
å¹´ çļĦ
æĢģ åº¦
æ¯ı ä¸ª
ä¸Ĭ æ¬¡
åĽŀ å½Ĵ
å¤ĸ å¥Ĺ
ç¥Ń åı¸
æ®ĭ çķĻ
åģļ åĩºäºĨ
å°¼ äºļ
ç»ĵ åĲĪ
æĴ ŀ
è¢Ń åĩ»
éķ¶ åµ
æĦ §
ï¼Ł âĢľ
æĢĿ ç´¢
å¾Ģ ä¸ĭ
å¤į æĿĤ
éĢł æĪĲ
ä¹¦ åĨĻ
ä¾Ŀ çĦ¶
ç«Ļ åľ¨
è§Ħ åĪĻ
ä¸įå¾Ĺ ä¸į
Ġ éĤĵæģ©
å¤§ å¸Ī
è¦ģ ä¹Ī
æĥ³ åĪ°äºĨ
å¼Ģ éĹ¨
åĩł ä½į
ç² ī
åİī å®³
åĩ ĳ
åº ľ
æĸ¯ åŁº
éĻ© äºĽ
ç´¢ æĸ¯çī¹
å¤« æĸ¯åŁº
ä¹Į çī¹æĭī
çĳ Ł
åıĤ åĬł
çļĦçĮ ľæµĭ
æĦķ çĦ¶
ä¹Įçī¹æĭī å¤«æĸ¯åŁº
Ġ åĳ¼
ä¸į å¯¹
å®ŀ éĻħ
ä¸¥ èĤĥ
èĭ¥æľīæīĢæĢĿ åľ°
æĺŁè¾ °
çļĦ åħī
å¸ ĺ
åº ĵ
ç¥ŀ è¯Ŀ
è¾¾ åħĭ
ç¨ į
åįķ çīĩ
åĭ ī
åģľ é¡¿
å¼Ĺ èİ±
åĴĴ æĸĩ
æ½ ®
æ²Ļ åıĳ
ä¸į æ¸ħ
å¼ Ł
å°Ķ æĸ¯
èĩª è¡Į
ç« ĸ
åĩł å¤©
æĪĳä»¬ çļĦ
ĸ åŃĲ
æī Ķ
ãĢģ âĢĺ
æ´ Ĵ
å¼º çĥĪçļĦ
ç¾ ½
ä¸ĢçĤ¹ ä¹Łä¸į
éĻ¤ éĿŀ
å¸Ŀ åĽ½
æĤ¨ çļĦ
æĸĳ é©³
è®¨ è®º
æĤĦ çĦ¶
æ ©
çļĦ éĿŀåĩ¡çī¹æĢ§
ä¸Ĭ é¦ĸ
è¾ ħ
ç½ ļèĢħ
çī¹ çĤ¹
çľ¼ ç¥ŀ
èĦ ī
å®Į æĪĲäºĨ
æ°´ æīĭ
ä»£ ç½ļèĢħ
è¿ľ åı¤
ä»Ĩ äºº
å£ģ çĶ»
é¡º åĪ©
© åĴ
åĲ ©åĴ
çľĭ äºĨä¸Ģçľ¼
çİ° éĩĳ
æ²¡æľī ä¸ĢçĤ¹
åıĪ ä¸Ģä¸ª
ä¸¾ è¡Į
å§¿ æĢģ
é½ĲæŀĹ æł¼æĸ¯
åĲ©åĴ Ĳ
çļĦ çĽ®åħī
å°± æľī
éĥ½ ä¸į
ä»Ģä¹Ī äºĭæĥħ
æĮ £
æĦı å¿Ĺ
ä¾ ĭ
æ·± åħ¥
ç«ĭ åľ¨
åŃĶ éļĻ
Ġ æīĢä»¥
åĲİ èĢħ
æľ¬ è´¨
è½¬ è¿ĩ
èģĶ ç»ľ
åĨĽ æĸ¹
ä¸ĺ çº³æĸ¯
åĭī å¼º
æł ¡
æĹ¶ åĪ»
æ²¡æľī éĹ®é¢ĺ
å®¶ éĩĮ
èĢģ å¤´
æ»¡ è¶³
åĪĩ å°Ķ
ä»¿ä½Ľ åľ¨
å·® çĤ¹
èµŀ ç¾İ
åĬ¿ åĬĽ
èī¾å°Ķ åħ°
åįķçīĩ çľ¼éķľ
æ Ĩ
çļĦ éĤ£ä½į
å¤ ¸
ç» ¸
éĢ Ĩ
ç¬¬ ä¸Ģæ¬¡
æĬ¬ æīĭ
çĮİ éŃĶ
çĮ® ç¥Ń
æĺ¯ ä¸ª
æĮ ¡
ä¸ī åįģ
è½¬ ç§»
æĻļ ä¸Ĭ
èİ« éĽ·
Ġ åķª
æĭ ¾
è¯´ çļĦ
ç¥Ĥ ä»¬
é»Ħ éĵľ
ä¸Ŀ ç»¸
èĭı å°¼äºļ
ä¿® ä¼ļ
çļĦä¿¡ å¾Ĵ
äºļä¼¯æĭīç½ķ å®¶æĹı
Ġ åģļ
ä¸Ĭ åįĪ
å¤ļ äºĨ
æĹł æķ°
å¦ Ļ
åĿ Ľ
åĺ Ľ
å¡Ķç½Ĺ çīĮ
æĶ¯ ä»ĺ
é£İæļ´ æķĻä¼ļ
çĩĥ çĥ§
åĳĵ è¯Ń
è¾ħ åĬ©
Ġ åĹ¯
ä» ĩ
ç©¿ éĢı
ç¥ŀç§ĺ ç©ºéĹ´
åĲĮæł· çļĦ
Ġ åĲ¬åĪ°
æĪ ª
å¾ ª
æĥ³ èµ·äºĨ
çķ ı
åĲ¬ çĿĢ
çĭ ĤçļĦ
çĲĨ æĻº
å±Ĥ å±Ĥ
åıį æĬĹ
å¹½ æļĹ
åģ· çĽĹ
éĺ» æŃ¢
æİı åĩº
Ġ çł°
è¿ İ
æĪĳ çŁ¥éģĵ
åĪ° æĹ¶åĢĻ
ä¸ĭ åİ»
æ³ķ å¸Ī
éĵ º
å¡ Į
èµ° åĪ°
æīĵ äºĨä¸ª
å¢ ŀ
äºĮ æĺ¯
éĶĻ è¯¯
æ¯į ç¥ŀ
éĻĲ åĪ¶
çŀĦ äºĨ
ï¼ļ âĢľ
ä¸ĭ æĿ¥çļĦ
èµ° åĲĳäºĨ
æĳ Ĭ
æį Ł
åĽłä¸º ä»ĸ
çİ°åľ¨ çļĦ
æĳĨ æĶ¾
åŁº æľ¬
å¤ º
æĦ ī
è° Ī
å¹¶ ä¸įæĺ¯
å¼ł å¼Ģ
ç¿ ĺ
æ¥¼ æ¢¯
Ġå°±åľ¨ è¿Ļä¸ªæĹ¶åĢĻ
åĩĢ åĮĸ
çĪ¶ äº²
çļĦçĹ ķè¿¹
A åħĪçĶŁ
ä¸Ģ åľº
åĲ »
æĪ Ī
è¯ Ī
æĸ ľ
å°± è¦ģ
ä½į äºİ
æīĭ æİĮ
è®© ä½ł
å¹¶ æľª
æĶ¶ æķĽ
åıį éĹ®éģĵ
æĢ» ç»ĵ
åĲ¸ è¡Ģ
æ¯į äº²
Ġè¯´ è¯Ŀ
Ġ çªģçĦ¶
æľī ç§į
ä¸¤ ä¾§
å¨ ħ
æŃ» åİ»
åľ£ èµĽ
çĶµ æĬ¥
äºĨä¸¤ ç§Ĵ
çªĹ å¤ĸ
çĺ ¦
ä¸Ģ ä»½
æł ¸
æķ ŀ
æĸ¯ å¡Ķ
çĮ ľ
å¿Ļ ç¢
å»º è®®
åİĨåı² åŃĶéļĻ
èĨ Ģ
è¡¬ è¡£
åĲ Ł
åį ı
æ¬ º
æĳ ©
è§£ è¯»
åı¦ ä¸Ģä¸ª
åģľ æŃ¢
æİĴ éĻ¤
å·® ä¸įå¤ļ
å±ħ æ°ĳ
éĢĶå¾ĦçļĦ åºıåĪĹ
å±Ĥæ¬¡ çļĦ
Ġè¯´ åĪ°è¿ĻéĩĮ
» çļĦ
æĺ¯ ä¸įæĺ¯
è¾ Ĩ
çľĭ å®Ī
åīį éĿ¢
æĦŁ åħ´è¶£
çĶ· ä»Ĩ
åģľ çķĻ
åĳĬè¯ī æĪĳ
é»¯ æ·¡
å¯Ħ çĶŁ
è´Ń ä¹°
èİ«éĽ· èĴĤ
åĲ¸è¡Ģ é¬¼
çŃ ¾
çģµ éŃĤ
æµ· ä¸Ĭ
åħ¨ èº«
éķĳ çļĦ
è¸ ı
å¼¥ æ¼«
æİ© é¥°
æ¯«ä¸į çĬ¹è±«
Ġ æ²¡
ä¸Ģ æĺ¯
ä¸Ģ æĸ¹éĿ¢
çĶ ³
éĩĮ éĿ¢çļĦ
èī °
éĺ¿ éĩĮå®ī
åĮº åĪ«
åĩĨ ç¡®
çļĦéĤ£ ç§į
æ¤ħ åŃĲ
ç¾¤ å²Ľ
æµĵ éĥģ
éĺ¿éĩĮå®ī å¨ľ
ı åĪ¶
ä½ Ĳ
ä¸į æĹ¶
åĲİ æĿ¥
å± ı
åĮ ł
å¤ª è¿ĩ
çĽ¸ ç»§
éļı åı£
æĲ º
ä»· æł¼
æ¦Ĥ çİĩ
ä¸° å¯Į
éĺģ ä¸ĭ
éģ ıåĪ¶
ä¹Ł ä¸įæĺ¯
å¸¦ æĿ¥çļĦ
éŃĶèį¯ çļĦ
ä¼ł è¯´
åħ¬ çĪµ
çļĦå¤§ éĹ¨
é¼ ĵ
éĤª ç¥ŀ
çļĦ é»ĳæļĹ
éĢ Ŀ
ä¹Ł ä¸įä¼ļ
çı ł
éĤ£ å°±
è®© ä»ĸä»¬
ä½Ĩ æĪĳ
éķ¿ çļĦ
æĭī æĸ¯
ä¹¦ æ¡Į
çķ¥ æĦŁ
çĸ¯ çĭĤçļĦ
çł´ ç¢İ
è¯ģ æĺİ
åĨ² åĬ¨
çļĦ ä¸ľè¥¿
è¾ ī
åĵ ĳ
åĬ¨ éĿĻ
ç¨ Ģ
æĮĩ çĿĢ
æŁ¥ å°¼æĸ¯
çķ¥ å¾®
ç§ĳå°Ķ æł¼
è¿ľåı¤ å¤ªéĺ³
æľ Ŀ
çĤ¹ çĩĥ
è° ĵ
çĪ ¬
åĸ ī
æŃ» äºĨ
å¦Ĥæŀľ ä½ł
è¯· æ±Ĥ
è°ĥ æķ´
ä¼ł éĢģ
æĹ§ æĹ¥
çļĦ å¥³
çļĦ èĢģ
æīĭ éĩĮ
è®© èĩªå·±
è®© å®ĥ
èĦ ĸåŃĲ
æĻ ĵ
å¤© ç©º
èĥ ľ
ç©¿ è¿ĩ
å¸ĥ æıĲ
æĪĸèĢħ è¯´
ç«Ļ äºĨèµ·æĿ¥
å±ķ çİ°
åı¤èĢģ çļĦ
èµ«å¯Ĩæĸ¯ è¯Ń
åģ·çĽĹ èĢħ
Ġ éļıçĿĢ
Į çĶŁ
æľī ä¸Ģä¸ª
ä¹ĭ éĹ¨
å¯¹ æŃ¤
å¯¹ è±¡
åĪĨ æŀĲ
çĥ ģ
éĩĳ èī²
è®¤ çŁ¥
è½¬ åĬ¨
æ´» å°¸
é»ĺ é»ĺ
ç´§ å¼ł
è¿ŀ ç»Ń
éĹª çĥģ
éĢĤ åĲĪ
çĽĳ æİ§
çļĦ ä¸Ń
äº ĳ
ä¸Ģ åĿĹ
ä¹ĭ å¤ĸ
çľĭ å¾Ĺ
éĻ ĮçĶŁ
é»ĳ åıĳ
æľĢ å¥½
åķ ¦
ç©º æĥ³
ç»Ŀ æľĽ
æľį é£Ł
æĿĥ æŁĦ
æ½ľ æĦıè¯Ĩ
å¤ ®
ä¸Ģ å¤©
ä½ ©
æĺ¯ æĪĳ
ä¸į å¥½
åº ĩä½
æĹ¶ ä¸įæĹ¶
ä»¥ æŃ¤
éĻ ¨
æīĭ ä¸Ń
æľ¬ ä¹¦
çħ ¤æ°Ķ
Ġä¸į çŃī
åĨ· éĿĻ
éĺ¶ æ¢¯
çĵ¦ å°Ķçī¹
æģį çĦ¶
æŁ¥å°¼æĸ¯ éĹ¨
åºĩä½ ĳ
ç½ ª
æ· ĭ
çļĦç Ĳ
çĸ Ĺ
åĺ ¿
çº¢ å¤©ä½¿
èī¾ å¼¥
æħ¢ æħ¢
èĸ ª
èĦ± åı£
ä¸ºä»Ģä¹Ī è¦ģ
å®ĺ æĸ¹
å®¡ åĪ¤
å¯Łè§ī åĪ°
æ°¸ æģĴ
èī¾å¼¥ çķĻ
éĤ ĥ
æ²¡ åİ»
å¤§ éĩı
èĢĮ åĩº
çļĦç ¼
éķ¿ è£Ļ
æĢ§ çļĦ
çº¢ æľĪ
è± ª
é©¬ èµ«
åŃĺåľ¨ çļĦ
çĶ± äºİ
å·´ é¡¿
æĮĳ éĢī
åĪĽ éĢł
è´´ èº«
åįģåŃĹ æŀ¶
é©¬èµ« çī¹
è¿Ļ åº§
åĩº éĹ¨
æµ ĳ
å¼Ģ æĿ¥
æŃ£ å¼ı
æ·± æ²ī
åĲ¸ å¼ķ
éļĲç§ĺ ç»Ħç»ĩ
åĨ° åĨ·
éĴĪ å¯¹
åĽ° éļ¾
ä¹Ķ æ²»
æĸŁéħ ĮçĿĢ
æĺ¨ æĻļ
åĴĮ æĪĳ
éħį åĲĪ
ä½Ļ çļĦ
æĻ®éĢļ äºº
æ¯«æĹł çĸĳéĹ®
æ²¿ çĿĢ
åĩ ¶
å· «
ä¹ĭ å¿ĥ
ä»¬ çļĦ
çĤ ®
çī¹ éĽ·
éĵ ¾
å¾® ä¸įåı¯
æ¯ı ä¸Ģä¸ª
å¾Īå¿« å°±
èĥ¸ åı£
èĢĲ å¿ĥ
çī¹éĽ· èĮľ
ä¸į æ¸ħæ¥ļ
æĥ ķ
éĤ£ æĿ¡
æ¸ Ĭ
æ°Ķ è´¨
åįĬ ä¸ª
ç¬¬ äºĶ
åı² å¯Ĩæĸ¯
èŃ¦ æĥķ
å®¢ åİħ
æŁĶ åĴĮ
æ² Ł
çī ¢
èµ ¢
åİ Ħ
èĩª åĺ²
æĬ ļ
åŃĲ çļĦ
Ġè¿Ļ æł·
ä½Ĩ è¿Ļ
æĺİ çĳŀ
æīĢ è°ĵ
é£İ æł¼
åĳ¨ æĺİçĳŀ
äºĮ æ¥¼
å¼Ĺ éĽ·
çı Ĭ
æľ¬èº« çļĦ
æłĭ æĪ¿å±ĭ
æģ© å°¤
éĩĳ åıĳ
ä¸ī ä½į
åĽ¾ çĵ¦
ç»´ åĽ¾çĵ¦
åį¡ ç»´åĽ¾çĵ¦
ç¤¼ è²Į
ç§° åĳ¼
æµª è´¹
æµ·ç¥ŀ æĿĥæĿĸ
æ£Ģ æŁ¥
æģ©å°¤ å°¼
Ġ åı¯
çļĦ åı¯èĥ½
çļĦ æııè¿°
éļ ľ
æĹł æļĹ
æĤ Ł
æļĹ çº¢
æľª çŁ¥
ç¤ ¾
è¿Ļæł· ä¸ĢæĿ¥
èĦ¸ èī²
æİĮ æİ§
æº ĥ
è¿ľ ç¦»
ä¼Ĭ æģ©
åĢ¼ å¾Ĺ
éĹª è¿ĩ
æĭľ è®¿
ç¿» æ»ļ
çĶ³ è¯·
çļĦ èº«ä½ĵ
çĽ Ķ
æĭ Ķ
èº« è¾¹
è¡¨ æ¼Ķ
å¾Ģ ä¸Ĭ
æ¼ ł
åĵª ä¸ª
èĻļ ç©º
é½ ¿
æİ¢ç´¢ å°ıéĺŁ
çĮİéŃĶ èĢħ
å¾®ä¸įåı¯ è§ģ
Ġ éĺ¿èĴĻ
ä¹ ¡
è¿Ļ æĿ¡
æĪĳ èĥ½
åīį æıĲ
æľĢ ä¸Ĭé¦ĸ
çļĦç ĭ
éļĲ èĶ½
éĵ¶ èī²
æĴ ķ
èĵĿ èī²
å© ´
å¹¿ åľº
çļĦçĪ¶ äº²
æŃ¦ åĻ¨
äºĨ æĮĩ
åĪ Ģ
ä»ĸ å°±
æĪĳ åĴĮ
èµ Ĳ
åıª è§ģ
è¿Ļä¸ª ä¸ĸçķĮ
åĲ¬ å®Į
å¤ľ æĻļ
é£İæļ´ ä¹ĭä¸»
çļĦ ç¬ĳå®¹
äºĨ åĲĹ
ä¸Ģ è·¯
è¿Ļ æĸ¹éĿ¢çļĦ
ä»ĸ åıĪ
åľ¨ åĵªéĩĮ
éĤ Ģ
ç¥ Ŀ
åĳ ľ
çİ° åľº
æ·± åĪ»
çĪ ¸
æħ Ī
æļĹ èĩª
åĵª äºĽ
å·¥ åĮł
éģ¿ åħį
éĽª ä¼¦
è¡¥åħħ éģĵ
ç£ ¨
ä¸Ŀç»¸ ç¤¼å¸½
Ġåģļ å®Į
èī¾å¼¥çķĻ æĸ¯
Ġ æŀľçĦ¶
åħ »
ä»ĸ çľĭè§ģ
ç» ĺ
ä½ł çŁ¥éģĵ
âĢĻ ãĢģâĢĺ
çŁ¥ æĻĵ
æ± ī
æ»¡ äºĨ
å·¦ æİĮ
éĺ´ åĨ·
é²ģæģ© çİĭåĽ½
å©´ åĦ¿
Ġ å½ĵ
åĲ ī
å® £
åĴ Ļ
æ²¡ æĥ³åĪ°
å¯¹ éĿ¢çļĦ
éĿ¢ äºº
çķ Ķ
èµ° åĩº
åĵį èµ·
éľ² åĩºäºĨ
åĻ ©
è°¢ è°¢
é¼ ł
èłķ åĬ¨
åĸī åĴĻ
Ġ è´Ŀåħĭåħ°å¾·
ä¸Ģ åĬ¨
ä¸į åĩº
å¾Ĺ åıĬ
çľŁ ç¥ŀ
åĲĪ æĭ¢
èĭı éĨĴ
å±ħ å®¤
èķ ´
éĴ¢ éĵģ
ä¼Ł å¤§çļĦ
çļĦçĲ Ĩ
äºĨ åĩºåİ»
æĪĳ è¿ĺ
éĿ¢ åĮħ
å¾· è¡Ĺ
æĺŁ ç©º
ĠéĤ£ æĺ¯
åį¡ çī¹
ä»Ĭ æĻļ
å°½ éĩı
æī¿ è¯º
éĺ¶ æ®µ
é¸ Ł
åĳµåĳµ ç¬ĳéģĵ
çĿģ å¼Ģ
çļĦ åĹĵéŁ³
åı ¶
ä¸į å±ŀäºİ
è¿Ļ åı¥è¯Ŀ
çĶ ľ
ä¼ļ è¢«
ä¹ĭ åŁİ
å¾Ĺ å¾Ī
å¦ Ī
å®¶ åºŃ
å·² çĦ¶
å½± åŃĲ
åħ¬ åħ±
ç±³ åĪĩå°Ķ
æ¶Īå¤± ä¸įè§ģ
å¾ĭ å¸Ī
èĢ³ çķĶ
æľĽäºĨ çľ¼
çļĦ ä»ªå¼ı
çļĦ åİŁåĽł
åī Ĥ
æĮ ¤
æĹł éĿ¢äºº
å®ļ äºĨ
æł¼ æĭī
æĦŁ åºĶ
æĢĿ è·¯
éĩį çĤ¹
å¾® çļ±
éļ¾ æĢª
å¾Ģ å¾Ģ
ç´§ ç»·
é¢Ħ è¨Ģ
åĿ¦ çĦ¶
çĪĨ åıĳ
åĨ¥ æĥ³
éĤĢ è¯·
ä¸į è¡Į
éĻ ¡
åĵ İ
æŁ ľ
åĬ¨ äºĨ
æļ ĸ
å·² æĺ¯
èĻ Ķ
è¡¨ è¾¾
åģ¶ å°Ķ
ç«Ļ èµ·
äºĨä¸¤ åı¥
è¿Ī åħĭ
èī° éļ¾
å¥ ¶
èī ¯
è®© åħĭèİ±æģ©
åĿĲ ä¸ĭ
ä¸įçŁ¥ ä»Ģä¹ĪæĹ¶åĢĻ
æĪĴ æĮĩ
1 5
· èĸĩ
æ §
çļĦ æĥħæĬ¥
ä¸į åıĬ
è¯ Ħ
æĪĳ ä¹Ł
èĩª çĶ±
å¤§ ä¸»æķĻ
äºĨä¸Ģ ç¤¼
çľ¼ ä¸Ń
æĹł æģ¯
æ¸ ´
åıĪ æĺ¯
å¤ĸ éĿ¢çļĦ
éĿŀåĩ¡ æĿĲæĸĻ
è£ ¤
å¦Ĥæŀľ ä¸įæĺ¯
ä½İ å¤´
æĮĩ äºĨæĮĩ
åĽĽ ä¸ª
ç®Ģ çĽ´
èĶ ·èĸĩ
æĹłå£° æĹłæģ¯
çļĦä¸» äºº
æľºæ¢° ä¹ĭå¿ĥ
åĩ¸ æĺ¾
æĲº å¸¦
3 0
ĵ é£İ
çĿ £
æīĭ æľº
é£ ĵé£İ
å½± åĥı
è¿Ľ ä¸ĢæŃ¥
è¡Ģ ä¹ĭä¸Ĭå°Ĩ
æ£® æŀĹ
è¶³ ä»¥
åĮħ è£¹
èĥ¡ å¾·
èĶĵ å»¶
èĻĶ è¯ļ
æĿ ľ
è¾ ŀ
æĪĲ äºĨä¸Ģ
å¥½ åĥı
ä¿ Ĺ
åįĬ é«ĺ
è¯Ń åı¥
åı¤ ç¥ŀ
åıĳçİ° äºĨ
ç©¿ è¶Ĭ
æŁ¥ å¾·æ£®
ç¢ į
åį±éĻ© çļĦ
ä¹Łä¸į çŁ¥éģĵ
æ³¨è§Ĩ çĿĢ
ä¹ĺ åĿĲ
çłģ å¤´
¨ èĥĢ
çļĦ çľ¼çľ¸
åı ®
éģ µ
éĩĮ æĸ¯
æĭ Ł
æĸ¯ åĿ¦
æĥħ ä¹Ŀ
åºĶ å¯¹
ç¦ ģ
æŃ¤ åĪ»
é£İ è¡£
æ£ º
è£ Ķ
è¡£ åħľ
æ¯ı å¤©
åĽ½ çİĭ
åĨĽ æĥħä¹Ŀ
æ¶Īå¤± åľ¨äºĨ
åĩĿ èģļ
éĺ¿åħ¹åħĭ éĵľåĵ¨
åİĭ åĪ¶
èĨ ¨èĥĢ
è¹ ²
æĹłå½¢ çļĦ
åĨĽæĥħä¹Ŀ å¤Ħ
åĩ ī
è¯ Ĺ
å¥ ĭ
è® ¢
åİ ¢
ä¹Ł æĹłæ³ķ
ä¿ ¯
å¾Ī æ¸ħæ¥ļ
è° İ
ç½Ĺ çıĬ
åįĬ æĺ¯
ä¸ī ä¸ĸ
åįķ çº¯
èĪ¹ åıª
ä¸Ŀ æ¯«
ä¹Į é»¯
å¼ķ å¯¼
çĶ² æĿ¿
éĻ¨ èĲ½
Ġ çŃī
ä¸į åľ¨
ç½Ĺ æĢĿ
è¡Į äºĨä¸Ģç¤¼
åĸ ·
è§£ éĻ¤
åİŁ æĿ¥
çŃĶ åºĶ
è¿ĻéĩĮ çļĦ
é©¬ çģ¯
å¹³ æĹ¶
åıĳçĶŁ äºĨä»Ģä¹Ī
è·³ è·ĥ
æ¸¸ è®°
æĬ¬èµ· åı³æīĭ
åĤ¬ çľł
æł¸ å¿ĥ
ä¹Įé»¯ éŃĶçĭ¼
ç½ĹæĢĿ å¾·
0 8
ä¸į æŃ»
ĠâĢľ âĢ¦âĢ¦âĢĿ
è® ¶
éĺ ±
æīĭ èĩĤ
éĽ ĩ
ä½Ĩ ä»ĸ
çļĦç ħ
æµ· åŁŁ
çĸ ¼
æ·± æ¸Ĭ
ç»Ļ åĩº
åı¤ æĢª
æķ´ ä½ĵ
åıĬ æĹ¶
ç»Ŀ å¤§éĥ¨åĪĨ
èĵĿ èī²çļĦ
æ²» çĸĹ
éĻ· éĺ±
çģ°çĻ½ éĽ¾æ°Ķ
é¢ĨåŁŁ çļĦ
åĥµ ç¡¬
6 0
Ġ éĤ£ä½į
Ġ åı¦å¤ĸ
Į èĤī
ä¹ĭ èĽĩ
å¾Ī å®¹æĺĵ
ä¸Ģä¸ª äºº
ä¿¡ çº¸
éļĲ çŀĴ
å¼º å¤§çļĦ
æĥĬ è®¶
åĤ ²
ä¸ §
éĢ »
èº ģ
åĲİ è£Ķ
éĹ® äºĨä¸Ģåı¥
æĤ ¦
æ²ī çĿ¡
æ¡ ¥
çº¢ æīĭå¥Ĺ
åŃ¦ èĢħ
æ´» åĬ¨
åĵ¥ åĵ¥
æľªæĿ¥ åı·
ä¹Ķæ²» ä¸īä¸ĸ
çĽĶ çĶ²
ä»ĸ æīį
éĤ£ è¾¹
æ³ Ľ
è¿ĺ ç®Ĺ
çī¹ çļĦ
ä½Ĩ åį´
å¤ĸ çķĮ
éĶ Ģ
æĿ¡ ä»¶
éĺŁ åĳĺ
æ¯ı æ¬¡
è¡¥ äºĨä¸Ģåı¥
å´ ĩ
Ġ è¿ĩ
âĢĿ ï¼Ł
ä¸Ģ çľĭ
åħĭ ä¼¦
çī¹ åĪ«
æľĪ åŁİ
é¦ĸ é¢Ĩ
æĴ Ĵ
é¢Ħ æĸĻ
ä¼¯ åħĭä¼¦
åı¯æĢķ çļĦ
ä¿¡ä½¿ å°ıå§Ĳ
å»·æł¹ å¸Ĥ
æ¯ģ çģŃ
éĽķ åĥı
å¸ĥæıĲ æĸ¯
ä¼¯åħĭä¼¦ å¾·è¡Ĺ
ä¹ ĥ
æİ ł
çĤ¹ ä»Ģä¹Ī
æĶ Ĵ
å¦ »
äºĭæĥħ çļĦ
çĲĨ æŁ¥å¾·æ£®
åĬł ä¸Ĭ
åĩºçİ° äºİ
çĥĪ éĺ³
ç»§ç»Ń è¯´éģĵ
åĲ« ç¬ĳ
ä¸ĢæŃ¥ æŃ¥
ä¾µ èļĢ
äºĨ èĩªå·±
åľ¨ äºĨä¸Ģ
çī µ
èº« æĹģ
æĸ¹ æ³ķ
åıĳ æĮ¥
åİ» åģļ
å¾Ī ä¹ħ
åĽł ç´ł
é© ¶
åıį å¤į
ä»ħ æĺ¯
å°Ĭ æķ¬
èĳ ¬
èĤļ åŃĲ
æĮ£ æīİ
çļĦ å¥³å£«
ä¸Ģ ç«ł
åĲ ¼
ä¸į èĩª
è¯ ¾
æŃ ī
ç¥ŀ çĪ¶
æ¬ ł
ä¸Ń å¤®
åıį æŃ£
åħ³ æ³¨
èĬ± åĽŃ
çļ® çº¸
æ½ľ åħ¥
éĢıæĺİ çļĦ
æī§ äºĭ
å¿Ļç¢ Į
çļĦ æĥħç»ª
ä¸Ģ åº§
æĪĳ çİ°åľ¨
çľĭ ä¼¼
åĢ į
å½ĵ åľº
æ¶ Ĥ
èį Ĵ
çĭ ±
åĪļ èĲ½
è½» æķ²
åĪĻ æĺ¯
ä¹¦ ç±į
æ»¡ æĦı
éĿł æĭ¢
èĬ± è´¹
æİĮæı¡ äºĨ
çļĦä¿¡ æģ¯
èİİä¼¦ å°ıå§Ĳ
æ¸¯ åı£
å¿½ åľ°
çī§ ç¾Ĭ
äºµæ¸İ ä¹ĭ
çī§ç¾Ĭ äºº
Ġ ç¥Ĥ
åĩ ı
åľ¨ äºİ
è®° è½½
äºĶ å®ĺ
æĢĢ è¡¨
æĶ¯ æĴĳ
åĳ¼ åĲ¸
åħį å¾Ĺ
åĮĹ å¤§éĻĨ
è½¬è¿ĩ èº«ä½ĵ
è¿ľåı¤å¤ªéĺ³ ç¥ŀ
éĤ£ æŀļ
èĥ½ è®©
Ġè¿Ļ äºĽ
ä½Ĩ åıĪ
éĴ ŀ
æļĹ ç¤º
é¦ Ī
åĪ© å§Ĩ
åĭ ĩ
å¡Ķ åĪ©å§Ĩ
æ»¡ æľĪ
ç§ĳ æģ©
å¸ĥ æ»¡
ä¹Į æīĺ
Ġè¯´ å®Į
ä¹Įæīĺ éĤ¦
æĺ¯ æľĢ
çĶ¨ äºĨ
å®ī ä¿Ŀ
æĤ £
èĢģ é¼ł
æīĵ å¼ĢäºĨ
åįģ äºĶ
å¢ ¨
äºĨä¸ĭ åİ»
æīĢæľī äºº
æĭħ å¿§
è·Ł éļı
çº¯ åĩĢ
æ³¨æĦı åĬĽ
ä¸ĵ ä¸ļ
çıŃ è¥¿
Ġå¯¹ äºİ
äºµæ¸İ çŁ³æĿ¿
éģ® æİ©
åıªåī© ä¸ĭ
æĭĴ ç»Ŀ
è¯¸ å¤ļ
è¾¾åħĭ å¨ģå°Ķ
éĴŀ ç¥¨
Ġ åı¯æĺ¯
åħĭèİ±æģ© æĹłå£°
çĽ ¾
åİ ¨
é¢ ĳ
åĽŀ å®¶
çĻ½ éª¨
åĪĹ è½¦
æ£ ĺ
å¾Ģ åĲİ
åįł æį®
é»ĺ çĦ¶
é»ĳå¤ľ æķĻä¼ļ
åĨ° å±±
æĹħè¡Į ç¬Ķè®°
1 2
æ ¾
æľī ä¸ª
éĤ£ åıª
åĩº ç§Ł
å¤§ èĩ´
éķ¿ çĽ¸
ç§į ç§į
å®ŀ è´¨
æļĹ å¤©ä½¿
æĶ¾ åľ¨
ĠèĢĮ ä¸Ķ
èİ·å¾Ĺ äºĨ
åľĪ åŃĲ
çľĭäºĨ çľĭ
çªĹ æĪ·
çļĦç¥ŀ å¥ĩçī©åĵģ
ç¢İ çīĩ
æĶ¶åĽŀ è§Ĩçº¿
å© ļ
èģĮ äººåĳĺ
çİ¯é¡¾ äºĨä¸ĢåľĪ
åľ° åĿĢ
åĴĮ ä»ĸ
äºĨä¸Ģ å®ļçļĦ
å£ ®
è¿ĺ è¦ģ
åıĳ æķ£
éķ¿ èĢģ
ç¼ ª
æł¹ æł¹
å¥ĩ æĸ¯
çº³ å¥ĩæĸ¯
éŁ ¦
å» Ĭ
äº¤ ç»Ļ
æ´» çĿĢ
éľį çº³å¥ĩæĸ¯
æĢ¥ çĿĢ
æķ´ä¸ª äºº
èĩªè¯Ń éģĵ
å´© æºĥ
ç½ĳ åĿĢ
æĦ§ æĺ¯
æīĭæľº çīĪ
äºµæ¸İä¹ĭ çīĮ
çļĦ å®¶ä¼Ļ
äºĨ ä»ĸ
å¯ ¸
èĢĮ ä¸įæĺ¯
å¾Ī å¤§
å¤© æīį
æĺİ äº®
å¤± è¸ª
ç®Ĺ æĺ¯
çĶ· äºº
çģ°éĽ¾ä¹ĭä¸Ĭ çļĦ
æ¢ħ è¿ª
èħ° èĥĮ
å®«æ®¿ åĨħ
æķı éĶĲ
çķı æĥ§
ç¼ª å°Ķ
æ¢ħè¿ª å¥ĩ
è¿Ļ è¾¹
æĢ ľ
åľ° åĽŀçŃĶ
çĽ ¯
åĽŀ å¤´
æŃ£ ç¡®
ç¬ĳ æĦı
æķĻ åĽ¢
éĩį è§Ĩ
æĽ´ æĸ°
éĩĳ éķĳ
åŃ¦ å¾Ĵ
å» ī
æĮĩ åĲĳ
è¥¿ æĸ¯
é»ĺ å¿µ
èĥĮ æ¤ħ
éļ¾ä»¥ éģıåĪ¶
å¿ĥçĲĨ åĮ»çĶŁ
æ¤ħ èĥĮ
å»¶ ä¼¸
æľ« æĹ¥
åľ£èµĽ ç¼ªå°Ķ
æ°¸æģĴ çĥĪéĺ³
æĸ¯åĿ¦ é¡¿
Ĩ æ£ĺ
çļĦ éĿŀåĩ¡èĥ½åĬĽ
çļĦ çº¿ç´¢
æľī ä¸Ģå®ļçļĦ
å¯ Ĥ
åĩº ä¸Ģ
æĭ Ĳ
ä½ł èĥ½
æŃ£ è£ħ
åı£ è¢ĭ
çļĦç ®
ä¸¤ ä¸ī
èĤ ²
èį Ĩæ£ĺ
æ¼ ı
èħ ķ
æĹ© å·²
æķ° ä¸įæ¸ħ
æ¨¡ æł·
é¢Ŀ å¤ĸ
ç¥Ń åĿĽ
æ°¸ è¿ľ
æĬµè¾¾ äºĨ
Ġ åıĪ
ĳ éĩį
çļĦ éŃĶèį¯éħįæĸ¹
æĺ¯ è¿Ļæł·
æĪĳ å¾Ī
æ² ¾
éĻ Ī
åĵ Ń
Ġè¿Ļ ä¸ĢåĪ»
éĥ ĳéĩį
åĲ¬ è¯´
åİŁ åĪĿ
æ°´ éģĵ
æĸĩ å¾·å°Ķ
åį¡ å¹³
çħ§ äº®
èĲ¨ æĸ¯
åħľ å¸½
ä¸Ģæł¹ æł¹
æĸŁéħ Į
æ¬£ åĸľ
Ġ å¾Īå¿«
çļĦ é»ĳ
çļĦ åį±éĻ©
æľī åı¯èĥ½
æī ¹
èĢ ¸
æĬ Ľ
æ³ ī
çģµ æķĻåĽ¢
æ¶ ©
å¾Ģ åīį
çİĭ å®¤
å¸® æĪĳ
åį° è±¡
è¿Ļä¸Ģ å¹ķ
çĬ¶ åĨµ
æĺł çħ§
èİ± æĽ¼
è¡ į
åĲİ æĸ¹
é»ĳ çļĦ
åĬĽ çļĦ
èĪ ±
æį ķ
åį¡ å°Ķ
å®Ī åį«
æ¿Ģ åĬ¨
çģ¾ éļ¾
è½»è½»é¢Ķé¦ĸ éģĵ
èİ±æĽ¼ è¯º
Ġ å®īå¾·æ£®
Ġ ç»ıè¿ĩ
Ģ åļ
çļĦ åįĬç¥ŀ
çļĦ åľºæĻ¯
çļĦ çİ¯å¢ĥ
äºĨ å¼ł
å® ´
ä¸į è§ī
æĪĳ ä¸į
å°± è¿Ļæł·
çĮĽ çĦ¶
é²ľ è¡Ģ
å®ģ éĿĻ
åĨ°å±± ä¸Ńå°Ĩ
é ³
çģ Į
è´ §
çŁ Ľ
éĵ İ
ç¼ ĸ
éĩĳ éĴ±
é£İ éĻ©
åı¤ èµ«å¯Ĩæĸ¯è¯Ń
åĪ© å°Ķ
åĽ¾ éĵİ
åłĤ å¨ľ
è§¦ ç¢°
è¯ĿéŁ³ åĪļèĲ½
è½° éļĨ
Ġè¯´è¯Ŀ éĹ´
é ŀ
æĪĳ ä¹ĭåīį
åľ° æĥ³çĿĢ
æĦ ¤
ç¥ŀ å¥ĩ
ä¹Ł åı¯ä»¥
ä¿ ĥ
å®¶ çļĦ
ä½¿ å¾Ĵ
çŁ¥éģĵ äºĨ
çªģ åľ°
è¯ķ æİ¢
åıªæĺ¯ ä¸Ģä¸ª
åĵª ä½į
æĸ¯å¸ķç½Ĺ çļĦ
Ġä¸į çŁ¥
å®Ŀ èĹı
èĲ¨æĸ¯ åĪ©å°Ķ
6 7
Ġ ä»İ
æģ ³
çĿĢ ä¸Ģä¸ª
åľ° åĽŀåºĶéģĵ
åº Ĺ
çģµ ä¹ĭèĻ«
åķ ¤
æĽ´ æĺ¯
è¿Ļä¸ª éĹ®é¢ĺ
åĲĪ çĲĨ
éĹª çİ°
æ¬²æľĽ ä½¿å¾Ĵ
çİ¯é¡¾ ä¸ĢåľĪ
çİĽ ä¸½
çļĦç¾ İ
ä¿¯ è§Ĩ
ç½ĹæĢĿå¾· ç¾¤å²Ľ
çļĦ å¹´è½»
æľī çĶ¨
åħĭ åĪ¶
ä¸Ĭ æĸ¹
ä¹ĭ æīĢä»¥
æĹł äºº
Ġè¿Ļ å°±æĺ¯
èĤ ĮèĤī
æī¾ ä¸įåĪ°
æ²ī å£°
ä»¶ çī©åĵģ
åł ĤçļĦ
è´Ŀåħĭåħ°å¾· çļĦ
éĺ¿èĴĻ çļĦ
åĬŀ åħ¬
äºĨåĩł åı¥
è½¬èĢĮ éĹ®éģĵ
ç¼Ŀ éļĻ
è¿Ļ ä¸ĢçĤ¹
è¿Ļ æ®µæĹ¶éĹ´
æĪĳ éĥ½
æ²¡ åģļ
å½ ¹
èī ĺ
çľ¼ è§Ĵ
è¡Į ç¤¼
æĪ´ ä¸Ĭ
éª ¤
å¹³ è¡¡
é¡¶ ç«¯
ç¬¬äºĮ çĻ¾
æ¸© æļĸ
èµĽ çĲ³å¨ľ
åĲ¬è§ģ äºĨ
æ³¥ åľŁ
éķ¶åµ Į
éĽªä¼¦ å¤«äºº
ä» ĵ
æģ ¨
è® Ń
åĬ Ī
åģ ¥
éĹ´ çļĦ
å°ĳ è®¸
å°¼ æł¹
æ® ĸ
åŁĥ å¾·
Ġè¿Ļä¸ª è¿ĩç¨ĭä¸Ń
å¦¹ å¦¹
å¹ħ åº¦
ä¸ ¹
éĤ£ æīĩ
åľ° çĭ±
æĸ¹ æ¡Ī
Ġè¿Ļ æł·çļĦ
çľŁ çĽ¸
æľ¬ åľ°
æľ¬ æĿ¥
ç¬ĳ ç¬ĳéģĵ
å®ŀ åľ¨
æ± Ĺ
é«ĺ å±Ĥ
å¹¶ éĿŀ
æĶ¾ å¤§
åı¤ åħ¸
èį¯ åīĤ
éĿł ä½ı
æµģ æ·
ç»´ æĸ¯
æĥħåĨµ ä¸ĭ
é¢Ħ æĦŁ
çŃīå¾ħ çĿĢ
èĶ ļ
è§¦ æīĭ
æİ§åĪ¶ ä½ı
åĪº æĿĢ
æ³¨æĦı åĪ°
æĪĴ å¤ĩ
åİŁå§ĭ æľĪäº®
é©¬èµ«çī¹ è®®åĳĺ
çŁĽ çĽ¾
ä¸Ģ åįĬ
ä¸į åĥı
èİ ²
éĺ Ķ
éĵ ĥ
è·¯ çģ¯
è·¯ å¾·ç»´å°Ķ
æĸĩ åŃĹ
æķ° éĩı
æµ·çĽĹ å°ĨåĨĽ
éĤª æģ¶
çĩ ķ
æĶ¶åĽŀ çĽ®åħī
é¼» åŃĲ
å¤§åľ° æ¯įç¥ŀ
æĹ¶ä»£ çļĦ
æ³ ¡
éĥ ¡
ä»İ æľª
æĤ Ķ
åŃ¦ ä¹ł
åĵį æĮĩ
åĲĦç§į åĲĦ
è¯¡ç§ĺ ä¹ĭä¸»
èĤ© èĨĢ
Ġ åĺīå¾·ä¸½éĽħ
Ģ åĴķ
çļĦ éĥ¨åĪĨ
åľ° çĤ¹
å°± çľĭè§ģ
åĺ ĢåĴķ
èµ° å»Ĭ
æĳ ĺ
è½» å¾®
å¾Ģ å¤ĸ
ä»£ ä»·
é»ĺ å°Ķ
åľ£ å¾½
è¿Ļä¹Ī å¤ļ
éĨĴ æĿ¥
è¿· èĮ«
æĤł éĹ²
çīĻ é½¿
åĳ¨ä¸Ģ æ±Ĥæİ¨èįĲç¥¨
çļĦ ç§ĺå¯Ĩ
åħ µ
æĺ¯ ä»ĸ
æĪĳ è¦ģ
æĿ¥ åĽŀ
åī ²
å¯¹ çĿĢ
è´ «
æıĲ åĩº
æĶ¾ å¿ĥ
äºĨä¸ĭ éģĵ
ä¼¼ä¹İ åľ¨
äº¤ æį¢
å¯Ĩ ä¿®ä¼ļ
é©¬ çĶ²
çľŁå®ŀ çļĦ
é¡¶ å¤ļ
èĢĥèĻĳ åĪ°
åİĭ ä½İ
åİŁæľ¬ çļĦ
éĤª å¼Ĥ
èĢ³ æľµ
ä¸° æĶ¶
æ²Ł éĢļ
çļĦ éĽ¾æ°Ķ
åħ Ħ
å¥ ī
åħĭèİ±æģ© åľ¨å¿ĥéĩĮ
èº« æĿĲ
èµ· å±ħå®¤
å¾Ī å°ĳ
æł¼ èİ±
çĽ¸ æ¯Ķ
çĥ ĤçļĦ
ç©¿ é»ĳèī²
ä¼Ĭ èİ²
ä¼ł éĢĴ
æĲ ¬
å¸ĮæľĽ èĥ½
æ¯į æłĳ
éĻį ä½İ
æĺı æļĹ
åħ± åĲĮ
æī§ æİĮ
è´´èº« çĶ·ä»Ĩ
éĻ¡ çĦ¶
çļĦ å¤©ä½¿
çļĦ è¾¹ç¼ĺ
äºĨ å¥½åĩł
æľī æľºä¼ļ
è¯ ½
è¿Ļ çĤ¹
æģ ¼
èµ ĸ
å°± è¢«
æ²¡ å¿ħè¦ģ
ä¹ĭ å¢Ļ
å¤§ åŃ¦
äºĨä¸Ģ ç§Ĵ
åīį çļĦ
è¿ĺ ä¼ļ
éĩį éĩį
æľĪ åħī
åĲ¬ åĪ°äºĨ
æ²ī çľł
è¾¾ åĪ°
åįłåįľ è¯Ńåı¥
æĹ¶éĹ´ åĨħ
åį¡ æĭī
æĻļ é¤Ĳ
å¯» æ±Ĥ
è¿ĶåĽŀ äºĨ
å®īéĿĻ åľ°
è®¤çľŁ åľ°
åİļ çļĦ
ãĢĭ ï¼Į
åĵĴ åĵĴ
æł¼èİ± æŀĹ
Ġ å®ĥä»¬
è¿ Ŀ
åº Ĩ
åİ Ĥ
ä½ł æĥ³
è¯´ çĿĢ
å¤´ é¡¶
çļĦç ª
ä»İ èĢĮ
æ·± æ·±
ç¨ ¿
èĲ½ ä¸ĭ
æ¶Ī æķ£
å§ĭ ç¥ĸ
æ¢¦ ä¸Ń
åºķ éĥ¨
å°½ å¤´
åģĩ è£ħ
äº§çĶŁ äºĨ
èħ¹ è¯½
æĬĢ å·§
å¤¸ å¼ł
æħĪ åĸĦ
çļĦ æĦıæĢĿ
åħĭèİ±æģ© å°Ĩ
å¯¹ æĪĳ
å¤´ éĥ¨
æİ¥ è¿ĩ
å®Į æ¯ķ
éļĲ å£«
çĶ· å£«
åĳĬ çŁ¥
å¼Ģåı£ éĹ®éģĵ
åĮħ åĲ«
éģŃ åıĹ
è®² è¿°
æī®æ¼Ķ æ³ķ
éĺħè¯» ç½ĳåĿĢ
ç¼ł ç»ķ
æł¼ç½Ĺå¡ŀå°Ķ æ¸¸è®°
ç§ĳæģ© é»İ
æīĭæľºçīĪ éĺħè¯»ç½ĳåĿĢ
åķ¤ éħĴ
è ª
åħĭèİ±æģ© åľ¨
ä¸ĭ èĲ½
è´ ¡
äºĭ å®ŀ
æ° Ľ
Ġè¿Ļ ä¸Ģæ¬¡
çĻ½ çļĦ
çİĭ åŃĲ
å¤į ä»ĩ
ä»ħ ä»ħ
åı¦å¤ĸ ä¸Ģ
æłĳ æľ¨
èº² éģ¿
æīĢåľ¨ çļĦ
èĶļ èĵĿ
çļĦ å·¥
åħ ģ
çĿĢ ä»Ģä¹Ī
è¦ģ ä¸į
ç¬¬ ä¸Ģä¸ª
èĥ ĸ
ä¸ī ç«ł
å¤Ħ åľ¨
å¹³ å¤į
å½¢ æĢģ
æ¡Į åŃĲ
æľ¨ åģ¶
åŁº äºİ
ç¥· åĳĬ
æ½ľ èĹı
æ¬²æľĽ æ¯įæłĳ
è¹¬ è¹¬
å¥ĩè¿¹ å¸Ī
çļĦ éĹ¨
çļĦ èĦĳè¢ĭ
äºĨ æıī
è¿Ļ ä¼ļ
çĶ ©
å¯¹ è¯Ŀ
å¤ļ è¯´
è§ģ è¯Ĩ
Ġä»ĸ éļıåį³
å°ı éķĩ
ä½Ĩ æĺ¯
åħī çĤ¹
éľ ľ
çļĦç ¤
æ¶ ¡
æĶ¶ èµ·
ç±³ å°Ķ
ç¾İ ä¸½
åħŃ ç«ł
æĻĭåįĩ åºıåĪĹ
è¿ĩç¨ĭ éĩĮ
éĻ· åħ¥
æĸĳé©³ éķ¿æ¡Į
èµĲ äºĪ
åħ¬åħ± é©¬è½¦
5 0
çļĦ æķĪæŀľ
åħ ½
ä¸Ģ æŀļ
åĨ Į
å· ·
æĹ¶ çļĦ
å¤§ æķĻä¼ļ
æĹł éľĢ
ä¸¤ å¤©
æıĲ è¿ĩ
æıĲ é«ĺ
å·²ç»ı è¢«
å°ģ ä¿¡
ä¼Ĭ ä¸½èİİ
ç¬ĳå®¹ éģĵ
åĿ¦ çĻ½
ä¸Ģéģĵ éģĵ
èĳ Ĺ
çĨŁæĤī çļĦ
æıī äºĨæıī
è½¯ å¸½
å°¼æł¹ åħ¬çĪµ
© æ¶¡
² æĥ
ä¸Ģ æīĭ
ä¸Ģ æĬĬ
åĲ ±
å® °
æĿ ĤçļĦ
æĸ ½
åħĭèİ±æģ© æ²¡æľī
äºº æł¼
æĿ¥ ä¸´
ä¸ĭ æ°´éģĵ
åĳ ĥ
æĭ §
èº« åĲİ
æ³ Ħ
åĮ Ĩ
å¿ĥ èĦı
çļĦç ±
åĪĨ è¾¨
æķĻ åłĤçļĦ
èĥ Ĩ
éħ ·
èĭ ±
æ²ī åĲŁ
è½¬ å¤´
æ¼ ©æ¶¡
è¶Ĭ æĺ¯
æİĮ å¿ĥ
åĿĲ åĪ°
æĺŁ ä¹ĭ
è¿Ļç§į äºĭæĥħ
äºĨä¸Ģä¸ĭ éģĵ
çģµæĢ§ ä¹ĭå¢Ļ
ç§ĺåģ¶ å¤§å¸Ī
èĨ Ŀ
ç¨³ å®ļ
é³ ŀ
²æĥ «
Ġ ç§ĳæŀĹ
ä¸ Ľ
äºĨ åĲ§
ä¸Ģ å®¶
æĺ¯ æľī
éĤ£ æľ¬
çĦ¶ èĢĮ
ä½ł åľ¨
çķ ª
ä¸Ń åįĪ
å¹´ ä»£
æľª åģļ
æĶ¶ æĭ¾
æ»¡ æĺ¯
åĲĦ ä¸ª
å°ıå§Ĳ çļĦ
æŁĲ ä½į
ç¢ §
èģļ åĲĪ
æĿĢ äºº
æ¤ į
ç®Ģåįķ çļĦ
åĪº æ¿Ģ
è¯ļ æģ³
åĲİç»Ń çļĦ
ç¯ ·
æīĢè°ĵ çļĦ
åĬŀåħ¬ å®¤
åĳ Ģ
æĻ ķ
åĲĳ åĲİ
è¡Į æĿİ
å¥³ åŃ©
åıĺ å¼Ĥ
é«ĺ çº§
æį Ĥ
çĭ Ĵ
å¼º çĥĪ
éĺ´ æ²ī
å°Ŀè¯ķ çĿĢ
åĳĨ æ»ŀ
æ¼Ĥ æµ®
åħģ è®¸
å¾ ¡
ä¸į å°ıçļĦ
æľī å¤ļ
ä»ĸ åĴĮ
æĥ ©
æĪĳ æ²¡æľī
æĪĳ åĪļæīį
åħĭèİ±æģ© åĴĮ
è¡ °
èĥ½ åľ¨
å¯¹ äºĨ
çĶ¨ æĿ¥
åħĪ æĺ¯ä¸Ģ
éŃ ĩ
çŃī çŃī
å®ŀ éªĮ
åĩł æ¬¡
æķĻ æ´¾
èĪ Į
éĵ¶ è¡Į
ä¿Ŀ è¯ģ
çģ« åħī
çŁ³ å¤´
ä¼¯ çī¹
çĥĪ çĦ°
æį® è¯´
çļĦä¸Ģ äºĽ
æŁĵ ä¸ĬäºĨ
ä¹Ŀ ç«ł
åħ« ç«ł
ç¥ŀè¯Ŀ çĶŁçī©
æł¼èİ±æŀĹ çī¹
çļĦ èĦ¸åºŀ
åħĭèİ±æģ© åıĪ
åĩº å£°
ä¸ĭ å·´
çĶŁ çļĦ
åıª å¥½
çķ ħ
é«ĺ èĥĮæ¤ħ
åķ §
æı¡ çĿĢ
æĸĩ ä»¶
ä¸ĥ ç«ł
åī© ä¸ĭçļĦ
æ³¢ çī¹
é¢¤ æĬĸ
æ·±çº¢ æĺŁè¾°
å¦» åŃĲ
å®īä¿Ŀ åħ¬åı¸
çĩķ å°¾
ä¼Ĭä¸½èİİ çĻ½
Ġ æľī
å¾ Ĭ
å¯ ĵ
å°Ķ æł¹
èº ¯
æĥ³ éģĵ
æĦı è§ģ
è¡¨ æĺİ
èĲ ¥
å¿« æŃ¥
æħ °
éĹ®é¢ĺ çļĦ
åı¯èĥ½ æĺ¯
åĽĽ ç«ł
æķ´ é½Ĳ
åıĮ æĸ¹
æĲ ģ
ç¤º æĦı
æľ¨ ä¹ĥ
ä¸ĢçĽ´ åľ¨
åĩĿ éĩį
ç§¯ ç´¯
å°¤ åħ¶
æĶ¾å¼ĥ äºĨ
å¾®ä¸įåı¯è§ģ åľ°
Ġåģļå®Į è¿Ļä¸ĢåĪĩ
åİĭä½İ åĹĵéŁ³
æľ¨ä¹ĥ ä¼Ĭ
6 5
Ġ ä¸ĭ
ĺ å¾Ĭ
çļĦ åıĺåĮĸ
çļĦ å°¸ä½ĵ
ä¸Ģ éĥ¨åĪĨ
å¾ ĺå¾Ĭ
è¯ ŀ
çľ ¯
åľ° è®²
çº ł
ä½ł æľī
äºİ å°Ķæł¹
è¦ģ æĥ³
æŃ£ å¥½
åĿ į
è¡Į èµ°
æ» ĭ
çº¢ èĮ¶
çľĭè§ģ äºĨä¸Ģ
éļı æīĭ
éª °
å» ĵ
çļĦä¸Ģ åĪĩ
è½® å»ĵ
çĨŁ ç»ĥ
è¯¡ æ³ķå¸Ī
æĬ± æŃī
åĢ¾ åĲ¬
çª¥ ç§ĺ
çŀĦäºĨ çľ¼
1 1
çļĦ åºıåĪĹ
çļĦ ä¸ĸçķĮ
ç» ĳ
æĪĳ åıªæĺ¯
ä½ł åºĶè¯¥
çĶŁ çģµ
çľ¼ çıł
å¦ ĩ
çĽ´ å¥Ķ
é«ĺ æ¬§
çĸ ı
ä¸įæĺ¯ éĤ£ä¹Ī
èµ° åĩºäºĨ
çĪ ·
åĸ ĺ
çĭ ł
åĶ Ķ
åŃ¦ æł¡
çĬ ¬
åıĸ ä¸ĭ
ä¸ľ æĭľæľĹ
ç½Ĺå¡ŀå°Ķ æĹ¥è®°
æ¢ħ é«ĺæ¬§
æĿĤ çī©
çļĦç¥ŀ çģµ
å·§ åĲĪ
éĺ² å¤ĩ
ç»´å°Ķ æĿľ
æĥ³äºĨæĥ³ éģĵ
é«ĺåºıåĪĹ å¼ºèĢħ
æ¢ħé«ĺæ¬§ ä¸Ŀ
æī ¶
ä»ĸ å°Ĩ
æĹ¶ ä¹ĭèĻ«
æĸ¯ æķı
è½ ¨
åīį èĢħ
å¾· åŃĲçĪµ
æ²¡æľī äºĨ
éĥ½ æĹłæ³ķ
åı£ åĲ»
æĤ ļ
åĪ© ç»´
åıį åĢĴ
åĻ ľ
çĿ¡ è§ī
æĸ¯çī¹ ç¦ı
ä¸ĵ æ³¨
åį· çĥŁ
ç¬ĳäºĨ ç¬ĳéģĵ
æ§ ½
çļĦ çĶ»éĿ¢
åı Ľ
è¿Ļ ä¸į
å¥ ı
åħĭèİ±æģ© ä¸Ģè¾¹
èµ İ
èµ ļ
çĽ Ľ
æĿ¥ åİĨ
ä¸Ĭ åİ»
æĹ¶ éĴĪ
è¾ ĳ
åĵ Ŀ
ä¸¤ ç§į
çĥ ¤
ä»£ æĽ¿
æ¢¦ æĥ³
è¯· æķĻ
ç§° ä¸º
ç¥Ń åı°
åħ´ å¥ĭ
åĴķ åĵĿ
çļĦçĸ ¯
ç»¯çº¢ ä¹ĭ
é¹ ¤
å°Ĭæķ¬ çļĦ
åľ£èµĽç¼ªå°Ķ æķĻåłĤ
è¦ģä¸į çĦ¶
çļĦ æĢªçī©
çļĦ å§¿æĢģ
éģĵ çĲĨ
å¿ ł
äºº éĢł
åĩº åıĳ
æĿ¥ å¾ĹåıĬ
èº« ä¸º
èº« ä¸ĬçļĦ
å¼Ģ çļĦ
å¤© æ°Ķ
åħī ä¹ĭ
è®¸ æĦ¿
åĽĽ åįģ
çº¸ é¹¤
åĩºçİ° åľ¨äºĨ
ä¼¯ æł¼
ä¸ºä»Ģä¹Ī ä¸į
çļ± èµ·
ç¥ŀçģµ çļĦ
æĭĽ åĳ¼
æĦŁåıĹ åĪ°äºĨ
çŀ³ åŃĶ
å´ĩ æĭľ
çļĦ åİĨåı²
æľ ´
å® ¿
éĹ ¹
æ²¡ éĹ®é¢ĺ
åģ ¿
æĥ³ èµ·
è¯´ æ³ķ
åıĳ åĩºäºĨ
æŃ£ éĿ¢
éĩĳ æ¯Ľ
æ·± é»ĳ
ç»Ļ äºº
å°ĳ éĩı
åĮº çļĦ
å¸® æīĭ
éĺŁ ä¼į
æŀģ ç«¯
ä»ªå¼ı çļĦ
è¿ĩåİ» çļĦ
éĽĨ ä½ĵ
é¢Ŀ è§Ĵ
æııè¿° çļĦ
èįī èį¯
åĩŃ ç©º
èµ¢ å®¶
æĺŁä¹ĭ æĿĸ
æĸ¯çī¹ç¦ı å¾·åŃĲçĪµ
ç»¯çº¢ä¹ĭ æľĪ
åı ī
åĲ Ľ
ä»ĸ æ²¡æľī
æ²¡ äºº
çľĭ åĪ°äºĨ
ä»¥ èĩ³äºİ
Ġè¿Ļ éĩĮ
æľĢ å¤§çļĦ
éľ ¾
çļĦç ł
ç¼ ļ
èĢģ æĿ¿
åŃ¦ çĶŁ
åĽ¾ ä¹¦
æĹ© é¤Ĳ
éģĩ ä¸Ĭ
åħ¬ å¯ĵ
ç»Ħ æĪĲ
éĺ´ æļĹ
èŃ¦ å®ĺ
çĭĤ æļ´
åĲĲ æ§½
æķĳ èµİ
éĻ· åħ¥äºĨ
åºĬ ä¸Ĭ
æ© ĺ
çĿģå¼Ģ çľ¼çĿĽ
åľ¨äºĨä¸Ģ èµ·
ä¸įèĩª è§ī
¶ åĨµ
Ġ æĥ³åĪ°
çļĦ æ¢¦å¢ĥ
ä¸Ģ è½¬
å°Ķ å¤«
å¤§ çĭĹ
å± Ī
è¢ ĸ
å°Ĩ æĿ¥
æļ ĤçļĦ
å£° éĩĮ
éĥ¨ éĹ¨
æīĵ æī®
çĲĨ çĶ±
è®¸ ä¹ħ
çĮ «
è½¦ åİ¢
æĹģ è§Ĥ
ä¼Ĭ åº·
æĲ Ń
è¸ ©
çŁŃ æļĤçļĦ
æ¶Īå¤± äºĨ
éĻĦ èº«
çļĦçĬ ¶åĨµ
ä¹Ŀ å¤©
è§Ħ éģ¿
ç§» åĬ¨
ä¸įéĶĻ çļĦ
æĬ¬èµ· èĦĳè¢ĭ
çī§ å¸Ī
çļĦçĸ ĳ
æ¬£ èµı
è´ŁéĿ¢ æķĪæŀľ
åŁĥå¾· èĲ¨åħĭ
ä¼Ĭåº· çĳŁ
äºĨ éĤ£
å° ĺ
ä»ĸ å¯¹
æģ© ä½Ĳ
ä¼ļ åľ¨
ç¥ŀ åľ£
âĢĻ âĢ¦âĢ¦
æīĭ æŀª
å¤ļ å¹´
èĪ °
å®¹ çº³
ç¥ŀç§ĺ çļĦ
æģ¶ æĦı
çŁ³ æŁ±
æĢ» ä¹ĭ
é¢Ħ æĥ³
æĥĬ åĸľ
çģµæĢ§ çĽ´è§ī
Ġä¸Ģ éģĵ
åħ·ä½ĵ çļĦ
èı ²
åĢ¾ åĲĳ
å¼¯ èħ°
æĦ¤ æĢĴ
¾ æĸ¯æķı
äºĨ æĪĳ
äºĨ ä»ĸçļĦ
åħ Ĩ
æĺ¯ ä¸Ģä½į
ä¸į çĶ±
åĩ ¯
ä»ĸ ä¹Ł
èĩª æĿĢ
è¾ Ī
è¦ģ ä¸įè¦ģ
è´ ¾æĸ¯æķı
å°Ĩ éĤ£
çŃī ä¸ĭ
æł¼ æĸĹ
æĺİ æĺİ
æıĲ åıĬ
çĽ® éĢģ
åĮĸ æĪĲ
å¼º è°ĥ
èĲ½ åĪ°äºĨ
åıį é¦Ī
åĽĽ æŃ¥
æµģ ç¨ĭ
èĹı åľ¨
ä¾§ æĸ¹
åħŃ åįģ
çľī æ¯Ľ
èĦĳæµ· éĩĮ
éĺ´å½± éĩĮ
åĴķ åĻľ
æħĮ ä¹±
æ¹ ¿
ç¤¾ ä¼ļ
èİ±æĽ¼è¯º çļĦ
éĽĨä½ĵ æ½ľæĦıè¯Ĩ
è¿Ļ å°±
æī ©
çľ º
è§ Ī
éĢ ¼
æ²¡ è°ģ
ç¬ ĥ
ç¥ŀ æĥħ
ç¥ŀ çļĩ
èº« åīį
çī¹ ä¼¦
æĹł çº¿
åģļ å¥½
çļĦç ¨
åĪļ å¥½
æĺ¾ çĦ¶
åĢĴ æĺ¯
éĢĶ ä¸Ń
æĹ¥ å¸¸
é¢Ħ å¤ĩ
ä¸įçŁ¥ ä¸įè§ī
æ¸Ĳ æ¸Ĳ
æĺ¯åĲ¦ æľī
èĽ ĭ
å¡Ķç½Ĺä¼ļ æĪĲåĳĺ
å±± èĦī
éĹŃ ä¸Ĭ
èı ľ
è¿ª è¥¿
è±¡å¾ģ ç¬¦åı·
èĪŀ ä¼ļ
è¯¡ç§ĺ ä¾įèĢħ
çĸ¾çĹħ ä¸Ńå°Ĩ
éĿĴéĵľéķ¿æ¡Į æľĢä¸Ĭé¦ĸ
æ±ĩ æĬ¥
æĨ ¾
çĩķå°¾ æľį
ä¹Ŀå¤© ç¥ŀçļĩ
çī¹ä¼¦ ç´¢æĸ¯çī¹
1 000
æľī ä¸įå°ĳ
åħĭèİ±æģ© æ²¡
åľ° ä½į
çĤ İ
æĪĲ å½¢
éĽ ĩä½
Ġä»ĸ æ²¡
ä¸¤ æĿ¡
éĥ Ĭ
è£ ģ
éĺ¿å°Ķ å¼ĹéĽ·
åĨĻ ä¿¡
ç¤¼ æľį
éģĹ æĨ¾
ä»Ĩ å½¹
æ¸İ ç¥ŀ
çĳŀ å°Ķ
æ¯Ĵ ç´ł
ç¾½ æ¯Ľ
åį¡çī¹ çĲ³å¨ľ
åįĬé«ĺ ä¸Ŀç»¸ç¤¼å¸½
åıĳçĶŁäºĨä»Ģä¹Ī äºĭæĥħ
éĢ» è¾ĳ
çıŃè¥¿ æ¸¯
èİ±æĽ¼è¯ºçļĦ æĹħè¡Įç¬Ķè®°
éĽĩä½ £
éĺ¿å°Ķå¼ĹéĽ· å¾·
çļĦ çĽ®æłĩ
çļĦ èº«ä»½
ä¸Ģ å±Ĥ
ä»ĸ å·²ç»ı
åī Ĭ
è¯´ åĩº
èĢĮ éĿŀ
å°Ĩ å®ĥä»¬
å¾Ī éķ¿
æ¸ ł
æıĲ åĪ°
åĩł åįģ
çĽ´ èĩ³
éĩį åıł
èµ° åĪ°äºĨ
åĪ» æĦı
äºĨåĩł æŃ¥
åĢŁ æŃ¤
ä¸ºä»Ģä¹Ī ä¼ļ
æľ¨ éĹ¨
å¹½ æ·±
åħŃ äºº
äºĨä¸Ģå£° éģĵ
å±ħ ä½ı
ä»ĺ åĩº
æľīä»Ģä¹Ī äºĭæĥħ
çĪ¶ æ¯į
åĨħå¿ĥ çļĦ
ä¼į å¾·
åĩĮ ä¹±
ç¨į å¾®
ä»ĵ åºĵ
1 00
5 00
Ġ è¿ĩäºĨ
Ġ çľĭåĪ°
åħ ĥ
ä¸Ģ æ®µ
ä¸į åıĺ
æľī ä¸Ģå®ļ
åľ° å¼Ģåı£éģĵ
æł Ĺ
çľĭ ä¸įåĪ°
å¾· åįİ
ç« Ń
ä¸Ń éĹ´
ä¸¤ æ¬¡
ä¸¤ æŃ¥
æľĽ åİ»
çĲ ´
æĽ´ è¿Ľä¸ĢæŃ¥
æ·± èĵĿ
è± Ĩ
ä¸Ģä¸ĭ åıĺå¾Ĺ
ä¼ł éĹ»
è¿Ļä¹Ī ä¸Ģä¸ª
èİ« è´Ŀ
æĢ¥ éĢŁ
å¯Łè§ī åĪ°äºĨ
å±± å³°
çº· åĳĪ
åı¤ä»£ åŃ¦èĢħ
é»Ħæĺı éļĲå£«
åľ°çĭ± ä¸Ĭå°Ĩ
3 00
çļĦ ä¸Ģä¸ª
ä¸Ģ èĦ¸
ä¸Ģ èĩ´
å® Ĺ
ä¸į èµ·
åĨ ł
å°Ķ å¥ĩ
çģ ¿
ä½ł è¦ģ
ä»¥ å¾Ģ
è§ģ çļĦ
æ¶ ¦
æĺİ ç¡®
å®ŀ çİ°
éĩĳ èī²çļĦ
ä¸ĸçķĮ çļĦ
å¡Ķ ä¸Ŀ
çħ§ èĢĢ
çĶµ è½¬
çŁŃ æĹ¶éĹ´åĨħ
ä¼¤ åı£
æĺı é»Ħ
æĿ¯ åŃĲ
å¤ı å¡Ķä¸Ŀ
è¿Ī æŃ¥
èĭ¥ æĺ¯
ç¾Ĭ çļ®çº¸
çİ© ç¬ĳ
åĿļ æĮģ
åĴļ åĴļ
åĻ© æ¢¦
å¾®çļ± çľīå¤´
éŁ¦ å°Ķå¥ĩ
ä¸Ģ éĹª
å® ľ
ä»ĸ ä¸Ģçľ¼
æĸ ¥
åħĭ éĩĮ
æĪĳ è®¤ä¸º
çĽ ı
äºĭ åĽ¢
éĥ½ è¢«
å§ ĵ
Ġä»ĸ æĹĭåį³
æİ¥ ä¸ĭæĿ¥çļĦ
çĸ ²æĥ«
æĢ§ æł¼
æ¢ ³
æī¾ äºĨä¸ª
ä¸¥ æł¼
æĬ½ åĩº
ä¸ĵ éĹ¨
ç¨ĭåº¦ ä¸Ĭ
èĪ¹éķ¿ å®¤
éĶģ å®ļ
æĥ¨ åı«
åıįæĬĹ åĨĽ
åĿ¦çĻ½ åľ°è®²
æ¸İç¥ŀ èĢħ
Ġ æ²¡æľī
Ġ ä¸Ģä¸ª
åĪ ¹
åħĭ è¡Ĺ
ç§ Ģ
å¯¹ ä»ĸ
èµ· çļĦ
èī ³
å°Ĩ ä»ĸ
èĦ Ĩ
ä¸¤ èĢħ
æķĻ å¯¼
åįģ åĩł
å¢ ħ
å¢ Ł
æ¡ ¶
éĢļ éģĵ
éĽ¾ éľ¾
æĶ¶ åĪ°
åĪ« å¢ħ
æĢİä¹Ī åı¯èĥ½
çķĻ çĿĢ
å½¢ æĪĲ
æı¡ ä½ı
ç§ĳ åĭĴ
ç»Ħ æĪĲçļĦ
å·¥ åİĤ
åĻ Ĺ
è®® äºĭåĽ¢
æĸĹ ç¯·
ä½ľä¸º ä¸ĢåĲį
éĢĥ ç¦»
åķĨ äºº
åĸĬ éģĵ
æĺ¨ å¤©
èĸª æ°´
åĩºç§Ł é©¬è½¦
åĿį å¡Į
åħŃäºº è®®äºĭåĽ¢
é»ĦæĺıéļĲå£« ä¼ļ
¡ èĲ
Ġ åĳľ
çļĦ æĪ¿å±ĭ
åı Ķ
ä¸į è¯¥
ä»ĸ æľī
éĤ£ æĪĳ
äºº åģ¶
ä¹ĭ äºĭ
ä¹ĭ å¤Ħ
è¿ĺ å¾Ĺ
ä½ĵ è¡¨
å¤© å°Ĭ
çļĦç ŀ
è¡Ģ èī²
å¹´ çĶ·åŃĲ
ä¸įä¼ļ æľī
çĶ· æĢ§
åĿĲ äºĨä¸ĭæĿ¥
å² ¸
æĴ Ń
èİ·å¾Ĺ çļĦ
åı¦å¤ĸ çļĦ
æ¸© åĴĮ
çŁ¥è¯Ĩ ä¸İ
é¸ £
èĳ ¡èĲ
èĭį èĢģ
åºŁ å¢Ł
éĩĳæ¯Ľ å¤§çĭĹ
æ¸ł éģĵ
èĳ¡èĲ Ħ
8 2
çļĦ å¥¥é»Ľä¸½
ä¸į å¦Ĥ
åĨ ķ
åħĭèİ±æģ© å¿½çĦ¶
åħĭèİ±æģ© èĭ¥æľīæīĢæĢĿåľ°
æĦ ļ
èĩª å®¶
æĭ ¼
æĸ¹ ä¾¿
åĮ ¿
ç© ·
åĪĨ è£Ĥ
éļĲ æĤ£
åĶ ±
æľª èĥ½
æĬĬ æīĭ
ç»´ æıĲ
ç¼ĵ æŃ¥
èĤ¯å®ļ çļĦ
åıĮ çľ¼
æį¢ åıĸ
å¹½ å½±
åı¬ éĽĨ
åĳĬè¯ī ä»ĸ
éĩįè¦ģ çļĦ
çĪ± å¾·åįİ
åķª åľ°
éº¦ ç»´æıĲ
é©± ä½¿
åħ·çİ° åĩº
æµģæ· Į
ä¸Ģ è¯ķ
ä¸į æĦ§æĺ¯
æĥ ļ
èĩª ä¸»
æĬ ĳ
å¤§ ä½¿
çľĭ æ¸ħæ¥ļ
åıª ä¼ļ
æĮ ĸ
è§ģ åĪ°
æ¸ º
ä½ĵ éªĮ
ä½Ĩ ä¹Ł
éķ¿ æľŁ
ç½Ĺ ä¼Ĭ
çĽ´ åīĳ
æ¯Ķ å°Ķçī¹
æľª èĲ½
åĪ« äººçļĦ
èĦ¸ éĥ¨
æµģ æµª
è¿ŀ å¿Ļ
åŁº éĩĳ
å¹² åĩĢ
ç»ĵæĿŁ äºĨ
æ¶Į çİ°
å°ıå¿ĥ ç¿¼
ĠæŃ¤æĹ¶ æŃ¤åĪ»
æĻºæħ§ ä¹ĭç¥ŀ
äº« åıĹ
äºĴ çĽ¸
æĤ² ä¼¤
å±ı éļľ
éª¤ çĦ¶
çļĦç± »
å°ıå¿ĥç¿¼ ç¿¼
Ġ çģ°éĽ¾ä¹ĭä¸Ĭ
Ġ å¿½çĦ¶
Ġ ä¹Łå°±æĺ¯è¯´
è¿Ļ æīį
èĢ ½
åľ¨ æĪĳ
æŀ ¯
åĵ Ĳ
æ¯ ¯
ç½ ļ
æĽ ¦
å®ļ ä½į
é«ĺ åħ´
æĽ´ ä¸º
çª Ŀ
æ¸ħ éĻ¤
ç´¢ å°Ķ
åŃ¦ å®¶
ä½İ ä¸ĭ
éĤ£ä¸ª æĹ¶åĢĻ
æĢİä¹Ī ä¼ļ
é»Ħ æ°´æĻ¶
åĲĬ åĿł
åı³ æİĮ
è¨Ģ åĸ
ä»ªå¼ı éŃĶæ³ķ
æłĩ åĩĨ
åĢŁ åı£
èģļ éĽĨ
ç¬¬äºĮ çºª
ç±»ä¼¼ çļĦäºĭæĥħ
è´¹ åĨħ
è·Ł è¸ª
æİĮæı¡ çĿĢ
åī© ä½ĻçļĦ
éĢīæĭ© äºĨ
ä¸ĵ å®¶
å¹ķ å¸ĥ
èģĮ ä¸ļ
æĤ¬ èµı
æŃĮ èĢħ
è¯ĿéŁ³ æľªèĲ½
ä¿Ŀéķĸ å°ıå§Ĳ
åįģäºĮ ç«ł
ä¹Įçī¹æĭīå¤«æĸ¯åŁº ç¥ŀçĪ¶
éĻĪ æĹ§
. ãĢĤ
Ġ èİİä¼¦
æĺ¯ ä½į
ä¸į ä¸Ĭ
èĢ Ĺ
åį ¢
éĤ£ æł·çļĦ
çĿĢ è¯´éģĵ
åľ° çĲĥ
åĩº çĶŁ
çĤ ī
æ³ ª
èµ· ä¼ı
éĥ½ å¾Ī
è§ģ éĿ¢
åģļ çļĦäºĭæĥħ
æ· ¹
ç¬ĳ ä¸Ģå£°
å¤Ħ çļĦ
å¤Ħ å¢ĥ
æĭī å¼Ģ
å®¹ è²Į
è¯ķ ä¸Ģè¯ķ
å¡ŀ è¥¿
åį´ æ²¡æľī
åĺ´ è¾¹
è¿Ĳ æ°Ķ
æ¡Į ä¸Ĭ
äºĨåĩł åĪĨ
åĩºäºĨä¸Ģ éģĵ
åģĩ çļĦ
ç»ķ è¿ĩ
å±Ģ åĬ¿
è§£éĩĬ éģĵ
è°¨æħİ åľ°
æĭ³ å¤´
åĩĮ æĻ¨
åħĭéĩĮ ç»´æĸ¯
0 2
Ġ éľįçĦ¶
çļĦ åĨ²åĬ¨
åħ ¼
ä¸į å®ī
ä¸į æĦ¿æĦı
è¿Ļ ä»¶
å¥ Ī
è¡ ·
éĢ ĤçļĦ
æµ ¸
åĵ Ĺ
å¥½ åĲ§
åĪĨ ç¦»
å¤ª ä¹ħ
èį £
èį ·
çĲ ī
èµ° èĩ³
ç»Ļ ä»ĸ
ç»Ļ åĩºäºĨ
èĢģ åħĪçĶŁ
æį Ĳ
éĵ¶ åĪ¶
ç²¾ èĩ´
æĹ© æľī
ç±³ ç´¢å°Ķ
æ¡Ī åŃĲ
çľ¸ åħī
æıı ç»ĺ
æľĢåĲİ çļĦ
è§Ħ å¾ĭ
åįİ ä¸½
æģį æĥļ
æ¼Ĥ äº®
åį·çĥŁ çĽĴ
çŁ¥è¯Ĩä¸İ æĻºæħ§ä¹ĭç¥ŀ
åĵĲ å½ĵ
Ġ å¤©æīį
Ļ åį°
çļĦ èĻļå¹»
åľ¨ ä»ĸ
å¸ Ĩ
èµ ł
ï¼ļ .ãĢĤ
è¿ĩ å¤ļä¹ħ
ç¥ŀ æĢ§
äºĨä¸Ģ åı£
æľ¬ ç«Ļ
æĺİ æĸ¯
æ± ģ
è¿Ļä¸ª æľºä¼ļ
è®° èĢħ
éĢļ å¾Ģ
å¹³ æ·¡
æ´» è·ĥ
çļĦäºº å½±
åıĸ åĩº
å¹» è§ī
é¥ ±
èĴĤ äºļ
ç§° åı·
åįĪ é¤Ĳ
éĵģ åĪ¶
çģµçķĮ çĶŁçī©
çĸĳæĥĳ åľ°
åī§ çĥĪ
ç»¿ èī²çļĦ
ç¥ŀç§ĺåŃ¦ çŁ¥è¯Ĩ
éĻĦè¿ĳ çļĦ
èĴ¸æ±½ åĪĹè½¦
çº· çº·
Ġä½Ĩ æĺ¯
èĮĥåĽ´ åĨħ
ä¸Ģç§Ĵ è®°ä½ı
Ġå¤©æīį ä¸Ģç§Ĵè®°ä½ı
æľ¬ç«Ļ åľ°åĿĢ
Ġå¤©æīįä¸Ģç§Ĵè®°ä½ı æľ¬ç«Ļåľ°åĿĢ
ä¸Ģ åĳ¨
ä¸į åıĹ
å¸ ĤçļĦ
æ²¡ åĬŀæ³ķ
ä¹ĭ åľ£èĢħ
å°Ĩ æīĭ
åİ» æī¾
çģµ æĳĨ
ï¼ŁâĢĿ âĢľ
æľĢ é«ĺ
å®ī æĬļ
Ġåħĭèİ±æģ© æ²¡æľī
åįģ åĩłç§Ĵ
å¼º çļĦ
å±Ĥ åıł
æĶ¶ ç¼©
æĿ° æ£®
è¡£ æľį
ä¹Į æ´Ľ
åĬĽéĩı çļĦ
çĨ Ħ
æĥĬ æģĲ
æ¨ ª
å¡Ķç½Ĺ èģļä¼ļ
çļĩ åĲİ
é¢Ŀ å¤ĸçļĦ
åıĳçĶŁ äºĨ
éĢĶå¾ĦçļĦ éĿŀåĩ¡èĢħ
æ°ĳ ä¼Ĺ
èĴ¸æ±½ ä¸İ
ç»ĥ ä¹ł
Ġä¸ĭ ä¸Ģç§Ĵ
æĹłçº¿ çĶµ
åĪ¹ éĤ£
ä¹Įæ´Ľ çĲī
Ġ è¢«
Ġ çľĭçĿĢ
åħ ļ
æľī éĹ®é¢ĺ
éģ Ĥ
çº ±
ä¸º æŃ¤
äºİ åįĬç©º
çĶ¨ åĬĽ
Ġè¿Ļ ç§į
åĬ¨ çī©
åĿ ĳ
å¤ª å¤ļçļĦ
å¡ «
èµ° åĽĽæŃ¥
æ·± éĤĥ
æį ·
çŀ §
çĶ· åŃ©
è´Ŀåħĭ æľĹ
æĪĺ ç¥ŀ
Ġå¥¹ çļĦ
èĻļ å¼±
ä¾§ è¿ĩ
è½¦ å¤«
å¨ģ ä¸¥
å¨ģ å»ī
å®Įåħ¨ åı¯ä»¥
å®¢ äºº
è¿½ éĢĲ
ä»Ĭå¤© çļĦ
è¹ ¿
è´ŁéĿ¢ å½±åĵį
éļ¾ä»¥éģıåĪ¶ åľ°
èİ«è´Ŀ çī¹
æĺİæĸ¯ åħĭè¡Ĺ
· æħ¨
Ġ åĪļ
Ġ éĺ¿åħ¹åħĭ
çļĦ ç»ĵæŀľ
çļĦ åĳ³éģĵ
âĢĿ ï¼ĮâĢľ
æģ Ń
æĪĳ å¾Ĺ
æĪĳ å¸ĮæľĽ
æĿ¥ æºĲäºİ
è¿ĩ æĿ¥çļĦ
çĤ ½
å¾Ĺ ä¸Ĭ
çľĭ åĩº
åĲĮ åŃ¦
å®¶ ä¾¦æİ¢
çŃī æĪĳ
éĵ Ń
éķ¿ åıĳ
æĽ´ å¥½
å¿« è¦ģ
åĸ ĥ
çŁ¥éģĵ çļĦ
æħ ·æħ¨
æ²ī ç¨³
éĶ ļ
æĬ¥ æľº
åıĹ åĪ°äºĨ
çº¸ ç¬Ķ
çº¸ çīĮ
ĠéĤ£ äºĽ
èĪ¹ åĳĺ
éģĹ å¿ĺ
çĸ¯ åŃĲ
åħħ åĪĨ
æ¿Ģ çĥĪ
ç¼ĵæħ¢ åľ°
æ²¹ çĶ»
æ±ĤæľĪç¥¨ æİ¨èįĲç¥¨
çĪĨ çĤ¸
éĹ² èģĬ
è¾ħåĬ© æĿĲæĸĻ
æĸ¯å¡Ķ çĲ³
æĹłæļĹ åįģåŃĹ
° ĩ
å ª
çļĦ è¡Ģæ¶²
ä¸Ģ ç¬ĳ
ä¸Ĭ åīį
ä¸º ä¸»
éĻ ª
è´ ¦
èĢĮ æĿ¥
åĮ ¹
çĶ¨ çļĦ
ç© ´
ä½Ĩ è¿ĺæĺ¯
çŃī çĿĢ
çĽ´ è§Ĩ
æķĻ èĤ²
å®ī å®ģ
èĢģ ç§ĳåĭĴ
åįģ æĿ¥
æĶ¶ æĬ¥æľº
è¸ ±
éĵģ é»ĳèī²
åħ¶ä»ĸ äºº
éģŃéģĩ äºĨ
åħ« åįģ
é¦Ļ åĳ³
èŀį åĲĪ
è¤Ĳ èī²
éĢĨ èµ°åĽĽæŃ¥
åħ¨èº« éķľ
èįĨæ£ĺ å®īä¿Ŀåħ¬åı¸
æ®ĸ æ°ĳ
çļĦç¤ ¼
èĴ¸æ±½ä¸İ æľºæ¢°
Ġ åĴĮ
ä¸Ģ ç¬ĳéģĵ
éĤ ®
å· ¡
åħĭèİ±æģ© çĶ¨
çİ Ħ
åĴĮ ä½ł
å¤§ äººçī©
äºĨä¸Ģ ä»¶äºĭæĥħ
çľĭ ä¸Ģçľĭ
åĵ ¼
è´ ¤
æĪĲ çĨŁ
æĹł è¾¹
åģļ è¿ĩ
é«ĺ ç©º
å¤± æľĽ
åĬł å°Ķ
å¹³ æģ¯
ä¹¦ æĪ¿
éľĢè¦ģ çļĦ
ä»» çĶ±
æļ´ é£İ
æ¯ı åĳ¨
åº§ æ¤ħ
å°±åĥı åľ¨
äº² èĩª
ä¼Ĺ äºº
ä½Ļ åħī
éļĲç§ĺ çļĦ
å¢Ļ ä¸Ĭ
åĸĿ äºĨåı£
çĬ¶ ä¼¼
æ¼Ĩé»ĳ çļĦ
æĻºæħ§ ä¹ĭçľ¼
ç§ģ å®¶ä¾¦æİ¢
ä¸ĢæĹ¶ ç«Ł
æĬ« çĿĢ
é»İ æĺİ
æĻ¨ æĽ¦
æĦī å¿«
åįģäºĶ ç«ł
éĿłä½ı æ¤ħèĥĮ
© åºı
Ġ æ¢ħä¸½èİİ
į æĻļ
ı è§Ī
ä¸Ģ æľ¬
ç» ½
ç§ ©åºı
æµ ıè§Ī
äºĭ åĬ¡
Ġä»ĸ æ²¡æľī
å®ļ å¾ĭ
ä½Ĩ åħĭèİ±æģ©
èĤ ¢
åķ ¸
èĥ ĥ
æĳ Ķ
åĲ¬ èµ·æĿ¥
åĲ¬ è¯´è¿ĩ
æ¯Ķ èµ·
éļı èº«
åı¤ åł¡
çŃĶ å¤į
åįķ çĭ¬
ä¿Ŀ åºķ
åĻ ¬
èİī åį¡
èĩ´ åĳ½
æĶ¯ æĮģ
ä¸ĥ åħ«
åĤ įæĻļ
èłķ èĻ«
æĻ®éĢļ çļĦ
æĦıæĢĿ æĺ¯
å®« å»·
åįĥ å¹´
è½¬èĢĮ è¯´éģĵ
å¢ĵ åĽŃ
èĤ¡ ä»½
ç¬ĳäºĨ ç¬ĳ
åį¡å°Ķ å¾·
æķĳèµİ èĶ·èĸĩ
æ·¹ æ²¡
åĵĹ åķ¦
çĨĦ çģŃ
è´¤ èĢħ
çļĦ æ°Ķæģ¯
ä¸Ģ å¹´
ä¸Ģ åĽ¢
ä¸Ģ é¢Ĺ
ä¸į è®©
ä¸į æħ¢
æĪĳ è®°å¾Ĺ
éĤ£ æł¹
å°± è¡Į
ä¹ĭ é¾Ļ
è¾ ĵ
äºĨä¸Ģ ä½į
å°ı å£°
æĺİ æĤŁ
å¤ª å¤§
æĢĿ åħ°
å®ī ä¹Ĳ
å®ī æ´ģ
å±Ĥ çļĦ
åıį éĹ®
ç»ĵ å±Ģ
ä¿Ŀ å¯Ĩ
è¥¿ å¨ħ
è¿Ļæĺ¯ ä¸Ģä¸ª
èĹ ¤
è¶³ è¶³
çĶ± è¡·
ä¼Ĭ æĢĿåħ°
åĨĻ éģĵ
ç¿» èº«
çĽ¸å½ĵ äºİ
çº§ çļĦ
ä¸įåĨį æľī
ä¸ĩ èĥ½
ä¸ĩ éķĳ
è¾Ľ è¥¿å¨ħ
ä¹Ķ ä¼įå¾·
æ£ķ èī²
è°ĭ åĪĴ
éĢļçģµ èĢħ
æ£º æĿĲ
åºĨ å¹¸
äººéĢł æŃ»ç¥ŀ
°ĩ æĭ¥
å®īæ´ģ èİīåį¡
Ġ å¾Ī
Ġ åĪ°äºĨ
çļ Ĩ
ä» Ļ
ä¸į å°ı
çľ ¨
åħĭèİ±æģ© å°±
ä¸Ĭ æĿ¥
æŀ Ŀ
èº« é«ĺ
èĩªå·± åľ¨
è§ģ è¯ģ
æĹł å¥Ī
åĬ¨ æīĭ
åģļ çĿĢ
åĲĳ åīį
æī¾ åĩº
åĹ ĸ
æ°´ éĵ¶
åĽĽ ä¸ĭ
åĿĲ åĪ°äºĨ
æ¢¦ éŃĩ
è§Ĵ åº¦
äº® èµ·
åı¦ ä¸Ģæĸ¹éĿ¢
æŀģ å¤§çļĦ
éĨ ī
ä¼ł æĿ¥
é¢Ħ åħĪ
éĢı éľ²
æİĴ æŁ¥
ä¹Łè®¸ æĺ¯
é¡º ä¾¿
ä¹Ŀ åįģ
æĽ¿ èº«
æ¸ħæĻ ¨
æĶ¿ åºľ
èħ¾ èµ·
æģ¢å¤įäºĨ æŃ£å¸¸
åĳ¨ä¸Ģæ±Ĥæİ¨èįĲç¥¨ æľĪç¥¨
çļĦ æĪ¿éĹ´
âĢĿ âĢľ
æģ °
éĤ£ ä»¶
ä¸Ĭ ä¸ĭ
åıĳ æĺİ
ç« ¥
çļĦç ´
æµ· åĨĽ
å®ī å¨ľ
ç¬¬ ä¸ĥ
æīĵ æī°
åĮĸ çļĦ
åĲĪ éĢĤçļĦ
çģ° èĴĻ
åĲį çļĦ
ç»ĵ è®º
éĺ³ åı°
éľĢ æ±Ĥ
å±ŀäºİ èĩªå·±çļĦ
åıĮ èĦļ
æĿĢ æİī
èµĦ æºĲ
åİĭ æĬĳ
åĨ² çªģ
éĢĥ è·ĳ
è£Ĥ å¼Ģ
å°¾ å£°
éĿ¢åīį çļĦ
ç¦ı çĶŁ
é»Ħéĩĳ æ¢¦æĥ³
ä¹łæĥ¯ æĢ§
å·« çİĭ
æĹłçº¿çĶµ æĶ¶æĬ¥æľº
1 3
Ġ èĢģå°¼å°Ķ
çļĦ åĬ¨ä½ľ
çļĦ å¯¹è±¡
åľ¨ èĥ¸åı£
æĪĳ å¯¹
æĪĳ åİ»
æµ İ
å¥½ åıĭ
å¤ĸ è¡¨
æıĲ è®®
èĪ į
é«ĺ åº¦
éĢļ çŁ¥
åĮĸ èº«
ç¨ ł
å·²ç»ı æĺ¯
ç´¢ ä¼¦
äº¤ ç»ĩ
åı· çļĦ
éĿł çĿĢ
æİī èĲ½
ä¾§ éĿ¢
åĳ¨åĽ´ åĮºåŁŁ
çľŁæŃ£ åľ°
è¿ĩäºĨ å¤ļä¹ħ
é¡º åĬ¿
ä¸´ æĹ¶
è§£åĨ³ äºĨ
è¡¨çİ° å¾Ĺ
å¥ĩæĢª çļĦ
æģĲæĢĸ çļĦ
æ¬§ åĨħ
æ¬§ æł¹
è¿Ł çĸĳ
æķŀ å¼Ģ
åĩ¶ æīĭ
çľ¼è§Ĵ ä½Ļåħī
è´¡ çĮ®
ä¹Įæ´ĽçĲī æĸ¯
2 0
¯ æķĳ
ä¸į è§£
ä¸į åŃĺåľ¨
ä¼ °
ä¼ Ĳ
èİ ½
çĽ Ł
å°± éĤ£æł·
ä¹ĭ ä¸ĭ
èĩª ç§°
æĭ ¯æķĳ
ä½ł ä¸įæĺ¯
ä¹Ł æľª
é¢ Ĭ
è´ ª
å¥½ ç¬ĳ
å°Ĩ èĩªå·±
å¾Ī æŃ£å¸¸
é»ĳ èįĨæ£ĺå®īä¿Ŀåħ¬åı¸
åĪĨ äº«
å¥³ åĦ¿
Ġåħĭèİ±æģ© çļĦ
çº¢ èī²
å£« åħµ
èħ ¥
åĿĲ èĩ³
åĳ½ ä»¤
èĤ¯å®ļ ä¸įä¼ļ
æĦŁè§ī åĪ°
ç®Ģ æ´ģ
æĿĢ æŃ»
æ½ ĺ
æĬ½ åĬ¨
ç¨ĭåº¦ çļĦ
çĽ®çļĦ åľ°
æ¨¡ç³Ĭ çļĦ
é¥° åĵģ
èĥ¡ é¡»
åİŁå§ĭ å²Ľå±¿
èħĲ çĥĤ
åİĨåı²åŃĶéļĻ å½±åĥı
å·· åŃĲ
æ¬§åĨħ æĸ¯
Ġ æł¹æį®
Ġ è½°éļĨ
Ģ çĴ
æĺ¯ æĢİä¹Ī
ä¸į å¿«
æĥ ¹
æĿ¥ æºĲ
ä»¥ ä¸Ĭ
âĢĻ ï¼ŁâĢĿ
å¿ĥ æĻº
çĻ½ çº¸
åĩł æŃ¥
éĹ¨ è¾¹
ç»Ļ èĩªå·±
é»Ľ è¥¿
è¯ķ çĿĢ
è¿Ľåħ¥ çģ°éĽ¾ä¹ĭä¸Ĭ
ç«ĭ äºİ
æ¯ı ä¸Ģä½į
ä¼ł åĩº
ä½łä»¬ çļĦ
å·¥ äºº
éĤ£ä¹Ī å¤ļ
å·¨äºº è¯Ń
åī© ä¸ĭ
åĳ½è¿Ĳ ä¹ĭèĽĩ
èĥ¸ éĴĪ
éĢĴ ç»ĻäºĨ
å¼łå¼Ģ åĺ´å·´
æ¬º è¯Ī
ä½© æĪ´
éĽĩ ä¸»
åĲĦç§įåĲĦ æł·çļĦ
çļĦçŀ ³
è´¹åĨħ æ³¢çī¹
å®īä¹Ĳ æ¤ħ
ä¸Ģ åī¯
åĩº æīĭ
ä¹ĭ çĽĴ
æĸ¯ åĽ¾
ä¹Ł åľ¨
æľĢ å¼Ģå§ĭ
éķ¿ çĿĢ
åĨį æ²¡æľī
é«ĺ é«ĺ
å®Į ç¾İ
è¾¾ æĪĲ
æĶ¶ åħ¥
å¸ķ çī¹
è¥¿ æĭľæľĹ
ç§Ĵ éĴŁ
åį´ åıĪ
å·¦ ä¾§
éĹª è¿ĩäºĨ
ä¸Ģæł· çļĦ
æį¢ äºĨ
å¹½ èĵĿ
èµĦ æ·±
å±ħ æīĢ
æĪĳæĥ³ è±¡
æķ² éĹ¨
åħį è´¹
éŃĶå¥³ æķĻæ´¾
æī§ æĶ¿
æī« è¿ĩ
Ġä½ľä¸º ä¸ĢåĲį
å¾½ ç«ł
ç²ī æľ«
é»Ħéĵľ ä¹¦
æĶ¶æķĽ ä½ı
å¤§éĩı çļĦ
èī¾å¼¥çķĻæĸ¯ ä¸Ĭå°Ĩ
éĵģåĪ¶ åį·çĥŁçĽĴ
ä¿Ŀåºķ æľĪç¥¨
ĢçĴ ¨
Ġ ç»Īäºİ
å° ļ
è¿Ļ ä¹Łæĺ¯
æĿ¥ ä¸įåıĬ
å¯¹ äºİ
è´ ¸
åİ» çģ°éĽ¾ä¹ĭä¸Ĭ
æľĢ å¤§
èĤ ĸ
ä»İ åĵªéĩĮ
ä¸» å®°
åĪ© åħ¹
å¯Ĩ å¯Ĩ
ç´§ ç´§
æŀģ å¤§
æºĲ å¤´
è¿¹ è±¡
äºĶ æµ·
æłĩ è¯Ĩ
åŀ «
å¹½ éĤĥ
æĻ® åĪ©åħ¹
è¿Ļä¸Ģ åĪ»
åĨ² åĩ»
éº» éº»
åħ¶ä¸Ń ä¸Ģä¸ª
åī§ æĥħ
ä¸ĭåįĪ å¥½
æľīæīĢ æģįçĦ¶
æĦ£ äºĨä¸Ģä¸ĭ
å¿ħçĦ¶ ä¼ļ
èī¾ä¼¦ åĮ»çĶŁ
Ġæ²¡ è¿ĩå¤ļä¹ħ
æĹ§æĹ¥ ä¹ĭçĽĴ
æµĳ èº«
æķ°ä¸įæ¸ħ çļĦ
ç«Ń åĬĽ
èĢ½ æĲģ
çļĩåĲİ åĮº
æĸ¯åĽ¾ äºļçī¹
å¸ķçī¹ éĩĮåħĭ
1 60
Ġ éĤ£ä¸ª
å° ¬
è¿Ļ åĴĮ
æĿ Ĩ
åĪ° äºĨä¸Ģ
å¤§ éĽ¾éľ¾
ä½į éĺ¶
éĥ½ åı¯ä»¥
æĮ ½
å¤© çģ¾
éŃ ħ
ç½Ĺ èĲ¨
è· Į
è¡Į äºº
æ¢ ģ
éļĲ åĮ¿
äºĨä¸ĭ æīĭ
éĵ¶ éªĳå£«
å¸® ä½ł
èº«ä½ĵ çļĦ
éĺŁ åıĭ
ĠéĤ£ éĩĮ
åį± å®³
äºĨåĩł ä¸ĭ
èĵ Ħ
æĬķ èµĦ
æŁĵ çĿĢ
æ¦Ĥ å¿µ
å´ ĸ
å°ĸ é¡¶
è§ĴèĲ½ éĩĮ
èĭıå°¼äºļ æµ·
çļĦçĲĨ çĶ±
çİĦ é»Ħ
åį¡å°Ķå¾· éļĨ
æ½ĺ å¨ľ
çļĦçŀ³ åŃĶ
æī§æĶ¿ å®ĺ
å¯Ĩå¯Ĩ éº»éº»
ç½ĹèĲ¨ æĪĪ
Ġ ä¸Ģä½į
çļĦ æĿĲæĸĻ
å¼ ĺ
åħĭèİ±æģ© è¾¹
éĤ£ ä¼ļ
åľ° å°Ĩ
å°Ķ å¸Į
åŃ ¤
ä¹ĭ ä¹¦
ä¹Ł å¾Ĺ
åı¯ æĢľ
åĽŀ ä¿¡
åĨħ ä¾§
ä¸¤ å¼ł
è° ·
åĩł åĪĨ
ä»İ æĿ¥
æīį ä¼ļ
æ°Ķ åľº
åĨį è¯´
éĴ ī
å¨ ĥ
æĶ¾ ç¼ĵ
åĮĸ ä¸º
æ¯Ķ æĪĳ
èĲ½ åľ°
ç¿ ģ
èī¾ æĸ¯
éĿŀåĩ¡èĢħ çļĦ
æºĲ è´¨
æ·¡ åĮĸ
æĬķ åĲĳ
éĽĨ ä¸Ń
ç¬¬äºĮ ä¸ª
æĿĤ å¿Ĺ
çľī å¿ĥ
æģ¢ å¼ĺ
åĲĲ åĩº
åįĥ çº¸é¹¤
å§Ķ åĳĺ
äººç±» çļĦ
çļĦç¾ ½
æĳĨèĦ± äºĨ
åĲī å°Ķå¸Į
æ¸´ æľĽ
æĴĴ è°İ
åħĦ å¼Ł
çļĦç¨ ĭ
èĳ¡èĲĦ éħĴ
ä¼ĬæĢĿåħ° çī¹
æ½ĺå¨ľ èĴĤäºļ
Ġ åĪļæīį
Ġ æĢĿç»ª
ä½ £
ä¸į è¿ľå¤Ħ
åľ¨ è¿Ļ
åľ¨ è¿Ļä¸ª
âĢ¦âĢ¦ âĢĺ
ä¸ª äºº
åħĭèİ±æģ© æĢĿç»ª
éĤ£ æĬĬ
èµ Į
ç¥ŀ æĪĺ
å¤§ äºº
ä½ł ä¸į
èĢĮ æĪĳ
åħī è¾ī
çĻ½ èī²çļĦ
æĦŁ åıĹåĪ°
å¥³ åŃĲ
ä¸» æĿĲæĸĻ
åĺ ±
å¼ł äºĨå¼ł
åĹ ½
å¤į èĭı
ä¸Ģæ¬¡ æ¬¡
æģ¶ å¿ĥ
è¡Ĺ ä¸Ĭ
è¡Ĺ åĮº
æĪĲåĳĺ çļĦ
æĭľ å°Ķæĸ¯
çļĦä¸Ģ å£°
éļ¾ä»¥ è¨Ģåĸ
åĳ½è¿Ĳ çļĦ
åīįæĸ¹ çļĦ
å¹ķ åĲİ
çĪ± å¥½
çĤ¹äºĨ çĤ¹å¤´éģĵ
æĶ¹åıĺ äºĨ
å¿ĥä¸Ń ä¸Ģ
åĴ³ åĹ½
ä¹Įçī¹æĭīå¤«æĸ¯åŁº ä¸»æķĻ
æīĵäºĨä¸ª åĵįæĮĩ
çľĭå®Ī èĢħ
çļĦç® ¡
é³ŀ çīĩ
ç¦ıçĶŁ çİĦé»Ħ
æ ª
Ġ å¸ķåĪĹæĸ¯
çļĦ éĺ¿èĴĻ
äºĨ è¿Ľåİ»
è¿Ļ å®¶ä¼Ļ
åº Ļ
çĽ Ĭ
å°± å°Ĩ
æĹ¶ åħī
æīĭ ä¸ĭ
èĩªå·± åĴĮ
å¾Ī å°ı
ä¸Ģä¸ª éĹ®é¢ĺ
æŁ ´
æī¾ æľºä¼ļ
åħ¨ é»ĳ
ç´¢ åħĭ
è¶Ĭ è¿ĩ
å¡Ķ ç´¢åħĭ
åĳĬ è¾ŀ
åĳ½ ä¸Ń
äºĶ åįģ
å°±åĥı æĺ¯
æķ£ åıĳ
èµĦ æł¼
è¯» å¿ĥ
å¤±æİ§ çļĦ
çļĦæīĭ æİĮ
ä¸įçĶ¨ æĭħå¿ĥ
èĦļæŃ¥ å£°
ä¸įç®¡ æĢİä¹Īæł·
æ»ĳ èħ
ä¹ĺ å®¢
ä¼¸åĩº åı³æīĭ
ç¥Ŀ ç¦ı
è¯Ĺ äºº
çļĦçħ §
å¯Ĥ éĿĻ
çħ§äº® äºĨ
Ġ åĽŀåĪ°
çļĦ éķ¿
çļĦ è¡¨çİ°
ä¸į åĬ¨
ä»ĸ è¿ĺ
å· ¾
æİ Ī
ä¸Ĭ ç¿ĺ
èĥ½ åĲ¦
å¾Ī æĺ¯
æľĢ å¼º
æľĢ æĹ©
åĪĨ ä¹ĭä¸Ģ
æĦŁ æŁĵ
æµ· æ°´
çĽ¸ ä¼¼
å¦Ĥ ä»Ĭ
è¿Ļä¸ª æĹ¶ä»£çļĦ
è¾¾ å°Ķ
åĬł æĽ´
å½¢ å¼ı
åĭ ĭ
æŀģ çĤ¹
åıĮ èĩĤ
çĭĤ é£İ
å¼ķ èµ·
å¯¼ å¸Ī
è´¹ çĶ¨
è·Ł åľ¨
è¿½ èµ¶
å¾ģ åħĨ
çļĦä¸» è¦ģ
ä¸įæĸŃ åľ°
åĪĿæŃ¥ çļĦ
åĮĹ æĸ¹
å°Ħ åĩ»
åı¹äºĨåı£æ°Ķ éģĵ
å« Į
åİĦ è¿Ĳ
çĪ¸ çĪ¸
åģ¥ åº·
ä¸°æĶ¶ æķĻåłĤ
è¡ĮæĿİ ç®±
çª¥ç§ĺ äºº
æĿĤçī© åłĨ
è ¤
è Ŀ
Ġ çī¹èİīä¸Ŀ
Ġ æĹłå£°æĹłæģ¯
ä¸ ²
ä¸Ģ éģį
æľī çļĦæĹ¶åĢĻ
æľī è¶£
è® ¯
åħĭèİ±æģ© å¿įä¸įä½ı
çľĭ ä¸įè§ģ
æµ Ĩ
è¯´ æľį
å¥½ è¿Ĳ
è®© æĪĳä»¬
è®© å®ĥä»¬
Ġä»ĸ åĪļ
ä¸Ģä¸ª æĺ¯
åħī æĺİ
ä¸¤ ä»¶
æıĲ ç¤º
å¸¸ è¯Ĩ
éĹ¨ å¤ĸ
åįĬ éĢıæĺİ
å°ĳ å¹´
æĭī ç»´
æĦļèĢħ åħĪçĶŁ
éª ¸
éĤ£éĩĮ çļĦ
è°ĥ éħį
åıĮ èħ¿
éģĩ è§ģ
æİ¨ å¼Ģ
éĺ´ è°ĭ
é¢Ĩ çĿĢ
åĨ· éħ·
éĽ· æĸ¯
éªĮ è¯ģ
æī¿ æĭħ
çļ± çº¹
éª¨ çģ°
æıĲä¾Ľ çļĦ
å¯Į ç¿ģ
æµ®çİ° åĩº
èŃ¦å¯Ł éĥ¨éĹ¨
çŀĦ åĩĨ
ä¸¥éĩį çļĦ
å¥ĳ çº¦
éķ¶åµ ĮçĿĢ
æ½® æ°´
Ġè¿ĩ äºĨä¸Ģéĺµ
åĽ¾ä¹¦ é¦Ĩ
çº·åĳĪ éĹ´
é»Ħæ°´æĻ¶ åĲĬåĿł
çļĦç¨ĭ åº¦
´ å°¬
çļĦ åĲĦç§į
äºĨ èĩªå·±çļĦ
å° ´å°¬
ä¸į åģļ
æī ³
ä»ĸ åıĳçİ°
ç» °
æĪĳ å°Ĩ
æĪĳ éľĢè¦ģ
èµ ĭ
äºº çļ®
ä¸º éļ¾
åĲİ éĿ¢çļĦ
å£ ³
è¯´ å®Į
èĢĮ è¿Ļ
ä»Ģä¹Ī éĥ½æ²¡æľī
çľ¼ è§ģ
è° ¦
è¡Į äºİ
æĦŁ æĥħ
æŃ» åı·
éĹ®é¢ĺ åľ¨äºİ
è¾¾ æĸ¯çī¹
çģ° èī²
éª Ĥ
æĬ¥ åĳĬ
èĦ¸ é¢Ĭ
åĩºçİ° çļĦ
æº ¢
çģ« æŁ´
çĦ¶åĲİ æīį
æĮģ æľī
åį¡ æĸ¯
åį¡ æĸ¯å¸ķ
æĬ¬ èµ·äºĨ
çİ¯ èĬĤ
åŀ ®
åĨ· æ¼ł
æĥĬ æĤļ
åİĭ åĬĽ
éģ¿ å¼Ģ
é¬ ĵ
è¡¨çİ° åĩº
é¼» æ¢ģ
èĮ¶ åĩł
å®īæıĲåĵ¥åĬªæĸ¯å®¶æĹı ç¬Ķè®°
ä¸įçĶ± èĩªä¸»
B F
ç °ĩæĭ¥
çļĦ æ°´
ä¸Ģ ä»¶äºĭæĥħ
å¥ ĸ
æĪĳ ä¸įçŁ¥éģĵ
éĤ£ ä¸Ģ
åľ° åıįéĹ®éģĵ
æł ı
æ²¡ å¤ļä¹ħ
æµ ´
è´ ©
å¥½ å¥½
éĽ Ħ
æĮ ¯
éĹ´ éļĶ
ä½ĵ ä¼ļ
è¶ Ł
æľĢ å¥½çļĦ
æıĲ éĹ®
æĢĿ ç»´
åĮĸ ä½ľ
å¦Ĥæŀľ æľī
çł ¸
çº¿ æĿ¡
æļ´ åĲĽ
å¸Į å°Ķ
èĤ¯å®ļ æĺ¯
åĩĨå¤ĩ çļĦ
å®¢ è½®
æ¢¦å¢ĥ åįłåįľ
çªĹ å¸ĺ
æ®ĭ ä½Ļ
ç»ķ çĿĢ
å¦® å¨ľ
è¿Ļæ¬¡ çļĦ
å¿ĥçģµ å·¨é¾Ļ
èĤ¤ èī²
éĢĤ åºĶ
åľ°ä¸ĭ å®¤
æĪı åī§
ä¼ĺ åĬ¿
Ġä¸įçŁ¥ è¿ĩäºĨå¤ļä¹ħ
çļĦå·¥ å¤«
åį¡æĸ¯å¸ķ æĸ¯
çļĦ éģĵè·¯
æľ ¦
å® Ľ
ä»ĸ æ²¡
åĽ ļ
çĿ ¹
åĪ° çİ°åľ¨
åľ° ç¬ĳéģĵ
å¤§ å°ıçļĦ
åĽŀ è¿ĩ
æı ´
ä»Ģä¹Ī éĥ½
é»ĳ è¢į
æ· »
èī² æ³½
éľ ī
å¤ĸ åĩº
è¡Į åİ»
å¤ª å¤§çļĦ
çĽ¸ åĲĮ
èĥ §
èµ° äºĨåĩºæĿ¥
è®¤ åĩº
æīĵ çł´
å¹´ çºª
æĭ¿ èµ°
åıį èĢĮ
åħ³ å¿ĥ
åĵį äºĨ
å¯Ĩ åĪĩ
ä¾Ŀ æ¬¡
æĲ Ĳ
åģľ åľ¨äºĨ
åİĨåı² è¿·éĽ¾
åĳĬè¯ī ä½ł
åĨ° éľľ
é¡º æĹ¶éĴĪ
çļ± çľī
æ²» å®ī
æĳĩå¤´ éģĵ
äºĨåĩłç§Ĵ éģĵ
ä¼Ł å¤§
çļĦçĹ Ľ
äº« çĶ¨
çĽ¸åħ³ çļĦ
ç¬ĳäºĨä¸Ģå£° éģĵ
èĪª éģĵ
èµ¤ çº¢çļĦ
å¢ŀ åĬł
åīįæıĲ æĺ¯
è¯ŀ çĶŁ
éĹŃä¸Ĭ çľ¼çĿĽ
çĪ±å¾·åįİ åħ¹
èĴ¸æ±½ä¸İæľºæ¢° ä¹ĭç¥ŀ
ç»½ æĶ¾
ä¹Ķä¼įå¾· åĮº
ä¸įå¿« ä¸įæħ¢
Ġ åħ¶å®ŀ
ä¸ Ī
çļĦ ä¸ī
ä¸Ģ åı£
ä»ĸ ä¼ļ
åį ĳ
åĨ ¬
éĿ ´
äºº é±¼
æİ Ģ
å°± å·²ç»ı
å°± ä»¿ä½Ľ
åĴĮ ä½Ľå°ĶæĢĿ
å¯¹ åħĭèİ±æģ©
äºĨä¸Ģ æĿ¡
åıª ä¸įè¿ĩ
ä»Ģä¹Ī æł·çļĦ
çľ¼ éĩĮ
åı£ ä¸Ń
ä½Ĩ æľĢç»Ī
åħī éĹ¨
åħĪçĶŁ åĴĮ
ä»ĸä»¬ åľ¨
èµ° åİ»
åºıåĪĹ çļĦ
å°¼ å§Ĩ
éļ¾ åº¦
åĪ« çļĦåľ°æĸ¹
åŁİ åł¡
åĵį åºĶ
æ´» çĿĢçļĦ
åºķ å±Ĥ
éķĳ çİ°éĩĳ
çķ¥ æľī
èĪ¹ èĪ±
è§īå¾Ĺ è¿Ļ
åı² èĴĤ
æ·¡ éĩĳ
è§¦ åĬ¨
çĻ½éĵ¶åŁİ çļĦ
ä¾¿ å®ľ
éļĶ å£ģ
åĶ¤ éĨĴ
çļĦç¥ŀ è¯Ŀ
å½»åºķ æ¶ĪåĮĸ
æİ© çĽĸ
ä¸ĢæĿ¡ æĿ¡
é¡µ æĹ¥è®°
å¿ħè¦ģ çļĦ
å¿ĺè®° äºĨ
åĨ¥ çķĮ
åºŁ å¼ĥ
ä¸§ éĴŁ
çļĦçª Ĺ
èı² å°Ķ
çļĦçĹĽ èĭ¦
Ġ åĩłä¹İ
Ġ çĽ´åĪ°
Ł åĽ
çļĦ çŃĶæ¡Ī
æĪĳ å¹¶ä¸į
æ² ĥ
æ² Į
æĭ Ĩ
ä½ł æĢİä¹Ī
è¯´ ä»Ģä¹Ī
éĥ½ è¦ģ
å¿ĥ å¤´
å¾Ī åĥı
è§ģ çĬ¶
å°ı çĵ¶
æ°Ķ æ°Ľ
èĪ ·
æ²ī æĢĿ
è¯Ń éĢŁ
å¼º åĬĽ
è¿ĻéĩĮ éĿ¢
ä¼¼ä¹İ æľī
åĬ© æīĭ
è§Ĵ èī²
èĥĮ å½±
çĹ ĩ
çĹ ķ
æ¯ı ä¸Ģ
åĽ½ åº¦
å®Įåħ¨ æ²¡æľī
å®Ī æĬ¤
è¯ģ å®ŀ
é»ĳæļĹ æ·±å¤Ħ
èĭ¦ ä¿®
æĬ½ æĲĲ
ç¡®å®ŀ æĺ¯
æ·· æ²Į
æĵį ä½ľ
éĩĬ æĶ¾
åĮ» éĻ¢
å¥Ķ è·ĳ
ç»¿ èī²
æĩ Ĵ
åĽº å®ļ
æĤ¬ æĮĤ
æĹħè¡Į å®¶
æĵħ äºİ
äºĮåįģ äºĮ
èħĲ èļĢ
èº«ç©¿ é»ĳèī²
èĬ±çº¹ çļĦ
åİŁåĪĿ éŃĶå¥³
ä¸Ī å¤«
çļĦ åıįåºĶ
çļĦ å°ĳå¥³
ä» ²
ä»ĸ å¿½çĦ¶
åħĭèİ±æģ© ä»İ
éĤ£ åĿĹ
ä¸Ĭ äºĨä¸Ģ
åī ¥
å¯¹ æīĭ
ä½ł è¿ĺ
è¾ ľ
å¾· æĭīæĸ¯
å¥½ å¤Ħ
å¤´ æĪ´
æĹł ç©·
èī² å½©
åıĪ ä¸Ģéģĵ
ä½Ĩ åľ¨
çĻ½ ä¹ĭ
å¤ĸ ç¥ŀ
æĦŁ çļĦ
çĥ Ļåį°
æīĵ æĸŃ
çĪ ½
æį ¡
æŃ¥ ä¼Ĳ
è½» å¿«
è¡Ģ çļĩå¸Ŀ
æĭ¿ åĩºäºĨ
åĬł å¿«
æ±Ĥ ä¿ĿåºķæľĪç¥¨
ä¼¼ä¹İ æĺ¯
å§Ĩ æĸ¯
åı³ ä¾§
è¿Ļä¹Ī åģļ
æĢ» éĥ¨
å½±åĵį åĪ°
è¶ħ è¶Ĭ
æĺ¯ä¸Ģ ç§į
çĽ®åīį çļĦ
è¾Ľ å¾·æĭīæĸ¯
æ¸¸ æĪı
åĶ¯ä¸Ģ çļĦ
çĭ¼ äºº
åħħæ»¡ äºĨ
å¿ĥä¸Ń ä¸ĢåĬ¨
èĩªè¯Ń äºĨä¸Ģåı¥
ç¬ĳçĿĢ è¯´éģĵ
è®¾ è®¡
ç»Ł æ²»
éľĩ æĥĬ
å« ģ
æ¯ıä¸ª äºº
çļĦç¼ Ŀ
ä¸įå±ŀäºİ è¿Ļä¸ªæĹ¶ä»£çļĦ
çĽ¯ çĿĢ
èª ĵ
åĲ± åĳĢ
ä¸ĩèĥ½ éĴ¥åĮĻ
4 9
Ġ è´Ŀå°Ķçº³é»Ľ
ä¸Ģ ä¸Ģ
ä¸Ģ ä¸¤
ä¹ ĵ
ä¸į åİ»
ä¸į ä¸Ģå®ļ
åľ¨ çģ°éĽ¾ä¹ĭä¸Ĭ
æĪĳ åıª
ä¸Ĭ éĹ¨
å¤§ è¡£
ä½ł å¯¹
äºĨä¸Ģ è·³
çľĭ è¿ĩ
è¦ģ ä¸įæĺ¯
âĢĻ ãĢĤ
å¥½ äºĭ
å¤ļ åįĬ
åħĪ æĽ´
æ¸ Ĺ
æīį æľī
é«ĺ ä½į
çĽ® çļĦæĺ¯
èĢģ èĢħ
åĸ Ģåļ
ç¡ Ģ
è¡Ģ èħ¥
å¥¥é»Ľä¸½ å°ıå§Ĳ
è´Ŀ åĪ©
åıį éĶģ
èĢĥ çī¹
ä¹¦ ä¸Ń
è·¯ è¿ĩ
èĥĮ è´Ł
éĿŀå¸¸ åį±éĻ©
éľį æģ©
æľį åĬ¡
åıªæľī ä¸Ģä¸ª
å®¶æĹı çļĦ
åŁº ç¡Ģ
å¿į èĢĲ
æĺ¯ä¸Ģ ä»¶
è¿½ è¸ª
æīŃ å¤´
éĤª æķĻ
çľŁæĺ¯ ä¸Ģä¸ª
æī« äºĨ
æĤł æĤł
æĢĶ äºĨä¸Ģä¸ĭ
éļıæĦı åľ°
å®¡è§Ĩ èµ·
åĲĵ äºĨä¸Ģè·³
è±ª åįİ
å¦Ī å¦Ī
æ¶Ĥ æĬ¹
åħĪæĽ´ åĲİ
åĸĢåļ ĵ
X åħĪçĶŁ
çļĦ é»Ħ
çļĦ çģ«çĦ°
çļĦ æĹ¥è®°
ä¸Ģ æĿ¯
æĺ¯ åºıåĪĹ
å· į
æĭ ¦
æĪĲ éķ¿
åŁ ¹
ç½Ĺ éĹ¨
åĪĨ æĺİ
ç§ĺ ä¹¦
å®ī ä¸ľ
çĸ «
ä¿¡ å¿ĥ
çĽ® çĿ¹
éħ ¸
èµ° çĿĢ
æīĵ åĩ»
å¾® åĬ¨
ç¦» åİ»
å¾Ģ å¸¸
åĶ ¾
å¸ķ åĪĩ
æİ¨ æµĭ
é¢Ħ å®ļçļĦ
æģĲ æĢķ
å¹½ çģµ
çĽ®æłĩ çļĦ
æ¢¦å¢ĥ éĩĮ
æŀļ éĩĳå¸ģ
èł ¢
æģ¢å¤į æŃ£å¸¸
ç«¯ èµ·
éĹ» è¨Ģ
æľ¬èĥ½ å°±
çģ¾ åıĺ
éĵ¶çĻ½ çļĦ
æ¹ ¾
æĳĬ å¼Ģ
Ġè¿Ļæł· ä¸ĢæĿ¥
çĿ£ å¯Ł
åİĭä½İåĹĵéŁ³ éģĵ
è¯»å¿ĥ èĢħ
ä»² è£ģ
åħĪæĽ´åĲİ æĶ¹
å®īä¸ľ å°¼
å¸ķåĪĩ ç§ĳ
· é«
Ġ æŃ£
Ġ éļ¾éģĵ
çļĦ æŃ»äº¡
çļĦ æľĭåıĭ
çļĦ å°ĬåĲį
ä¸Ģ æ¥¼
ä¸į å¤§
æľī éĻĲ
æ² «
ä¸ª å°ıæĹ¶
åħĭèİ±æģ© å¯¹
åħĭèİ±æģ© çªģçĦ¶
æĿ¥ æī¾
åĴĮ åħĭèİ±æģ©
èĥ½ ä¸įèĥ½
èĩª åĬ¨
èĩª é¡¾
å¤§ å°ı
æĸ¯ é¡¿
æĪĲ å¹´
åıĳ èĩª
çľ¼ å¸ĺ
å¾Ī ç®Ģåįķ
æľ¬ æĥ³
éĥ İ
ç§ĺ ä¹ĭåľ£èĢħ
æīĢ ç½ĹéĹ¨
å¦Ĥ ä½ķ
æīį æĺ¯
æīĵ åĲ¬
æĶ¾ åħ¥
è£ ¸
åł µ
éª ·é«
æĸ° éĹ»
æĿ° åħĭ
ç½® èº«
æŀģ éĻĲ
æĪĲä¸º åįĬç¥ŀ
ç±³ çļĦ
çĶ» åĥı
éħĴ ä¿Ŀ
éħĴ æĿ¯
èĲ¨ é»ĺå°Ķ
æľĢè¿ĳ çļĦ
è¿ĶåĽŀ çİ°å®ŀä¸ĸçķĮ
æłĳ æŀĹ
åĢ¼å¤ľèĢħ å°ıéĺŁ
æľ¬èĥ½ åľ°
éĺ² å¾¡
åħ³éĶ® æĹ¶åĪ»
åĩ¸ èĤļ
é¢¤ æłĹ
çĭĤæļ´ æµ·
çļĦç±» åŀĭ
æĻ®åĪ©åħ¹ æ¸¯
è¾Ľå¾·æĭīæĸ¯ çĶ·çĪµ
ä¸įå±ŀäºİè¿Ļä¸ªæĹ¶ä»£çļĦ æĦļèĢħ
éª·é« ħ
p s
® èĦı
Ġ çıŃæ£®
è¿Ļ ä¹Ł
åľ¨ èĩªå·±
éĤ »
éĩĮ æľī
å¾Ĺ å¤ª
èº« èº¯
ä»¥ ä¸ĭ
æīĭ ä¸Ĭ
éĥ½ å¸Ĥ
ä»Ģä¹Ī éĥ½æ²¡
èĤ ®èĦı
åĨį åĬłä¸Ĭ
æĽ´ æľī
æĽ´ å¥½çļĦ
èĥ ģ
æĭī æł¼
æ¸ħ çĲĨ
å¤į æĿĤçļĦ
ç² Ĵ
äºĮ ä¸ĸ
é¦ĸ åħĪ
æĮī ä½ı
çĻ¾ å¹´
ä¼Ĺ å¤ļ
éĻĦ åĴĮ
éļĶ æĸŃ
è¿Ļä»¶äºĭæĥħ ä¸Ĭ
éĢĢ åĲİ
æĢ¨ çģµ
èĸĦ èĸĦ
é±¼ äºº
åı¹æģ¯ éģĵ
éģĹçķĻ çļĦ
æįŁ å¤±
åİ¨ æĪ¿
çºł ç¼ł
çī¹ä¼¦ç´¢æĸ¯çī¹ é»Ħéĵľä¹¦
å¾Īéķ¿ ä¸Ģæ®µæĹ¶éĹ´
å¡ŀè¥¿ çİĽ
ĠæĹłå£°æĹłæģ¯ éĹ´
èĩªé¡¾ èĩª
Ġ èķ¾å¦®çī¹
ĩ æĮĩ
åĪ ®
åľ¨ è¿Ļæĸ¹éĿ¢
æĪĳ åıĪ
åĬ £
åĪ° å¤Ħ
çĽ ²
æĿ¥ çľĭ
ä¼ļ è®©
é» ı
æĭ ĩæĮĩ
çİ° è±¡
çŃ ¹
çī¹ æĦı
çī¹ å¾ģ
Ġä»ĸ è¦ģ
Ġè¿Ļ è®©ä»ĸ
æ· Ģ
åĲĮ äºĭ
æľ¬ äºº
ç´ «
æķĻ æİĪ
åįĬ å¤ľ
åı¯ä»¥ çĽ´æİ¥
å®Į äºĨ
å¥¥ æĭīç»´
è¿Ļä¸ª èº«ä»½
æĳ §
ä¸ī å¤©
è¾¾ åĪ°äºĨ
æĭ¿ ä¸Ĭ
æ¶Ī èĢĹ
åıį é©³
æĬ¥ å¤į
å¤ľ èī²
èĦ¸ ä¸ĬçļĦ
çķĻ æĦı
çļĦäºº ç±»
çļĦéĤ£ æł·
å¨ģ èĥģ
è°ģ çŁ¥éģĵ
åĸľ æĤ¦
æ¨¡ ä»¿
éļĲç§ĺ åŃĺåľ¨
å¿ĥçĲĨ åŃ¦
åı° éĺ¶
ç«ĭåĪ» å°±
éĻĲ äºİ
åıł åıł
æīŃæĽ² çļĦ
æĤł çĦ¶
åĪ· åĪ·
æĬĢ æľ¯
çļĦèĢģ èĢħ
æİł å¤º
éľįçº³å¥ĩæĸ¯ å±±èĦī
éŀ Ń
ç¢§ ç»¿
éª° åŃĲ
å®Ľ èĭ¥
Ġ å¤ļéĩĮå®ī
çļĦ å¤ªéĺ³
çļĦ å¼ºèĢħ
ä¸Ģ è¾Ĩ
ä¸į å¥½çļĦ
è¿Ļ èĥ½
è¿Ļ ä»½
ä»ĸ ä»İ
æĸ §
æĪĳ èĩªå·±
éģĵ èº«å½±
åħĭèİ±æģ© èĦĳæµ·åĨħ
å°± å¦ĤåĲĮ
å¯¹ èĩªå·±
åĲİ éĢĢ
çľĭ çľĭ
éĻ ĭ
æĥ³ è¿ĩ
åīį åĲİ
è¿ĺ ä¸įéĶĻ
åıª çľ¼çĿĽ
æīĭ æ®µ
æĹł åħ³
å¦ Ĩ
ä¾ ł
ä½ĵ åĨħçļĦ
è¡Į åĬ¨çļĦ
åĽł éľįæģ©
çĽ¸ è¿ĳ
åı¯ä»¥ è®©
è¿Ļä¸ª åįķè¯į
è®° èµ·äºĨ
æī¾ åĽŀäºĨ
åĪļ åĪļ
æĶ¾ å¥½
åĳ¨ æĹ¥
æ¯Ķ ä¼¯
ç©º çĻ½
äºļ éº»
åĽłä¸º è¿Ļ
éĿĻ é»ĺ
åĬ© åŃ¦
çķĻ ä¸ĭäºĨ
ä¹¦ çŃ¾
èī¾ åĽłéľįæģ©
è¿ŀ çİ¯
å·¦ è¾¹
æħ¢ æĤłæĤł
èĬ± è¡Ĺ
ç±³ åĭĴ
çĶ» äºĨä¸ª
ç¾İ äººé±¼
æķ£ åıĳåĩº
æ´¾ äºº
äºĨä¸¤ å£°
è¯ģ æį®
è¿½ éĹ®éģĵ
æľīä¸Ģ å¤©
é»ĳæļĹ éĩĮ
åĮºåŁŁ çļĦ
æĬĹ æĭĴ
çļĦå£°éŁ³ éĩĮ
Ġåľ¨ ä»ĸ
å®¡ è®¯
åºŀ å¾·
ä¸¢ å¤±
ä¸įæķ¢ çĽ¸ä¿¡
çł° çł°
ä¸ĭåįĪ éķĩ
åĸĦ èī¯
åĮĹ åĮº
æĺł åħ¥
æĳ© æĸ¯
èĢĲå¿ĥ çŃīå¾ħ
æĴķ è£Ĥ
é£ĵé£İ ä¸Ńå°Ĩ
æ¼ı æ´ŀ
æ¤į çī©
çļĦçĸ¯ çĭĤ
åŁĥå¾·èĲ¨åħĭ çİĭåŃĲ
æ°´éĵ¶ ä¹ĭèĽĩ
æľ¦ èĥ§
èĭ¦ä¿® å£«
Ġ æľīäºĨ
çļĦ ä¼¦çº³å¾·
çļĦ ä»»åĬ¡
ä¸Ģ ç¬Ķ
çľ ģ
åĬ ±
åľ° æ¯¯
ç§ ½
å¤§ ä¾¦æİ¢
æĥ³ åĬŀæ³ķ
æŃ£ ç¥ŀ
æĹł ä»İ
å°ı åŃ©
éĹ´ æİ¥
ä¸Ģä¸ª åıĪä¸Ģä¸ª
Ġè¿Ļ ä¸įæĺ¯
åĪĨ ä¹ĭ
æ± ¤
æī¾ äºº
æ²ī æ·Ģ
å¥ĩ çī¹
åħ° å¨ľ
æ£ Ĵ
åħ³ ä¸Ĭ
éĢĶå¾Ħ åºıåĪĹ
å¸Į å¾·
åĲ§ åı°
èĪ¹ ä¸Ĭ
ç»Ħ åĲĪ
é²ģ èİ½
è¿· æĥĳ
çĬ¶æĢģ çļĦ
èĭ¦ ä¿®ä¼ļ
æ³¢ åĬ¨
åİļ åİļçļĦ
çľ· é¡¾
çĴ ĢçĴ¨
èŀį åĮĸ
ç§¯ æĶĴ
æķı æį·
äºĴ æį¢
çļĦé£İ éĻ©
èµ¤ çº¢
ç¾½ ç¿¼
å¾ª çİ¯
å®ĺæĸ¹ éĿŀåĩ¡èĢħ
å¼ĹéĽ· æł¼æĭī
ä½łçŁ¥éģĵ çļĦ
å®´ ä¼ļ
åį¡æĭī æĽ¼
è¿Ŀ èĥĮ
åį¡æĸ¯ åħ°å¨ľ
æĳ©æĸ¯ èĭ¦ä¿®ä¼ļ
çļĦ çĶŁæ´»
äºĨ å£°
ä¸į ä¸Ģæł·
è¿Ļ å¼ł
å¥ ¢
æĪĳ æĽ¾ç»ı
åĪ° çģ°éĽ¾ä¹ĭä¸Ĭ
åľ° æĿ¿
æŃ ĩ
ä¸ĭ æ¬¡
éĢ Ĭ
ç¥ŀ ä¹ĭ
å¯¹ è§Ĩ
å¯¹ åĩĨ
ä½ł ä¼ļ
åĵ Ģ
å¿ĥ æĢģ
åĨħ æķĽ
è§ģ åĪ°äºĨ
çĶ¨ è¿ĩ
æİ¥ å¾ħ
è° ķ
æ¶ ¨
æıĲ èµ·
æµ· æµª
æµ· çº³æĸ¯
å®ī å¦®
Ġåħĭèİ±æģ© æ²¡
æĽ´ æİ¥è¿ĳ
éĩĳ é»Ħ
æŃ¤ ä¹ĭåīį
ä½ľ å®¶
åĪļ ä¸Ģ
åĪ¶ æĪĲçļĦ
çº³ å°Ķ
æ¸ħ äºĨ
åĲį ä¹ī
çīĩ åĪ»
ç¾ ŀ
èĥ½åĬĽ çļĦ
å½¢ æĪĲäºĨ
æĺŁ çķĮ
åºĶè¯¥ æľī
çĪµ å£«
æį¢ åģļ
èģĶ æĥ³åĪ°äºĨ
èŃ¦ åĳĬ
çľ¸ åŃĲ
èİī èİīä¸Ŀ
å¼ķ æĿ¥
å¹½ é»ĳ
ç¡®è®¤ äºĨ
æĿŁ ç¼ļ
æ±¡ ç§½
åĸĿ éħĴ
éĹŃ ä¸ĬäºĨ
çĸ¯çĭĤ åĨĴéĻ©å®¶
èµ¶ ç´§
æĦıä¹ī ä¸ĬçļĦ
çħ¤æ°Ķ è·¯çģ¯
èĦ±åı£ èĢĮåĩº
èķ´ èĹıçĿĢ
åı® åĺ±
éĽĨä½ĵæ½ľæĦıè¯Ĩ å¤§æµ·
çĶµè½¬ éĹ´
éļĲåĮ¿ è´¤èĢħ
åĬ©åŃ¦ åŁºéĩĳ
º çī
Ġ ç¬¬äºĮ
çļĦ æł¼å°ĶæĽ¼
çļĦ æĸ¹åĲĳ
çļĦ éĢŁåº¦
çļĦ è¡Įä¸º
çļĦ æĢģåº¦
äºĨ é¡¿
è¿Ļ éĥ½æĺ¯
æĿ ĳ
åħĭ æĭīæł¼
éĤ ¸
çī ºçī
åħĭèİ±æģ© ä¸Ģéĺµ
éĤ£ ä»½
ç¥ Ģ
åĩº åı£
æİ º
ä¸Ĭ éĿ¢çļĦ
åŃ £
ä½ł åĴĮ
è´ ¯
èī ĩ
è¢« åıĳçİ°
æ³ķ æľ¯
åıĪ æľī
ä½Ĩ ä¸į
èĤ Ĩ
æķĻ åĮº
éĥ¨ çļĦ
éħ ¿
æĪĸ æĺ¯
æľĪ ä»½
è½¬ åĲĳ
æĶ¾ çī§
éĶ ħ
çº¢ çľ¼
éļı ä¾¿
å¼Ĥ ç§į
å¦Ĥæŀľ æ²¡æľī
åŁİ éĤ¦
åĵį èµ·äºĨ
çķĻ åľ¨
æĪĺ åľº
åľ£ åłĤ
åĩ» æĿĢ
åıĺå¾Ĺ å¼Ĥå¸¸
èµ·äºĨ çľīå¤´
ç«Ļ èµ·èº«
æ·¡ æ·¡
çĨ Ĭ
ç¿» åĬ¨
åı¦å¤ĸ ä¸Ģè¾¹
èµ« å°Ķ
æ¨¡ æĭŁ
å®Ī åĪĻ
ç¥Ń ç¥Ģ
æĬĵ ä½ıäºĨ
è¿½ æŁ¥
èµŀ åĲĮ
ä¸Ģçľ¼ éģĵ
è¿ĻäºĽ äºĭæĥħ
æĪĸè®¸ æĺ¯
çļĦæīĭ èĩĤ
æ³¢ æµª
é¸ Ń
ä¸įè§ģ äºĨ
ç©¿çĿĢ é»ĳèī²
è´¢ å¯Į
ä½İè¯Ń éģĵ
ä¿¯è§Ĩ çĿĢ
é«ĺçº§ æī§äºĭ
æł¼èİ±æŀĹçī¹ åŃĲçĪµ
çļĦçĸĳ æĥĳ
ä½İä¸ĭ èĦĳè¢ĭ
èĤĸ åĥı
ç¦ıçĶŁçİĦé»Ħ å¤©å°Ĭ
çļĦç¼Ŀ éļĻ
èĢĥçī¹ æĽ¼
çīºçī ²
2 00
Ġ è¿ĺæľī
Ĳ å¿
çļĦ å¸®åĬ©
çļĦ éħįæĸ¹
çļĦ çģ°çĻ½éĽ¾æ°Ķ
äºĨ å¾Īå¤ļ
ä¸Ģ èĪ¬
ä¸Ģ æī«
æĺ¯ å¦ĤæŃ¤
ä¸į æŃ¢
åħĭ çī¹æĭī
èİ± åħĭçī¹æĭī
å¿ Ĳå¿
åĴĮ åºıåĪĹ
æĹ¶ åĪĨ
å¤§ åįĬ
å¤§ èĦĳ
å¤§ çģ¾åıĺ
æŀ ¢
åīį åĢ¾
çŁ ®
èī º
åĮ ķ
å°Ĩ æ³¨æĦıåĬĽ
å¤ļ æľī
é»ĳ å½±
åģļ äºĭ
åģļ äºĨä¸ª
åħ¥ åĨħ
å®¶ äºº
æµ· åºķ
é« ĵ
åı¯ä»¥ åľ¨
éĿŀåĩ¡ éĢĶå¾Ħ
çº³ æĸ¯çī¹
æŃ» çģµ
æ£ į
æĭ¿ åĪ°äºĨ
ä½İ åºıåĪĹ
åıĹ ä¼¤
èĢĥ éªĮ
ä¸Ģä¸ĭ å°±
èĥĮ æĻ¯
åŁĥ èİ±åħĭçī¹æĭī
è¿ŀ æİ¥
åį¡ è¥¿
çħ§ çīĩ
äºĨä¸Ģä¸ª åıĪä¸Ģä¸ª
æ¡Ī ä»¶
èģĶ æĥ³
ä¹Łä¸į èĥ½
å¼ķ äºº
åŁº éĩĳä¼ļ
æ¢ħ çº³å¾·
çĶŁçī© æ¯Ĵç´ł
çļĦä¿¡ ä½¿
åĩłä¹İ æ²¡æľī
èº² åľ¨
èĴ¸ åıĳ
è¿Ł ç¼ĵ
æĩĤ å¾Ĺ
è¯± æĥĳ
ç©ºæĥ³ ä¹ĭé¾Ļ
åĭĩ æ°Ķ
è®Ń ç»ĥ
Ġæĥ³åĪ° è¿ĻéĩĮ
å¿Ĳå¿ ĳ
Ġ åı¯æĥľ
çļĦ çĻ½èī²
äºĨ ä¸ī
äºĨ å¼ĢæĿ¥
åĪ ĥ
æľī è¿ĩ
åħĭ éĽ·æĸ¯
çĶ ¸
æĪĳ æľĢè¿ĳ
æĪĳ æĺİçĻ½äºĨ
åħĭèİ±æģ© åĺ´è§Ĵ
åĴĮ ä»ĸçļĦ
åīį æĿ¥
æĶ Ģ
ä¿ Ĭ
æĹł åĬĽ
ä½ĵ çļĦ
æľĢ åħĪ
éķ¿ è£¤
æıĲ åĩºäºĨ
åĥ »
éĶ ¡
çģ° èī²çļĦ
åĹ ¡
æĭ¿ èµ·äºĨ
ç»ĵ æŀĦ
èĦĳ åŃĲ
å¹³ åĴĮ
æķ´ çĲĨ
åĽ¾ åĿ¦
é¡¿ äºĨé¡¿
çļĦéĤ£ å¼ł
å¸ĥ éĽ·
ä¼ł æĴŃ
æĢ» ç®Ĺ
å¼Ĺ çº³å°Ķ
èĢĮä¸Ķ è¿ĺ
å¾ĹåĪ° çļĦ
çľĭäºĨ ä»ĸä¸Ģçľ¼
åī© ä½Ļ
çģµçķĮ æİłå¤º
æĪĲåĬŁ äºĨ
çĽĸ åŃĲ
ä¸ĵ å¿ĥ
çĥĽ çģ«
èĥĮåĲİ çļĦ
èµıéĩĳ çĮİäºº
å¹¸è¿Ĳ çļĦæĺ¯
å®īæıĲåĵ¥åĬªæĸ¯å®¶æĹı çļĦ
æ¯«ä¸įçĬ¹è±« å°±
æľįé£Ł éŃĶèį¯
çļĦçħ ¤æ°Ķ
åı£è¢ĭ éĩĮ
çļĦå¹´è½» çĶ·åŃĲ
æĤłéĹ² åľ°
æıīäºĨæıī é¢Ŀè§Ĵ
å°±è¡Į äºĨ
åĲīå°Ķå¸Į èī¾æĸ¯
éļ¾ä»¥è¨Ģåĸ »çļĦ
åħ¨é»ĳ ä¹ĭçľ¼
æī³ æľº
åħĭéĽ·æĸ¯ æ³°
å¸ĥéĽ· æģ©
çļĦ åı¤èĢģ
çļĦ å½¢è±¡
çļĦ åı£åĲ»
è¿ ¸
äºĨ å¥½
åħ Ģ
åħ Ķ
è¿Ļ åıªæĺ¯
è¿Ļ è¯´æĺİ
ä»ĸ èĥ½
æĪĳ ä¸įä¼ļ
æĪĳ ä¸ĢçĽ´
è® ½
éĤ£ ä½ł
éĤ£ æ¬¡
æł ª
ä¸Ĭ æµģ
æĹ¶ å¸¸
çĶŁ æĦı
äºĨä¸Ģ å®ļ
äºĨä¸Ģ æ¬¡
çŃ ĸ
äºĭ åĲİ
åıª éľĢè¦ģ
ç½ Ĳ
è¢« ç§°ä¸º
åħ¥ ä¾µ
çļĦç ¡
çļĦç ¢
æµ· çİĭ
æķĻ å£«
éĩį ç»Ħ
å¡ ĳ
æ¢ Ń
è¿Ļä¸ª åĲįåŃĹ
æŃ» çļĦ
æ¡ ĳ
å¦Ĥæŀľ æĺ¯
åĪ« çļĦäºĭæĥħ
å¸¦ æĿ¥äºĨ
åħ³ èģĶ
éĺ³ çĤİ
æİ¢ åĩº
æºĲ èĩª
äºĨä¸Ģä¸ª éĹ®é¢ĺ
æĮī å¼Ģ
èĦļ è¸ı
é£İæļ´ æķĻä¼ļçļĦ
å¿į çĿĢ
éļĶ ç»Ŀ
çģ¯ ç¥ŀ
çģ¯ ç¬¼
æŃ»äº¡ æī§æĶ¿å®ĺ
æł¹æľ¬ æ²¡æľī
è¯ļ å®ŀ
ä»ĭ æĦı
å³ ¨
ç»ıéªĮ ä¸°å¯Į
æŁĲç§į ç¨ĭåº¦ä¸Ĭ
ç»¯ çº¢çļĦ
ä¸»è¦ģ æĺ¯
ä¸įç®Ĺ å¤ª
èİ«éĩĮäºļèĴĤ ä¾¦æİ¢
æ¹ ĸ
ç¹ģ å¤į
é¡¹ éĵ¾
æ¤ħåŃĲ ä¸Ĭ
è´« æ°ĳ
å·į å³¨
åį¡è¥¿ ç±³
0 49
äºĨ è®¸å¤ļ
ä¸Ģ éĿ¢
ä¸į è¶³
æľī ä»·åĢ¼
æĹ ·
åľ¨ æĹģè¾¹
åĽ ±
åħĭèİ±æģ© æļĹèĩª
éĤ£ éģĵ
å°± ä¸įä¼ļ
ä¹Ł å¾Ī
æı £
æĹł è¾ľ
åħĪ ç¥ĸ
æĻ Ĵ
éķ¿ ä¹ħ
è· ª
åĨį ä¹ŁæĹłæ³ķ
åĺ ŁåĽ
å¿« ä¹Ĳ
ä¸ī äºº
æ²ī åĩĿ
çº¢ ç¥Ńåı¸
æ¯Ķ æĪĳæĥ³è±¡
åĶ ®
åĶ Ĩ
åĢĴ éľī
æĹ¶éĹ´ çļĦ
æµģ éĢĿ
å¾ħ åľ¨
åºĶè¯¥ å°±æĺ¯
æĦŁè§ī èĩªå·±
ç¦»å¼Ģ è¿ĻéĩĮ
èĬ± æľµ
æĴ ¬
åģľ äºĨä¸ĭæĿ¥
æ·¡ é»Ħ
ç¾İ å¥½çļĦ
åĨĴ åĩº
çº¦ å®ļ
ä¸ĥ ç¥ŀ
é¾ Ħ
æĻ¯ è±¡
è´Ł æĭħ
ï¼Ľ âĢĿ
éĢĥ èĦ±
åİļ éĩį
æĶ¶åĽŀ äºĨ
çĶŁåĳ½ åŃ¦æ´¾
èº² èĹı
å¾®å¾® çĤ¹å¤´
çĥŁ åĽ±
æŃĮ å£°
å§¿ åĬ¿
è¿·éĽ¾ æµ·
å®Įæķ´ çļĦ
éļıæĹ¶ åı¯èĥ½
å®ŀéĻħ ä¸Ĭ
ä¼Łå¤§çļĦ ä¸»äºº
æł¼æĭī è¥¿æĸ¯
è¡£åħľ éĩĮ
æĿĢäºº æ¡Ī
éĵŃ åĪ»
æĹłè¾¹ æĹł
èĹ¤ èĶĵ
åĩ¸èĤļ çªĹ
éĤ» å±ħ
çĶŁçī©æ¯Ĵç´ł çĵ¶
åĺŁåĽ Ķ
Ġ ä¹Łå°±æĺ¯
Ġ è¿ĺå¥½
Ġ ä¸¤äºº
ł æª
çļĦ æµ·çĽĹ
çļĦ ç»ıéªĮ
çļĦ è¿ĩç¨ĭä¸Ń
ä¸Ģ ä¸Ŀ
ä¸Ģ æĶ¯
ä¸Ģ é¡µ
å® ¾
ä¸į è¶ħè¿ĩ
ä»ĸ åľ¨å¿ĥéĩĮ
åĬ «
éĤ£ åī¯
æĿ¥ å²ģ
çĶŁ åŃĺ
èĢĮ çİ°åľ¨
å°Ĩ è¿Ļ
æĮ ²
å§ ĳ
æŃ£ ç»ı
æŁ łæª
ä½Ĩ æ²¡æľī
éĵ ħ
çĻ½ å¤©
ä½ı çļĦ
åĩ¡ æ£®
åĸ Ĥ
å¼ł å¼ĢäºĨ
çģ° çľ¸
å¸¦ ä¸Ĭ
åŃĺ æ´»
ç³ ķ
ç³ Ł
çªģ åħĢ
åĿĲ äºİ
æĪĺ åĪ©
çķ¥ ä½ľ
çķ¥ æľīçĤ¹
ç¢ ĳ
äºĨåĩł åĪĨéĴŁ
æľīäºĨ ä¸ª
ĠèĢĮ è¿Ļ
å¨ģå°Ķ éĢĬ
ä¸ĥ éģį
å¸Ĥ åľº
çŀ¬éĹ´ å°±
è´µ çļĦ
ä¸ĢæŃ¥ ä¸ĢæŃ¥
è®¤è¯Ĩ çļĦ
å¤ı å°Ķå¤«
ä¸ĭæĦıè¯Ĩ å°±
ä¸įåı¯ éģ¿åħį
æ²³ æµģ
è¿« ä¸įåıĬ
æĦıä¹ī ä¸Ĭ
æ²īéĩį çļĦ
æĬ¢ åľ¨
æĬ¢ åħĪ
å¼ĢåĲ¯ äºĨ
åĽŀå½Ĵ äºĨ
åºľ éĤ¸
æĳ© æĮ²
çľĭå¾Ĺ åĩºæĿ¥
çħ¤æ°Ķ çģ¯
éĩĳåıĳ çº¢çľ¼
çĶ²æĿ¿ ä¸Ĭ
çīµ æī¯
æŃ£ç¡® çļĦ
è¥¿æĸ¯ äºĮä¸ĸ
çĩķå°¾æľį å°ıä¸ĳ
éĥĬ å¤ĸ
çļĦç¥ŀè¯Ŀ çĶŁçī©
åħĭæĭīæł¼ ä¿±ä¹Ĳéĥ¨
åĽ¾åĿ¦ è¥¿æĸ¯äºĮä¸ĸ
æŁłæª ¬
è¿«ä¸įåıĬ å¾ħ
° çĭ
Ġ å®ĥçļĦ
Ġ èī¾å°Ķåħ°
ı æĤĶ
ï¼Į ãĢĬ
çļĦ ä¸įåĲĮ
çļĦ çģµæĢ§
çļĦ åħ³éĶ®
çļĦ çľ·èĢħ
æĺ¯ è¢«
ä¸į æĢķ
ä¸į çľł
åĩ Ħ
å¿ ıæĤĶ
åĴ Ģåļ
åľ° æľĽçĿĢ
åĴĮ å¥¹
å¼Ģ çİ©ç¬ĳ
åĽŀ äºĭ
èĢĮ åİ»
Ġä»ĸ åİŁæľ¬
æķĻ åĶĨ
é«ĺ å¤§
èĢģ å®ŀ
æŃ¤ åľ°
è§£ éĻ¤äºĨ
æł¹ èľ¡çĥĽ
æ¡ £
é© ¾
äºĨä¸ĭ çľ¼çĿĽ
ç©¿ æ¢Ń
äº¤ æı¡
ä¿Ŀ å®Ī
è¥¿ åĮº
åįłåįľ ä¿±ä¹Ĳéĥ¨
ç«ĭ çļĦ
åºķ çīĮ
çħ İ
æĪĺ èĥľ
æĸĩ çĮ®
çļ® ç®±
éĢı è¿ĩ
é¥ ¶
è¿Ļä½į åħĪçĶŁ
é£Ł æĮĩ
èµ« æĭīæĸ¯
è®² è§£
å¾Īå¤ļ äºĭæĥħ
åĶĲæ³°æĸ¯ åħĪçĶŁ
çĿģ å¤§
å¼ĹèĲ¨åħĭ è¯Ń
æĭĸ å»¶
æĮº çĽ´
ä¼ĳæģ¯ å®¤
ç®¡å®¶ çĵ¦å°Ķçī¹
çļĦçĪ¶ æ¯į
çļĦçĥ Ľ
å±Ĥå±Ĥ åıłåıł
èĥĸ èį¯å¸Ī
è¡° è´¥
è¢ĸ åı£
æĲŃ éħį
ä»²è£ģ äºº
ä¾ł çĽĹ
æĪĺåĪ© åĵģ
°çĭ ŀ
åĴĢåļ ¼
Ġ æĮīçħ§
Ġ çľ¼è§ģ
Ł æ¼
çļĦ åīį
çļĦ ç¬¬ä¸Ģ
äºĨ åĽŀåİ»
ä¸Ģ äº®
è¿Ļ ä¸¤ä¸ª
åħĭèİ±æģ© è®©
åĴ ¦
åľ° æĥ³éģĵ
ä¼ļ è®®
ä¹ĭ æ²³
èĩª ä»İ
å¯¹ ä½ł
ä¸º èĩªå·±
ä½ł åİ»
å¾· æĭī
æ²¡æľī è¯´è¯Ŀ
å¾Ī åį±éĻ©
å¾Ī å¤§çļĦ
ä¸Ń æĸŃ
Ġè¿Ļ è®©
å¤© èĬ±
æľĢ éĩįè¦ģ
åħī çļĦ
çŃī ä½ł
æ¶ Łæ¼
åĨį åģļ
åĺ ĺ
æ·± èī²
æĭī åħ¥
è§Ĩ éĩİ
å¥¥é»Ľä¸½ çļĦ
éļı æľº
åĹ ¤
åĲį è¯į
æľª æĽ¾
å¦Ĥæŀľ èĥ½
ç»ĵ æĻ¶
çº¸ å¸ģ
ç§Ĵ åĲİ
ä¹¦ äºļ
èĥĮ åıĽ
ç´§ éĹŃ
èĻļ å½±
å¼Ģå§ĭ äºĨ
æİ¨ çĲĨ
æĪĲä¸º åºıåĪĹ
æĴ ĩ
ä¸Ģå®ļ è¦ģ
é¢Ĩ ç»ĵ
æĥĬ éĨĴ
éĻĦ åĬł
çº¦ ä¹¦äºļ
æĹłå£° èĩªè¯Ńéģĵ
çģ°çĻ½ çļĦéĽ¾æ°Ķ
åĪ¶éĢł åĩº
èŀį åħ¥äºĨ
çĤ¹äºĨä¸ĭå¤´ éģĵ
æĥ³è±¡ çļĦ
æ£ķ èī²çļĦ
æĪı æ³ķ
æµ·æ´ĭ æŃĮèĢħ
æĪª çĦ¶
ç¨Ģ çĸı
ç¬¬äºĶ çºª
åĤ² æħ¢
è¯¾ ç¨ĭ
æĸ½ åĬł
èĪĮ å¸½
çĨŁç»ĥ åľ°
å§ĵ åĲį
äºĶæµ· ä¹ĭçİĭ
æĳ§ æ¯ģ
é¸Ń èĪĮå¸½
åĩ¡æ£® çī¹
ä¸įçľł èĢħ
å¤©èĬ± æĿ¿
æ¶Łæ¼ ª
4 0
6 6
Ġ éĻ¤äºĨ
çļĦ è¡ĮåĬ¨
çļĦ éĺ´å½±
äº ¨
äº ı
ä¸Ģ åįģ
åľ¨ éĤ£
åľ¨ åľº
æİ ĺ
åİ Į
ä¹ĭ åĽ½
ç¥ŀ åºĻ
âĢĻ ï¼Ł
çķ ¸
æŃ£ éĹ¨
å¤ļ æ¬¡
é»ĳ çĻ½
é»ĳ å¸®
é»ĳ ä¹ĭçİĭ
åĲĮ ä¸Ģ
æľĢ ä¸º
éķ¿ åĩºäºĨ
ä¿¡ ä»»
åįĬ å¤©
ç¬¬ åįģ
å¥¥ åı¤
åĪ¶ æľį
è¡Ģ èĦī
é£İ çľ·èĢħ
å¹´ é¾Ħ
æĭ¿ åĩºäºĨä¸Ģ
æ°´ åĩĨ
åħ³ éĹŃ
å·¨ åŀĭ
èĢĥ è¯ķ
é£ŀ è¡Į
æİ¨ åĬ¨
å·´ æİĮ
å¥³å£« çļĦ
èĵĿ çľ¼
æľ¬èº« å°±
äºĨä¸¤ ä¸ĭ
çªĹ è¾¹
éĢĶå¾ĦçļĦ åįĬç¥ŀ
æ®ĭ å¿į
ç«¯ çĿĢ
äºī åıĸ
ç§» å¼Ģ
å¹ķ åľºæĻ¯
æł¹æľ¬ æ²¡
èĥ¸ åīį
æµ®çİ° äºİ
é²ľ çº¢
Ġå¦Ĥæŀľ ä¸įæĺ¯
çļĦçĮ İ
æĬĬæı¡ åĪ°äºĨ
ç§ģ ä¸ĭ
æ³½ å°Ķ
èĦ±ç¦» äºĨ
çĻ» ä¸Ĭ
åĭĩ æķ¢
æĿ¥åĽŀ è¸±
çĭĴ çĭĴ
çľº æľĽ
éļıèº« æĲºå¸¦
çĶ±è¡· åľ°
å¡Ķç´¢åħĭ æ²³
åı²èĴĤ å¤«
æ¯ĶæĪĳæĥ³è±¡ å¾Ĺ
å¥¥åı¤ æĸ¯
Ġ åħ¶ä¸Ń
Ġ èī¾è¾Ľæł¼
Ġ çŁŃæļĤçļĦ
Ļ çĿĢ
çļĦ å¥¹
çļĦ æĪĺæĸĹ
çļĦ èģĶç³»
çļĦ ç»ħå£«
çļĦ ä»Ĩäºº
ä¸į æĺİçĻ½
è¿Ļ å±ŀäºİ
ä»ĸ æĥ³
ä»ĸ ä¹ĭåīį
éĹ ·
åħĭèİ±æģ© èħ¹è¯½
çĿĢ åĹĵéŁ³
å¿ Į
æ²¡ åıĳçİ°
çģ ¼
çĤ Ń
ï¼ģ âĢľ
æ²¡æľī ä¸Ŀæ¯«
æĦı å¿µ
å¤© èµĭ
åĲĮ æĦı
æ´ ª
è¡Į è¸ª
éĩį çİ°
è¿Ļä¸ª è¯Ŀé¢ĺ
çĪ ª
å¨ ĺ
çŁ¥éģĵ èĩªå·±
æŃ» èĢħ
ç©º èį¡
ç©º èīĩ
åł ª
å¼º è¿«
äºļ æģ©
äº¤ éĶĻ
çªģ çł´
åįłåįľ çļĦ
èĮ §
å¤ªéĺ³ èĥ¸éĴĪ
éĻ¤ æŃ¤
é£ŀ ç©ºèīĩ
åı³ çľ¼
ç¦»å¼Ģ è´Ŀåħĭåħ°å¾·
åĨ³ æĸŃ
çŁ³ éĹ¨
çŁ³ åĥı
æĢ» çĿ£
æ¡Į ä¸ĬçļĦ
éģĹ çī©
ä½įç½® çļĦ
äºĨä¸¤ æŃ¥
çĶŁçī© çļĦ
èĬĤ å¥ı
éĩĮéĿ¢ æľī
å£ģ çĤī
çļ± èµ·äºĨçľīå¤´
æıĲä¾Ľ å¸®åĬ©
æĢĿèĢĥ èµ·
å¼¥ è¡¥
é¸ ¡
åĶ¯ä¸Ģ çļĦéĹ®é¢ĺ
åĽ° å¢ĥ
å¿½ çķ¥
çĥŃ æĥħ
çŀĦ äºĨä¸Ģçľ¼
é»ĳå¤ľå¥³ç¥ŀ æķĻä¼ļ
èļ ķ
è¿Ļçīĩ ç¥ŀç§ĺç©ºéĹ´
ç¬¼ç½© äºĨ
ç¬¼ç½© çĿĢ
éĴ» åħ¥äºĨ
åĽŀæĥ³ èµ·äºĨ
çª¥ è§Ĩ
é¹ °
èĪĴ äºĨåı£æ°Ķ
åĺ¶ åĵĳ
èºº åľ¨
è¡Įç¤¼ éģĵ
é»ĺå°Ķ ç´¢
æľīå¤ļ ä¹Ī
çļĦç®¡ å®¶
åŁĥèİ±åħĭçī¹æĭī ä¸»æķĻ
Ġ ãĢĤ
Ġ åĢŁåĬ©
Ġ æµ·æŁĶå°Ķ
çļĦ å¤ĸ
çļĦ å·¨å¤§
ä¸Ģ ä¼ļ
è¿Ļ ä¸¤
æĪĳ å¿ħé¡»
åħĭèİ±æģ© çľĭçĿĢ
äºº çĶŁ
æĹ¶ æľŁ
ä»¥ æĿ¥
è¯´ æĺ¯
åıª çĶ¨
è®© å¯¹æĸ¹
æĦı åĽ¾
çĶ¨ åı¤èµ«å¯Ĩæĸ¯è¯Ń
æľĢ å¤ļ
éķ¿ éķ¿
å·² è¢«
ä¸» å³°
èĬ Ļ
æ» ©
æĭī éĩĮ
çĲĨ è®º
åħ¨ çŁ¥
åĽłä¸º å¥¹
åľº åĲĪ
åįł æĺŁ
çº¸ æĿ¡
åĩºçİ° äºĨä¸Ģ
å¸Į å°Ķæĸ¯
åĢ¼ å®Ī
æ¸ħæ¥ļ åľ°
æĤ¨ æĺ¯
åįĬç¥ŀ åįĬ
æİĴ æĸ¥
ç¿» çľĭ
åĬŁ åĭĭ
æķĻåłĤ åĨħ
éļĶ ç¦»
ä¸Ģéģĵ äººå½±
åĨħéĥ¨ çľĭå®ĪèĢħ
æ°¸ æļĹ
æĬ± çĿĢ
ä¹Ķ ä¼Ĭ
éĽª æĽ¼
åķĨ éĩı
æĳ¸ äºĨ
æľīæķĪ çļĦ
é£ĺ å¿½
æ²¡åĨį å¤ļè¯´
çĦ¦ é»ĳ
å¾·å°Ķ åĬ³
åħ¨èº« çĽĶçĶ²
åįĬä¸ª å°ıæĹ¶
åį¡æĭī çī¹
æĥ© ç½ļ
æ··æ²Į æµ·
æīĢç½ĹéĹ¨ å¸ĿåĽ½
å¥¥åı¤æĸ¯ éĥ½
å¸Įå°Ķæĸ¯ é¡¿
Ġ ä»¥
Ġ åĻĹ
Ł çĸ«
çļĦ çģ°éĽ¾
çļĦ çľŁå®ŀ
çļĦ æ·±å¤Ħ
çļĦ çī¹æ®Ĭ
çļĦ æ¶Īæģ¯
çļĦ æĪ¿éĹ´åĨħ
ä¸į èĢģ
ä¸į å®¹æĺĵ
è¿Ļ æľ¬
åľ¨ åħĭèİ±æģ©
æĪĳ æĹłæ³ķ
æĪĳ ç¥Īæ±Ĥ
åħĭèİ±æģ© æīį
åħĭèİ±æģ© ä¸Ģä¸ĭ
çĿĢ èĩªå·±
èĥ½ çľĭè§ģ
èµ· åºĬ
æĥ³ ä¸įåĪ°
âĢĻ âĢ¦âĢ¦âĢĿ
åĢ º
åĬ¨ åĬĽ
åħī å½©
æł¼ éĽ·
å¥³ éĥİ
åĨį æĿ¥
ä¸İ å¯¹æĸ¹
è¿Ļä¸ª ä»»åĬ¡
åĪļ æľī
æĭī å¤«
æĭī ç±³
å±Ĥ éĿ¢çļĦ
éĵ¶ èī²çļĦ
ä¿Ŀ éĻ©
çķĻ ä¸ĭçļĦ
çĽ´æİ¥ å°±
åĿĲ èµ·
åĿĲ å§¿
åŃĺåľ¨ äºİ
è·¯ ä¸Ĭ
è¿Ĳ èĢħ
åıĮ åĢį
æŃ£å¸¸ æĿ¥è¯´
éľį æĭīç±³
æ·¡ æ¼ł
ç¾İ é£Ł
çĶļèĩ³ åı¯èĥ½
åĻ ĻçĿĢ
è¶ħ ä¹İ
æ¯« åįĩ
å¥³ç¥ŀ çļĦ
åİĨåı² æĬķå½±
å¼Ħ åĪ°
éļĶ çĿĢ
éĢģ åĪ°
çļĦå¤§ åİħ
Ġè¿Ļä¸ª çŀ¬éĹ´
éº» æľ¨
åģĩ äºº
æ®ĭ åŃĺ
åĳ½è¿Ĳ å¤©ä½¿
éª¨ å¤´
è´Ŀå°Ķ ä¸¹
å¾®å¾® çĤ¹å¤´éģĵ
èĭ¥ éĿŀ
å¯¹åºĶçļĦ åºıåĪĹ
åĿļ å®ļ
åľ°ä¸ĭ éģĹè¿¹
åłķèĲ½ éĢłçī©ä¸»
è¶ģ æľº
ç²ī ç¢İ
çĮľ åĪ°
ä½Ĳ çī¹
Ġä¸įçŃī åħĭèİ±æģ©
è°İ è¨Ģ
é¢ĳ ç¹ģ
åĵĴåĵĴ åĵĴ
è¹¬è¹¬ è¹¬
æ»ĳèħ »
æĮģæľī èĢħ
æ²»å®ī å®ĺ
æĹłè¾¹æĹł éĻħ
æĳ¸äºĨ æĳ¸
éľįæĭīç±³ åħĭ
h t
t ps
ï ½
Ġ ä¹ĭåīį
Ġ çĻ½éĵ¶åŁİ
Ġ åĩłç§Ĵ
Ġ çĦ¶èĢĮ
Ġ åĿ¦çĻ½åľ°è®²
Ġ ht
çļĦ çģ«
çļĦ åĽŀçŃĶ
çļĦ å°ģåį°çī©
çļĦ äºĨè§£
çļĦ è¡¨éĿ¢
çļĦ å¤´åıĳ
ä¸Ģ æĥ³
ä¸Ģ åĪĨ
æľī ä½į
æľī çļĦæĺ¯
è¿Ļ åĳ¨
è¿Ļ åľº
ä»ĸ çĶ¨
åľ¨ åģļ
æĪĳ ä¸įæĺ¯
åħĭèİ±æģ© çľĭè§ģ
éĤ£ åĲį
åĴ §
å°± çĿĢ
ä¸Ĭ å±Ĥ
èĥ½ ä»İ
ä¼ļ åĩºçİ°
å°Ķ æĽ¼
ä¹ĭ åĬĽ
ä¹ĭ é£İ
èĩª å¸¦
ä¹Ł åı¯èĥ½
åİ» åĵªéĩĮ
å¤ļ ä¸ª
å¤ļ äºĨä¸Ģ
åħĪ è¡Į
Ġä»ĸ çľĭè§ģ
åģļ ä¸ª
åģļ åĪ°
ç® Ń
æĺİ åĩĢ
å¥³ äºº
å¸¸ è§ģ
è¾¹ çļĦ
æīį éģĵ
é«ĺ å¤Ħ
è¡Ģ ç®¡
çº¢ èī²çļĦ
æĶ¶ å°¸
ç² ĺ
ç¾ ¡
çł ĸ
äº¤ ç»ĻäºĨ
åŁİ éķĩ
èĢĥ åı¤
çħ ¤
ç¼ĵ è§£
ĠéĤ£ å°±æĺ¯
å¸Į ä¼¯çī¹
è¡£ å¸½
åĬŀ åĪ°
è°ĥ åĬ¨
æłĩ å¿Ĺ
ä¹ĭåĲİ çļĦ
åĨĽ å®ĺ
ç¬¬äºĮ åįģ
ç¬¬äºĮ åĿĹ
èĦļ ä¸ĭ
æĭħ ä»»
èĬĤ åĪ¶
çŀ¬ æģ¯
æĻ® æĸ¯
åĩºäºĨä¸Ģ æĿ¡
çľŁçļĦ å¾Ī
æİĮæı¡ çļĦ
æ¿Ģ çĥĪçļĦ
åĲ« ç³Ĭ
æ¬¢ è¿İ
é¢ĩ æĦŁ
çķ¥æĺ¾ èĭįèĢģ
åĪĨéĴŁ åĲİ
åıĺæĪĲ äºĨä¸Ģ
å© ª
çªĥ è¿ĲèĢħ
éĿĴéĵľ å¤§éĹ¨
å·¦åı³ çľĭäºĨä¸Ģçľ¼
å´© è§£
æ²Ļåıĳ ä¸Ĭ
å¢ŀ å¼º
æµªè´¹ æĹ¶éĹ´
éļľ ç¢į
çļĦçĭ Ĥ
çĸ¼ çĹĽ
æ²īå£° è¯´éģĵ
æī§æİĮ å¥½è¿Ĳ
åĮĨ å¿Ļ
è¿ªè¥¿ æµ·
è´ª å©ª
è´¸ çĦ¶
Ġåĩłä¹İ æĺ¯
å«ģ æİ¥
èĦļè¸ı è½¦
èļķ èĮ§
ä½Ĳçī¹ åħ°
Ġht tps
Ġ åĳ¨
Ġ æł¼å°ĶæĽ¼
Ġ çĽ®éĢģ
Ģ åĦ
çļĦ æĸ°
çļĦ åĩĨå¤ĩ
ä¸į æĩĤ
æľī è°ģ
ä»ĸ çªģçĦ¶
æĪĳ åĨį
åĨ »
ä¸ª æľĪ
èĩ Ń
æĿ¥ èĢħ
åĳ ķ
æĹ¶ å¤©ä½¿
ä¹ĭ åĨħ
ä¹ĭ å¤ĸçļĦ
èĩª ä¿¡
æĬ Ħ
ä½ł å·²ç»ı
éļ ¶
çĤ¹ çĤ¹
å± ¹
è¯´ å¾Ĺ
æĪĲ ç¥ŀ
çľ¼ çªĿ
ä¸Ń å¹´
Ġä»ĸ åĪļæīį
çŃī åĲĮ
çŃī çī©åĵģ
æµ· åĽł
çĽ´ è§Ĥ
çĥ ¬
åįĬ å¹´
å¥¥ åĪ©
èĥ ³
è®° èµ·
è®¤ åĲĮ
çº³ å§Ĩ
å¾® å¦Ļ
åħ¨ èĥ½
åĹ ħ
æ¶Ī éĻ¤
æ°´ ä»Ļ
å¸ķ èİİ
æľº ä¸»æķĻ
æķ´ æķ´
åĲĦ æľī
å¸Į çº³å§Ĩ
è¿ŀ éĢļ
åģ¶ çĦ¶
åıĮ æİĴ
æĳĩ æĳĩæĻĥ
éķľ éĿ¢
ĠèĢĮ åľ¨
é¥ µ
ç»§ æī¿
èģĶ æĥ³åĪ°
è¶ħ è¿ĩäºĨ
å±ĭ åĨħ
èį¡ å¼Ģ
ä¸įåĨį éĤ£ä¹Ī
ç²¾ç¥ŀ ä¸Ģ
åı¤èĢģ å®«æ®¿åĨħ
ä¾ĿæĹ§ æĺ¯
åĤ ĢåĦ
å¡Ķç½Ĺä¼ļ ä¸Ĭ
æĺı è¿·
æµ®çİ° åĩºäºĨ
æľīäºº åľ¨
æĻĥ åĬ¨
ç¬¬ä¸ī åįģ
é¢ľ èī²çļĦ
å¼ĹèĲ¨åħĭ å¸ĿåĽ½
åħ¸ ç±į
çļĦç¾ Ĭ
åĲŀ æ²¡
å®½ æķŀ
å·¦è½® æīĭæŀª
æ³½ çĳŀå°Ķ
çº¯ç²¹ çļĦ
å¯Ĵ åĨ·
æĦŁåı¹ äºĨä¸Ģåı¥
æľªå¿ħ èĥ½
ä¸¾è¡Į ä»ªå¼ı
åģľæŃ¢ äºĨ
ç©ºæĥ³ å®¶
æĸŁéħĮçĿĢ è¯´éģĵ
ç¦ģ æŃ¢
é¢ĳ çİĩ
æĥ© æĪĴ
ç¥ŀè¯ĿçĶŁçī© å½¢æĢģ
è¾Ī åŃĲ
æŀ¢ æľºä¸»æķĻ
éĻ¤æŃ¤ ä¹ĭå¤ĸ
æ°¸æļĹ ä¹ĭæ²³
æĭīå¤« çī¹
è¿ªè¥¿æµ· æ¹¾
æµ·åĽł å§Ĩ
åıĮæİĴ æī£
æĳĩæĳĩæĻĥ æĻĥ
åĤĢåĦ ¡
Ġ æľĢåĲİ
Ġ äºİæĺ¯
Ġ æĹ¢çĦ¶
ħ èĨĢ
çļĦ å®«æ®¿
çļĦ æ¶²ä½ĵ
çļĦ è¯´æ³ķ
ä¸Ģ äºº
ä¸Ģ æ»´
ä¸į è¢«
ä¸į èĩ³äºİ
ä¸į æİĴéĻ¤
è¿Ļ æľ¬ä¹¦
ä»ĸ ä¸į
ä»ĸ èĩªå·±
åħĭ æĸ¯
æĥ ¶
åħĭèİ±æģ© å·²
çĿĢ æĢ¥
åĴĮ ä¼ĳ
æ²¡ çĶ¨
åŃ ½
ç¥ŀ åĽ½
å¤§ æ°Ķ
å¤§ ç¥Ńåı¸
ä½ł èĩªå·±
åĲİ æĢķ
äºĨä¸Ģ åľº
ä¹Ł è¦ģ
äºİ äºĨ
æı Ń
è®© ä»ĸçļĦ
çľ¼ çļ®
å¤© èī²
æļ Ħ
åĲĳ å¾Ģ
ä¸¤ ç§Ĵ
å®ĥ æĺ¯
éĹ¨ éĵĥ
é«ĺ å¸Įçº³å§Ĩ
è¿Ľ åº¦
æĪĸ å¤ļ
å°¼ æĭľ
çĭ Ń
ç©º éĹ²
æľª æľī
éª Ħ
æ±Ĥ è´Ń
åħ³ äºİ
è¥¿ å¤§éĻĨ
éĤ£ä½į éĢłçī©ä¸»
åĭ ĥ
æ¢¦ éĩĮ
æº ħ
ä¸Ģä½į ä½į
æĸĩ æĺİ
çİ¯ è§Ĩ
çļ® éĿ´
éĺ´ æ£®
é¢Ĩ åıĸ
é¥ ¼
å®¢ æ°Ķ
å¼Ħ å¾Ĺ
æľĽåĲĳ åħĭèİ±æģ©
æĢĢçĸĳ èĩªå·±
ä¸¤ä¸ª æľĪ
åħ´ èĩ´
éĻĨ ç»Ń
æķ² åĵįäºĨ
è¯¢ éĹ®éģĵ
åħ¶å®ŀ æĺ¯
é²ľ æĺİ
é²ľ çº¢çļĦ
çī¹æ®Ĭ çļĦ
ç»ıåİĨ è¿ĩ
åĳĪçİ° åĩº
å¯Ĵ æļĦ
éĩĳå±ŀ å°ıçĵ¶
åĺ¶ åĲ¼
æįı äºĨ
èµŀç¾İ å¥³ç¥ŀ
ç¿ĺ èµ·
åĲ» åĲĪ
ä¸įçŁ¥ä»Ģä¹ĪæĹ¶åĢĻ å·²
åĸĺ æģ¯
çļĦç¾½ æ¯Ľ
çļĦçªĹ æĪ·
ä¸Ĭæµģ ç¤¾ä¼ļ
ä¹Ķä¼Ĭ æĸ¯
å°¼æĭľ æĸ¯
Ġ èī¾å¾·éĽ¯å¨ľ
Ġ åİŁæĿ¥
ı åĺĺ
çļĦ å¥³æĢ§
äºĨ åĽŀæĿ¥
äºĨ ä¸Ĭåİ»
ä¸į å°ıå¿ĥ
åħĭèİ±æģ© ä¹Ł
åĪ° åºıåĪĹ
åĪ° æŀģçĤ¹
åľ° çļĦ
åĴĮ ä¸Ģ
èĥ½ çĽ´æİ¥
æĸ¯ è¯º
ä½ł å°±
ä½ł éľĢè¦ģ
ä½ł åĪļæīį
çĶŁ æĹ¥
æīĭ éĩĮçļĦ
å¤ļ éĹ®
éĹ´ æµ·
çŁ¥ åĲį
åģļ å¥½äºĨ
çľŁ çļĦæĺ¯
èĤ ¿
ç§į æĹı
è· ¨
è¡Į çļĦ
æıĲ éĺ²
ç¼ ī
é«ĺ å±Ĥæ¬¡
æĳ Ħ
ä¸ī è§Ĵ
å¥ĩ å¦Ļ
æĶ¾ åľ¨äºĨ
å¾® åħī
æĪ´ å¥½
æ£ ±
éĢļ ç¼ī
åĮĸ æĪĲäºĨ
åĶ ıåĺĺ
ä¸ĸçķĮ éĩĮ
åı¤ å¼ĹèĲ¨åħĭè¯Ń
ç¥Ĥ æĺ¯
éŁ³ ä¹Ĳ
ç³ ħ
èĢĥ ä¼Ĭ
åĿĲ çĿĢ
é»Ħ è¤Ĳèī²
èİ· åıĸ
éģĩ åĪ°äºĨ
æľīäºĨ äºĽ
çĵ ·
èĦ± æİī
å¥³ç¥ŀ åºĩä½ĳ
è®¤ä¸º èĩªå·±
åıĳçĶŁ çļĦäºĭæĥħ
ä¸įçŁ¥ è¯¥
Ġè¿Ļä¸ª è¿ĩç¨ĭéĩĮ
æĪĲåĬŁ çļĦ
æ¬¢ æĦī
è®¡ ç®Ĺ
éĢĢ åĩº
çĽĴ åŃĲ
èŀį åħ¥
æĤ¬ åĲĬ
ä»ĭç»į éģĵ
åĲŀ åĻ¬
å·¥ä½ľ äººåĳĺ
å¾ª çĿĢ
çĺ¦ åīĬ
èİ«éĽ·èĴĤ åħĪçĶŁ
åĩı å¼±
ä¸¹ é¡¿
æħĪåĸĦ åĬ©åŃ¦åŁºéĩĳ
æĭ§ åĬ¨
æ³Ħ éľ²
æĹ©æľī åĩĨå¤ĩ
è¿ŀçİ¯ æĿĢäººæ¡Ī
æ¸ħäºĨ æ¸ħ
ï½ ŀ
ä½Ĳçī¹åħ° è¡Ĺ
éªĦ åĤ²
èĢĥä¼Ĭ å§Ĩ
Ġ åºıåĪĹ
Ġ æĹ¶éĹ´
Ġ æĪ´èİī
çļĦ æĮĩ
çļĦ åĮºåŁŁ
çļĦ ç»Ħç»ĩ
è¿ ¦
âĢĿ ï¼ļ
ä¸Ģ å¯¸
æĺ¯ çľŁçļĦ
æľī å¾Īå¤ļ
ä»ĸ è¯´
æĪĳ æīĵç®Ĺ
åħĭèİ±æģ© åĲ¬å¾Ĺ
äºº åı£
åľ° çĤ¹äºĨä¸ĭå¤´
å°± æŃ¤
åŃ ķ
å¯¹ æ¯Ķ
ä½ł çľĭ
ä½ł çİ°åľ¨
äºĨä¸Ģ ä»¶
éĿ¢ å®¹
åĽŀ æĿ¥äºĨ
äºĭ é¡¹
çī¹ èī²
å¥¹ åľ¨
Ġä»ĸ è¯ĿéŁ³åĪļèĲ½
å°ı åħĭ
ä¸¤ åĳ¨
åĪĨ å¼Ģ
åĩł åı¥
éĥ¨ ä½į
éĴ ĵ
æĪĸ å°ĳ
èĬ ľ
è½¬ åĳĬ
å¾® ç¬ĳéģĵ
éĶ Ī
éĢļ è¯Ĩ
çľĭè§ģ çļĦ
èħ ®
ä¹¦ åĨĮ
åĿĲ çĽ´
å°ıå§Ĳ åĴĮ
å¸Į æĸ¯
åı¦ ä¸Ģä½į
è¿ľ çļĦ
æ¯ı å¹´
å¤« äººçļĦ
çŁ³ åĪ¶
æŃ£å¸¸ äºº
æĪ¿éĹ´ åĨħçļĦ
å®ĥä»¬ çļĦ
çı į
çļĦä¸Ģ éĥ¨åĪĨ
åı¦å¤ĸ ä¸Ģä¸ª
çĭĤ å¥Ķ
æ´Ľ èĢĢ
çĿ¡ çĿĢ
é¡¾ ä¸įå¾Ĺ
æĿĤ èįī
ç®Ģåįķ æĿ¥è¯´
åıĭ åĸĦ
çĽ¸ä¿¡ æĪĳ
é¡º æīĭ
åĶĲæ³°æĸ¯ çļĦ
åį· æ¯Ľ
åŀĭ çļĦ
è¯º æĸ¯
æ¼« éķ¿çļĦ
è¡ĢæĹı çļĦ
åľĨ å¡Ķ
ä¸Ģåı¥ è¯Ŀ
åĩłä¸ª æľĪ
åľŁ èĳĹ
éĴ» çŁ³
æĬĵä½ı æľºä¼ļ
åľ¨è´Ŀåħĭåħ°å¾· çļĦ
åĳ¨ä¸Ģ æ±ĤæľĪç¥¨æİ¨èįĲç¥¨
è¯Ī éªĹ
å±ı èĶ½
æĮ¤ åĩº
éģµ å®Ī
å¹ħåº¦ å¾Īå°ı
èĨĿ çĽĸ
ç»Ļäºº ä¸Ģç§į
å°ıå¿ĥç¿¼ç¿¼ åľ°
æļ´é£İ éĽ¨
é»Ħéĩĳæ¢¦æĥ³ åı·
é¬ĵ è§Ĵ
çļĦé»Ħ é»ĳä¹ĭçİĭ
çģµçķĮæİłå¤º èĢħ
æī§æİĮå¥½è¿Ĳ çļĦé»Ħé»ĳä¹ĭçİĭ
æĸ¯è¯º æĽ¼
æ¸ħäºĨæ¸ħ åĸīåĴĻ
F F
x FF
® ä¸§
Ġ å¾ĹåĪ°
ĩ å®
çļĦ å°±æĺ¯
çļĦ çº¸å¼ł
å® ĩå®
æĺ¯ éĿŀå¸¸
è¯ ĳ
è¿Ļ ä¸Ģæ¬¡
æĪĳ å½ĵæĹ¶
æ² ®ä¸§
èİ± çī¹
åħĭèİ±æģ© ä¸Ģçľ¼
éĤ£ åħ·
è¡ ħ
ä¼ļ åĳĺ
æĬ ¼
è¿ĩ éģĵ
èº« åĳ¨
çĤ¹ åįĬ
è¿ĺ åı¯ä»¥
è¿ĺ ä¸įå¤Ł
è¿ĺ æ´»çĿĢ
è®© ç¥Ĥ
å¿ĥ èĻļ
ä½ĵ çİ°
è¶ ĭ
æł¼ æĸ¯çļĦ
çľŁ æľī
çĻ½ è¡¬è¡£
è¡Į èĢħ
è¿Ļä¸ª å±Ĥæ¬¡
ä¸ī å¤§æķĻä¼ļ
åįģ ç§Ĵ
ä¹İ ä¹İ
æ²ī éĿĻ
æĶ¾ åĪ°äºĨ
è¡Ģ æ·ĭ
å¹´ åīį
æ¶Ī èŀį
åıį åĲĳ
éĵ¶ éķľ
è¶Ĭ æĥ³
ç³ Ļ
è¥¿ èĴĻ
æİĮ ä¸Ń
åĵª æĿ¡
çļĦäºº ä»¬
å°ģ éĶģ
ç¼ĵ åĴĮ
æİ¢ æīĭ
é² ¨
ç²¾ æ²¹
éĽħ å°Ķ
è¿Ļç§į æĸ¹å¼ı
çļ® åĪ¶
åŀ ł
ä¹Łä¸į æķ¢
æĥĬ æĦķ
åıªæľī è¿Ļæł·
åĳ¼ åĸĬ
ç§ĺåģ¶ çļĦ
äº¡ èĢħ
æľīä¸Ģ äºĽ
é¾Ļ æ³½å°Ķ
æ°ĳ ä¿Ĺ
åĲ« ä¹ī
æĽ¾ç»ı çļĦ
å¹³éĿĻ åľ°
èĩªçĦ¶ åľ°
æĮĳ è¡ħ
ä¸įéľĢè¦ģ åĨį
æİ¥è§¦ åĪ°
èŃ¦å¯Ł å±Ģ
å¥½å¥ĩ åľ°
æŁĲä¸ª åľ°æĸ¹
æľªæĿ¥ å¾ĹåıĬ
å¾®ç¬ĳ è¯´éģĵ
åĬªåĬĽ åľ°
éĩİ åħ½
åįļ éĽħå°Ķ
éĿĻéĿĻ åľ°
è¿ĺæ²¡ æĿ¥å¾ĹåıĬ
åŀĤ ä¸ĭ
é©± æķ£
ä¼ªè£ħ æĪĲ
éĩĩ çĶ¨
æ¬º éªĹ
ä¸įå¥½ æĦıæĢĿ
éĽĩ åĳĺ
æĺłçħ§ åĩºäºĨ
67 00
çļĦçł ´
åĪ«å¢ħ åĨħ
æµģæµª æ±ī
å¨ģå»ī å§Ĩæĸ¯
çĪ±å¥½ èĢħ
å¸Įå°Ķæĸ¯é¡¿ åĮº
æ°´ä»Ļ èĬ±è¡Ĺ
æĥ¶ æģĲ
æĪĸå¤ļ æĪĸå°ĳ
åį·æ¯Ľ çĭĴçĭĴ
å®ĩå® Ļ
è¥¿èĴĻ å¦®
5 000
Ġ åĨį
Ġ åĲĮæł·çļĦ
çļĦ ä¸į
çļĦ éŃĶèį¯
çļĦ è°ĥæŁ¥
çļĦ æĪ¿éĹ¨
äºĨ å¯¹æĸ¹
ä»ĸ ç»Īäºİ
æĪĳ æĢĢçĸĳ
æ² ¸
åĪ° èĩªå·±
ä¸ĭ å±ŀ
å°± åĴĮ
å°Ķ å®ī
å¤§ èĥĨ
ä½ł äºĨ
çĶŁ çĹħ
æĥ³ æĥ³
è¿ĺ éľĢè¦ģ
éĥ½ ä¸įä¼ļ
ä»Ģä¹Ī éĹ®é¢ĺ
è®© èĩªå·±çļĦ
å¤ļ æķ°
è¶ ´
æł¼ è¾¾
çľŁ è¦ģ
éķ¿ ç¤¼æľį
ç¼ ķ
ä»İ ä¸Ń
çĽ´ èµ·
ä½ı åľ¨
ä¸İ ä¹ĭåīį
è¡¨ éĿ¢çļĦ
æĽ´ åĥı
èµ° åľ¨
éĩĳ è¾¹
æħ ķ
ä½ľ èĢħ
æļĹ èĹı
æŃ» åĲİ
çģ° çĥ¬
åı¤ æĸ¯å¡Ķ
æĬ¥ èŃ¦
ä¿Ŀ åŃĺ
ä¸Ģä½į åįĬç¥ŀ
è´Ŀåħĭåħ°å¾· å¤§éĽ¾éľ¾
èĻļ æĭŁ
ä¾Ŀ èµĸ
è¡£ è£Ļ
è¿ŀ åĲĮ
ä¼ĳ åĴĮä½Ľå°ĶæĢĿ
æĹ© ä¸Ĭ
å² ©
ä»¿ä½Ľ è¢«
å¼Ģåı£ è¯´éģĵ
åĨĻ ä¸ĭäºĨ
éĶĻ æĦķ
æĶ¯ æŁ±
å¹¶ä¸į å¤ļ
æīĺ åĭĴ
æĢªçī© çļĦ
æī¿ è®¤
çľŁæĺ¯ è®©äºº
åİ»äºĨ åĵªéĩĮ
ä¿® æĶ¹
æ·· æĿĤ
æĵįçºµ å¸Ī
ç¡¬ å¸ģ
ä»£è¡¨ çĿĢ
åįļ æł¼è¾¾
åľ£èµĽ çĲ³å¨ľ
çļĦå¥³ åŃĲ
æŁ¥å°¼æĸ¯éĹ¨ åĲİ
è¯Ħ ä»·
æ²¾ æŁĵ
è´´èº«çĶ·ä»Ĩ çĲĨæŁ¥å¾·æ£®
æįĤ ä½ı
çĪ· çĪ·
ĠéľįçĦ¶ ä¹ĭéĹ´
å°ĸé¡¶ è½¯å¸½
ç¥ŀæĪĺ éģĹè¿¹
æ·» åĬł
å®¡è®¯ èĢħ
å§ĳ å¨ĺ
æĶ¶å°¸ äºº
èĢĥä¼Ĭå§Ĩ åħ¬åı¸
åı¤æĸ¯å¡Ķ å¤«
2 2
Ġ è¿Ľåħ¥
Ġ åĲĮæĹ¶
çļĦ æ³¨è§Ĩ
çļĦ åĲįåŃĹ
çļĦ æĦıå¿Ĺ
åĲ ķ
å® ı
ä¸į è¯´
æľī ä¸¤
ä»ĸ å·²
ä»ĸ å¹¶ä¸į
éģ ¥
åħĭèİ±æģ© æļĹ
åħĭèİ±æģ© è¿ħéĢŁ
åĴ ½
åĪ° æĿ¥
åľ° ä¸ĬçļĦ
å°± æĦıåĳ³çĿĢ
åĴĮ é©¬éĩĮå¥ĩ
ä¸Ĭ æł¡
ç¥ŀ çģ¯
ç¥ŀ èģĮäººåĳĺ
ç¥ŀ åŃ½
å¤§ æĦı
å¤§ çīĩ
æĸ¯ åİĦ
ä½ł è®¤ä¸º
çľĭ åĲĳäºĨ
ä½į æĪĲåĳĺ
å± İ
é¢ Ĥ
æĸ¹ å½¢
èĦ Ĭ
å¾Ī é«ĺ
Ġè¿Ļ ä¹Ī
ä¸İ ä»ĸ
ä¸İ æŃ¤åĲĮæĹ¶
åı¯ä»¥ çĶ¨
æĽ´ æį¢
è§£ çŃĶ
çĭ °çĭŀ
æĭī å°Ķ
å¦Ĥæŀľ æĪĳ
åĽĽ ä½į
ä¿Ŀ çķĻ
æĺŁ çģµä½ĵ
é»ĺ å¥ĳ
è¿Ļæĺ¯ æĪĳ
æµģ ä¼ł
åĪļæīį éĤ£
è¢ĭ éĩĮ
è¿ľ è¿ľ
ç¤¼ çī©
è´¨ åıĺ
çĻ½éĵ¶ ä¹ĭåŁİ
åı« ä»Ģä¹Ī
æīĺ æĸ¯
ä»»ä½ķ äºº
çº¯ éľ²
è¡¥ åģ¿
æµ·çĽĹ ä»¬
æ²īé»ĺ åľ°
æŃ¤æĹ¶ æŃ¤åĪ»
çĿĢä¸Ģ å¼ł
åı¬åĶ¤ åĩº
åħĪçĶŁçļĦ çľ·èĢħ
åĤ »
ç¥Īç¥· åħīçĤ¹
é¢ĩ æľīçĤ¹
æ¶ĪåĮĸ å®Į
é¬¼ éŃĤ
ç¬¬åĽĽ åįģ
éĶģ å®ļäºĨ
çĥ¦ æģ¼
çļĦçĪ ±
ä½İæ²ī å¼Ģåı£éģĵ
æĳ¸ ç´¢
æĬĺ å¥½
æĬĵä½ı è¿Ļä¸ªæľºä¼ļ
åįļ çī©
ç£ ħ
å¼Ħæ¸ħæ¥ļ äºĨ
è¤Ĳ èī²çļĦ
æĦī æĤ¦
çĶµæĬ¥ å±Ģ
åįı è°ĥ
èŃ¦æĥķ åľ°
ä¸įæŃ» ä¹ĭçİĭ
æ¡¥ åĮºåŁŁ
æ¾ Ī
æ°Ľ åĽ´
èĭ± ä¿Ĭ
åĪ©ç»´ å¸Įå¾·
åģļå¥½ åĩĨå¤ĩ
çģ¿ çĥĤçļĦ
åıĶ åıĶ
å«Į çĸĳ
åĭĩæķ¢ èĢħ
æįıäºĨ æįı
æĸ¯åİĦ éĺ¿
ä¸ ģ
çļĦ èĩªå·±
çļĦ ç¥ŀç§ĺ
çļĦ çĶŁçī©
çļĦ éĢīæĭ©
çļĦ çĽ®çļĦ
çļĦ æĬ¥éħ¬
çļĦ çľ¼ç¥ŀ
æĺ¯ ä»İ
ä¸į åĩºæĿ¥
å¥ ´
å¼ ĵ
åħĭèİ±æģ© å¿µå¤´
éĤ£ æłĭæĪ¿å±ĭ
äºº å£«
åľ° çĤ¹äºĨçĤ¹å¤´
å¤§ éģĵ
ä¸º æŃ¢
ä½ł ä¹Ł
ä½ł è¯´
ä»¥ æīĭ
è¿ĺ åİŁ
è¿ĺ æľªæĿ¥å¾ĹåıĬ
åıª çŁ¥éģĵ
ç« ŀ
ä»Ģä¹Ī ä¹Łæ²¡
åħĪ åİ»
ä¾ ĥ
åģļ èµ·
æİ¥ è¿ĩäºĨ
åĲĮ ä¸Ģä¸ª
åħī çĲĥ
å¤ĸ åľ¨
æľ¬ å°±
åĪĨ åī²
æķĻ è®Ń
åĨį éĹ®
ç¬¬ åħŃåįģ
æī¾ ä¸ª
æŃ» åľ¨äºĨ
æŃ» å°¸
æĭī å¼ĢäºĨ
å¾® å¼±
éĶ ¤
éĶ ĭ
åĲĪ åĲĮ
åĲĪ éĢĤ
åĹ ¦
äºļ å¨ľ
èĲ½ åĪ°
æĺ¾ ç¤º
ä»ĸçļĦ èº«ä½ĵ
æ¢¦ è§ģ
èµ·æĿ¥ çļĦ
èĥĮ éĥ¨
ä¸Ģæ¬¡ åıĪä¸Ģæ¬¡
èĤ¯å®ļ æľī
èĤ¯å®ļ èĥ½
æŀģ èĩ´
æĴ ¼
æ¸ħæ¥ļ äºĨ
æĻļ å®´
è°ģ çŁ¥
å±ķ ç¤º
æķ° åŃĹ
èİī äºļå¨ľ
çŁŃ æ¯Ľ
å¿ħé¡» æľī
é²ģ æĸ¯
ç¬¬äºĮ æ¬¡
å±ĭ é¡¶
Ġè¿Ļæĺ¯ ä»ĸ
åħ¶ä»ĸ æĪĲåĳĺ
æ¿Ģ åıĳ
æĬµ æĬĹ
åħ± åĴĮ
å±Ģ éĿ¢
ä¿ĿæĮģ ä½ı
æ¶ĪåĮĸ æİī
çģ°çĻ½ çļĦ
åľŁ è±Ĩ
çĽĺ æĹĭ
è¶ħåĩ¡ çĶŁçī©
éĤ£çīĩ ç¥ŀç§ĺç©ºéĹ´
éĩįå¤į èµ·
è¯µå¿µ éģĵ
å¤¹ åħĭ
å¯Ĵ é¢¤
å« ©
å¾·ç»´å°Ķ çĪµå£«
Ġè¯´è¯Ŀ çļĦåĲĮæĹ¶
åįı ä¼ļ
åĽĽä¸ª èĦĳè¢ĭ
åİ¨ å¸Ī
çģ°éĽ¾ä¹ĭä¸ĬçļĦ ç¥ŀç§ĺ
çģĮ æ³¨
çİĽä¸½ å¤«äºº
å¤įä»ĩ èĢħ
åħīä¹ĭ ç¥Ńåı¸
çļ±èµ· çľīå¤´
æĦļ å¼Ħ
ä¾§è¿ĩ èĦĳè¢ĭ
æģŃ æķ¬
å®«å»· éķ¿è£Ļ
ä¹¦ä¸Ń ä¸ĸçķĮ
èĤĸåĥı çĶ»
é¥¶ æľī
åĲķ å°Ķå®ī
0 7
Ġ äºİ
Ġ ç¡®è®¤
Ġ å¿µå¤´
Ġ é©¬éĩĮå¥ĩ
Ġ ä¹Ŀå¤©ç¥ŀçļĩ
çļĦ æ·±
çļĦ è±¡å¾ģ
çļĦ èµĦæĸĻ
çļĦ è®°å¿Ĩ
çļĦ éĺ³åħī
çļĦ é¦ĸé¢Ĩ
ä¸Ģ æĬĸ
ä¸į æŃ£å¸¸
ä»ĸ çľ¼åīį
åľ¨ ä¸Ĭ
æĪĳ è§īå¾Ĺ
è§ ħ
åħĭèİ±æģ© ç¬ĳçĿĢ
éĤ£ éĿ¢
çĿĢ éĹ®éģĵ
åĩº å¤´
æ²¡ è¢«
ä¹ĭ äºº
ç¥ŀ è°ķ
åĲİ æĤĶ
æ³ £
çľ¼ æ³ª
éĹ® åĢĻ
æĦı æĦ¿
åĿ Ł
å¤ĸ å½¢
è¡Į é©¶
åĩł å¹´
çĲ ¢
æ¢ §
æĤ ¯
ç¬¬ åħŃ
ä¸ī æ¥¼
æħ ĳ
æŃ» åľ¨
éĢļ ä½ĵ
æĪĳä»¬ ä¼ļ
äºļ åĪ©
äº¤ è°Ī
åŁİ å¸ĤçļĦ
è¿Ļæĺ¯ åľ¨
åºĶè¯¥ ä¸įä¼ļ
åľ£ åĿĽ
æĸĩ èģĮäººåĳĺ
åĪĿ æ¬¡
æĪĲä¸º éĿŀåĩ¡èĢħ
æĢ» è®¡
æĴ ¤
å®Įåħ¨ æ²¡
çģ°éĽ¾ä¹ĭä¸Ĭ ç¥ŀç§ĺç©ºéĹ´
ç¬¬ä¸Ģ æĹ¶éĹ´
ç¿» éĺħ
çĮİ æĿĢ
è°¢ å°ĶæĽ¼
ä¹° ä¸ĭ
æ²¡ä»Ģä¹Ī è¡¨æĥħ
æıĲåīį æĽ´æĸ°
ä¸ĩ çī©
å¼¥ æĴĴ
ä¸¾ æĬ¥
äº§çĶŁ çļĦ
åĳ¢ åĪ¶
ç¼ĺ çĶ±
å¸Ń åį·
æī« è¿ĩäºĨ
å¿½ æľī
çİ« æŃĮ
éĺ» ç¢į
å¥¥å°Ķ ç±³å°Ķ
èĭįçĻ½ çļĦ
åħ¸ éĽħ
èµ°äºĨ è¿ĩåİ»
çİ»çĴĥ çªĹ
åĪ· åľ°
å®ĿçŁ³ çļĦ
æīĳ éĢļ
ä¸įäºĨ å¤ļä¹ħ
è¶ģ çĿĢ
æīĭæĮĩ è½»æķ²
ç¯ ĩ
ç¨į æľī
æľ¬è´¨ ä¸Ĭ
è¾ī èĬĴ
ç¬¬äºĶ åįģ
æ¸´ æ±Ĥ
èĢ¸ ç«ĭ
æĳĺ æİī
èª ī
åĪ©ç»´ çī¹
èĪ° éĺŁ
åĴļåĴļ åĴļ
éĩĳæ¯Ľå¤§çĭĹ èĭıèĮľ
å·¡ éĢ»
ç¬¬ä¸ĥ åįģ
éĽĦ ä¼Ł
æķĻåĶĨ èĢħ
äºļåĪ© æĸ¯å¡Ķ
Ġ éľįå°Ķä¼¯çĪµ
çļĦ è¡£çī©
çļĦ åħ³ç³»
çļĦ ç»ĨèĬĤ
ä¸Ģ åįĥ
ä¸Ģ æłĭ
è¿Ļ å¯¹
ä»ĸ äºº
ä»ĸ çİ°åľ¨
ä»ĸ çĽ¸ä¿¡
åľ¨ ä»ĸçļĦ
æĪĳ è¿ĺæĺ¯
åħĭèİ±æģ© é»ĺé»ĺ
éĤ£ æĪĳä»¬
æİ ª
å°± çŃīäºİ
æ²¡ çĽ´æİ¥
å¤§ æ¡¥
ä½ł å¿ħé¡»
äºĨä¸Ģ æŃ¥
çľĭ èĥ½åĲ¦
æĥ³ åģļä»Ģä¹Ī
åīį ä»»
å¼Ģ æĶ¾
å¤´ é¹°
æĹł å¤´
åĬ¨ çĶ¨
äºĽ ä»Ģä¹Ī
å®¶ ä¸Ń
æł¼ çļĦ
éķ¿ æĿ¡
èĤ ¥
åĪĨ æĪĲ
æıĲ äº¤
åĨį ä¹Ł
ä¿¡ å°ģ
ç¬¬ åħ«åįģ
èµ° ä¸ĭ
ä¸ī çĤ¹
ä¸ī æ¬¡
åĲ¬ è¿ĩ
æ¡ Ĩ
å¾® ç¼©
åİŁ ä¸»
å·¨ åīĳ
çŀ ¥
å¤©ä½¿ çļĦ
å¡Ķ å°Ķ
ä¸Ģä½į åºıåĪĹ
åį´ æĺ¯
ä¼¦çº³å¾· åĴĮ
åĪĩ æĸ¯çī¹
èĹı èº«
ç§ĳ å¡Ķå°Ķ
å¨ģ å¾·
äºĨåı£ åĶ¾
è¿Ļä¹Ī è¯´
æİ¨ æĸŃ
åĽ½ å®¶
ä¸ľ åĪĩæĸ¯çī¹
æ¡Į çĲĥ
ç»§ èĢĮ
å·¥ åħ·
èģĶ åĲĪ
è£ħ é¥°
çĳ Ļ
çĻ¾ åĪĨä¹ĭ
åĸľ çĪ±
çļĦä¸Ģ åĳĺ
åĮħ å®¹
åĲĮæł· å¦ĤæŃ¤
æľŁ éĹ´
æĹĭ è½¬
æĹĭ å¾ĭ
è¿½ å¯»
å¿ĥçĲĨ æļĹç¤º
æĢ¥ äºİ
å¸Ĥ æ°ĳ
é¡º çĿĢ
ä¿® å»º
åħ± æľī
å®¹æĺĵ è¢«
ç¨³ ç¨³
é¸ ¦
æĺ¯ä»Ģä¹Ī æł·åŃĲ
ç¬¬ä¸ĢçĻ¾ éĽ¶
å¹´è½» äºº
è¯¥æĢİä¹Ī åģļ
çİĽ çĳĻ
è¿Ļçīĩ æµ·åŁŁ
é£ĺ æ¸º
åĽŀèį¡ äºİ
å¤±è´¥ äºĨ
è¯Ńè¨Ģ éģĵ
é¹ ħ
è¯± é¥µ
æ±ĩ èģļ
ä¾ĭ åŃĲ
äºļä¼¯æĭīç½ķå®¶æĹı çļĦ
åĩĨç¡® åľ°
æľĿ ä¸Ĭ
çļĦä¸Ń å¹´çĶ·åŃĲ
åĺ¿ åĺ¿
èįĴ èĬľ
åĩı å°ĳ
åħĪæĺ¯ä¸Ģ æĦ£
è¡Įèµ° äºİ
å°ĺ åŁĥ
Ġä¸ĭä¸Ģç§Ĵ éĴŁ
ä¸įå¿«ä¸įæħ¢ åľ°
è¡Ģæ·ĭ æ·ĭ
åįļçī© é¦Ĩ
Ġ å¥½
Ġ ä¸¤
Ġ ä¸ºäºĨ
Ġ çŀ¬æģ¯
çļĦ è¾¾å°¼åħ¹
çļĦ éĿĴ
çļĦ è¯Ńæ°Ķ
çļĦ ç»ıåİĨ
äºĨ æĪĳçļĦ
äºĨ è¿ĽæĿ¥
äºĨ åįģåĩłç§Ĵ
ä¸Ģ çķª
åĪ ĳ
ä¸į ç¬¦åĲĪ
æĸ ©
åľ¨ æµ·ä¸Ĭ
åľ° ä»İ
åĴĮ åĲĦç§į
ä¸Ĭ æľī
èĩª æķĳ
ä½ł ä¼¼ä¹İ
æŀ ķ
å¾Ĺ åĩº
å¾Ĺ æĽ´
çľĭ éĹ¨
åĽŀ åĳ³
å¿ĥ æĢĿ
å¿ĥ åºķ
æĹł åŀł
ä¸Ģä¸ª æľĪ
æŁ ©
è¢« åĬ¨
åģļ ä¸Ģæ¬¡
æİ¥ ä¸Ģä¸ª
åĿ ª
å½ĵ å½ĵ
ä¸» å¯¼
è®¤ åı¯
èĬ ½
ç»Ļ å¥¹
æľĪ åĨķ
ä¸ī æĺ¯
è§£ æķĳ
æĶ¾ è¿ĩ
çº¢ åıĳ
æĶ¶ èĹı
åĪ© äºİ
åħ³ èĬĤ
è¿ĻéĩĮ æľī
ä¼¼ä¹İ å·²
èħ Ķ
è¶Ĭ å¤ļ
å¯Ĩ å°ģ
ç¿ ł
ä¹¦ æŀ¶
åĩºæĿ¥ äºĨ
åį´ æĹłæ³ķ
èī¾ æł¼æĸ¯
è¿ľ åİ»
äºĶ åĪĨéĴŁ
åĲ¸ æĶ¶
å¯» è§ħ
éĵģ åįģåŃĹ
é¡¶ éĥ¨
éĿŀåĩ¡çī¹æĢ§ çļĦ
æĬĵ ç´§
èµŀ åı¹
é¡¾ å®¢
æĬ½ è±¡
ä¸įåĨį æĺ¯
åĵĪ å¨ľ
æ²īé»ĺ äºĨåĩłç§Ĵ
æĸ¯çī¹ æĭīå°Ķ
é²ģæģ© æħĪåĸĦåĬ©åŃ¦åŁºéĩĳ
è§Ħ æ¨¡
æĬ¤ èº«
èĨ Ĭ
å°¾ å·´
çĬ¶ çļĦ
æ¼« éķ¿
éĺ² æŃ¢
çĥŁ æĸĹ
åĽ° æī°
èįī åĿª
æĹłå½¢ ä»Ĩå½¹
çĺ Łçĸ«
çļĦçĪ Ĩ
ä¾§å¤´ æľĽåĲĳ
äºĭä»¶ çļĦ
æ·±çº¢ æľĪåĨķ
æī¬ èµ·
èģĬ å¤©
å®½ æħ°
è¿·éĽ¾ å°ıéķĩ
çª¥ æİ¢
èĪĴ æľį
æīĵéĩı äºĨ
è¿Ļæĸ¹éĿ¢ çļĦäºĭæĥħ
çīĽ å¥¶
ä»¿ä½Ľåľ¨ æĢĿèĢĥ
å¥¶ æ²¹
æ£º æŁ©
åĸ· èĸĦ
æīĢæľīäºº éĥ½
æĢľ æĤ¯
å¾ĺå¾Ĭ äºİ
çĭł çĭł
çģ¿ çĥĤ
èĤ¢ ä½ĵ
å¿ĥæĻº ä½ĵ
åŀ® å¡Į
æ¸Ĺ éĢı
ç½®èº« äºİ
èĥ³ èĨĬ
ç³ħ åĲĪ
åħ±åĴĮ åĽ½
Ġ å¼Ĺåħ°åħĭ
Ġ çĶ±äºİ
ĩ æ·ĭ
çļĦ æķħäºĭ
çļĦ åĲįç§°
ä¸į ç»ı
ä¸į ä½İ
ä¸į åĲ«
æĪĳ æĿ¥
æĪĳ æ²¡
éĿ ©
éĤ£ åĽ¢
ç§ ĭ
æĭ Ń
ä»¥ åħį
èµ· äºĨä¸Ģ
çĤ¹ äº®
å¥½ è½¬
éĥ½ ä¸įæĺ¯
å¾Ī æĦŁåħ´è¶£
ç© ¹
åģļ ä¸ĢäºĽ
æ· ĩæ·ĭ
ä½Ĩ å¥¹
çľŁ åĲį
ä¸¤ å£°
éķ¿ åĩºäºĨä¸Ģ
éķ¿ æŀª
èĴ ĤçļĦ
å¼ł æľĽ
åĬł åħ¥äºĨ
èĲ½ åľ¨äºĨ
åıį å°Ħ
å¤ľ éĩĮ
åĵģ å°Ŀ
è¶Ĭ é«ĺ
æĢİ æł·çļĦ
éĢł æĪĲçļĦ
æĸ° å¹´
èĴĻ çī¹
å½¢ å®¹
ä¼¦çº³å¾· çļĦ
ĠéĤ£ æĺ¯ä¸Ģ
Ġå¥¹ éļıåį³
çģ« çĲĥ
æĦŁè§ī åĪ°äºĨ
åĲ¦ å®ļ
çħ§ åħ¥
åĽŀåºĶ äºĨ
åįĬç¥ŀ çº§
å¿½çĦ¶ çľĭè§ģ
æľ¨ åĪ¶
æľ¬èº« å°±æĺ¯
åħīèĬĴ çļĦ
å¹² æİī
éĢģ ä¸Ĭ
éŃĤ çģµ
ç²¾ç¥ŀ çĬ¶æĢģ
åĨ° æ·ĩæ·ĭ
åıªè¦ģ èĥ½
èģļä¼ļ éĩĮ
çĵ¦ è§£
å¼± çĤ¹
å½Ĵ æĿ¥
å¯Į è±ª
ä¸»åĬ¨ åľ°
è¿ª å°Ķ
çĥŃ éĹ¹
ç¬¬ä¸ī çºª
éĤ£æł· ä¸ĢæĿ¥
å°¤ éĩĮæĸ¯
æĳ¸ äºĨä¸ĭ
æīĢåľ¨ çļĦä½įç½®
åĭ¾åĭĴ åĩº
æ°´æĻ¶ çĲĥ
åħ°å°Ķä¹Į æĸ¯çļĦ
çĭĹ å±İ
åĺ² è®½
ç©ºæ°Ķ éĩĮ
çº¸äºº æĽ¿èº«
çīĽ èĤī
å¼Ł å¼Ł
ç«ĸ çĽ´
ä¸ĬåįĪ å¥½
æ¥¼æ¢¯ åı£
çļĦä¸Ń å¹´
ç½ª çĬ¯
çĤ® å¼¹
åīįæıĲ ä¸ĭ
ç©¿è¶Ĭ èĢħ
åĲĪçĲĨ çļĦ
è®¸æĦ¿ ç¥ŀçģ¯
åį¢ åħĭ
åį¢ åį¡
åª Ĵ
çģ°èĴĻ èĴĻ
å¹½èĵĿ å¤įä»ĩèĢħ
æĿĤçī©åłĨ éĩĮ
å®ĪæĬ¤ èĢħ
åĽ¾åĿ¦è¥¿æĸ¯äºĮä¸ĸ æľ¨ä¹ĥä¼Ĭ
æĪıæ³ķ å¤§å¸Ī
07 82
å°¤éĩĮæĸ¯ å®ī
6 2
Ġ æĺ¯
Ġ æİ¥ä¸ĭæĿ¥
Ġ åĴļ
çļĦ å¢Ļå£ģ
çļĦ æ¨¡æł·
äºĨ æĮī
ä¸Ģ æ¨¡
ä¸Ģ è¶Ł
ä¸į éĤ£ä¹Ī
æľī ä¸¤ä¸ª
è¿Ļ æ®µ
æĹ Ĺ
çľ ©
åľ¨ åįĬç©º
æĪĳ ä»İ
æĪĳ åĪļ
éģĵ å°Ķ
éĹ ¯
åľ° åľ¨å¿ĥéĩĮ
ä¸ĭ åĳ¨
æ²¡ æĢ¥çĿĢ
ç¥ŀ ä½¿
æĪĲ äº¤
æīĭ èħķ
å¤´ æĿ¥
çī¹ è´¨
éĥ½ å°Ĩ
æĹł å°½
æİ¥ ä½ı
åıĪ èĥ½
åħī åįİ
ä¸½ èĬĻ
éĺ¿ è¾¾å°Ķ
å®ī æł¼å°Ķ
åįĬ å¼ł
èµ° åħ¥äºĨ
æŃ¤ äºĭ
ä¼¦ æĸ¯
è½¬ è¿Ĳ
éļĲ èº«
æĶ¾ åĪ°
å¾® è½¬
åĳ¨ èĸª
æĪĳä»¬ åı¯ä»¥
è´Ŀ æĭī
æ¼ ±
èĲ½ çļĦ
èĲ½ äºİ
åıį å¯¹
æĬ¥ éĶĢ
æĮĩ çļĦæĺ¯
èħ ĭ
çº¿ äºº
é©¬ åĮ¹
åıªæĺ¯ åľ¨
åį´ åıĳçİ°
å°ģ çļ®
åĪĩ åľ°
çĹ ¹
åį± æľº
åľ¨äºĨ åİŁåľ°
è¿Ļä¹Ī å¿«
ä½łä»¬ åı¯ä»¥
å¼Ģåı£ äºĨ
âĢĻï¼Į âĢĺ
ĠèĢĮ è¿Ļä¸ªæĹ¶åĢĻ
åĨ· å³
éĴŁ æ¥¼
æĦ¿ å¥³ç¥ŀåºĩä½ĳ
éĻĦ å¸¦
è¿· ç³Ĭ
åİĨåı² çļĦ
è¿½ æ±Ĥ
éº» çĹ¹
èĽ ®
èĽ Ľ
æ®ĭ ä½ĻçļĦ
çļĦæīĭ æ®µ
çļĦä¸» æĿĲæĸĻ
åįĹ å¨ģå°Ķ
ç§¯ èĵĦ
å¹´è½» çĶ·åŃĲ
ç¢° æĴŀ
æĥ¨ éģŃ
æŀĲ åĩº
ä¼ĺ éĽħ
è¯§å¼Ĥ åľ°
ä¸ĢåĪ» éĴŁ
æĦŁæħ¨ äºĨä¸Ģåı¥
åĴĸåķ¡ é¦Ĩ
æĮ£ èĦ±
çĩĥçĥ§ çĿĢ
äºĨä¸¤ç§Ĵ éģĵ
ç»ĿæľĽ éŃĶå¥³
çī¢ çī¢
åİĦ éļ¾
ç¤¼è²Į åľ°
èķ´ åĲ«
çŃĶåºĶ äºĨä¸ĭæĿ¥
æĸ¯åĿ¦é¡¿ åħĪçĶŁ
åĲĦç§įåĲĦ æł·
æĳĺ ä¸ĭ
å¥ī çĮ®
èģļåĲĪ å®ļå¾ĭ
åĲĲæ§½ äºĨä¸Ģåı¥
Ġä¸Ģéģĵ éģĵ
ç¬ĥ å®ļ
ç¬ĳä¸Ģå£° éģĵ
å°ļ æľª
éŃħ åĬĽ
å¼łäºĨå¼ł åĺ´
åıĳèĩª åĨħå¿ĥ
éĺ³çĤİ ç¬¦åĴĴ
å®¾ å®¢
æĪªçĦ¶ ä¸įåĲĮ
æĭīéĩĮ æĺĤ
ä¸ĢåĪĨ ä¸Ģç§Ĵ
ç²ĺ ç¨ł
çİ«æŃĮ åºĦåĽŃ
éĵģåįģåŃĹ è¡Ĺ
æĬ¤èº« ç¬¦
ç©¹ é¡¶
åªĴ ä»ĭ
å®īæł¼å°Ķ å¨ģå¾·
Ġ çŃīå¾ħ
Ġ æķ´ä¸ª
Ġ è¯ĿéŁ³åĪļèĲ½
Ġ åĵĲå½ĵ
Į è±Ĩ
Ŀ éħ¿
çļĦ ä½Ľå°ĶæĢĿ
çļĦ é£Łçī©
çļĦ å¿ĥæĥħ
çļĦ çī¹çĤ¹
çļĦ å°½å¤´
çļĦ ä¸ĭèĲ½
ä¸Ģ ç¼©
ä¸Ģ åĪĨéĴŁ
åĲ µ
æĺ¯ ä½ł
åĩ ¹
æģ ĭ
ä»ĸ çľĭè§ģäºĨ
æĪĳ åºĶè¯¥
éģĵ éĻ¢
æ² ģ
éĤ£ æĹ¶åĢĻ
çĿĢ ä»ĸ
çĿĢ çľ¼çĿĽ
åľ° å¯¹
åĴĮ æ¢ħä¸½èİİ
ä¸Ĭ åĳ¨
ä¼ļ åıĳçĶŁ
å¤§ äºĭ
æ³ ¼
æ³ Ĭ
ä»¥ ä¾¿
æĥ³ éĹ®
å¾Ī æĺ¾çĦ¶
åĨħ èĦı
è§ģ éĹ»
æĹł äººçļĦ
å°ı åģ·
è¢« ä»ĸ
è¢« ç¼ļ
åģļ åĩĨå¤ĩ
åı£ çĲ´
åĲĮ æĥħ
åĲĮ èī²
çľŁ è¯Ŀ
çļĦç Ĩ
çļĦç ı
ç¬ĳ å£°
ä»İ èĻļç©º
åĨį åİ»
é«ĺ èĢ¸
ä¿¡ å¥ī
åįĬ éĢıæĺİçļĦ
éħ Ŀéħ¿
èµ° åħ¥
èĬ ĤçļĦ
æľĪ åĪĿ
ä¸ī ç§į
è½¬ è½®
éļĲ åĲ«
è± Įè±Ĩ
éļ¾ åħį
åı¯èĥ½ çļĦ
ä½İ åĵĳ
ç»ĵ å©ļ
åľº éĿ¢
å·¨ äººçļĦ
ç©¿ ä¸Ĭ
è¥¿ éĩĮæĸ¯
å¹³ å¸¸
è¿Ļæĺ¯ åĲ¦
åĽ¾ æ¡Ī
ĠéĤ£ æĺ¯ä¸Ģä¸ª
è¿ĺæľī ä»Ģä¹Ī
è¿ĺæľī åĪ«çļĦ
é² ¸
é£ŀ åĩº
è°ĥ ä¾ĥ
Ġä¸į ç®¡
Ġä¸į æĦ§æĺ¯
èĤī ä½ĵ
æĮī äºĨæĮī
çĵ ľ
ç¬¬ä¸Ģ åĿĹ
ç¾İ çļĦ
å¥Ĺ çĿĢ
ä¹Łè®¸ ä¼ļ
åĩĿ è§Ĩ
éĺ¿åħ¹åħĭ åħĪçĶŁçļĦ
é»ĳæļĹ ä¸Ń
å£ģ çģ¯
åĨ° åĩī
æĻº åķĨ
æĥħç»ª çļĦ
é²ģæģ© äºº
ä¹° äºĨ
æĽ¾ç»ı æĺ¯
ä¿® éģĵéĻ¢
è½»è½» çĤ¹å¤´
çĵ¦ åĵĪå¨ľ
æ´Ĺ æ¼±
çļĦæīĭ å¥Ĺ
æĪĲçļĦ åįķçīĩçľ¼éķľ
åĺ´è§Ĵ éģĵ
é¦Ļ æ§
çĤ¹äºĨ åĽĽä¸ĭ
ç¬¬ä¸ĢçĻ¾ ä¸ĥ
æµ®çİ° åĩºäºĨä¸Ģ
ä¼´ éļı
çĿģ å¼ĢäºĨ
å°ĨçĽ®åħī æĬķåĲĳ
éķ¿è¢į çļĦ
æħĮ å¿Ļ
å¥ĩè¿¹ ä¹ĭåŁİ
åĩŃ åĢŁ
èĪª è¡Į
å¸ĥç½® ä»ªå¼ı
å¥ĩå¼Ĥ çļĦ
èĭıå°¼äºļ å²Ľ
æĳĨæĶ¾ çĿĢ
é¼ĵ èµ·
æľªçŁ¥ çļĦ
éļĲèĶ½ åľ°
åĩ¸æĺ¾ äºĨåĩºæĿ¥
éĿłæĭ¢ è¿ĩåİ»
åĺĢåĴķ äºĨä¸Ģåı¥
åı¦å¤ĸä¸Ģ ä¾§
ĠéľįçĦ¶ éĹ´
å¸Ĩ èĪ¹
æħ·æħ¨ ä¹ĭåŁİ
åĬłå°Ķ æĸĩ
çĶ»äºĨä¸ª ç»¯çº¢ä¹ĭæľĪ
åĥ» éĿĻ
è¡£å¸½ æŀ¶
çļĦç¾Ĭ çļ®çº¸
çĲ¢ ç£¨
è¢«ç¼ļ ä¹ĭç¥ŀ
é¦Ļæ§ Ł
2 000
· ç¼©
Ġ çĶ¨
Ġ åĩºäºĨ
Ġ ç½Ĺå¡ŀå°Ķ
Ġ å¨ģå°Ķ
Ġ çľŁæĺ¯
Ġ éĿ¢å¯¹
Ġ èĭıèĮľ
Ġ èµ«æ¸©
çļĦ ä¸¤
çļĦ ä¸įæĺ¯
çļĦ çŁ¥è¯Ĩ
ä¸Ģ éĹ®
ä¸Ģ æĹı
æĺ¯ ä¸ºäºĨ
è¿Ļ æŀļ
èĢ »
æĪĳ è¿Ļä¸ª
éĤ£ æłĭ
åĩº éĹ®é¢ĺ
ä¸Ĭ è¾ĪåŃĲ
æ²¡ äºĭ
èĩª è¨Ģ
ä½ł å°Ĩ
èº« å¿ĥ
æĥħ æĦŁ
æĥ³ å¥½
æĥ³ çŁ¥éģĵ
è¯´ è¾¹
è¯´ åĩºäºĨ
è¯´ äºĨä¸Ģåı¥
è¯´ è¾ŀ
æ¯ Ļ
æ²¡æľī åĬŀæ³ķ
å¤´ çļ®
éĥ½ å±ŀäºİ
éĥ½ åıĺå¾Ĺ
å¿ĥ çĸ¼
å¾Ī æ·±
ä¸Ń äº§
æĹł èģĬ
Ġä»ĸ å°Ĩ
Ġä»ĸ è¯ĿéŁ³æľªèĲ½
è¢« æ±¡æŁĵ
ä½ĵ ç³»
åħ¥ æ¢¦
ä½Ĩ ä¾ĿæĹ§
æľĢ ä½İ
ç¼ Ģ
ä»İ ä»ĸ
æīĢ è§ģ
æķĻ å¸Ī
å®ī éŃĤ
å®ī çľł
èµ° äºĨåĩłæŃ¥
ç»Ļ çļĦ
æį º
åĪ¶ æĪĲ
èģ ª
æĶ¾ çºµ
è¡Ģ æľĪ
åĩºäºĨ éĹ®é¢ĺ
åı¤ æľ´
å¯Ĩ çļĦ
é©¬ æĪı
å¹³ åİŁ
ç¿ ħèĨĢ
è¿ĺæĺ¯ å¾Ĺ
æķ´ çīĩ
èĹ ī
æļ´ éĽ¨
åı¦ ä¸Ģ
æŀģ æľī
èĪ¹ ç¥¨
åĨ³ å¿ĥ
éģĩ ä¸ĬäºĨ
æĳĩ äºĨä¸ĭå¤´
æĢ» è§īå¾Ĺ
ç±³ é«ĺçļĦ
é¥ ®
æĮī æįº
åįĬç¥ŀ çļĦ
ç®¡ çĲĨ
ç¿» åĪ°äºĨ
çŁŃ çŁŃ
é¡¶ çĿĢ
ç¬¬äºĮ æĽ´
æ´Ľ ç»ľ
è¿· è·¯
åıĳçĶŁ çļĦ
åıĳçĶŁ è¿ĩ
äºĨä¸¤ ä¸ª
æµ® åĬ¨
åħŃ ç¿¼
çĿ¡ çľł
èĢĥèĻĳ èµ·
çļĦå¤§ äººçī©
çľ¼çľ¸ åĨħ
æķħ ä½ľ
é½Ĳ é½Ĳ
åģļåĩº åĨ³å®ļ
åį· åħ¥
éĢĥ èµ°
éĩįè¦ģ çļĦäºĭæĥħ
è£Ĥ ç¼Ŀ
æł¹æľ¬ æ²¡æ³ķ
çº¹ ç«ł
ç¡®å®ļ äºĨ
å½Ĵ äºİ
èľ ·ç¼©
æ²¹ çĦ¶
åıįåºĶ è¿ĩæĿ¥
å¥½åĩł æ¬¡
æ¶Į åĩº
åĪ¶éĢł çļĦ
æĽ¿ æį¢
é¢Ķé¦ĸ éģĵ
ç¬¬ä¸ī ä¸ª
æľ« äºĨ
äº¤æĺĵ å¸Ĥåľº
å¹¿ æ³Ľ
æĢĶ æĢĶ
è¿Ļçīĩ åĮºåŁŁ
æĬĬæı¡ åĪ°
é»Ħéĩĳ éĿ¢åħ·
å®½ éĺĶ
æĪ´èİī å¥³å£«
èħĲ çĥĤçļĦ
æĭį äºĨä¸ĭ
åŁĭ èĳ¬
æĵ¦ æĭŃ
çļĦé£İ æł¼
èĭıåĭĴ çļĦ
æĭ¥ æĬ±
èĪª æµ·
çĳŁ å¤«
æ© ±
æīĵäºĨä¸ª å¯Ĵé¢¤
å¯ĦçĶŁ èĢħ
ç¨Ģ å°ĳ
ç¨Ģ èĸĦ
çļĦç¼ ĺ
çłģå¤´ åĮº
æ¾ ¡
èħķ éĥ¨
åį¡å°Ķ æ£®
å¯¹æĪĳ æĿ¥è¯´
æĮĸ æİĺ
ä¸įåıĹ æİ§åĪ¶
ä½©æĪ´ èĢħ
æľĢå¼º çĮİäºº
åĮĹæĸ¹ ä¹ĭçİĭ
çŃ¹ çłģ
çŁ³åĥı é¬¼
çĽ´èµ· èº«ä½ĵ
éĩĳè¾¹ çľ¼éķľ
çģ°éĽ¾ä¹ĭä¸ĬçļĦç¥ŀç§ĺ ä¸»å®°
èħĭ ä¸ĭ
æ´Ľç»ľ å¡Ķ
Ġ ä½ł
Ġ ä»Ģä¹Ī
Ġ æį®
Ġ ä¹Łè®¸
Ġ æľĢç»Ī
Ġ åį³ä½¿
Ķ ç¾Ĭ
çļĦ å¼Ĥå¸¸
çļĦ è¯ħåĴĴ
çļĦ å½¢å¼ı
ä¸Ģ æľµ
æĺ ¼
åĪ Ĭ
ä¸į æĺİ
ä¸į å®Įæķ´
æĪĳ æĽ´
æĪĳ æĢİä¹Ī
æĪĳ åİŁæľ¬
å¸ ·
åħĭèİ±æģ© ç»Īäºİ
åħĭèİ±æģ© åĨįæ¬¡
åĩº ä¼Ĺ
å°± è®©
åĴĮ ä¹ĭåīį
åĴĮ çĽ¸åºĶçļĦ
ä¼ļ æĺ¯
çĤ «
äºİ å¿ĥéĩĮ
æĥ³ çļĦ
å± ĳ
æ²¡æľī åĪ«çļĦ
éĥ½ å·²ç»ı
è®© ç§ĺåģ¶
å¥¹ å¯¹
å¾Ī æĬ±æŃī
å¤ļ æľĪ
Ġä»ĸ å¯¹
å®ļ æł¼
è¢« æĪĳ
åºĶ çĶ¨
åĲĮ ç±»
å£° èī²
æľĢ æľī
ç§ĺ æ³ķå¸Ī
æ± ª
æīĢ çŁ¥
å¦Ĥ å®ŀ
æŀľ å®ŀ
ä½ı æīĢ
é«ĺ éĢŁ
ä»ĸä»¬ éĥ½
éĩĳ é¦Ļ
è®¤ åĩºäºĨ
æ·± æļĹ
æį ī
æī¾ æĪĳ
åįģ åĪĨéĴŁ
ä½ľ åĵį
æŃ» äºº
é£İ åĲ¹
å¥¥é»Ľä¸½ åĴĮ
äºĨä¸ĭ åĺ´åĶĩ
æĭ¿ çĿĢä¸Ģ
å¦Ĥæŀľ ä¸į
å¸¦ èµ°
ï¼ģâĢĿ âĢľ
åĩºçİ° åľ¨
ç»´ åħĭ
ç«ł èĬĤ
å¤ªéĺ³ ç©´
éŃĶèį¯ åĲįç§°
æģ¶ åĬ£
éĺ¿èĴĻ åĪĨèº«
èĪ¹ èĪ·
æĹģ åĲ¬
å² Ķ
è¿Ļç§į ç¨ĭåº¦
è¿Ļç§į æĥħåĨµä¸ĭ
éĨĴ æĤŁ
éĶĻ äºĨ
æĮī èĥ¸
çĸ¯ äºĨ
çĸ¯ æİī
è¸ ¢
äº§ çī©
æ´¾ ç³»
éĴ± çļĦ
å¿į ä½ıäºĨ
çªĹ å¤ĸçļĦ
åŃĶ æ´ŀ
éĢĶå¾ĦçļĦ å¤©ä½¿
å¾Īå¤ļ æĹ¶åĢĻ
çļĦå¤§ æµ·
æĿĤ ä¹±
åĵĪ æ£®
æĺ¯åĲ¦ èĥ½
æĸ¯çī¹ è¡Ĺ
æĬµ å¾¡
è§Ħ å®ļ
åĪº ç©¿
åĪº å®¢
å®īéĿĻ åĲ¬å®Į
èĨ ľ
è§£åĨ³ æİī
éĹŃ çľ¼çĿĽ
ç«ŁçĦ¶ æĺ¯
åıł åĬł
è¾Ľ èĭ¦
åī§ åľº
è¸ª è¿¹
æŀľçĦ¶ æĺ¯
å°ĸ å¡Ķ
å°ĸ éĶĲ
å¥½å¥ĩ éĹ®éģĵ
æĮ¥ èĪŀ
åĿļ ç¡¬
å¼ĹèĲ¨åħĭ äºº
åº· æĸ¯é¡¿
è¡¥åħħ äºĨä¸Ģåı¥
éĥģ éĩĳé¦Ļ
èħ¹ éĥ¨
ç¬¬åĽĽçºª çļĦ
æĭ³ åĩ»
çļĦé«ĺ å±Ĥ
ä½İè¯Ń äºĨä¸Ģåı¥
éĢĨ è½¬
æĭ¾ åıĸ
å¿Ļç¢ ĮçĿĢ
æ¯«ä¸įçĬ¹è±« åľ°
æ¦Ĥçİĩ ä¹ĭ
éŃĶèį¯çļĦ éħįæĸ¹
ç¤¾ äº¤
æĦŁåºĶ åĪ°
åĽĽä¸ª éĩĳåıĳçº¢çľ¼
åįłæį® äºĨ
èµ·å±ħå®¤ åĨħ
èĲ¥ åľ°
è½¨ åħ¬åħ±é©¬è½¦
åĴķåĵĿ äºĨä¸Ģåı¥
æī© æķ£
å®īä¹Ĳæ¤ħ ä¸Ĭ
åī¥ å¤º
æİº åĲĪ
åħ¨çŁ¥ åħ¨èĥ½
å¥´ éļ¶
çľ© æĻķ
æ©± æŁľ
Ġ éĺ¿éĩĮå®īå¨ľ
Ġ éļ¾æĢª
Ġ è¿Īåħĭ
ķ åĬ¨
çļĦ åľ£
çļĦ æ±¡æŁĵ
çļĦ åĪ¤æĸŃ
çļĦ æķĮäºº
çļĦ èĦ¸åŃĶ
çļĦ çĶ·äºº
ä¸Ģ æīĩ
ä¸Ģ æľ¬ä¹¦
ä½ ³
æĺ¯ èĩªå·±
æĺ¯ æĮĩ
æľī åºıåĪĹ
è¿Ļ æŃ£æĺ¯
ç» ³
ç» Ĵ
çĶ ĺ
æĪĳ æĦŁè§ī
æĪĳ çĶļèĩ³
åħĭèİ±æģ© åĪļ
åħĭèİ±æģ© æĥ³äºĨæĥ³
åħĭèİ±æģ© å¾®ç¬ĳ
éĤ£ ä¸¤
éĤ£ åıĮ
åľ° æľĽåĲĳ
ä¹ĭ æĪĺ
å¤§ å£°
åĲİ éĿłä½ıæ¤ħèĥĮ
çĶŁ çĶŁ
äºĨä¸Ģ å¼ł
å± ł
è¯´ çĤ¹ä»Ģä¹Ī
è¿ĺ ä¸į
åıĳ äº®
å¤´ éª¨
å¤´ çĸ¼
å¥¹ æĺ¯
å¥¹ æīį
æŃ£ ç»Ł
çĶ¨ çļĦæĺ¯
åģļ å¾Ĺ
éŃ ĤçļĦ
ä¸¤ çĤ¹
çĻ½ çİĽçĳĻ
åĩł çľ¼
çĽ´ éĿ¢
åĨį æľī
åķ °
ç¬¬ ä¹Ŀåįģ
èµ° äºĨè¿ĩæĿ¥
ä¸ī åĽĽ
æī¾ åĽŀ
è¡Ģ çº¢
ç©º éļĻ
åı¯èĥ½ åŃĺåľ¨çļĦ
åĬł æ·±
åĬł å¼º
å¸ķ å¾·
åįķ äºº
å¹³ ç¼ĵ
å¹³ æĸ¯çī¹è¡Ĺ
ç«ĭ åľ¨éĤ£éĩĮ
ä¹¦ ä¿¡
ä¹ĭä¸Ĭ çļĦ
æķ´ åº§
è¿Ļæĺ¯ æĪĳçļĦ
åĽ¾ è°ĭ
è·¯ çº¿
é¦ĸ éĥ½
èĻļ åĮĸ
è¿ĺæľī ä¸Ģä¸ª
å·¦ èĥ¸
è¿ľ çļĦåľ°æĸ¹
ç²¾ åĩĨ
äºĶ æĮĩ
æİ¨ äºĨ
åħ¬ è¯ģ
åıĺå¾Ĺ æŀģä¸º
ç±³ æĸ¯çī¹æĭīå°Ķ
éĶĻ è¿ĩ
éĢı çĿĢ
èĵ ¬
éĽ· å¸ķå¾·
ç®¡ éģĵ
çĶļ åľ¨æĦı
èŃ¦ åĳĺ
å®Įåħ¨ ä¸į
çļĦä¸Ģ ç§į
æŁĵ è¡Ģ
å¼ķ é¢Ĩ
å¹¶ä¸į æ¸ħæ¥ļ
å°¸ éª¨
ä¸ĥ ä½į
çĽ®æłĩ æĺ¯
å·® è·Ŀ
æĬĵ æįķ
æľīä¸Ģ ç§į
åİĭ è¿«
åĵĪ æ¬ł
åı¤èĢģ æĢ¨çģµ
çľŁæĺ¯ å¤ª
æ®ĭ ç¼º
è¿ħéĢŁ å°±
æĪ¿å±ĭ åĨħ
ä¸Ģéģĵ èº«å½±
æķ² åĩ»
å¼± å°ı
æ®¿ ä¸ĭ
æķĮ äººçļĦ
éĹ» åĪ°äºĨ
åĪĽ ä½ľ
åĪĽ ä¼¤
æĺł åħ¥äºĨ
èĴ¸æ±½ æķĻä¼ļ
è£Ļ æĳĨ
å®ģ æĦ¿
éķ¶ éĵ¶
çİ»çĴĥ çĵ¶
éĽ¨ æ°´
åĽłèĴĤæĸ¯ åħ±åĴĮåĽ½
å¼¯ æĽ²
ç»¯çº¢ æľĪåħī
é½ĲæŀĹ æł¼æĸ¯çļĦ
æĦŁåı¹ éģĵ
åĪ¶ä½ľ çļĦ
è´¢ æĶ¿
çŁŃæļĤ ç«Ł
æĮ¡ ä½ıäºĨ
éĵº çĿĢ
å©ļ å§
åīĬ å¼±
å®Ĺ æķĻ
èĤ¯å®ļçļĦ çŃĶå¤į
ä¸įåĬ¨ å£°èī²
è°¦ åįĳ
åĨ°éľľ å·¨é¾Ļ
éĤªæķĻ å¾Ĵ
åŁ¹ åħ»
Ġåľ¨ä»ĸ çľĭæĿ¥
Ġç¬¬äºĮ å¤©
ç¾¡ æħķ
å¤§æ°Ķ æ±¡æŁĵ
é¥¶æľī åħ´èĩ´
ä¸ľåĪĩæĸ¯çī¹ éĥ¡
èģª æĺİ
é©¬æĪı åĽ¢
æ¦Ĥçİĩä¹ĭ éª°
¹ æ¶Į
Ġ ãĢĬ
Ġ åĲ¬å®Į
Ġ åĪ¹éĤ£
çļĦ çģµ
çļĦ çī¹æĢ§
çļĦ éĵģ
çļĦ è§Ĩçº¿
çļĦ èİİä¼¦
çļĦ èĦ¸ä¸Ĭ
çļĦ å®ŀåĬĽ
äºĨ äºĽ
ä¸Ģ åıĮ
æĺ¯ å¯¹
æĺ¯ åı¯ä»¥
ä¸į å¤§çļĦ
ä¸į å¹¸
ä¸į çĶļåľ¨æĦı
è¿Ļ ä¼ļä¸įä¼ļ
ä»ĸ çŁ¥éģĵ
åľ¨ åľ°ä¸Ĭ
æĪĳ çľĭ
åħĭèİ±æģ© åĲĲäºĨåı£æ°Ķ
äºº è®¾
ä¸ĭ éĿ¢
ä¸ĭ éĻį
éĢ Ĺ
çº ½
ä¼ļ çĽ´æİ¥
çŁ ¿
åıĳ ä¸Ŀ
å¿ĥ è·³
å¤ļ äºĨåĩłåĪĨ
æĦı åľ°
ä¸Ń åºıåĪĹ
è§ģ è¿ĩçļĦ
çĶ¨ ä»Ģä¹Ī
å¦ ĸ
ä¸Ģä¸ª æİ¥ä¸Ģä¸ª
åģļ äºĨä»Ģä¹Ī
åħ¥ çĿ¡
åıĪ ä¸ĢæĿ¡
å½ĵ æĪĲ
ä¸¤ ç±³
éķ¿ åĩº
æ± ¹æ¶Į
ä¸» è§Ĵ
åįĬ è½¬
å¥¥ é©¬
æľĪ åºķ
æīĵ çīĮ
å¨ ±ä¹Ĳ
å¥ĩ çī¹çļĦ
éļĲ éļĲçº¦
è½» åĴ³
å¾® åį·
é© Ń
åĪ© å¥¥é©¬
èĲ½ èĩ³
çļĦäºĭæĥħ äºĨ
ä¸įä¼ļ è¢«
æĢİä¹Ī åģļ
ç¿ ķåĬ¨
åĭ º
çħ ¦
åºĶè¯¥ èĥ½
åĳĬ æŃ»åı·
é»ĳèī² éĥģéĩĳé¦Ļ
çģ« ç§į
æĮģ ç»Ń
ç»Ĩ çº¿
é¢Ħ å®ļ
é¢Ħ éĺ²
éĺ´ ç»¿
åģľ æ»ŀ
æ·¡ èĸĦ
ä¸įå°ĳ äºº
æĬķ åħ¥
æĬķ åħ¥äºĨ
æĥĬ æħĮ
ç¬¬ä¸Ģ çºª
åĨĽ çģ«
æķ£ åİ»
è¿½ éĹ®
è¿½ æįķ
çĬ¶æĢģ ä¸ĭ
é¤Ĳ æ¡Į
çªĹ åı£
è¶³å¤Ł äºĨ
çİ°å®ŀ çļĦ
æĢ¥ ä¿ĥ
æİ§åĪ¶ ä½ıäºĨ
æĿ¥èĩª äºİ
çģ«çĦ° è·³è·ĥ
ç¥Īæ±Ĥ å£°
åįĹ åĮĹå¤§éĻĨ
åĿĲåľ¨ éĤ£éĩĮ
åºĬ è¾¹
æİ¥è§¦ è¿ĩ
æľīæīĢ æĺİæĤŁ
äºļçī¹ é²ģ
æĮ¥ æīĭ
åľŁ åľ°
çļĦçĸ ¼
éģ® ä½ı
æıĲçĿĢ é©¬çģ¯
è¡Ĺéģĵ ä¸Ĭ
æĢĴ åĲ¼
å¼¯ ä¸ĭ
éĩįå¤į äºĨä¸Ģéģį
æŀĦ æĪĲ
æŀĦ å»º
ä¼ĺ ç§Ģ
éŃĶéķľ åįłåįľ
çĻ» ä¸ĬäºĨ
æ±Ĥæİ¨èįĲç¥¨ æľĪç¥¨
å¸ĺ å¸ĥ
æ© ¡
æ°´æīĭ ä»¬
éļıåı£ éĹ®éģĵ
åįĬé«ĺ ç¤¼å¸½
å»ī ä»·
äºĨå¥½åĩł ç§Ĵ
äºİå°Ķæł¹ å¾ĭå¸Ī
åĨł åĨķ
æĦļ èł¢
çļĦç´ §
å¨ĥ å¨ĥ
è´ĿåĪ© äºļ
æĴ¬ åĬ¨
é©¾ é©Ń
åĶ¯ä¸ĢçļĦéĹ®é¢ĺ æĺ¯
å¥¥åĪ© å®īå¨ľ
ĠæĹ¶éĹ´ ä¸ĢåĪĨä¸Ģç§Ĵ
æĬĵç´§ æĹ¶éĹ´
è¿ªå°Ķ æŁ¥
åħŃç¿¼ çŁ³åĥıé¬¼
éļĲéļĲçº¦ çº¦
åĪ©å¥¥é©¬ æĸ¯çī¹
1 8
3 000
Ġ åķĬ
Ġ åĸĢåļĵ
çļĦ æīĢæľī
çļĦ ç§ĺåģ¶
çļĦ ç¥Īç¥·
çļĦ èŃ¦å¯Ł
çļĦ åŃ©åŃĲ
çļĦ å»ºçŃĳ
äºĨ å°ĳè®¸
ä¸Ģ çŃī
ä¸Ģ æĦ£
æĪĳ è¯¥
æĪĳ åıªèĥ½
éĿ ¶
åħĭèİ±æģ© éģĵ
çĿĢ èĩªå·±çļĦ
èµ ģ
åĩº èī²çļĦ
æĿ¥ å¾Ģ
åĴĮ åħ¶ä»ĸ
ä¹ĭ æĦı
è¿ĩ å¾Ĺ
ç¬ Ľ
ç¥ŀ æĿ¥
å¾Ĺ äºĨ
èº« äº¡
çľĭ å®Į
è¦ģ ç´ł
åīį éĿ¢çļĦ
è¯´ äºĨ
èĢĮ ä»ĸ
åıª å¾Ĺ
æīĭ ç¨¿
æ²¡æľī å¼Ģåı£
éĥ½ ä¸įçŁ¥éģĵ
å¤ļ ä¹Ī
æĹł è§Ĩ
å°ı äºĭ
ä¸Ģä¸ª åºıåĪĹ
çŃī åľ°æĸ¹
æł¼ æŀĹ
å½ĵ çĿĢ
è° į
éķ¿ æ»¡
èĤ ĺ
åĩł çĻ¾
å¸¸ è§ģçļĦ
åıĺ å¤§
ä¸» äººçļĦ
è¾¹ è¯´è¾¹
å®ĥ ä¼ļ
Ġåħĭèİ±æģ© åĪļ
è§Ĩ è§ī
ç©º æ´ŀ
å¾Ģ çĿĢ
æĪĳä»¬ å¿ħé¡»
ç¨ Ķ
åı¯èĥ½ ä¼ļ
åħ¶ æ¬¡
å·¨ èĽĩ
ä¼¼ä¹İ è¦ģ
ä»£ åı·
æ´» äºĨè¿ĩæĿ¥
åºķ ä¸ĭ
é¡¿ äºĨä¸Ģä¸ĭ
çİ°åľ¨ å°±
æĪĺ å£«
çľ¼çĿĽ ä¸Ģäº®
çļĦéĤ£ é¢Ĺ
è¿Ļä¹Ī çľĭæĿ¥
ç®Ģ æľ´
å¹» æľ¯
éģĹ å¼ĥ
èĤī åĿĹ
åĨ· æ±Ĺ
ç³» åĪĹ
ä½įç½® åĿĲä¸ĭ
åĨĽ éĺŁ
åıªæľī åºıåĪĹ
ä¹Łè®¸ å°±æĺ¯
çģµæĢ§ çļĦ
çĭĤ çĥŃ
çļĩ åĨł
ä¼¤ åĬ¿
æµ® å¤¸
æ¦ ľ
æľīä¸Ģ éģĵ
çĨŁ äºº
çĨŁ ç¨Ķ
æµ·çĽĹ åĽ¢
åħĭèİ±æģ©çļĦ èº«å½±
æķ¢ äºİ
è¿Ļä¸Ģ æŃ¥
ç²¾ç¥ŀ æ±¡æŁĵ
é¡º åºı
é£ŀå¿« åĭ¾åĭĴ
çºª åħĥ
ä¸´ è¿ĳ
éĺ¶ å±Ĥ
ç¡®å®ŀ æľī
Ġè¯´ çĿĢ
çľĭåĪ° è¿Ļä¸Ģå¹ķ
éģŃéģĩ äºĨä»Ģä¹Ī
æĻĭåįĩ ä»ªå¼ı
çļĦä¿¡ ä»°
è¡¨çİ° åĩºäºĨ
å¥Ķ æ¶Į
ç©¶ç«Ł åıĳçĶŁäºĨä»Ģä¹Īäºĭæĥħ
åįĹ åĮº
æĬ± æĢ¨
æ·±å¤Ħ çļĦ
å°ĸ åı«
æİ¥åıĹ äºĨ
ä¾į å¥³
ä¸įå¤ª ä¸Ģæł·
æľ« å°¾
çĭ¬ çī¹
æĤ¬ å´ĸ
éĢĴ ç»Ļ
ç§Ł èµģ
ä¾§å¤´ å¯¹
åĲĵ å¾Ĺ
ç»ĻäºĪ çļĦ
å®īåħ¨ èĪªéģĵ
ä¸Ģåıª æīĭ
æŀģåħīä¼ļ çļĦ
åŁĭ ä¼ı
æ»ŀ æ¶©
ä¸ĭæĸ¹ çļĦ
è¿İ æİ¥
éĢĿ åİ»
ä¹¦æ¡Į åīį
äºĳ å±Ĥ
èĦ±åı£ éĹ®éģĵ
åĪĽéĢł ä¸ĢåĪĩ
æĹłæļĹ èĢħ
æĭĲ è§Ĵ
é«ĺèĥĮæ¤ħ ä¸Ĭ
çĮ« å¤´é¹°
æ´»è·ĥ äºİ
æµİ è´«
åĽļ çĬ¯
çĻ½ä¹ĭ éŃĶå¥³
è¿¸ åıĳ
çļĦç¢ İ
æĮīå¼Ģ çľĭäºĨä¸Ģçľ¼
çķ¸ å½¢
çľĭéĹ¨ äºº
ä¸Ģæ¨¡ ä¸Ģæł·
åķ° åĹ¦
Ġ åŁºäºİ
çļĦ çĻ½
çļĦ åĲĹ
çļĦ å¸ĥ
çļĦ éĤĵæģ©
çļĦ éĩįè¦ģ
çļĦ åįķè¯į
çļĦ ä½ľçĶ¨
çļĦ åĬ¨éĿĻ
ä»ĸ è¿ĺæĺ¯
ä»ĸ åºĶè¯¥
åľ¨ æŃ¤ä¹ĭåīį
åħĭèİ±æģ© å½ĵåį³
éĤ£ ä¸ī
åĪ° æĪĳ
åľ° åıĳçİ°
æĿ¥ è®¿
åĴĮ èĩªå·±
æ²¡ éĤ£ä¹Ī
ä¹ĭ ä½Ļ
ä½ł æľīä»Ģä¹Ī
åĲİ æŀľ
çľĭ æ³ķ
ä¹Ł åıªæĺ¯
äºİ åĨħ
è¦ģ çŁ¥éģĵ
å¼Ģ éĶĢ
è¿ĺ ä»¥ä¸º
åıĳ æĬĸ
åĮ ª
å°Ĩ æĺ¯
çī¹ å®ļçļĦ
åİ» çľĭ
éĥ½ æľª
å¿ĥ çļĦ
Ġä»ĸ åľ¨
ä½ĵ éĿ¢
ä½Ĩ å¯¹
åĿ ĩ
ä¸¤ ä»½
åĪĨ éħį
ç¬ĳ å¾Ĺ
å®ŀ çļĦ
æĦŁ å®ĺ
æĦŁ æ¿Ģ
åıĺ å½¢
çĽ¸ åıį
å®ĥ èĥ½
æķĻ çļĩ
éĩį éĩı
å¹¶ åľ¨
åķ ĥ
åįĬ èº«
åįĬ çĤ¹
æ·± æµ·
ä¼¦ åł¡
è½¬ è¾¾
æĶ¾ åĽŀäºĨ
é£İ å£°
æ¸ħ æ´Ĺ
åĹ ľ
åĲį å£°
å¦Ĥæŀľ çľŁæĺ¯
åħ³ ä¸ĬäºĨ
åĢĴ åľ¨äºĨ
å¹³ ç¨³
èĢĥ æĻ®æĸ¯
å¡ŀ åħ¥äºĨ
èĮ Ħ
æı¡ ä½ıäºĨ
å®¤ åĨħ
ä¾§ èº«
åľ£ æ´ģ
åĩĨå¤ĩ å¥½
ä¸Ģå®ļ ç¨ĭåº¦
åģľ åľ¨
ç«Ļ åı°
æį¢ ä¸Ĭ
ç³» ç»Ł
çı Ģ
éĵģ éĶħ
ä¼¸ åĩºäºĨ
åĨĴ çĿĢ
å¹² ç¬ĳ
æľīä¸Ģ æĿ¡
Ġè¿Ļæĺ¯ ä¸Ģä¸ª
Ġå°±åľ¨ ä»ĸ
ä½¿çĶ¨ äºĨ
åºŀ å¤§çļĦ
å¡Ķç½Ĺä¼ļ çļĦ
æĪĳæĥ³ çŁ¥éģĵ
åĪĴ è¿ĩ
æĹ¢ æĺ¯
è§Ĥå¯Ł èµ·
é¸ ½
çĶŁåĳ½ åĬĽ
åıĺæĪĲ äºĨä¸Ģä¸ª
ç¬¬ä¸ĢçĻ¾ äºĮåįģ
ç¬¬ä¸ĢçĻ¾ ä¸īåįģ
ç¬¬ä¸ĢçĻ¾ ä¸Ģåįģ
åĽŀåĪ° çİ°å®ŀä¸ĸçķĮ
å© ī
æļĤæĹ¶ æ²¡æľī
éĹªçĶµ é£İæļ´
è´£ ä»»
é¼» ç«¯
éĺ» éļĶ
æ²¿ éĢĶ
æµħ ç¬ĳ
åį§å®¤ åĨħ
è¯´ä¸į åĩº
åłķèĲ½ æ¯įç¥ŀ
æĹłè®º æĺ¯
éľĩ æĴ¼
åĤ¬ ä¿ĥ
å¤§æ¦Ĥçİĩ æĺ¯
éĩĩ åıĸ
éĵº åŀ«
åİĨåı²åŃĶéļĻ éĩĮ
çĤ¹çĩĥ äºĨ
éĹªçĥģ çĿĢ
æļĹçº¢ èī²çļĦ
åľĪåŃĲ éĩĮ
ä¸Ľ æŀĹ
ĠçľĭåĪ° è¿Ļä¸Ģå¹ķ
æ¢³ çĲĨ
èį£ å¹¸
åĹĸ åĹĸ
æģ° å¥½
æ°Ķåľº é¢ľèī²
èµ¤çº¢çļĦ çģ«çĦ°
åĲ±åĳĢ ä¸Ģå£°
éĹŃä¸ĬäºĨ çľ¼çĿĽ
èĦ±åı£èĢĮåĩº éģĵ
ä¸Ģä¼ļ åĦ¿
çķ¥æĺ¾èĭįèĢģ çļĦåĹĵéŁ³
åıĮæİĴæī£ éķ¿ç¤¼æľį
çļĦçĸ¼ çĹĽ
® é£Ł
¿ èµ
é ī
Ġ çľĭè§ģ
Ġ çİ°åľ¨
Ġ çľĭæĿ¥
Ġ ä¼Ĭæģ©
Ġ èĢĥèĻĳåĪ°
į åĮ
çļĦ ä¸ĢçĤ¹
çļĦ æĪ´éĩĮåħĭ
åı ¨
äºĨ åħĭèİ±æģ©
ä¸Ģ å¤Ħ
ä¸Ģ çĻ¾
ä¸Ģ æī¹
ä¸į å¼Ģ
æľī ä¸Ģä½į
è¯ Ĭ
è¿Ļ ä¸İ
è¿Ļ åĩłå¤©
èĢ ¶
æģ© èµĲ
æĪĳ ä¹Łæĺ¯
æĪĳ çĽ¸ä¿¡
æĪĳ ä»Ĭå¤©
åħĭèİ±æģ© é¡¿æĹ¶
åħĭèİ±æģ© çķ¥æĦŁ
éĤ£ ä»ĸ
åľ° åĲĳ
åľ° éĿ¢çļĦ
æ²¡ æķ¢
å¤§ å¤ļæķ°
çĤ ĸ
æĥħ å¦ĩ
èµ· èĩªå·±
éĻ Ľ
å£ ĳ
è´ º
è´ ¿èµ
åĽŀ æĿ¥çļĦ
åıª æĥ³
åıª çķĻä¸ĭ
åĮ įåĮ
è®© èĩªèº«
æĮ ł
æŃ£ å¾ħ
å¾Ī åİīå®³
æĦı æĸĻ
Ġä»ĸ ä¹ĭåīį
å°ı åŀĭ
å°ı çĶ·åŃ©
é»ĳ æŃ»åı·
å¦ ¥
è¢« è°ģ
æĻ ¦
Ġè¿Ļ æĦıåĳ³çĿĢ
åĬ¨ å¼¹
åģļ æ¢¦
å¤© çĦ¶
çŃī çº§
èĤ ł
æµ· ä¸ĬçļĦ
ç¼ Ń
å¥³ å·«
ä»İ è¡£åħľéĩĮ
æĢ§ åľ°
è¿Ľ æĿ¥çļĦ
è¿Ļä¸ª åı¯èĥ½
çª Ħ
èĲ İ
æ·± çº¢çļĦ
æīĵ çĿĢ
è¯Ŀ æĿ¥
æ¡ ĥ
çº¢ èĳ¡èĲĦéħĴ
è£ ĤçļĦ
åħ¨ éĿ¢
åħ¨ åĬĽ
å¸¦ åħľå¸½
å·¨ çŁ³
ä¼¼ä¹İ æĥ³
åĽĽ éĿ¢
äº¤ åıī
è¥¿ äºļ
å¯Ĩ å¥ĳ
é©¬ æ¡¶
å¹³ æ°ĳ
è¿Ļæĺ¯ ä»ĸ
åĲĦ ä½į
åĲĦ æĸ¹éĿ¢
åĺ´ éĩĮ
åŃĺåľ¨ ä¸Ģå®ļçļĦ
æĸ¯å¸ķç½Ĺ åħĪçĶŁ
åıĸ åĩºäºĨ
éĤ£éĩĮ å¾ĹåĪ°
æĸĩ åŃ¦
æİ¨ éĹ¨
è¿Ļç§į æĥħåĨµ
æľīäºĨ çĤ¹
åģľ ä½ı
ĠèĢĮ ä»ĸ
éĢı åĩº
å¿Ļ åıĪ
éħĴ é¦Ĩ
ç«Ļ çĿĢ
æĿ¾ å¼Ģ
å±ķ å¼ĢäºĨ
çĨ ¬
ç¬¬ä¸Ģ æĽ´
æŁĵ ä¸Ĭ
æķ£ æŃ¥
éĿŀåĩ¡çī¹æĢ§ èģļåĲĪå®ļå¾ĭ
è¿· å¤±
çĻ½éĵ¶åŁİ æİ¢ç´¢å°ıéĺŁ
æľĢåĲİ ä¸Ģå¤©
åĳĬè¯ «
çº¯ çĻ½
é»ĳæļĹ çļĦ
å£ģ éĴŁ
æľīä»Ģä¹Ī éĹ®é¢ĺ
ä½ľä¸º ä¸Ģä¸ª
å¸Ĥ æĶ¿
æĬµ ä½ı
èģļä¼ļ çļĦ
éĢĢ åĩºäºĨ
æ·· è¡Ģ
ç§ĺå¯Ĩ ä¹ĭä¹¦
çļĦæīĭ æĮĩ
æ¸¸ èµ°
ä¸įçĶ¨ åĨį
çģ°çĻ½ èī²
ĠâĢĶâĢĶ âĢľ
éľ²åĩº ç¬ĳå®¹
ä¸ĭåįĪ èĮ¶
æīĭå¥Ĺ çļĦ
åįĸ ç»Ļ
æŁĲç§į æĦıä¹īä¸Ĭ
é£ĺ èį¡
çĤ¸ å¼¹
åľ°ä¸ĭ äº¤æĺĵå¸Ĥåľº
ä¸įç®¡ æĺ¯
ç®± åŃĲ
åĬ³ ä¼¦æĸ¯
åĳĨ æĦ£
éĩİ èĽ®
ä¸īä¸ª æľĪ
éĻµ å¢ĵ
çĦ¦ æĢ¥
åħ°æ¯Ķ æĸ¯çļĦ
çĽ´è§ī åľ°
æī£ åĬ¨äºĨ
å¼ĢåĲ¯ çģµè§Ĩ
çļĦçĥ Ł
æ®ĭçķĻ çĿĢ
æĻļä¸Ĭ å¥½
ä¼łè¯´ éĩĮ
æ·±æ²ī çļĦ
èĢĲå¿ĥ åľ°
èĩªåĺ² ä¸Ģç¬ĳ
æĹłæļĹ ä¹ĭ
æĪĳè¿ĺ ä»¥ä¸º
éģµ å¾ª
å¤¸å¼ł çļĦ
å¿ł è¯ļ
æĽ´å¥½ åľ°
çļĦçħ§ èĢĢ
ä¸ĬäºĨä¸Ģ å±Ĥ
éĢļè¯Ĩ èĢħ
åĳ¢åĪ¶ å¤§è¡£
çĤ« èĢĢ
éī ´
è´¿èµ Ĥ
åĮįåĮ Ĳ
6 8
Ġ éĢļè¿ĩ
Ġ é©¬è½¦
Ġ ä¼Ĭåº·çĳŁ
ľ æĮģ
çļĦ æĪĳ
äºĨ å¥¹
æĺ¯ ä¸į
æľī åĵªäºĽ
è¿Ļ è®©æĪĳ
ä»ĸ åıªæĺ¯
èİ ¹
æĪĳ åħĪ
å°± ä¸į
åĴĮ éĺ¿èĴĻ
åĴĮ çħ¦
æĸ¯ èĢĥ
çĶŁ æ°Ķ
èº« å½¢
äºĨä¸Ģ åº§
çľĭ çļĦ
çŁ ľæĮģ
è¿ĺ å·®
èĢĮ éĤ£
èĢĮ æĪĲ
æīĭ èĥĮ
æ²¡æľī æİ©é¥°
ä»Ģä¹Ī æĺ¯
ä»Ģä¹Ī æł·åŃĲ
å¤ļ ç§į
å¤ļ å¹´çļĦ
çĶ¨ é¤Ĳ
éĹ´ è°į
è¢« å°ģåį°
Ġè¿Ļ åĴĮ
Ġè¿Ļ æ¬¡
å¤© åĽ½
ä½Ĩ éĥ½
çŃī ä»·
æł¼ èķ¾
éĵ ¸
ä¸¤ å¹´
æıĲ ä¸Ĭ
åĩł åĪĨéĴŁ
å¥³ å·¥
åıĺ åĽŀäºĨ
æľĽ äºĨä¸Ģçľ¼
èĻ Ĳ
æ°Ķ ä½ĵ
åĨį çŃī
æĽ´ åĪ«
åºıåĪĹ éĢĶå¾Ħ
èĢģ ç®¡å®¶
å°±æĺ¯ è¿Ļæł·
æī¾ äºĨ
èĭ Ĺ
è½¬ äºĨä¸ĢåľĪ
è½¬ åĮĸä¸º
è½» å·§
æĶ¾ äºİ
åĥı ä¸ª
çº¢ çĥŁåĽ±
åĲį åįķ
æ¼ ¾
æ¼ ī
å·²ç»ı åľ¨
æĶ¶ åĪ°äºĨ
åİŁ åĪĻ
æĺ¾ çľ¼
æ°´ çļĦ
åıĳçİ° çļĦ
ç®Ĺ äºĨ
åĢĴ ä¸ĭ
ä¼¼ä¹İ å¾Ī
åŃĺ ç¨¿
äº¤ ä»£
çº¸ ä¸Ĭ
ç³ ĸ
æ»¡ èĦ¸
å°ģ éĹŃ
è´Ŀåħĭåħ°å¾· æķĻåĮº
ĠéĤ£ åĲį
åĪļæīį éĤ£ä¸ª
èĹı äºİ
æĸŃ äºĨ
çģ« çĤ®
éĿŀåĩ¡èĢħ èģļä¼ļ
è¨Ģ è¯Ń
èĬ± éĴ±
æİ¨ å¼ĢäºĨ
éķľ ä¸Ń
é¢Ĩ åı£
äºĨä¸Ģä¸ª ä¸ª
éģĹ äº§
ç«Ļ ç«ĭ
åįĩ èµ·
æ·¡ èĵĿ
åĳ³ çļĦ
åħħ æĸ¥
çĮİ çī©
åĩĿ æľĽçĿĢ
å°¸ éª¸
çº¦ çĳŁå¤«
å¹² æ¶ī
èµĦ éĩĳ
æĹłå£° åľ°
æľīä¸Ģ å¼ł
èį¡ æ¼¾
æĬĹ è¡¡
åģĩ æī®
åĹĵéŁ³ ä½İæ²ī
æĿ¥åĪ° çģ°éĽ¾ä¹ĭä¸Ĭ
åºŀ å¤§
éĢĢ åİ»
çİĩ é¢Ĩ
æĻĭåįĩ ä¸º
å°±ä¼ļ è¢«
ä¸ĢäºĽ äºĭæĥħ
çļĦæīĭ æĿĸ
æ³¢ åıĬ
èľ ¥
ç¼º å°ĳ
è§£éĩĬ äºĨä¸Ģåı¥
æĮĳ æĪĺ
å¿ĥçģµ å²Ľå±¿
æĦŁè°¢ ä½łçļĦ
åĿļ åĽº
åĩ¸ èµ·
éģ® èĶ½
å¢ĵ ç¢ĳ
ç»Ł ä¸Ģ
ç²Ĺ ç³Ļ
éĽķ åĪ»
éŃĶæ³ķ æłĩè¯Ĩ
è¦ĨçĽĸ çĿĢ
åĲĲäºĨåı£æ°Ķ éģĵ
åĴ³ åĴ³
æıĴ åħ¥
éļıæĹ¶ ä¼ļ
å¼Ĺèİ± å¨ħ
æĸĳé©³ çļĦ
ä¸īåįģ æĿ¥å²ģ
è¾Ĩ é©¬è½¦
åģľçķĻ äºİ
ä¹¡ æĿĳ
çļĦçĭ ¬
åĿ¦çĦ¶ åĽŀçŃĶéģĵ
è£¤ åŃĲ
èĶ·èĸĩ ä¸»æķĻ
ä¸ĵä¸ļ çļĦ
è½»å¾® çļĦ
è´¡ æł¹
æĸĳé©³éķ¿æ¡Į çļĦè¾¹ç¼ĺ
èĥĥ è¢ĭ
åį¡å°Ķå¾·éļĨ åŁİ
ç¢§ç»¿ çļĦçľ¼çľ¸
å¡ĳ éĢł
å¼ĢåĲ¯äºĨ çģµè§Ĩ
è¿«ä¸įåıĬå¾ħ åľ°
ä¿ĿéĻ© æŁľ
çļĦçĨ Ł
é»ĳèī²éĥģéĩĳé¦Ļ åı·
æĸ¯èĢĥ å°Ķ
4 00
Ġ å°Ĩ
Ġ ä¸įæĺ¯
Ġ éļĶ
Ġ åĵªæĢķ
Ġ åĵĹåķ¦
Ĳ æµ´
çļĦ åĨĴéĻ©å®¶
çļĦ ä¿ĿæĬ¤
çļĦ å±ħæ°ĳ
çļĦ æł¸å¿ĥ
çļĦ æĿ¥åİĨ
æĺ ¥
ä¸į æ¯Ķ
ä¸į åģľ
æľī è¶³å¤ŁçļĦ
è¿Ļ æľī
è¿Ļ è®©
ä»ĸ è®¤ä¸º
æĪĳ åĲ¬è¯´
åĬ ²
æ² Ĳæµ´
åħĭèİ±æģ© ç¼ĵæħ¢
åħĭèİ±æģ© è½»è½»é¢Ķé¦ĸ
ç¥ ¸
åľ° éĵģ
æİ Ĳ
ä¸ĭ è¡Į
å°± å¾Ĺ
å°± å·²
å¤§ åŀĭ
å¯¹ å¥¹
æĸ¯ ç»´
è¾ £
è¾ ©
çľĭ ä¸įåĩº
åı¯ ä¾Ľ
æĥ³ ä¸Ģæĥ³
è¿ĺ çľŁæĺ¯
èĢĮ åħ¥
åıĳ éº»
åıª åľ¨
æĽ ³
èĩªå·± èº«ä¸Ĭ
è®© éĤ£
å¥¹ åĴĮ
å¥¹ çľĭè§ģ
çĶ¨ å®ĥ
Ġä»ĸ æīĵç®Ĺ
Ġè¿Ļ ä¸Ģ
åĲĳ æĪĳ
åĲĳ èĩªå·±
çļĦç ¦
ä¸¤ ä¸ĭ
èĤ º
æľ¬ è¯¥
è· µ
è¡Į ä¸ļ
ä¸» æĦı
åĪ°äºĨ æľĢåĲİ
é«ĺ äºĨ
å¹¶ å°Ĩ
è¡¨ å±Ĥ
è¿Ľ å±ķ
åı¯ä»¥ éĢļè¿ĩ
å®Į å¥½
å°ĳ æķ°
å¤± æķĪ
æ²ī æµ¸
çĭ ¡
æŃ¥ æŀª
æļĹ çº¢çļĦ
æĶ¾ æħ¢
é© ¯
ç©º æĹ·
æ±Ĥ æķĳ
æ¶Ī éĢĿ
åħ¹ åħ¹
åıį éĹ®äºĨä¸Ģåı¥
éĤ£ä¸ª æĪ¿éĹ´
æľº åĻ¨
ç¥Ĥ åľ¨
ä¼¼ä¹İ è¢«
ä¼¼ä¹İ å·²ç»ı
å¿ħ å°Ĩ
ä¸įä¼ļ åĨį
è¥¿ ç»´
ä¸ĢçĤ¹ ä¹Łæ²¡æľī
å¸® ä»ĸ
åĵª æľī
æ¢¦ å¹»
éĢĶå¾Ħ åįĬç¥ŀ
åį´ æ²¡
åĲĦ å¤§
ç»Ī çĤ¹
é¡¿ ä½ı
çħ ®
ç´§ æĢ¥
çļĦéĤ£ çīĩ
åı³ è¾¹
æŀģ åħ¶
åį¡ éļĨ
èĬ± çĻ½
æĳĩ æĽ³
åĨĻ çļĦ
ç®Ģ éĻĭ
é¥ Ń
åıªèĥ½ åľ¨
æĮī åľ¨äºĨ
ä¹Į é¸¦
èĦ± åĽ°
çĸ¯ èĪ¹éķ¿
æľį è£ħ
éĢī é¡¹
å¯» å¸¸
è®® åĽ¢
é¾Ļ åį·
æĺ¯åĲ¦ ä¼ļ
åĢŁåĬ© åĨ¥æĥ³
ä¹Ĳ æĦı
è·³ èĪŀ
åģĩ è®¾
æłĳ åı¶
æŁĶ è½¯
éĢĥ åĩº
èĩ³å°ĳ å¾Ĺ
æľĢç»Ī è¿ĺæĺ¯
åħ·ä½ĵ æĥħåĨµ
æŁĲäºĽ äºĭæĥħ
ç©¶ç«Ł æĺ¯ä»Ģä¹Ī
æµĵ åİļ
æĻĥ èį¡
ç»ĻäºĨ æĪĳ
æľīæīĢ çĮľæµĭ
æīĩ éĹ¨
å¥½å¥ĩ åľ°éĹ®éģĵ
çĭ¬ çī¹çļĦ
åľĨ èħ¹
éĺ» æĭ¦
ä»£è¡¨ ä»Ģä¹Ī
åı¯æĥľ çļĦæĺ¯
éĺ¿ç½Ĺå¾· æĸ¯çļĦ
ä¸Ģåıª åıª
çļĦç²¾ç¥ŀ çĬ¶æĢģ
åĽŀå¿Ĩ çĿĢ
éģĹçķĻ çļĦéĿŀåĩ¡çī¹æĢ§
ç´¯ ç§¯
æ´ĽèĸĩéĽħ éķ¿èĢģ
è¯± å¯¼
éĩĩ è®¿
ä¸įå¾Ĺä¸į è¯´
ä¾ĭ å¤ĸ
ĠåĲ¬åĪ° è¿Ļåı¥è¯Ŀ
æĳ© æĵ¦
è¿ľåı¤å¤ªéĺ³ ç¥ŀçļĦ
åĨ°åĨ· çļĦ
é²ģæģ©çİĭåĽ½ çļĦ
è¯Ħ è®®åĽ¢
ä¹ĺåĿĲ é©¬è½¦
éŀ ĭ
å¤§åľ°æ¯įç¥ŀ æķĻä¼ļ
éĤ£æľ¬ ç¬Ķè®°
åķ§ åķ§
æĤļ çĦ¶
èĦĨ å¼±
åĸĥ åĸĥ
ä¼° è®¡
å§Ķåĳĺ ä¼ļ
å¥ĸ åĬ±
åĽŀè¿ĩ ç¥ŀæĿ¥
ä½ĨæľĢç»Ī è¿ĺæĺ¯
æ²ĥ å°Ķ
ç©ºèį¡ èį¡
çĲĨè®º ä¸Ĭ
Ġåĩłä¹İæĺ¯ åĲĮæĹ¶
ä»¥æīĭ æĮīèĥ¸
ä»¿ä½Ľåľ¨æĢĿèĢĥ èĪ¬
åĩ¹ éĻ·
æī£åĬ¨äºĨ æī³æľº
è¥¿ç»´ æĭīæĸ¯
é¾Ļåį· é£İ
Ġ è¯·
Ġ åıªè¦ģ
Ġ éģĵæģ©
Ġ æĪ´çĿĢ
Ġ å·´é¡¿
Ġ æĸĩå¾·å°Ķ
Ġ åħĭéĩĮç»´æĸ¯
Ġ æ¯Ķèµ·
çļĦ åħĪçĶŁ
çļĦ å¿µå¤´
çļĦ æģĲæĢĸ
çļĦ åĳĵè¯Ń
çļĦ å¤©ç©º
äºĨ åķĬ
åħ ĳ
ä¸Ģ åĩ»
ä¸Ģ æĬ¹
ä¹ ³
æľī è¶³å¤Ł
è¿Ļ æĪĸè®¸
è¿Ļ æĦıåĳ³çĿĢ
ä»ĸ è¢«
ä»ĸ èĦĳæµ·åĨħ
æĪĳ æīį
æĪĳ ä¹Łä¸į
æĪĳ åĸľæ¬¢
éĤ£ åľº
äºº æĢ§
äºº éĻ¢
åĪ° è´Ŀåħĭåħ°å¾·
åĩº ä»Ģä¹Ī
ä¹ĭ æĥħ
æĭ ĵ
è¿ĩ æĪĳ
ä¸º ä¸Ģ
ä½ł ä¹ĭåīį
äºĨä¸Ģ çīĩ
ä¹Ł è¢«
ä¹Ł æ²¡æ³ķ
åı¯ è§ģ
åĵ ²
åıĳ çĸ¯
èĩªå·± åı¬åĶ¤
éĥ½ å¾Ĺ
ä»Ģä¹Ī åľ°æĸ¹
å¥¹ åıĪ
å¾Ī å¼º
ä¸Ń çŃī
çĶ¨ çģµæĢ§
Ġä»ĸ è¿ħéĢŁ
ä½Ĩ çİ°åľ¨
ä¸¤ è¾¹
ä¸¤ æĬĬ
çĻ½ é²¨
åĩł æĿ¡
æµ· éĩĮ
ä»İ éĩĮéĿ¢
ä»İ è¡£çī©
åĪ°äºĨ çģ°éĽ¾ä¹ĭä¸Ĭ
åĺ İ
åįĬ çĸ¯
ç»Ļ ä»ĸä»¬
èĢģ çĪ·çĪ·
å°±æĺ¯ åľ¨
æł¹ æºĲ
å¥ĩ åħĭ
è½» ç¬ĳéģĵ
æĶ¾ åħ¥äºĨ
è¡Ģ ç»Ł
é£İ æĻ¯
åĽłä¸º å¦ĤæŃ¤
åı¤ éĵľ
æĶ¶ å°¾
èĲ½ åľ¨
æ°´ åħī
åįķ æīĭ
åĢĴ éĢĢ
åĬ© äºİ
èĴĻ çĿĢ
çªģ æľī
æĢİä¹Ī åĬŀ
éĤ£ä½į å¥³å£«
åıªæĺ¯ åįķçº¯
é»ĺ è®¸
è´Ŀåħĭåħ°å¾· æ¡¥åĮºåŁŁ
æļ´ èºģ
é»ĳèī² é£İè¡£
éĺ¿å°Ķ æĪĪ
è¨Ģ èĢħ
è¯· åģĩ
åĩĨå¤ĩ å¥½çļĦ
äºĶ åħŃ
æŃ£å¸¸ æĥħåĨµä¸ĭ
æľīäºĨ ç§į
åģľ ä¸ĭ
è¾¾å°¼åħ¹ çļĦ
éľį ä¼Ĭ
åĳ¨åĽ´ çļĦäºº
åĨ· æ·¡
ç¬¬ä¸Ģ åıįåºĶ
çĶµ åħī
éĵģ é»ĳèī²çļĦ
çŁŃ åıĳ
åı¹ ä¸Ģå£°
å¹¶ä¸į éĻĮçĶŁ
å±ħ çĦ¶
æĻ® æĻ®éĢļ
åĩºäºĨä¸Ģ å¼ł
åĲĲ åĩºäºĨ
åĵ¥ çī¹
æķħ ä¹¡
æłĳ çļĦ
æŃ»äº¡ çļĦ
è¹ Ī
åī¯ æķĻæİĪ
åħ« æĸ¹
æıĲä¾Ľ äºĨ
ç¬Ķè®° æľ¬
æł¹æľ¬ ä¸į
ä¸ĩ éĩĳéķĳ
åĶ¯ æľī
çĸĳæĥĳ éĹ®éģĵ
å®Ŀ åº§
æĥ³è¦ģ çļĦ
å¥Ķ åĲĳäºĨ
çģ°çĻ½ èī²çļĦ
çĸ¯çĭĤ åľ°
åįĹ æĸ¹
å¥½åĩł ç§Ĵ
å¤ĦçĲĨ å¥½
èĪŀ è¹Ī
æŃĮ é¢Ĥ
æ£ķ åıĳ
æ£ķ é»Ħ
éķĩ å®ļ
ä½İæ²ī è¯´éģĵ
æĲľéĽĨ åĪ°
æ²Ļ åĵĳ
è¯¡å¼Ĥ çļĦ
èµ°åĲĳ éĹ¨åı£
æ¯Ĵ èĽĩ
çĦ¦ è·Ŀ
èİ«éĩĮäºļèĴĤ åħĪçĶŁ
å¥³ä»Ĩ å®īå¦®
ç²¾çģµ çİĭ
å¤¹ æĿĤ
èĪĴ å±ķ
æīĵéĩı èµ·
å»ºç«ĭ èµ·
åħ¶ä½Ļ æĪĲåĳĺ
åĺ¶ åĸĬ
åħ¥åı£ ä¸Ń
éĢĨ æĹ¶éĴĪ
è½¬ç§» åĪ°äºĨ
æīĵäºĨä¸ª åĵĪæ¬ł
éĵ¾ æĿ¡
æ²Ł å£ĳ
Ġè¿Ļæł· åķĬ
å¤ľæĻļ çļĦ
éĽªä¼¦ å¤«äººçļĦ
å°½éĩı ä¸įè¦ģ
èī°éļ¾ åľ°
ä¸įæŃ» é¸Ł
çļĦç® Ģ
ç±³å°Ķ è´¡æł¹
å¾®ä¸įåı¯è§ģåľ° çĤ¹äºĨä¸ĭå¤´
è½¨ è¿¹
çļĦçĸ¯ åŃĲ
é¢Ħæĥ³ å¾Ĺ
åĩ¯ èĴĤ
ç²¾èĩ´ çļĦ
æ®ĸæ°ĳ åľ°
è¤ ª
è°¦ èĻļ
ä¼Łå¤§ åŃĺåľ¨
ĠçĽ´åĪ° è¿Ļä¸ªæĹ¶åĢĻ
æŃĩ å°Ķ
æ·¡æ·¡ çļĦ
æ¢ħçº³å¾· è®®åĳĺ
å®īæıĲåĵ¥åĬªæĸ¯å®¶æĹıçļĦ ç¬Ķè®°
åįłæĺŁ äºº
åįĬç¥ŀåįĬ äººçļĦ
ç²¾ç¥ŀä¸Ģ æĮ¯
èĻļæĭŁ äººæł¼
è½¬è¿Ĳ ä»ªå¼ı
ç¬¬ä¸ĢçĻ¾ä¸ĥ åįģ
çĿģå¼ĢäºĨ çľ¼çĿĽ
é¥® æĸĻ
æİ¨äºĨ æİ¨
å©ļå§ »
åĪĽéĢłä¸ĢåĪĩ çļĦä¸»
èĢĥæĻ®æĸ¯ èĴĤ
åĽĽéĿ¢ åħ«æĸ¹
æĸ¯ç»´ åĽł
æĻ®æĻ®éĢļ éĢļ
Ġ åĨĻ
Ġ çľĭäºĨçľ¼
Ġ çĵ¦å°Ķçī¹
çļĦ æľĢ
çļĦ èģļä¼ļ
çļĦ åĢ¼å¤ľèĢħ
çļĦ ç¬¦åı·
çļĦ è·Ŀç¦»
çļĦ ä»·æł¼
çļĦ æĸ¹æ³ķ
äº ķ
äºĨ çĤ¹
äºĨ å¾Īä¹ħ
ä¸į åĥıæĺ¯
æľī è®¸å¤ļ
æľī å¤ļå°ĳ
è¿Ļ è®©ä»ĸ
èĢ ķ
å¼ ĳ
æĪĳ è¯´
éģĵ äººå½±
åħĭèİ±æģ© ä¹ĭåīį
åħĭèİ±æģ© æľĽçĿĢ
åħĭèİ±æģ© åıĪä¸Ģæ¬¡
åħĭèİ±æģ© éľįçĦ¶
åħĭèİ±æģ© éĻ©äºĽ
åħĭèİ±æģ© æľīæīĢæģįçĦ¶
åľ° åľ¨
æł ħ
å°± æ²¡æľī
ä¸Ĭ æŀ¶
èĥ½ åıĳçİ°
èĥ½ æī¾åĪ°
èĥ½ æľīæķĪ
ä¼ļ æľīä»Ģä¹Ī
ä¹ĭ åŃĲ
èĢħ æĺ¯
æĭ ĺ
å¤§ éĥ½å¸Ĥ
èº ¬
çĶŁ éķ¿
å¼Ģ å¤´
åĽŀ å¤į
èĢĮ æĿ¥çļĦ
æ²¡æľī çĬ¹è±«
å¤´ ä¸Ĭ
å°Ĩ è¦ģ
å°Ĩ æīĭä¸ŃçļĦ
çī¹ åĪ«çļĦ
éĥ½ çŁ¥éģĵ
æĮ ª
éĹ® ä¸ĢéĹ®
å¾Ī ä½İ
ä¸Ń äºĨ
åħĪ åīį
åģļ èµ·äºĨ
åıĪ è¢«
ä½Ĩ éĤ£
çŃī äºĭçī©
çľŁ è¯ļ
å½ĵ åģļ
å¤ĸ åĽ´
æµ· éĿ¢
å®ī å¿ĥ
é«ĺ å¡Ķ
é«ĺ æĸĩ
é«ĺ ä¸´
æĽ´ æ·±
æ·± å¤ľ
å¿« åľ°
æīĵ åıĳ
å°±æĺ¯ ä¸Ģä¸ª
åĪ¶ å®ļ
æŃ» å¯Ĥ
è¿ĳ äºĨ
è£ ķ
æ¯Ķ èĩªå·±
åħ¨ èĩªåĬ¨
åı¥ åŃĲ
ç¡® ä¿¡
åĬł èµ·æĿ¥
åħ³ éĹ¨
ç¾ Ķç¾Ĭ
è¿Ļæł· åķĬ
åĪ» éĴŁ
ç±» åŀĭ
èĢĥ æŁ¥
ç¿ ©
æ´» äºº
æĺŁ åħī
çļĦäºº çī©
å¡ŀ åħ¥
æº ¯
åį´ è¢«
æĢª å¼Ĥ
åĪĩ åī²
è¿ĺæľī çĤ¹
åŁĥ éĩĮåħĭ
çļĦéĤ£ æĿ¡
è¡£ çĿĢ
å·¦ èĩĤ
è¿ľ æĸ¹
ç»Ĩ å°ıçļĦ
è¯· ä½ł
ç¬Ķ çĽ´
çĽ®åħī ä¸Ģæī«
é¢Ħ çŁ¥
æ¡Į éĿ¢
ç®Ģ çŁŃ
éģĹ æ¼ı
è¡¨æĥħ ä¸¥èĤĥ
Ġä¸į çŁ¥éģĵ
èģĶ æīĭ
å°±åĥı è¢«
ç¾İ å¥½
ä»ħ éĿł
æĶ¹ åĸĦ
äº² æīĭ
çĽ¸å½ĵ ä¸įéĶĻ
ç¬¬äºĮ ç§į
æ¢¦å¢ĥ è¡ĮèĢħ
ä¾¿ äºİ
çģ¯ çģ«
æ¯Ľ åıĳ
è®©äºº æĹłæ³ķ
ä¸¤ä¸ª å°ıæĹ¶
é²ģæģ© è¯Ń
æŀª è¢ĭ
ä¹° åĪ°
å®īéĿĻ çļĦ
è½»è½» çĤ¹å¤´éģĵ
åħ± é¸£
ç¥Īç¥· åİħ
è¡¨çİ° åĩºæĿ¥çļĦ
è¶ĬæĿ¥è¶Ĭ å¤ļ
èĥ¸ èħ¹
ç©¶ç«Ł æĺ¯è°ģ
æĩ ĤçļĦ
ç¬¬ä¸ĢçĻ¾ åĽĽåįģ
ç¬¬ä¸ĢçĻ¾ åħŃåįģ
ç¬¬ä¸ĢçĻ¾ åħ«åįģ
ç¬¬ä¸ĢçĻ¾ ä¹Ŀåįģ
ç¬¬ä¸ĢçĻ¾ äºĶåįģ
éĿłè¿ĳ äºĨ
æĻ¶ èİ¹
å¤§éĥ¨åĪĨ æĹ¶åĢĻ
å¿½ è§Ĩ
çĭ¬ èĩª
çĺ ª
éĽª èĮĦ
çĤ¼ éĩĳ
åįĸ æİī
è£Ļ åŃĲ
è¯¯ å¯¼
æľĽäºĨ è¿ĩåİ»
è½»æĿ¾ å°±
å»·æł¹ å¸ĤçļĦ
èµŀæł¼å¨ģå°Ķ çļĦ
èµ°äºĨ è¿ĽæĿ¥
è®°å½ķ å®ĺ
å¯¹æĬĹ çĿĢ
ä¸įæĺ¯å¤ª å¥½
å¾Īåı¯èĥ½ æĺ¯
åŁĭ ä½İ
åĴ¬ çīĻ
æĭ¥ æľīäºĨ
èĪĴ ç¼ĵ
ä½įæł¼ åĴĮ
å¤§æ¦Ĥçİĩ ä¼ļ
æ½® æµģ
èĩªè¡Į è½¦
ç«ĸ ç«ĭ
çļĦé»ĳæļĹ éĩĮ
éĻĮçĶŁ äºº
çļĦç¼ º
è¿ľç¦» äºĨ
æ·±åĪ» çļĦ
å®£ ç§°
ä¹ĥ èĩ³
çīµ æ¶ī
åĵŃ æ³£
æ²īå£° éĹ®éģĵ
ç¬¬äºĮçĻ¾ éĽ¶
æģ¨ ä¸įå¾Ĺ
æľ¬åľ° äºº
è¿ĶåĽŀäºĨ çİ°å®ŀä¸ĸçķĮ
èĪĮ å¤´
æ»ĭ æ»ĭ
èĽĭ ç³ķ
åħ·çİ°åĩº çº¸ç¬Ķ
çľĭæ¸ħæ¥ļ äºĨ
å¿ĥä¸Ńä¸Ģ åĸľ
åĳ½ä¸Ń äºĨ
å¥¥æĭīç»´ å²Ľ
åĮķ é¦ĸ
æĶĢ çĪ¬
äºĨå¥½ ä¸Ģéĺµ
çĿĢåĹĵéŁ³ éģĵ
æĢ»çĿ£ åºľ
çļĦçĭĤ é£İ
µ ®
Ġ çľŁ
Ġ ç¦»å¼Ģ
Ġ èī¾ä¼¦
Ġ è¹¬è¹¬è¹¬
çļĦ åľ°
çļĦ ä¸ĭ
çļĦ å¥½
çļĦ å®¶
çļĦ è¯Ŀ
çļĦ éĴ±
çļĦ éļĲç§ĺ
çļĦ å°Ŀè¯ķ
çļĦ å±Ĥæ¬¡
çļĦ éĹ¨åı£
çļĦ æĬķå½±
çļĦ è¿¹è±¡
äºĨ èº«ä½ĵ
ä¸Ģ æľĪ
ä¸Ģ ä»£
ä¸Ģ å¥Ĺ
ä¸Ģ æĴĳ
æľī èĥ½åĬĽ
æľī äºĨä¸Ģå®ļçļĦ
åĩ ³
ä¼ ŀ
è¿Ļ å¾Ī
è¿Ļ åºĶè¯¥
æĪĳ è¿ĺæľī
æĪĳ çĽ®åīį
åħĭèİ±æģ© æľī
åħĭèİ±æģ© æĥ³
åħĭèİ±æģ© ä¸ĭæĦıè¯Ĩ
äºº ç¾¤
åĩº ä¹İ
åĴĮ åĨĽæĸ¹
èĥ½ çĶ¨
ä¹ĭ æīĭ
ä¹ĭ æĸ§
å¹ ¼
ä½ł ä¸ºä»Ģä¹Ī
ä½ł è®¤è¯Ĩ
å¾Ĺ ä½ı
åı¯ çĪ±
è¯´ èĩªå·±
å¼Ģ å¿ĥ
å¼Ģ æľĹ
èĢĮ ä¸į
äºĭ åīį
åıª å·®
å¥½ ä¸įå®¹æĺĵ
çī¹ åĪ¶
çī¹ éĩĮæĸ¯
å¥¹ ä¹Ł
å¤ļ æĥ³
Ġä»ĸ çĶ¨
Ġä»ĸ è®°å¾Ĺ
é»ĳ æ²ī
é»ĳ é©¬çĶ²
åıĪ éģĵ
åħī å½±
ä¸¤ ä»¶äºĭæĥħ
ç§į æ¤į
å·² æĪĲä¸º
ä¸½ ä¸Ŀ
æµ· æĢª
æ°Ķ æ³¡
åĨį çİ°
å®ī æħ°
éĩį å¿ĥ
éĩį å»º
å¹¶ ä¸įæĺ¯å¤ª
ç¬¬ ä¹Ŀ
å¥¥ å¾·æĭī
ç»Ļ æĪĳçļĦ
æīĵ äºĨå£°
åĲ¬ æĩĤ
æĶ¾ ä¸ĭäºĨ
çģ° èĵĿ
éļ¾ æİ©
åĹ Ĵ
åĶ ¬
åĽłä¸º æľī
åĽłä¸º æĪĳ
äºĮ åī¯
æĮĩ å¤´
æĮĩ çİ¯
ä¸įä¼ļ å¤ª
çªģ åıĳ
ä¹ī å·¥
æĬĬ å®ĥ
çļĦäºº çĶŁ
æµģ çķħ
åĳĬ åĪ«
èĹı çĿĢä¸Ģ
æģ¶ èĩŃ
ç»Ĩ å¾®
è§Ĥ çĤ¹
åį±éĻ© ç¨ĭåº¦
çĪµ ä½į
æĢ» ä¼ļ
æłĩ è®°
èĴĤ è¥¿äºļ
è¿ĩåİ» äºĨ
ç§° å¾Ĺä¸Ĭ
è£ħ ä½ľ
è¿Ļä½į æĺ¯
çĸ¯ äººéĻ¢
æĥĬ åĲĵ
éĵľ ä¾¿å£«
åĻ ¢
æģĲ åĲĵ
æĳĨ åĩº
è¯į è¯Ń
å°½ æĺ¯
å¸®åĬ© æĪĳ
æĹłå£° èĩªè¯Ń
ä¸įçŁ¥ è¯¥æĢİä¹Ī
å±ħ é«ĺä¸´
åĳĬè¯ī å¥¹
æ¸© åº¦
æĬ½ åĩºäºĨ
åĵĪ åĲī
åı° ä¸Ĭ
æī¿ è½½
æİ§åĪ¶ ä¸įä½ı
å°Ĭ éĩį
éģ¿ å¼ĢäºĨ
åī¯ çĶ»éĿ¢
ä¸Ģèµ· åİ»
éĩįè¦ģ çļĦæĺ¯
ç¼© å°ı
ç§ĺå¯Ĩ éĻµå¯Ŀ
ç«ŁçĦ¶ æ²¡æľī
ãĢĭ ãĢĤ
çĶŁåĳ½ æīĭæĿĸ
åģ· åģ·
ç¥ŀç§ĺåŃ¦ å®¶
å¥½åĩł ä¸ª
çļĦç² ī
å·§ è¨ĢèĢħ
é²ľ èĬ±
æĲľ æŁ¥
æĽ¿ ä»£
æĬ¥çº¸ ä¸Ĭ
éĢĴ äºĨè¿ĩåİ»
æĦ£ ä½ı
ç»Ŀå¯¹ çļĦ
æ²³ æ°´
æ²³ è°·
è½»æĿ¾ åľ°
æ´ģ çĻ½
èĮĥåĽ´ åĨħçļĦ
çıŃæ£® åĴĮæ¢ħä¸½èİİ
è®¨ åİĮ
åĪĨåĪ« æĺ¯
æ»ĳ èĲ½
åĲŀ äºĨåı£åĶ¾
æĭĸ çĿĢ
æ¬£ æħ°
ä¸Ĭå°Ĩ éĺģä¸ĭ
æĭĽ æīĭ
è¡¨ç¤º èĩªå·±
æıĴ åħ¥äºĨ
çļĦæĪĲåĳĺ ä»¬
æĵ¦ äºĨ
é©± éĤª
èĮ«çĦ¶ åľ°
å¿§ èĻĳ
è´¢ äº§
åĩĳ èĩ³
çļĦå¥³ åŃ©
èĥľ è¿ĩ
èĦ¸èī² èĭįçĻ½
åĪĢ åıī
å®£ æī¬
é¸Ł åŀĭ
åģ¶å°Ķ ä¼ļ
é£ĵé£İ ä¹ĭæĸ§
æ¶Īå¤±åľ¨äºĨ åİŁåľ°
ä¹Įé»¯éŃĶçĭ¼ ç§ĳå¡Ķå°Ķ
åıĳæĮ¥ ä½ľçĶ¨
çļĦç¾İ ä¸½
æ±Ĺ æ¯Ľ
æĶ¶æĭ¾ å¥½
åıĺå¼Ĥ çļĦå¤ªéĺ³
åħĪæĺ¯ä¸Ģ æĢĶ
çļĦä¸ĸçķĮ éĩĮ
è®¸æĦ¿ æľº
æ±ģ æ¶²
èĪį ä¸įå¾Ĺ
æķ²éĹ¨ å£°
ä»İæĿ¥ æ²¡æľī
éĺ´è°ĭ å®¶
å¸Įå°Ķ ä¼¯çī¹
è±ªåįİ åĪ«å¢ħåĨħ
éľįçº³å¥ĩæĸ¯å±±èĦī ä¸»å³°
çļĦçħ¤æ°Ķ è·¯çģ¯
æ´ª æµģ
æ²¸ èħ¾
å¹½èĵĿå¤įä»ĩèĢħ åı·
ä¸Ńäº§ éĺ¶
çº½ æī£
åįĬè½¬ èº«ä½ĵ
Ġè¯´çĿĢ è¯´çĿĢ
§ æ¡ĳ
· è¡į
Ġ è°ģ
Ġ ä¹ĭåĲİ
Ġ éĺŁéķ¿
Ġ ä¸Ģä¸ªä¸ª
Ġ åĵİ
çļĦ é©¬è½¦
çļĦ èľ¡çĥĽ
çļĦ æĦŁåıĹ
çļĦ é¢ľèī²
çļĦ èĺĳèıĩ
çļĦ æ·±çº¢æĺŁè¾°
çļĦ æºĲå¤´
äºĨ å½ĵ
âĢĿ ï¼Ī
ä¸Ģ è¡Į
ä¸Ģ é¡¿
ä¸Ģ è·³
å® ł
ä¸į é«ĺ
ä¸į æŃ£å¸¸çļĦ
æľī éĴ±
æľī å¿ħè¦ģ
æĿ µ
ä»ĸ éĥ½
ä»ĸ åıªèĥ½
ä»ĸ å¹¶æ²¡æľī
æ² §æ¡ĳ
åħĭèİ±æģ© åıĳçİ°
åħĭèİ±æģ© åĪĻ
éĤ£ æ®µ
åľ° çĤ¹å¤´éģĵ
åĩº æ²¡
åĩº èº«
ï¼ļ ãĢĤ
å°± åĲ¬è§ģ
åĴĮ ä¸Ģä¸ª
åĴĮ ä¼¦çº³å¾·
åĴĮ å¦¹å¦¹
ä¸Ĭ çĻ¾
æķ ·è¡į
ï¼Ł âĢĺ
è¿ĩ ä¸ĸ
ç¥ŀ åĥı
å¾Ĺ ä»¿ä½Ľ
äºĨä¸Ģ ç§į
äºĨä¸Ģ æ®µ
éĿ¢ åŃĶ
äºİ åľ°
çĤ¹ æķ°
å± ģ
åĽŀ æĬ¥
æĪĲ ä¸ĢåĽ¢
è¿ĺ åŃĺåľ¨
è¿ĺ ä¸įåĪ°
èĢĮ ä½ł
æīĭ å¸ķ
å¤´ èĦĳ
å¥¹ æľī
å¥¹ å·²ç»ı
çĶ¨ å¤Ħ
çĶ¨ ä¸Ģç§į
æĹł æķĪ
æĹł çŀ³
å°ı æ¥¼
å°ı åĪĢ
å°ı å¥³åŃ©
ä¾ Ī
Ġè¿Ļ å°±
Ġè¿Ļ æĺ¯ä¸Ģ
Ġè¿Ļ éĩĮçļĦ
æ³ķ å¾ĭ
å¤© çļĦ
æİ¥ æīĭ
æľĢ éĩįè¦ģçļĦ
åħī ä¸İ
åħī äº®
åĿ İ
ä¸¤ åıª
ä¸¤ åı¥
åĪĨ ä¸º
åĪĨ å¤ĸ
å¸¸ å¸¸
åıĺ æ·¡
æ± ł
ä¸» çļĦ
éĹ¨ åĲİ
åĪ°äºĨ åºıåĪĹ
æŀľ æĸŃ
Ġåħĭèİ±æģ© çĤ¹äºĨçĤ¹å¤´
å¥¥ åħ¹
è¿Ļä¸ª æĥ³æ³ķ
çª ľ
ç»Ļ ä½łä»¬
å°±æĺ¯ ä¸ºäºĨ
æį §
è½¬ åĮĸ
æĭī äºĨ
æĭī çĿĢ
æĭī èĴĤè¥¿äºļ
æ¡ ©
æĪ´ åħľå¸½
çº¢ é©¬çĶ²
æ¸ħ æ¾Ī
ç©º ç©ºèį¡èį¡
çİĭ æľĿ
å¼ı çļĦ
ä½İ ä¸ĭäºĨ
åĪĻ æľī
åĪĻ æĹ¥è®°
åº¦ åģĩ
ä¸ĢçĤ¹ ä¹Łæ²¡
æĸ° çĶŁ
çĶ· å¥³
å½¢ æĪĲçļĦ
æķ´ ä»¶äºĭæĥħ
åºĶè¯¥ å°±èĥ½
ç´§ æı¡
åĪļæīį éĤ£ä½į
ä¾Ŀ æį®
çķ¥ æľīäºĽ
é£ŀ äºĨåĩºåİ»
ä¼ĳ çļĦ
åľ£ å®īä¸ľå°¼
è¯· è¿Ľ
å¸ĥ åĳĬ
å¸ĥ é²ģ
åĲ¦ å®ļäºĨ
åľ¨äºĨ éĤ£éĩĮ
é¢Ħ æ¡Ī
ç±³ æŃĩå°Ķ
åĨĻ ä¸ĭ
å·´ åħ¹
éĽ· å°Ķå¤«
ä¹Łä¸į åı¯èĥ½
å¥³å£« ä»¬
èİ« ä¿®
èŃ¦ æĸ¹
çļĦä¸Ģ éĿ¢
ä¸įèĥ½ åĨį
æĶ¹ ä¿¡
æĶ¯ éħį
ä¼Ĺ ä½įæĪĲåĳĺ
åĩĿ æľĽ
è¿· å¹»
ä¸ĥ å¤§
çĻ½éĵ¶åŁİ éĢłçī©ä¸»
çĻ½éĵ¶åŁİ é¦ĸå¸Ń
æııè¿° éģĵ
å¿į ä½ı
åĬŁ åĬ³
é¤Ĳ çĽĺ
èĭ¦ æ¶©
ä¸įåĨį çĬ¹è±«
åĨ² åĲĳäºĨ
è·³ åĬ¨
èº«ä»½ è¯ģæĺİ
éĹŃ äºĨ
éĢĥ éģ¿
è¯º è´ĿåĪ©
é¢ĩ æĦŁåħ´è¶£
æĢ¨ å¿µ
åħ·ä½ĵ çļĦæĥħåĨµ
æŁĲäºĽ æĹ¶åĢĻ
æ¶ĪåĮĸ éŃĶèį¯
æ¼« æ¸¸
çĳŀ æĸ¯
ä¹Ķ å¾·
çĥŃ æ°´
ç§Ł ä½ı
ç½Ĺå¡ŀå°Ķå¤§å¸Ŀ çļĦ
å·¨äººçİĭ å±ħæīĢ
åĪļæīįçļĦ è¯Ŀè¯Ń
è®¾ å®ļ
éģ® æĮ¡
æıĲçĿĢ çļĦ
åıĪä¸Ģ éģį
ä¾µ åħ¥
éĴ» åħ¥
çĽ¸åħ³ çļĦäºĭæĥħ
æĭĽ æĥ¹
æĬ¬å¤´ æľĽåĲĳ
åĩºäºĨä¸Ģä¸ª åıĪä¸Ģä¸ª
ç¼ºä¹ı è¶³å¤ŁçļĦ
è¤Ĳ åıĳ
åģļäºĨ æ¬¡
éĤ£åº§ åİŁå§ĭå²Ľå±¿
æľĢåĪĿ éĤ£ä½įéĢłçī©ä¸»
æĬ¿ äºĨ
åĪĩå°Ķ è¯ºè´ĿåĪ©
æĨ İ
ç©¿éĢı äºĨ
åĨ·éĿĻ åľ°
æµĳ åĻ©
åĲ¸å¼ķ åĬĽ
é»ĺçĦ¶ åĩłç§Ĵ
çİ¯é¡¾äºĨä¸ĢåľĪ éģĵ
çļĦçİ¯å¢ĥ éĩĮ
çİ¯é¡¾ä¸ĢåľĪ éģĵ
çļĦå¹´è½» äºº
èīĺ èĪ¹
å±Ĥåıł çļĦ
æĪĺç¥ŀ æķĻä¼ļ
ç¿»èº« åĿĲèµ·
Ġå¾Ī æĺ¾çĦ¶
æĬ½åĬ¨ äºĨä¸Ģä¸ĭ
å¤©çģ¾ å¥³çİĭ
æı´ åĬ©
è£¸ éľ²
çĽ² çĽ®
é»ı ç¨ł
å¥¢ ä¾Ī
èµ«å°Ķ èİ«ä¿®
åĩĦ åİī
æĭ§åĬ¨ æĬĬæīĭ
ç¿ł è¥¿
èĹī æŃ¤
åľĨèħ¹ éĴ¢ç¬Ķ
èĢķ ç§į
åħ¨èĩªåĬ¨ è®¸æĦ¿æľº
åıĺå¼ĤçļĦå¤ªéĺ³ åľ£å¾½
å¥¥åħ¹ å°Ķ
èµ«å°Ķèİ«ä¿® åĽł
¨ æ¸¸
Ġ åıªæĺ¯
Ġ æ³¨
Ġ å®ĮæĪĲ
Ġ ä¸ĭåįĪ
çļĦ ä¼ĳ
çļĦ æķĻåłĤ
çļĦ æĹģè¾¹
çļĦ éĵ¶çĻ½
çļĦ å¤ľæĻļ
çļĦ æĬĢå·§
çļĦ é¦Ļåĳ³
ä» Ĺ
æľ ½
ä¸Ģ éĹ´
ä¸Ģ åħ·
ä¸Ģ èĪ¬çļĦ
æĪ ³
ä¸į çŃī
ä¸į åºĶè¯¥
ä»ĸ åı¯ä»¥
ä»ĸ æīĵç®Ĺ
ä»ĸ åĲ¬è§ģ
éģ ¨æ¸¸
åľ¨ ä½ł
åľ¨ çĻ½éĵ¶åŁİ
åľ¨ çİ°å®ŀä¸ĸçķĮ
åľ¨ æĭľäºļå§Ĩ
æĪĳ è¯¥æĢİä¹Ī
æĪĳ ä¹Łä¸įçŁ¥éģĵ
åħĭèİ±æģ© æŃ£è¦ģ
åħĭèİ±æģ© æĶ¶åĽŀè§Ĩçº¿
éĤ£ æĺ¯ä¸Ģ
äºº åľ¨
æŃ §
èĩ £
åĩº ä¸Ģä¸ª
ä¹ĭ éĻħ
è¿ĩ å¾Ģ
åī ª
ä¸º ä½ł
ä½ł æĺ¯åĲ¦
äºĨä¸Ģ æł·
çľĭ æĬ¥çº¸
ä»¥ ä¸ĬçļĦ
ä¹Ł åı¯èĥ½æĺ¯
è¦ģ åİ»
èĢĮ èµ·
åıĳ åĬ¨
åıĳ åŁŁ
éĥ½ æ²¡æ³ķ
èĦ ĵ
å¾Ī å¥½çļĦ
ä¸Ń æŃ¢
åŃĲ åĹ
çĶ¨ äºİ
æĹł åħī
å°ı å·§
Ġè¿Ļ ä¹Łæĺ¯
Ġè¿Ļ è®©å¥¹
æ³ķ æ¡Ī
åģļ çĤ¹ä»Ģä¹Ī
åĲĮ ä¼Ļ
éķ¿ å¾Ĺ
å¤ĸ ä¹¡
ç¬ĳ è¯Ŀ
åĩł æł¹
åĪ°äºĨ ä»ĸçļĦ
æľĽ äºĨè¿ĩæĿ¥
éŃĶ é¬¼
ä¸İ ä½ł
ä¸İ èĩªå·±
å¹¶ çĶ¨
è¿Ļä¸ª è¿ĩç¨ĭä¸Ń
ä¸įæĺ¯ ä¸Ģä¸ª
æŃ¥ åħ¥
åĪļ è¦ģ
è½» ç¬ĳäºĨä¸Ģå£°
è¡Ģ èī²çļĦ
è¡Ģ æ±¡
éĢļ æĬ¥
è§Ĩ ä½ľ
åĪ© æĸ¯
åĬł éĢŁ
æĿ¡ æ¬¾
åħ¶ ä»ĸçļĦ
æ±Ĥ åĬ©
æ¶Ī çĺ¦
åıį åĻ¬
åħ³ æĬ¼
èĦĳ åĲİ
åĽĽ æľĪ
äº¤ éĢļ
ä¸įä¼ļ æĺ¯
åįľ æĿĸ
è¯ķ éªĮ
èĩªå·±çļĦ èº«ä½ĵ
èĩªå·±çļĦ çĶŁåĳ½
æĺŁ çĲĥ
è·¯ æĺĵ
åį° è®°
èĥĮ å¯¹
Ġå¥¹ æ²¡æľī
Ġå¥¹ æĹĭåį³
é¦ĸ åıĳåŁŁ
æĸ¯å¸ķç½Ĺ éģĵ
è¿ĺæľī ä¸įå°ĳ
æĹ¥ æľŁ
èī¾ çķ¥
çĦ¶åĲİ åĨį
è¡Ĺ è¾¹
æ¯ı éļĶ
åĩĨå¤ĩ å¥½äºĨ
åį¡ è¯º
åį±éĻ© äºĨ
èĪ¬ åľ°
èĪ¬ è¯´éģĵ
éķľ ä¸ŃçļĦ
åıĺå¾Ĺ éĢıæĺİ
åıĺå¾Ĺ æĽ´åĬł
çļ® å¤¹
æĲ ŀ
ç«Ļ çĽ´
èĤī çľ¼
æį¢ ä¸ª
çł´ çĥĤ
æĶ¯ ç¦»
éĢļè¿ĩ äºĨ
æ¶Īå¤± åľ¨
å¼ķ çĪĨ
åĲĮæł· æĺ¯
ç±»ä¼¼ çļĦæĥħåĨµ
æııè¿° äºĨä¸Ģéģį
èĻļå¹» ä¹ĭéĹ¨
çĿ¡ åºĬ
ä¸įçŁ¥ å¤ļå°ĳ
éļĲç§ĺ ä¹ĭ
éļĶ ç©º
æ¸© æŁĶ
ç²¾ç¥ŀ çļĦ
æĺ¯åĲ¦ åı¯ä»¥
äºĨè§£ çļĦ
éĻį ä¸ĭ
çŁ¥è¯Ĩ çļĦ
æłĳ æŀĿ
åĤ ¨
è½»è½» ä¸Ģ
éĢıæĺİ èłķèĻ«
åį³ä½¿ æľī
éŃĶå¥³ çī¹èİīä¸Ŀ
çľ· èĢħçļĦ
ä¸¢ åħ¥äºĨ
ä¾į ä»İ
èĪŀ åı°
åĸĦ æĦı
çĿģ çľ¼
åķĨ ä¸ļ
ç»Ŀå¯¹ ä¸įèĥ½
åºĦ ä¸¥
è¿Ľè¡Į äºĨ
ä¸Ģå¼ł å¼ł
çĤ¸ å¼Ģ
åľ°ä¸ĭ åĮºåŁŁ
ç²Ĺ çķ¥
ç²Ĺ å£®
åłķèĲ½ ä¼¯çĪµ
éĤ£çīĩ åĮºåŁŁ
æĭį äºĨ
è®°ä½ı æľ¬ä¹¦
åĽŀæĥ³ èµ·
åĽŀå¿Ĩ èµ·
çŀĴ è¿ĩ
å½ĵåīį çļĦ
éĹªçĥģ éĹ´
æĸŁéħĮçĿĢ éĹ®éģĵ
è¿Ļä¸ªä¸ĸçķĮ ä¸Ĭ
éľ²åĩºäºĨ ç¬ĳå®¹
åĮħè£¹ ä½ı
åĸ· æ³ī
è¿ĺç®Ĺ ä¸įéĶĻ
é¦Ī èµł
å¢¨ æ°´
çģµæķĻåĽ¢ äººéĢłæŃ»ç¥ŀ
åı¤èµ«å¯Ĩæĸ¯è¯Ń åįķè¯į
æµģæ· ĮçĿĢ
ç¼łç»ķ çĿĢ
æĭ§ å¼Ģ
æī¶ æīĭ
åģ¿ è¿ĺ
çļĦçł Ķç©¶
çļĦçĸĳ éĹ®
åĢ¾åĲĳ äºİ
çħ§èĢĢ ä¸ĭ
å¾®çļ±çľīå¤´ éģĵ
åķªåľ° æīĵäºĨä¸ªåĵįæĮĩ
éĻª ä¼´
è´¦ æĪ·
åĬłå°Ķ åĬł
é»İæĺİ éªĳå£«
æµıè§Ī äºĨä¸Ģéģį
çļĦçħ§ çīĩ
æµĨ æ´Ĺ
è´© åįĸ
èµ°çĿĢ èµ°çĿĢ
æĹłè¾ľ èĢħ
ä¸įåı¯éģ¿åħį åľ°
çļĦä»Ĩäºº éĺ¿ç½Ĺå¾·æĸ¯
å±¹ ç«ĭ
ç®ĢåįķæĿ¥è¯´ å°±æĺ¯
å¼ķé¢Ĩ ä¸ĭ
Ġè¯· è®°ä½ıæľ¬ä¹¦
æīĵäºĨå£° æĭĽåĳ¼
éĹŃäºĨ éĹŃçľ¼çĿĽ
æĬ¿äºĨ æĬ¿
åŃĲåĹ £
é¦ĸåıĳåŁŁ åĲį
Ġè¯·è®°ä½ıæľ¬ä¹¦ é¦ĸåıĳåŁŁåĲį
8 0
Ġ ä¸ī
Ġ æĹĭåį³
Ġ æĶ¾ä¸ĭ
Ġ åłĤå¨ľ
Ġ æį¢åģļ
ģ å¸ĥ
Ļ èĿ
çļĦ æľĢåĲİ
çļĦ æİ¢ç´¢
çļĦ æĬ¥çº¸
çļĦ æģĲæĥ§
çļĦ åŁİå¸Ĥ
çļĦ éĻĲåĪ¶
çļĦ éª¨çģ°
äºĨ è¿ĳ
ä½ ¬
æĺ¯ è¿Ļæł·çļĦ
ä¸į å®ļ
ä¸į å¿Ļ
è¿Ļ æ¯Ķ
è¿Ļ æłĭæĪ¿å±ĭ
ä»ĸ å¾Ī
ä»ĸ æĽ¾ç»ı
æĪĳ äºĨ
æĪĳ ä»¥
åħĭèİ±æģ© æĵįçºµ
åľ° åĽ¾
åľ° çľĭäºĨ
åĩº åįĸ
è¡ «
åĴĮ ä»ĸä»¬
èĥ½ å¾ĹåĪ°
ä¼ļ åĲĪ
çľĭ è¿ĩçļĦ
ä¹Ł ç®Ĺ
éĿ¢ è¯ķ
å± ī
é¢ ģå¸ĥ
å£ ¶
è´ ¼
âĢĻ ï¼ģâĢĿ
èĢĮ è¿ĩ
å¥½ ä¹ħ
çī¹ éĩĮ
éĥ½ åĿ¦
å¥¹ æ²¡æľī
å¿ĥ åĬ¨
å¤ļ ä¸½ä¸Ŀ
ä¸Ń æĸĩ
çĶ¨ è¯į
æ¸ ¡
å¦ ĵ
å¤© äº®
æľĢ å¿«
æ¬¡ æķ°
éľ Ĩ
å®ŀ è·µ
çĽ´ æĪª
å¦Ĥ åħ¶
é«ĺ ä½İ
ä¿¡ ä»¶
çĥ «
å°ĳ å°Ĩ
æīĵ åľ¨äºĨ
åĸ §
ä¸ī å¹´
ä¸ī åĪĨä¹ĭä¸Ģ
ä½ľ åī§
éļĲ èĹıçĿĢ
é© »
çľĭè§ģ çļĦçĶ»éĿ¢
åĮĸ æĪĲäºĨä¸Ģ
è± ¸
æĪ¿ ä¸ľ
çİĭ åº§
æĪĳä»¬ æĺ¯
ç¡® ä¿Ŀ
åĪ© äºļ
ç´¢ çº³
æ¶Ī éĢĢ
æĬ¥ ç®±
ä¼¼ä¹İ ä¹Ł
å¯¹æĸ¹ æĺ¯
åĽĽ çİĭ
åĽĽ çļĩ
ä¹ĭåīį éĤ£ä¸ª
è¶Ĭ å¤§
åįłåįľ å¸Ī
æĬĬ èĩªå·±
ç»Ī ç©¶
æļ´ æĢĴ
ç¥ŀç§ĺ ä¸ĸçķĮ
æĥħåĨµ çļĦ
éĿŀå¸¸ å¥½
åıĸ èµ°
æģ¶ ä½ľåī§
åľ£ åħ¸
æĹ© çĤ¹
é¢Ħ è®¡
åº§ ä½į
äºĨåĩł ä¸ª
äºĨåĩł éģį
ä½łä»¬ æľī
ä¸Ģå®ļ ç¨ĭåº¦ä¸Ĭ
ĠèĢĮ åħĭèİ±æģ©
æĪ¿éĹ´ çļĦ
ä¹Į äºĳ
éĽ· éľĨ
èİ« ç´¢çº³
è¶ħ èĩªçĦ¶
æĶ¹ éĢł
éĵģ çĽĴ
æľ¨ æĿ¿
ä¼Ĺ å¤ļçļĦ
åĳ¼ åķ¸
è½® åĢ¼
å®Ī æģĴ
ä¸ĥ åħī
æııè¿° äºĨ
æīĺ çĿĢ
å°ģåį°çī© çļĦ
åĬ¡ æ±Ĥ
æľīä¸Ģ ä»¶
ä¸įçŁ¥ åľ¨
æĿĤ æ´»
æĬ½ å±ī
Ġè¿Ļæĺ¯ åħĭèİ±æģ©
æ³° å°Ķ
åı¤èĢģ å®«æ®¿
çļĦç¥ŀ æĥħ
ä¹Ŀ æľĪ
çľ¼çľ¸ å¾®è½¬
éĤª çģµ
é²ģæģ© åĨĽæĸ¹
çĿĢä¸Ģ åĪĩ
æŀª åı£
ä½¿çĶ¨ çļĦ
åıªè¦ģ ä¸į
æ·· åĲĪ
å¸¦çĿĢ çĤ¹
æł¹æľ¬ æĹłæ³ķ
èĻ« è±¸
çĸĳæĥĳ åľ°éĹ®éģĵ
åĺ´è§Ĵ å¾®
çļĦä¸» è§Ĵ
æĵįçºµ çģ«çĦ°
æ²¹ å½©
æĩ µ
å»¶ ç»Ń
éľ²åĩº ç¬ĳå®¹éģĵ
é¦Ļ æĸĻ
æ¼« æŃ¥
æµĵ å¯Ĩ
Ġç´§ è·ŁçĿĢ
çĳŀ ä¹Ķå¾·
å¿ĥçģµ ä¸ĸçķĮ
ç¬¬ä¸ī æĽ´
åħ³éĶ® è¯į
æķı æĦŁ
è´´ çĿĢ
åķĨ åºĹ
å¹¿ åĳĬ
éģ® ä½ıäºĨ
åĽŀèį¡ åľ¨äºĨ
é»Ħéĩĳ é¥°åĵģ
éŃĶæ³ķ å¸Ī
äºĴ åĬ¨
åĽŀå¿Ĩ èµ·äºĨ
éľĩ æħĳ
ç¹ģ æ®ĸ
åŀĤ ä½ĵ
åļ ı
åĲ¸äºĨåı£æ°Ķ éģĵ
æĮĤ çĿĢ
æīĶ åĲĳäºĨ
çĮ®ç¥Ń ä»ªå¼ı
æŃ£å¼ı æĪĲåĳĺ
çļĦçĭ ©çĮİ
åĬ¨äºĨ åĬ¨
ç¢į äºİ
åı® åı®
æ½ľåħ¥ èĢħ
éķ¿èĢģ æ´ĽèĸĩéĽħ
éŁ¦ çī¹
æ²¾ æŁĵçĿĢ
èİ±æĽ¼è¯º æĹħè¡Įç¬Ķè®°
æ±Ĺ æ°´
åħ½ çļ®
æ³¢çī¹ åħ°
èįīèį¯ ç²īæľ«
åįķçĭ¬ äº¤æµģ
ç´¢ä¼¦ å®¶æĹı
èµĦæ·± çļĦ
èĿ ĻèĿ
é¡ºæĹ¶éĴĪ çĤ¹äºĨåĽĽä¸ĭ
æľįåĬ¡ çĶŁ
çļĦçĥĽ çģ«
å¼ºè¿« èĩªå·±
åĳķ åĲĲ
åŃķ èĤ²
ä»Ģä¹Īä¹Łæ²¡ è¯´
åĿŁ å¢ĵ
èĩªè¨Ģ èĩªè¯Ń
èĪªæµ· å®¶
å¸· å¹ķ
å±ł æĿĢ
å¼¯ä¸ĭ èħ°èĥĮ
åĵĪåĲī æĸ¯
èĢķç§į èĢħ
è·¯æĺĵ æĸ¯
éĥ½åĿ¦ è¯Ń
çĽ´æĪª äºĨå½ĵ
èĿĻèĿ ł
1 7
5 1
A åħĪçĶŁçļĦ
X åħĪçĶŁçļĦ
~ âĢĿ
Ġ äºļå½ĵ
Ġ ç¥ĤçļĦ
Ġ æ´ĽèĸĩéĽħ
Ġ åĪ°æĹ¶åĢĻ
Ġ AåħĪçĶŁ
Ġ è´¾æĸ¯æķı
Ġ ä¹ĵ
ĥ åľ
çļĦ åı£
çļĦ å·¨äºº
çļĦ åĲĮä¼´
çļĦ æİĮæİ§
çļĦ é¡¶ç«¯
çļĦ æĥ¨åı«
ãĢĤ ãĢĤ
è¿ ģ
ä¸Ģ å¯¹
ä¸Ģ åħ±
æĺ¯ æĥ³
æĺ¯ éĤ£æł·çļĦ
ä¸į å¤ļçļĦ
ä¸į åĸľæ¬¢
ä¸į çģŃ
æľī ä»»ä½ķ
è¿Ļ éľĢè¦ģ
ä»ĸ å¼Ģå§ĭ
åħĭ çĳŀæĸ¯
ç» ¼
åľ¨ ä¸Ģä¸ª
åľ¨ ç¥ŀç§ĺåŃ¦
æĪĳ ä»¥ä¸º
åĬ Ŀ
åħĭèİ±æģ© ä¸į
åħĭèİ±æģ© çĽ¸ä¿¡
åħĭèİ±æģ© ä¸ĢæĹ¶
åħĭèİ±æģ© åħĪæĺ¯
éĤ£ é¢Ĺ
éĤ£ ä»¶çī©åĵģ
éĤ£ å°ģä¿¡
çĿĢ èĦĳè¢ĭ
æĿ¥ å¾Ģå¾Ģ
å°± åİ»
å°± åıĳçİ°
åĴĮ çī©åĵģ
æ²¡ è¯´
ä¹ĭ ä¸ŃçļĦ
å¤§ äºĨ
å¯¹ å¾ħ
ä½ł å¥½
åı¯ éĹ®é¢ĺåľ¨äºİ
éĿ¢ é¢Ŀ
æĥ³ åİ»
çĤ¹ ç¼Ģ
åīį æľŁ
çŃ Ĵ
æĪĲ ç«ĭ
æīĭ æľ¯
å°Ĩ æĪĳ
çī¹ èī²çļĦ
éĥ½ ä¼¼ä¹İ
æĮ ¨
æŃ£ å¤Ħäºİ
åĨħ åħĭ
æ¸ Ķ
Ġä»ĸ çŁ¥éģĵ
Ġä»ĸ å·²ç»ı
ä¸Ģä¸ª åįķè¯į
Ġè¿Ļ éĩĮéĿ¢
Ġè¿Ļ æŃ£æĺ¯
å¤© çĶŁ
å¤© çľŁ
åıĪ æĥĬ
ä½Ĩ éĹ®é¢ĺåľ¨äºİ
åħī æ³½
èĤ ĭ
è· Ħ
åĪĨ åĩº
åĪĨ äºĶ
ç»ı è´¹
æµ· è¾¹
å¥³ ä½£
çĽ¸ å¤Ħ
çĸ ļ
ä¸İ å¤ĸçķĮ
éĩį åĪĽ
Ġåħĭèİ±æģ© éļıåį³
è¿Ļä¸ª æł·åŃĲ
éĩĳ å£³
ç»Ļ å¯¹æĸ¹
æŃ¥ éª¤
åĪļ ä»İ
è½» æŁĶ
æŃ» æŃ»
æĭī æĭ¢
éĹ®é¢ĺ æĺ¯
é£İ åº¦
å¾Ģ åĨħ
æĪ¿ åĨħ
æĪĳä»¬ å¡Ķç½Ĺä¼ļ
å¤į åİŁ
çĬ ·
ä½İ å¿µ
éĤ£ä¸ª æģ¶çģµ
å¤ľ ä¹ĭåĽ½
çļĦäºĭæĥħ åĲĹ
åĽĽ åĪĨäºĶ
åķĬ å¯¹
äº¤ æĽ¿
è¥¿ è¿¦
æĢİä¹Ī éĥ½
æĺŁ ä¹ĭèĻ«
ä¸Ģä½į ç©¿
ä¸Ģä½į å¤©ä½¿
æĹłæ³ķ ç¡®å®ļ
åĲĦ å¤§æķĻä¼ļ
ç»´ æģ©
æİ¢ åħ¥
èĤ¯ çī¹
åį° è¯ģ
çĹ Ĵ
è¿ĺæľī äºĽ
é² į
çļĦéĤ£ åº§
éĤ£éĩĮ æľī
æĮģ æı¡
ç»Ĩ å°ı
åıĮ æİĮ
æĹģ çļĦ
çŁ³ åĿĹ
äºĶ ä¸ª
çħ§ å¾Ĺ
åģľ éĿł
æĪĲåĳĺ ä»¬
éģĹ ä¼ł
éħĴ ç²¾
ä¹ĭåĲİ åĨį
çľĭçĿĢ ä»ĸ
ç«Ļ çĤ¹
Ġä¸į å¾Ĺ
åŀ ĥåľ
éĴŁ å£°
èŃ¦ éķ¿
èŃ¦ å±Ģ
è¾ĥ é«ĺ
è¸ ī
æĳĨ åľ¨
çł´ äº§
æ¤ Ĵ
çľŁæŃ£ æĦıä¹īä¸ĬçļĦ
å¹½ é»ĺ
éļ¾ä»¥ æııè¿°
åĨĴ åĩºäºĨ
æ¢ħ æ¡ĳ
éĴ± åĮħ
æĬĵ äºĨä¸Ģä¸ĭ
åħŃ ä½į
æĺ¯ä¸Ģ åĲį
æĺ¯ä¸Ģ çīĩ
èĢĥèĻĳ è¿ĩ
çģ¯ åħī
æĥ³åĪ° è¿ĻéĩĮ
æĥ³åĪ° äºĨä¸Ģä¸ª
åı¬åĶ¤ ä¿¡ä½¿
èº«ä»½ åĴĮ
åģļåĩº çļĦ
æ½ľ åľ¨
äºī æĸĹ
æķ´ä¸ª ä¸ĸçķĮ
å¸¦çĿĢ äºĽè®¸
æĪĳæĥ³ è¦ģ
éĺŁéķ¿ éĤĵæģ©
ä¸¾ åĬ¨
èķ Ĭ
æĬ¬èµ· åıĮæīĭ
æĦıå¤ĸ åľ°
æĪĺæĸĹ éĩĮ
åĽº å®ļçļĦ
å°ĸ åķ¸
æİ¨èįĲ ä¸Ģæľ¬ä¹¦
å¾Īæľī åı¯èĥ½
é¦ĸå¸Ń éĺģä¸ĭ
æĢĶ äºĨ
ç¥ŀå¥ĩçī©åĵģ çļĦ
éĻ¢ è®®åĳĺ
çļĦçĸ ¾çĹħ
å¤±åİ» çĲĨæĻº
æħĮ ä¸įå¿Ļ
éº¦ éĿ¢åĮħ
éĶĲ åĪ©
æī¿åıĹ çļĦ
åĺ´åĶĩ ç¿ķåĬ¨
çļĦçĥ Ń
è¾¨ è®¤
çļĦåħī è¾ī
åįı è®®
åı¦ä¸Ģä¸ª æĸ¹åĲĳ
éŃĶèį¯çļĦ åĲįç§°
èĦĸåŃĲ ä¸Ĭ
æľĢå¥½ ä¸įè¦ģ
ç©ºæĥ³ å¤©ä½¿
å®£ å¸ĥ
èķ´ èĹı
çŃĶåºĶ äºĨ
æķıéĶĲ åľ°
çķħ éĶĢ
èĲ¥ éĢł
åĴķåĻľ åĸĿ
éĢ¼ è¿«
æī¾äºĨä¸ª ä½įç½®åĿĲä¸ĭ
æĭ¼ åĩĳ
æ¶Įçİ° åĩºäºĨ
åª ļ
ä¸Ĭåīį ä¸¤æŃ¥
çļĦç¤¼ å¸½
äººçļ® å¹½å½±
è´© åŃĲ
åħ³ä¸Ĭ æĪ¿éĹ¨
æĽ´æİ¥è¿ĳ äºİ
èµ«å°Ķ å¢¨
å¼łå¼ĢäºĨ åĺ´å·´
æĳ©æĮ² çĿĢ
æĿ¥åĽŀè¸± æŃ¥
åıĮåĢį æľŁéĹ´
èĢĥåı¤ åŃ¦å®¶
è´Ŀåħĭåħ°å¾·å¤§éĽ¾éľ¾ äºĭä»¶
åĭĩæķ¢èĢħ éħĴåĲ§
å¤§æ¡¥ åįĹåĮº
åīįä»» é¦ĸå¸Ń
æ¡ĮçĲĥ å®¤
çĨŁç¨Ķ åľ°
æµİè´« éĻ¢
è¯´ä¸įåĩº è¯ĿæĿ¥
æŃĮé¢Ĥ èĢħ
æĵ¦äºĨ æĵ¦
å±ģ èĤ¡
åĬłå°ĶåĬł æĸ¯
åĽĽçļĩ ä¹ĭæĪĺ
åĽĽåĪĨäºĶ è£Ĥ
åŀĥåľ ¾
æ¢ħæ¡ĳ èĢ¶
4 1
Ġ ä¸ºä»Ģä¹Ī
Ġ åĳ¨æĺİçĳŀ
Ġ è¯ĿéŁ³æľªèĲ½
Ġ çļĩåĲİåĮº
Ġ æĬĵä½ıè¿Ļä¸ªæľºä¼ļ
ħ é¥¼
Ŀ çģ«
çļĦ åĺ´å·´
çļĦ éĹªçĶµ
çļĦ æĶ»åĩ»
çļĦ éĵ¶èī²
çļĦ éĻ·éĺ±
ä» ģ
ä¸Ģ å¤§
ä¸Ģ ä¸ĸ
ä¸Ģ è½®
ä¸Ģ åłĨ
ä¸Ģ ä¸įå°ıå¿ĥ
æĺ¯ æĹłæ³ķ
ä¸į åĪĨ
ä¸į ç®Ģåįķ
åĩ Ľ
ä»ĸ åĪļæīį
ä»ĸ èĢĮè¨Ģ
çĶ °
åľ¨ åľ°
åľ¨ çģµçķĮ
åľ¨ å¤ĸéĿ¢
åľ¨ ç¬¬åĽĽçºª
åľ¨ æŁĲç§įç¨ĭåº¦ä¸Ĭ
æĪĳ æľĢ
æĪĳ åıĳçİ°
ä¸ª åŃĲ
åħĭèİ±æģ© è¿Ľåħ¥
åħĭèİ±æģ© è¡¨æĥħ
åħĭèİ±æģ© æķħæĦı
éĤ£ å¤©
éĤ£ ç¾¤
äºº ä»¬
åĩº æµ·
æĿ¥ åģļ
ä¸ĭ åºĬ
ä¸ĭ åĿł
å°± å¥½äºĨ
åĴĮ æĪĳä»¬
åĴĮ å¯¹æĸ¹
æ²¡ æī¾åĪ°
å°Ķ é¡¿
è¿ĩ å¤ļ
å¯¹ å¼Ģ
å¯¹ åĲ§
ä½ł åħĪ
è¾ ±
å¾Ĺ èµ·
æµ Ĭ
ä¹Ł ä¸Ģæł·
åı¯ åį´
åı¯ çİ°åľ¨
åīį å°±
åīį ç½®
åĽŀ åºĶçļĦ
èĢĮ å·²
æ²¡æľī è¡¨æĥħ
å°Ĩ è¿Ļä»¶äºĭæĥħ
éĥ½ ä»¿ä½Ľ
éĥ½ çĽ¸å½ĵ
éĥ½ æ²¡èĥ½
å¿ĥ éŃĩ
çĶ¨ ä¸įäºĨå¤ļä¹ħ
å°ı æĹ¶åĢĻ
å°ı å¹ħåº¦
ä¾ ¯
è¢« éĺ¿èĴĻ
è¢« çĤ¹çĩĥ
è¢« åĪºæĿĢ
Ġè¿Ļ äººå½±
åıĪ è¦ģ
åĬĽ æ°Ķ
ä½Ĩ ä½ł
çŃī äººçļĦ
çĻ½ è¢į
å¤ĸ æĿ¥èĢħ
åĪĨ åĮĸ
è¡Į åįķè¯į
å®ŀ ä½ĵ
æĦŁ åĪ°
æıĲ åĪ°çļĦ
åħĪçĶŁ éĤ£éĩĮ
æīĢ å¤Ħ
æķĻ åĳĺ
æ°Ķ åĳ³
å®ī ç¨³
Ġåħĭèİ±æģ© æĥ³äºĨæĥ³
è¿Ľ æĶ»
å®Į åĸĦ
å¥¥ æĸ¯é¡¿
è¿Ļä¸ª ç»Ħç»ĩ
ä»ĸä»¬ ä¼ļ
èµ° è¿Ĳ
æīĵ èµı
å¤± ç¬ĳ
å¤Ħ ç½ļ
è§£ å¼Ģ
è½¬ è¿ĩäºĨ
æŃ» åīį
çĲĨ äºĨä¸ĭ
æĶ¾ çĿĢ
å¾® æĬ¬
é£İ éĵĥ
éĢļ åĲĳ
é¦ ħé¥¼
æ¯Ķ ä»ĸ
äºĨä¸ĭ èĩªå·±
çģ° æļĹ
æĭ¿ äºĨ
èĲ½ åħ¥
åħ¶ å¦Ļ
ä½İ ç¬ĳéģĵ
åħ³ åĪĩ
çīĩ çīĩ
åŁİ å¤ĸ
è¿Ļæł· ä¸Ģä¸ª
åĩºçİ° äºĨä¸Ģéģĵ
æĸ° é²ľ
å¯Ĩ å°Ķé¡¿
çªģ å¦Ĥåħ¶
å½¢ æĪĲäºĨä¸Ģ
çļĦäºº åĳĺ
åºĶè¯¥ å·²ç»ı
è·¯ åı£
ĠéĤ£ çīĩ
æŀģ åº¦
åľ£ çī©
ç²¾ åĬĽ
åĩĨå¤ĩ çĿĢ
å¨ľ å¨ħ
åĪĿ æľŁ
å®³ èĢħ
ä¸įåĲĮ çļĦåľ°æĸ¹
çİ¯ ç»ķ
åĨĻ äºĨ
æľīäºĨ æĸ°çļĦ
æĲ ħ
æĲ ĵ
å¹» æĥ³
æĪ¿éĹ´ éĩĮ
æį¢ åı¥è¯Ŀ
æĮī çĿĢ
åįĬç¥ŀ å±Ĥæ¬¡çļĦ
è¿Ļä½į å¥³å£«
çľŁå®ŀ è§Ĩéĩİ
ä¸ĥ çĤ¹
çĻ½éĵ¶åŁİ å±ħæ°ĳ
é»ĳå¤ľ æķĻä¼ļçļĦ
æĬĵ åĪ°
åħŃ æľĪ
æľīä¸Ģ åıĮ
ä¸įçŁ¥ ä»İåĵªéĩĮ
Ġä¸Ģ åıª
æ¿ Ľ
åĲĲ åı¸
æ²īé»ĺ äºĨä¸ĭæĿ¥
é²ģæģ© æĸĩ
è¿Ļæł·çļĦ åľºæĻ¯
è¯Ŀè¯Ń éĩĮ
æ¯ķ ä¸ļ
æ½ľ ä¼ı
æĶ¶åĽŀ æĢĿç»ª
çĶŁåĳ½ çļĦ
è®¤è¯Ĩ åĪ°
å§Ķ å©ī
äºĨä¸Ģéĺµ åĲİ
æ³¨è§Ĩ ä¸ĭ
èħ° éĥ¨
éĶ® çĽĺ
ç§¯ æŀģ
çĺ «
ç»´æĮģ çĿĢ
çļĦç²¾ çģµ
ç½Ĺå¡ŀå°Ķå¤§å¸Ŀ çļĦæĹ¥è®°
æĸĳ çĻ½
éĺħè¯» èµ·
çİ© åħ·
å¼ĹèĲ¨åħĭ çļĦ
åĳĪçİ° äºĨåĩºæĿ¥
ä¸Ģç§Ĵ éĴŁ
åĽłèĴĤ æĸ¯çļĦ
ä»Ķç»Ĩ è§Ĥå¯Ł
åĲ¹ äºĨä¸Ģä¸ĭ
è®¿ å®¢
åĬ³ ç»´æĸ¯
åı¹æģ¯ äºĨä¸Ģå£°
æ°´æĻ¶ ç£¨
èİ«åĲį åħ¶å¦Ļ
éķľåŃĲ è¡¨éĿ¢
æķ¬ çķı
è¯µå¿µ èµ·
æĶ¾æĿ¾ ä¸ĭæĿ¥
ç²¾çģµ è¯Ń
åŀĤ èĲ½
æĬ« é£İ
åįĹå¤§éĻĨ çļĦ
åħ·çİ° åĩºäºĨ
çł´åĿı äºĨ
æĦŁæħ¨ éģĵ
ç«ĸ èµ·
åĲ©åĴĲ éģĵ
æĪĳçŁ¥éģĵ äºĨ
éĺ¿éĩĮå®īå¨ľ å¥³å£«
çļĦèĢģ æĿ¿
çļĦä¸Ń å¤®
æ¯«æĹłçĸĳéĹ® æĺ¯
å®¢åİħ åĨħ
ä½Ĩè¿Ļ ä¸į
æļĹçº¢ å¤ĸå¥Ĺ
æŃ¦åĻ¨ åºĵ
æ±ī å¯Ĩå°Ķé¡¿
èłķåĬ¨ çĿĢ
çĶľ ç¾İ
åĤ¬çľł å¸Ī
Ġè¿ĩ äºĨåĩłç§Ĵ
çĻ½éª¨ ä¿¡ä½¿
éŀ ł
åı¤åħ¸ éķ¿è¢į
èĶļèĵĿ çļĦçľ¼çľ¸
æĸĳé©³éķ¿æ¡Į æľĢä¸Ĭé¦ĸ
åıĸä¸ĭ å¸½åŃĲ
å®¿ åĳ½
ä¹Ŀå¤©ç¥ŀçļĩ æīĭæľºçīĪéĺħè¯»ç½ĳåĿĢ
åħĥ ç´ł
çĤ½ çĻ½
ç«¥ è¯Ŀ
äºĨä¸ĭæīĭ éģĵ
åŃ¤ çĭ¬
çŀĦåĩĨ äºĨ
æĬ¬èµ·äºĨ èĦĳè¢ĭ
å¹½çģµ èĪ¹
èĤĨ æİł
æı£ æµĭ
éĵħ ç¬Ķ
éķ¿éķ¿ åľ°
åĢº åĬ¡
éĵ¶èī²çļĦ åįķè¯į
çĽ´è§Ĥ åľ°
çİ¯è§Ĩ ä¸ĢåľĪ
ä¸īè§Ĵ å¸½
æĮ¤åĩº ç¬ĳå®¹éģĵ
è¶Ĭæĥ³ è¶Ĭ
å®ı ä¼Ł
ç«ŀ äºī
èµ°ä¸ĭ é©¬è½¦
åĨ·å³ »
é»ĦéĩĳéĿ¢åħ· çĶ·
å¥¥åĪ©å®īå¨ľ å¤ªå¤ª
çļĦéĤ£é¢Ĺ æ·±çº¢æĺŁè¾°
åĹľ è¡Ģ
éĻĽ ä¸ĭ
å°ıçĶ·åŃ© æĿ°åħĭ
éĺ¿å°ĶæĪĪ æĸ¯
åı®åı® å½ĵå½ĵ
éĩĳå£³ æĢĢè¡¨
Ġä¸įå¾Ĺ ä¸įè¯´
æį¢åı¥è¯Ŀ è¯´
6 00
Ġ æľĢ
Ġ æŁ¥æĭīåĽ¾
Ġ ç½Ĺä¼Ĭ
Ŀ åķ
çļĦ ä¸Ĭ
çļĦ åįĬ
çļĦ éĿŀåĩ¡
çļĦ å°ıå§Ĳ
çļĦ åŁĥå§ĨæŀĹ
çļĦ æİ§åĪ¶
çļĦ åı³æīĭ
çļĦ åľ£èĢħ
çļĦ èĤ¡ä»½
çļĦ æ°Ķæ°Ľ
äºĨ å¤§åįĬ
âĢĿ ãĢģ
ä¸Ģ æĥĬ
ä¸Ģ ç¾¤
ä¸Ģ èīĺ
åĲ Ŀåķ
æĪ Ľ
æĺ¯ åĲĹ
æĺ¯ åģĩçļĦ
ä¸į åįıè°ĥ
è¿Ļ æĬĬ
ä»ĸ çĶļèĩ³
åħĭ æ³ķ
çľ ¶
åľ¨ åºıåĪĹ
åľ¨ è¿Ļä»¶äºĭæĥħä¸Ĭ
æĪĳ å°±æĺ¯
æĪĳ å°±èĥ½
åħĭèİ±æģ© å¹¶ä¸į
åħĭèİ±æģ© çŀ¬éĹ´
åħĭèİ±æģ© çľĭäºĨçľ¼
åħĭèİ±æģ© åĿ¦çĦ¶
éĤ£ ä»¶äºĭæĥħ
éĤ£ æĪĳå°±
å¯ ¥
åľ° åĽŀåºĶ
åľ° æĳĩäºĨæĳĩå¤´
åĩº èī²
å°± ä»İ
æ²¡ åı¯èĥ½
èĥ½ ä¸º
èĥ½ èİ·å¾Ĺ
ä¼ļ éģŃéģĩ
åĳ Ĳ
ä¹ĭ è¯Ń
ä¹ĭ èĬ±
ç¥ŀ æ£į
ä¸º é¦ĸ
ä½ł ä¸įéľĢè¦ģ
åĲİ æľŁ
å¾Ĺ ä»ĸ
èº« å¤Ħ
äºĨä¸Ģ ä»½
ä¹Ł æ²¡ä»Ģä¹Ī
èµ· æ¡ĪåŃĲ
åı¯ éĿł
éĿ¢ çĭ©çĮİ
å¾· é²ģ
æ° ı
å¥½ ä¸Ģéĺµ
å°Ĩ å¥¹
å°Ĩ äºĭæĥħ
å°Ĩ è§Ĩçº¿
åİ» è¿ĩ
åİ» å¹´
éĥ½ éĿŀå¸¸
èĦ Ĥ
çĶ¨ åįłåįľ
Ġè¿Ļ çĶ·åŃĲ
æ³ķ å®ĺ
åĬ¨ çĿĢ
ä½ĵ åŀĭ
åģļ ä¸Ģå®ļçļĦ
åħ¥ æīĭ
åıĪ ä¸įæĺ¯
ä¸¤ éģĵ
ä¸¤ åĪ°
åĪĨ éļĶ
åĩł åįĥ
ä¸½ èĲ¨
æµ· ä¹ĭ
åıĺ ä¸º
ä»İ çĶ·çĪµ
ä¸» ç¥Ń
å®ī å®ļ
å®ī ä¸½èĲ¨
é«ĺ åĤ²
ä¿¡ èµĸ
éĩį ä¼¤
Ġåħĭèİ±æģ© å½ĵåį³
å¥¥ åħĭæ³ķ
è¿Ļä¸ª äºº
å°ĳ è§ģ
æī¾ ä½ł
æ²ī è¿·
æ²ī åĵĳ
æŃ» äºİ
æĭī å§Ĩ
æ¡ Ĳ
é£İ å¸Ĩ
å¥¥é»Ľä¸½ çŃīäºº
åĲĪ è§Ħ
åĲĪ æł¼çļĦ
æĪĳä»¬ åľ¨
æľª åĨį
éĿĻ æŃ¢
å±Ĥ éĿ¢
å¦Ĥæŀľ ä»ĸ
æĶ¶ çĽĬ
åĪ© çĽĬ
åŃ¦ ä¼ļ
ä½İ èĲ½
è¿ĻéĩĮ æĺ¯
äº¤ å¾ħ
éĢł æĪĲäºĨ
å¯Ĩ éĽĨ
æĢİä¹Ī äºĨ
çĽ´æİ¥ ä»İ
å¸® äºº
éĤ£ä½į åįĬç¥ŀ
åĵª ç§į
åĽ´ å·¾
æı¡ ç´§
æı¡ æĭ³
å¤ªéĺ³ ç¥ŀ
é¦ĸ é¥°
èĻļ æĹł
è¿ĺæľī å¾Īå¤ļ
èĤ¯å®ļ æ¯Ķ
éĺ¿èĴĻ åĴĮ
åľ£ æ°´
è¿Ĳ åĬ¨
æĪ´éĩĮåħĭ çŃīäºº
ä¸įåĲĮ åľ°æĸ¹
è¿Ļç§į æĹ¶åĢĻ
æķĪ çİĩ
ç«Ļ è¡Ĺ
åįĬç¥ŀ å±Ĥæ¬¡
è£ħ æľī
çģ°éĽ¾ä¹ĭä¸Ĭ éĤ£çīĩç¥ŀç§ĺç©ºéĹ´
ç¿» åĩº
ç¿» è¯ĳ
æį® æĪĳ
å¼ķ è¯±
éĿŀåĩ¡çī¹æĢ§ åĴĮ
æ¨¡ æł·çļĦ
ä¸įçŁ¥éģĵ è¯¥æĢİä¹Ī
è¯ģ ä»¶
ç»§ç»Ń åīįè¡Į
Ġä¸Ģ éĺµ
å¾Īå¿« å°±èĥ½
å¾Īå¿« å°±ä¼ļ
æ¤ħ ä¸Ĭ
çĦ° æµģ
ç®Ģåįķ åľ°
æĬ½ ç¦»
ä¾ĿæĹ§ åľ¨
éĿĴ é»ĳ
åĪº çĹĽ
åı¬åĶ¤ ä¹ĭéĹ¨
æ³¨æĦı åĪ°äºĨ
çģµä½ĵ çĬ¶æĢģ
éģŃéģĩ çļĦ
è£Ĥ åı£
åĪĴ åĪĨ
ä¸¾ èµ·
ä¸įçĶ¨ å¤ª
çļĦä¸» å®°
å¹³éĿĻ ä¸ĭæĿ¥
å¥Ķ åĲĳ
å¥Ķ æ³¢
ç¼º å¤±
ç¬¦åı· åĴĮ
æĬ± æľī
ä¸įæķ¢ åĨį
æĦŁè°¢ æĤ¨çļĦ
ä¸įå¤ª å¥½
ç»ıåİĨ äºĨ
èµ¶ åĪ°
å²Ľå±¿ ä¸Ĭ
æĶ¿ æ²»
æĺ¨ æĹ¥
çĤ¸ èį¯
ç²Ĺ çĬ·
ç»ĻäºĪ äºĨ
åĳĨ æĿ¿
åı¯æĥľ åķĬ
åĭ¾åĭĴ åĩºäºĨ
åĿł åħ¥
æŀĦ æĪĲçļĦ
ä¾¿å£« çļĦ
åĵĪåĵĪ åĵĪ
çĻ» è®°
æľĢåĪĿ çļĦ
å¾Īå¥½ åľ°
æĬ¿ äºĨä¸Ģåı£
æĬ¿ äºĨä¸ĭåĺ´åĶĩ
æŃ£è¦ģ å¼Ģåı£
çĳŁ åıĳæĬĸ
åģľé¡¿ ä¸ĭæĿ¥
å·®ä¸įå¤ļ äºĨ
çıł å®Ŀ
èĥľ åĪ©
è¿Ļä¸ªä¸ĸçķĮ çļĦ
åĲĪæĭ¢ äºĨ
åĩ¸æĺ¾ åĩº
éģµ ä»İ
æ¶Ĥ çĿĢ
çº¯åĩĢ çļĦ
å®ŀè´¨ çļĦ
åĲ± åĺİ
è½¬å¤´ æľĽåĲĳ
éĺ´æļĹ çļĦ
éĽĨä½ĵæ½ľæĦıè¯Ĩ æµ·æ´ĭ
ä¸įçŁ¥ä¸įè§ī å°±
å¡Ķç½Ĺä¼ļæĪĲåĳĺ ä»¬
è±¡å¾ģç¬¦åı· åĴĮ
æľīä»Ģä¹Īäºĭæĥħ åĲĹ
åħ¼ èģĮ
åįģæĿ¥ ç§Ĵ
æģ° å½ĵ
æľĢå¤§ ç¨ĭåº¦
æķ£åıĳ çĿĢ
äºĮåįģäºĮ æĿ¡
åıįéĶģ ä½ı
ä¹İä¹İ çļĦ
èİīäºļå¨ľ å¤«äºº
æ¢§ æ¡Ĳ
å¤§æ°Ķæ±¡æŁĵ è°ĥæŁ¥
çĭ¡ è¯Ī
åĵ¥çī¹ å¼ı
èī¾çķ¥ çī¹
æĿĤæ´» å¥³ä»Ĩ
æĢĶäºĨ æĢĶ
åĬłå°ĶåĬłæĸ¯ ç¾¤å²Ľ
å¿ĥéŃĩ èľ¡çĥĽ
åĲĿåķ ¬
å¾·é²ģ ä¼Ĭ
åĲĪè§Ħ éĥ¨
7 9
® ç¥Ń
² åıĸ
Ġ æĿ¥åĪ°
Ġ æľĽçĿĢ
Ġ åĿĲåľ¨
Ġ æĪ¿éĹ´åĨħ
Ġ ä¸ľåĮº
çļĦ åĳ½è¿Ĳ
çļĦ éģŃéģĩ
çļĦ è¿ĩç¨ĭ
çļĦ æľ¬èĥ½
çļĦ æ¬²æľĽ
çļĦ å®īæİĴ
çļĦ éĴ¥åĮĻ
çļĦ å£ģçĶ»
çļĦ çģµéŃĤ
çļĦ äºĭå®ŀ
çļĦ æĿ¥æºĲ
åı ©
äºĨ èĦļæŃ¥
åħ ¢
ä¸Ģ åĪ°
ä¸Ģ èº«
ä¸Ģ è§ī
ä¸Ģ çĵ¶
æĺ §
ä¸į æĸ¹ä¾¿
æľī æĦıæĢĿ
è¿Ļ åºĶè¯¥æĺ¯
è¿Ļ å¹ħ
å¼ ¦
åľ¨ åĨħ
åľ¨ éĩĮéĿ¢
æĪĳ çľĭè§ģ
æĪĳ ä¸įèĥ½
åħĭèİ±æģ© æĭ¿åĩº
åħĭèİ±æģ© å¿ĥæĥħ
åħĭèİ±æģ© èĭ¥æľīæīĢæĢĿ
åħĭèİ±æģ© æĶ¾ä¸ĭ
åħĭèİ±æģ© å¿ĥä¸Ńä¸ĢåĬ¨
äºº å½¢
åĩº åĶ®
æĿ¥ è¿ĩ
éĢ Ľ
åĴĮ èĶ
ä¼ļ å¯¹
ä¹ĭ å£°
å¤§ ç¥Īç¥·åİħ
å¯¹ è¿Ļä¸ª
ä½ł æ²¡æľī
çľĭ ç©¿
éĿ¢ éķľåŃĲ
åĵ ĩ
è¿ĺ ä¸įçŁ¥éģĵ
æīĭ æĭ¿
æ²¡æľī çĽ´æİ¥
çī¹ å®ļ
åİ» æĥ³
åİ» éĻ¤
èĩªå·± æĺ¯
èĩªå·± åİ»
å¾Ī é«ĺåħ´
å¤ļ ä½ĻçļĦ
çĶ¨ å·¨äººè¯Ń
æĹł æ¯Ķ
Ġä»ĸ åıĪ
Ġä»ĸ å¾Īå¿«
ç© Ĩ
è¢« æīĵå¼Ģ
è¢« è¯ħåĴĴ
åĲĮ åľ¨
åıĪ æľīäºĽ
å®¶ åħ·
ä½Ĩ åı¯ä»¥
çļĦç ¿
ä¸¤ äººçļĦ
ç½Ĺ è¿ª
æĺİ éĿ¢
ç»ı æµİ
åħĪçĶŁ æĺ¯
åħĪçĶŁ ç¥Īç¥·
æ± ²åıĸ
åĨį èĢĥèĻĳ
å®ī æĽ¼
ä¸İ çģµçķĮ
åı¯ä»¥ ç¡®å®ļ
å¥¥ å¾·å°Ķ
è®° ä½ıäºĨ
æīĵ åĩº
èĭ Ł
å¤Ħ éķ¿
è½¬ åĲĳäºĨ
æļĹ è¢ĭéĩĮ
æĪ´ åĪ°äºĨ
æĪ´ ä¸ĬäºĨ
åĳ¨ æľ«
è§Ĩ è§Ĵ
ç©º çģµ
è¯¥ æŃ»
å¼º èĢħçļĦ
çİĭ åºŃ
ç¨ İ
æľª è¢«
æľª åıĺ
å¦Ĥæŀľ æĥ³
èĲ½ åĲİ
ç´¢ åıĸ
æ°´ éĿ¢
éĤ£ä¸ª ç»Ħç»ĩ
åįķ èº«
éĵ¶ åĮķ
ç»ĵ å°¾
å¯¹æĸ¹ åľ¨
èĦ¸ èĽĭ
è¿ĺæĺ¯ æľī
å½¢ çĬ¶
åħ· å°¸ä½ĵ
è¿Ļæĺ¯ æĪĳä»¬
å¡ŀ åħ¥åı£ä¸Ń
åį´ ä¸į
ä½Ľå°ĶæĢĿ çļĦ
æīĢä»¥ æīį
æİī çļĦ
èĤ¯å®ļ å·²ç»ı
åı¦ ä¸ĢæĿ¡
èī¾ çĳŀ
åıĸ ä¸ĭäºĨ
åıĸ æĤ¦
æ¯ı å½ĵ
å¸ĥ å±Ģ
ä¼ł ç»Ł
è¿Ļä¹Ī ä¹ħ
è¿Ļä¹Ī è®¤ä¸º
åį±éĻ© é¢ĦæĦŁ
æĪ´éĩĮåħĭ çļĦ
ä¸įåĲĮ äºİ
äºĨåĩł çľ¼
æłĩ æ³¨
ç±³ é«ĺ
æĻļ å¹´
è°ģ èĥ½
ç¤¼ ä»ª
è§īå¾Ĺ èĩªå·±çļĦ
èĦĳè¢ĭ çļĦ
ç«Ļ åľ¨éĤ£éĩĮ
Ġä¸į åĪ°
ä¹Į æĸ¯
éĽ· åĩ»
å±ķ åİħ
å¸ĮæľĽ å¾ĹåĪ°
è£ħ çĿĢ
ç¬¬ä¸Ģ ç§į
ç¿» äºĨ
ä½ķ åĨµ
è¾ĥ å¤§
æį® æŃ¤
çĶµ èĽĩ
æķ£ å¼Ģ
çĻ½éĵ¶ çĽŁ
éĵģ éĹ¨
æĦıè¯Ĩ åľ°
èĩ´ æĦı
æľ¨ çĦ¶
æľ¨ ç®±
æľ¨ çĤŃ
å¼ķ åıĳ
éļ¾ä»¥ æııè¿°çļĦ
æ¢ħ æŀĹ
å¹² èĦĨ
å¹² çĺª
å·® åĪ«
æ¼Ķ è®²
å¸®åĬ© ä½ł
åħĭèİ±æģ©çļĦ çĽ®åħī
æľĪç¥¨ ç¬¬ä¸Ģ
åİŁæľ¬ æĺ¯
åİŁæľ¬ çļĦæł·åŃĲ
æĥ³åĪ° äºĨä¸Ģä¸ªéĹ®é¢ĺ
çļĦç¥ŀ æĢ§
çļĦç¥ŀ åĽ½
çºª å¿µ
ä¸¤ä¸ª ç§ĺåģ¶
éĤª ç¥ŀçļĦ
Ġåľ¨ å¥¹
æĬµ æ¶Ī
è§Ħ åĪĴ
å®¡ æŁ¥
åĪ«çļĦ åĬŀæ³ķ
çľĭåĪ° çļĦ
èĨ ı
å¤±æİ§ äºĨ
å®ĮæĪĲ çļĦ
åıĤ èĢĥ
åıĤ è§Ĥ
æ²¡ä»Ģä¹Ī éĹ®é¢ĺ
å¼¥ è´Ŀæĭī
å¾ĭ ä»¤
åįĥ éĿ¢çĭ©çĮİ
æ°¸ çľł
è·ĥ åĩº
é±¼ èĤī
å¿ĺ äºĨ
èģĮ ä½į
æĮĳ äºĨä¸ĭ
çľīå¤´ å¾®çļ±
è¿Ī å¼Ģ
æĭ¿åĩº ä¸Ģä¸ª
å¥½å¥ĩ å¿ĥ
å¾Īæľī æĦıæĢĿ
åħ³éĶ® çĤ¹
è¡ĢèĤī åĴĮ
çİĭåĽ½ åįļçī©é¦Ĩ
åıĳåĩº äºĨä¸Ģå£°
æĥ³çĿĢ æĥ³çĿĢ
çī§ é¦ĸ
æĺł åĩºäºĨ
éķĩ éĿĻ
æ»´ çŃĶ
éļ¾éģĵ æĺ¯
çļĦçĮ ®ç¥Ń
æ¬§ å¼¥è´Ŀæĭī
åĲ¹ çīĽ
åıĪä¸Ģ å±Ĥ
æĶ¶èİ· äºĨ
å¼Ĺåħ° ç±³
è¿« åĪĩ
æĬĺ åıł
èĤ¯å®ļä¼ļ è¢«
èĩªæĪĳ è®¤çŁ¥
è¦ĨçĽĸ äºĨ
çĬ¯ ç½ª
è¤Ĳ çŀ³
åį« éĺŁ
è£¹ çĿĢ
çĳŁ çĳŁåıĳæĬĸ
è½¬ç§» äºĨ
å¹½æļĹ åľ£èĢħ
åŁºæľ¬ çļĦ
æİĴéĻ¤ æİī
çļĦå¥³ åĦ¿
æ¯«æĹłçĸĳéĹ® åľ°
èĩªåĺ² ä¸Ģç¬ĳéģĵ
ä¸Ģè·¯ æĿ¥åĪ°
èī¯ å¥½
åįķçº¯ çļĦ
çĽ¯ ä¸Ĭ
éĥĳéĩį çĤ¹å¤´éģĵ
å®ŀåľ¨ å¤ª
éĵ¶è¡Į å®¶
ä¸ĵæ³¨ åľ°
å±Ī èµ·
è¢ĸ éĴī
æĺıé»Ħ çļĦåħīèĬĴ
åĻĹ éĢļ
å¡ŀè¥¿ å°Ķ
æĺ¯æĢİä¹Ī åĽŀäºĭ
æĶ¶æķĽä½ı æĢĿç»ª
å¿ĥä¸Ńä¸Ģ ç´§
è¯Ĺäºº åĲĮåŃ¦
æ´»çĿĢçļĦ çī¹æĢ§
æĭĨ å¼Ģ
èĸĦèĸĦ çļĦ
èĩªé¡¾èĩª è¯´éģĵ
æŃ£ç¥ŀ æķĻä¼ļ
çĴĢçĴ¨ çļĦ
çļĦç¡ ®
åĴĢåļ¼ çĿĢ
æĬĦ å½ķ
å¤§ç¥Ńåı¸ å°¼å§Ĩ
å°¼æĭľæĸ¯ å¤§äºº
ä¸Ģå¯¸ å¯¸
å¨ģå»īå§Ĩæĸ¯ è¡Ĺ
çļĦçĪĨ çĤ¸
æĮīæįº ä½ı
å¦ĤæŀľçľŁæĺ¯ è¿Ļæł·
ç¾Ķç¾Ĭ èĤī
é¸Łåŀĭ é»Ħéĩĳé¥°åĵģ
è¸ī è·Ħ
ä»ģ æħĪ
ä¾¯ çĪµ
æ°´æĻ¶ç£¨ æĪĲçļĦåįķçīĩçľ¼éķľ
æĭīå§Ĩ å¾·
ç«Ļè¡Ĺ å¥³éĥİ
å®īæĽ¼ è¾¾
èī¾çĳŀ éľį
2 5
7 67
9 1
ç µ®
è Ł
Ġ åıªæľī
Ġ çĶ»éĿ¢
Ġ åĽłæĸ¯
Ġ è¿ĽäºĨ
Ġ è¾¾åħĭå¨ģå°Ķ
Ġ æĹłéľĢ
Ġ éĺ¿å°Ķå¼ĹéĽ·å¾·
Ġ æİ¥ä¸ĭæĿ¥çļĦ
Ġ ä¿Ŀéķĸå°ıå§Ĳ
Ġ æĸ¯å¡ĶçĲ³
Ġ æŃ£å¸¸æĿ¥è¯´
çļĦ éĺ¿å°ĶæĿ°
çļĦ çľŁæŃ£
çļĦ éĢıæĺİ
çļĦ ä»·åĢ¼
çļĦ ç©ºæ°Ķ
çļĦ éĻµå¯Ŀ
çļĦ éĺ¶æ¢¯
çļĦ éĩįçĤ¹
çļĦ èĪ¹åıª
çļĦ åĲįä¹ī
ä¸Ģ æ²ī
å® µ
æĺ¯ çĽ¸å½ĵ
ä¸į çĽ¸ä¿¡
æľī è¢«
æľī æĺİæĺ¾çļĦ
è¿Ļ åı¯ä»¥
è¿Ļ ä¸ī
ä»ĸ è®©
ä»ĸ è¿Ľåħ¥
ä»ĸ åĨ³å®ļ
ç» µ
åľ¨ å®¶éĩĮ
æĪĳ æĹ©å°±
æĪĳ ä¹Łä¼ļ
æ² ¥
åħĭèİ±æģ© è®¤ä¸º
åħĭèİ±æģ© å¾®å¾®
åħĭèİ±æģ© çľ¼åīį
åħĭèİ±æģ© åĨħå¿ĥ
åħĭèİ±æģ© æĭ¿èµ·
åĪ° æŃ¤
åĪ° ä»Ĭå¤©
åľ° éĩĮ
æĿ¥ è´Ŀåħĭåħ°å¾·
æĿ¥ æĿ¥å¾Ģå¾Ģ
åĴĮ çĸ¯çĭĤ
æ²¡ è®©
æ²¡ å¤ªå¤§
åİ ĺ
ä¼ļ å¯¼èĩ´
å°Ķ åĲī
ä¹ĭ è·¯
åī Ķ
åĲİ èĦĳ
å¾Ĺ æĦı
å¾Ĺ éĿŀå¸¸
çľĭ ä¸įæ¸ħ
èµ· çĤ¹
äºİ ä»ĸçļĦ
éĻ ¶
æĥ³ å¥½äºĨ
è¿ĺ ä¸įå¦Ĥ
çķ ´
å¥½ æ°Ķ
çī¹ äº§
éĥ½ æľīçĤ¹
å¾Ī è¿ľ
ä¸Ń å¹´çĶ·åŃĲ
åħĪ åĲİ
å°ı ç»Ħ
å¦ ¨
è¢« åŃĲ
Ġè¿Ļ å®¶ä¼Ļ
æ³ķ åºŃ
åĬ¨ æĳĩ
æ· ħ
åĲĳ ä»ĸ
çľŁ åģĩ
ä¸¤ æł¹
ä¸¤ åįĥ
éķ¿ ä»Ģä¹Īæł·åŃĲ
æıĲ äºĨä¸Ģåı¥
æµ· èĽĩ
åħĪçĶŁ åľ¨
åħĪçĶŁ è¯´
ä»İ å®¹
ä½ı å¤Ħ
çĲ Ĳ
é«ĺ å£°
é«ĺ åİŁ
åĪĹ å§Ĩ
Ġåħĭèİ±æģ© å°Ĩ
Ġåħĭèİ±æģ© åıĪ
çĽ® è§Ĩ
æĽ´ é«ĺ
æĽ´ å¼º
ä¸įæĺ¯ è¯´
åįģ å¹´
è½» ç¬ĳ
æĶ¾ èĩ³
å¼ł æī¬
æĪĳä»¬ èĥ½
å·²ç»ı æľī
æĶ¶ è´Ń
åİŁ åİŁæľ¬
æĿ¡ æĿ¡
ç´¢ åĪĹå§Ĩ
åŃ¦ æľ¯
æĺ¾ éľ²åĩº
æ°´ æ³¢
åıį æīĳ
äºĮ æľĪ
ä»ĸçļĦ èº«å½±
åĵģ ç§į
åĢĴ å¡Į
ä¼¼ä¹İ åıĪ
åĪĻ åľ¨
å¯Ĩ çłģ
æĢİä¹Ī èĥ½
æİĮ ä¸ŃçļĦ
åı· éĤ£æłĭæĪ¿å±ĭ
åįłåįľ åĩº
ç¿ °
è¿Ľåħ¥ åĨ¥æĥ³
åĿĲ æłĩ
æĹ¶éĹ´ çĤ¹
åĭ Ł
éľĢè¦ģ æ³¨æĦı
æ»¡ éĿ¢
çļĦäºº çļ®
æĹłæ³ķ åĨį
ç¼ĵ äºĨè¿ĩæĿ¥
çİ°åľ¨ æĺ¯
ä»½ æĬ¥çº¸
çļĦéĤ£ æŀļ
åıĸ åĩºäºĨä¸Ģ
å·¦ èħķ
é£ŀ äºĨèµ·æĿ¥
é£ŀ æºħ
çªģçĦ¶ åıĺå¾Ĺ
æ¯ı ä¸Ģæ¬¡
å¸ĥ åģ¶
éĨ ĩ
æĸĩ æ³ķ
æºĲ æ³ī
ä¼ł æķĻ
å¼Ģå§ĭ åĲ§
æİ¨ ç§»
é¢Ħ ä»ĺ
åıĺå¾Ĺ éĿŀå¸¸
è¿Ļç§į ä¸ľè¥¿
è°ģ è°ģ
æĲ ı
ä¹Į é»ĳ
èİ« èĴĻçī¹
éĵľ å¸ģ
çĶļèĩ³ è¿ĺ
éĵģ è¡Ģ
æ¶Īå¤± äºİ
ä¸ĥ éģĵ
åİĨåı² ç³»
ä¸¥ å¯Ĩ
ä¾¿ çŃ¾
å¸®åĬ© ä¸ĭ
æ¯į ç¥ŀçļĦ
æŃ¢ ä¸įä½ı
èĬĤ çĤ¹
æľīä¸Ģ åº§
Ġä¸Ģ æĹ¦
æĢ¥ èºģ
åĲĲ åĩºäºĨä¸Ģä¸ª
åĨ° èĮ¶
è¿ħéĢŁ æľīäºĨ
æķĪæŀľ çļĦ
å¤±æİ§ èĢħ
åĢ¼å¤ľèĢħ çļĦ
åĸĿ çĿĢ
åį· å®Ĺ
ä¹ł ä¿Ĺ
éĹŃ çĿĢçľ¼çĿĽ
ç¼© åĽŀ
ç¥Īç¥· çļĦ
ç»ĵæĿŁ æİī
å½Ĵ è¿ĺ
åĺ´è§Ĵ ä¸ĢçĤ¹çĤ¹
è¯ļ æĦı
è¶ĬæĿ¥è¶Ĭ è¿ĳ
åĨħéĥ¨ çļĦ
æľĹ é½Ĳ
æĹ¥è®° éĩĮ
åĿı äºĭ
å°ıéĺŁ çļĦ
æµ®çİ° äºĨåĩºæĿ¥
é²ľ èī³
æīĵå¼Ģ æĪ¿éĹ¨
èħ° éĹ´
ä¸įæķ¢ çĽ´è§Ĩ
è±¡å¾ģ çĿĢ
èĮĥ çķ´
é»ĳçļĩå¸Ŀ åı·
åıĳåĩº å£°éŁ³
æĪĳæĺ¯ è¯´
çģ¾ ç¥¸
çİ¯é¡¾ åĽĽåĳ¨
æ´ŀ ç©´
åģı åĲĳ
å¯Ħ ä¿¡
æıī äºĨä¸ĭ
æ·±çº¢ åħīèĬĴ
éķ¶ éĩĳ
éĴ» åĩº
åįļ å°ĶåĲī
èİ«åĲį è§īå¾Ĺ
éĩįå¤į çĿĢ
åŁĭ ä¸ĭ
å¹ħ å¹ħ
éľĩ èį¡
é©± éĻ¤
è¯± äºº
è¶ģ è¿Ļä¸ªæľºä¼ļ
å»ºç«ĭ äºĨ
æįı ä½ı
æĨ ĭ
æĮ¡ ä½ı
èĭıå°¼äºļ ç´¢åĪĹå§Ĩ
åįı åĬ©
ä¼łè¯´ éĩĮçļĦ
çł´ç¢İ äºĨ
è°ĥæķ´ äºĨ
åĺ¿ äºĨä¸Ģå£°
æµªè´¹ äºĨ
å¾®ä¸įåı¯è§ģ çĤ¹å¤´
çļĦç¬ĳå®¹ éģĵ
ç¥Ŀ è´º
åĸīåĴĻ éĩĮ
èĩªçĶ± äº¤æµģ
éĿłæĭ¢ è¿ĩæĿ¥
å®īä¿Ŀ äººåĳĺ
æĸŁéħĮ äºĨä¸Ģä¸ĭ
è¡į åĮĸ
ç¼ĸ ç»ĩ
ç½ĹæĢĿå¾·ç¾¤å²Ľ çļĦ
æ³¡ æ²«
ä¸ĭæ°´éģĵ åĨħ
åĮĨ åĮĨ
å¹´ä»£ éĩĮ
çª¥ç§ĺ ä¹ĭçľ¼
æ©ĺ çº¢çļĦ
çľº æľĽçĿĢ
å¯¹ä»ĸ æĿ¥è¯´
æ¸º å°ı
éģĹå¿ĺ äºĨ
å¤©çģ¾ ä¹ĭä¹¦
ç»° åı·
ä¸Ģåı£ æ°Ķ
åºŁå¼ĥ åı¤åł¡
èĲ¨é»ĺå°Ķ å¤ªå¤ª
åĪ°å¤Ħ éĥ½æĺ¯
å¯¹è§Ĩ äºĨä¸Ģçľ¼
å¼ķäºº æĢĢçĸĳ
çļĦç¡ ¬
åĹ¤ ç¬ĳäºĨä¸Ģå£°
äº¨ åĪ©
ä¸įèĢģ æ³ī
çŃīåĲĮ äºİ
éĹ´æµ· éĥ¡
æ¸ħäºĨæ¸ħåĸīåĴĻ éģĵ
åıĳèĩªåĨħå¿ĥ åľ°
é¥¶æľīåħ´èĩ´ åľ°
æŁĲç§įæĦıä¹īä¸Ĭ æĿ¥è¯´
åħĳ æį¢
åŁĭä½İ èĦĳè¢ĭ
æĭįäºĨ æĭį
åıĪæĥĬ åıĪ
éŀł èº¬
æµ·ä¹ĭ è¨Ģ
åįļå°ĶåĲī äºļ
0 9
5 3
6 41
7 68
9 60
A D
A E
B A
E A
E B
F EB
Ġ &#
Ġ æ²īé»ĺ
Ġ æĭľäºļå§Ĩ
Ġ çī¹éĽ·èĮľ
Ġ ä¼¯åħĭä¼¦å¾·è¡Ĺ
Ġ é©¬èµ«çī¹è®®åĳĺ
Ġ åĴ¦
Ġ èĩªä»İ
Ĭ åŃĲ
Ļ çĺ
çļĦ æĿĥ
çļĦ æŁ¥æĭīåĽ¾
çļĦ æµ·æ´ĭ
çļĦ ä½įæł¼
çļĦ åĮºåĪ«
çļĦ æŃĮå£°
äºĨ åįĬ
äºĨ è¶³è¶³
âĢĿ âĢ¦âĢ¦âĢľ
ä¸Ģ åĲĳ
ä¸Ģ éĿł
ä¸Ģ æĬĵ
æĺ¯ å¥¹
ä¸į ä¸į
ä¸į çĿĢ
ä¸į æħĮä¸įå¿Ļ
æľī å¾Īå¤§
æľī ä¸įå°ıçļĦ
ä»ĸ éĿŀå¸¸
ä»ĸ ä¸ĢçĽ´
ä»ĸ åĨįæ¬¡
ä»ĸ æĺ¯ä¸Ģä¸ª
åľ¨ ä¸ľåĮº
åľ¨ ç¥ŀå¼ĥä¹ĭåľ°
æĪĳ åı¯
æĪĳ è¿ĻéĩĮ
æĪĳ ä¸įæĥ³
åħĭèİ±æģ© èĩªå·±
åħĭèİ±æģ© æĢĢçĸĳ
åħĭèİ±æģ© è®¤çľŁ
äºº æīĭ
çĽ Ĳ
æĿ¥ è®²
éĢ ¸
åĴĮ å¤§
åĴĮ çī©
æ²¡ ä¸ĢçĤ¹
æ²¡ éĶĻ
æĹ¶ æľº
ä¹ĭ åīĳ
ç¥ŀ éĩĩ
æĸ¯ æĸĩ
æĸ¯ èı²å°Ķ
ä½ł æľĢè¿ĳ
ä½ł ç«ŁçĦ¶
åĲİ éĿł
å¾Ĺ æľī
å¾Ĺ æĽ´åĬł
çĶŁ åīį
åı¯ åıĪ
åı¯ çĸĳ
é¢ ł
å¼Ģ æŀª
è¿ĺ åī©
åıĳ éĻħ
æ²¡æľī åıĳçİ°
çī¹ å¼Ĥ
åİ» å¯»æī¾
åİ» çĽ¥æ´Ĺå®¤
åİ» æĭľè®¿
èĩªå·± åĪĻ
éĥ½ ä¸įèĥ½
éĥ½ æĺ¾å¾Ĺ
çľ¼ çļĦ
çľ¼ çľ¶
å¿ĥ æĦ¿
å¾Ī æĥ³
åĨħ æľī
ä¸Ń ä½İåºıåĪĹ
çĶ¨ åı³æīĭ
æĹł è¡¨æĥħ
Ġä»ĸ è¿Ļæĺ¯
å¦ Ħ
åģļ å®Į
å¤© é¹ħ
çļĦç ĩ
çĻ½ é¸½
éķ¿ æ»¡äºĨ
å®ŀ åĪĻ
æµ· éĽķ
ç§ĺ ç¥Ī
åĪ°äºĨ ä»Ģä¹Ī
å¦Ĥ å¸¸
åĨį æĢİä¹Ī
æĽ´ ä¹ħ
è¿Ļä¸ª æ¶Īæģ¯
è¿Ļä¸ª å§Ķæīĺ
èĥ İ
ä»ĸä»¬ æĺ¯
éĿŀåĩ¡ æŃ¦åĻ¨
ç»Ļ æĪĳä»¬
ç»Ļ æĤ¨
å¤± ä¸ļ
ä¸ī æĽ´
æī¾ äºĨå¼ł
è§£ ä¸ĭ
åĲ¬ ä»İ
è½¬ æ·±
è½¬ çŀ¬
æļĹ ä¸ŃçļĦ
è½» ç¬ĳä¸Ģå£°éģĵ
æŃ» åĽł
çº¢ åī§åľº
çľĭè§ģ å¯¹æĸ¹
çľĭè§ģ äºĨä¸Ģä¸ª
çģ° èĵĿèī²
ç¨ ½
ç¨ ļ
éª ļ
åı¤ çī©
åı¤ ç¥ŀçļĦ
æĿ¡ æĸĩ
å¸ķ åħĭ
æĬ¥ éģĵ
éĵ¶ éĵ¾
å¤ľ æ·±
ä¼¼ä¹İ æŃ£
ä¹ĭåīį åľ¨
äº¤ éĽĨ
è¥¿ å¼¥
çķĻ åľ¨äºĨ
æķ´ æĿ¡
çļĦäºº åģ¶
æ£® çļĦ
æµģ åĩº
çľ¼çĿ ģ
èĥĮ éĿł
ä»½ åºıåĪĹ
çļĦæĺ¯ ä»Ģä¹Ī
é£ŀ èĪŀ
ç§ĳ åĮ»çĶŁ
åı³ èħ¿
æŀģ å¿«
å¸ĥ ç½Ĺè¿ª
éĨ º
å¼Ģå§ĭ å°±
ä»¿ä½Ľ çĶ±
è¿Ļç§į æĦŁè§ī
è¿Ļç§į çĬ¶æĢģ
äºĨåĩł åįģç§Ĵ
ç±³ å¤ĸ
åĨĻ ä½ľ
è¡¨æĥħ çķ¥æĺ¾
å±ķ éľ²
èŃ¦ è§ī
ç¿» æī¾åĩº
è¸ ŀ
ä»ħ åĩŃ
æ¤ İ
æĦıè¯Ĩ å²Ľå±¿
äº² å±ŀ
èĦļ åºķ
éĻĦ ä½ĵ
è¿· èĴĻ
èĢĥèĻĳ ä¸Ģä¸ĭ
é¤Ĳ åħ·
å¾Īå¤ļ äºº
åħĭèİ±æģ©çļĦ æĢĿç»ª
çļĦå¤§ ä¸»æķĻ
é¡¾ å¿Į
ç²¾ç¥ŀ ä½ĵ
ç²¾ç¥ŀ åĪºç©¿
æĹħ å®¢
æĺİçĻ½ èĩªå·±
åĨ° åĿĹ
ä¹° çļĦ
åģļåĩº åĪ¤æĸŃ
å¯»æī¾ èµ·
åī¯ å¤Ħéķ¿
åį· åıĳ
æ²¡æ³ķ åĨį
ç»ĵæĿŁ åĲİ
æĪĸè®¸ ä¼ļ
èĻ« åŃĲ
Ġä»ĸçļĦ èº«å½±
æ¸¸ èį¡
éĢĲæ¸Ĳ åıĺå¾Ĺ
ç¬¦åı· çļĦ
åĦ¿ åŃĲ
è¿Ľåħ¥äºĨ æ²īçľł
æ¶Į åĬ¨
äºĨä¸Ģéĺµ éģĵ
æģ¶çģµ éĻĦèº«
æ¨¡ç³Ĭ çļĦèº«å½±
éĥ½æ²¡æľī åıĳçĶŁ
æĤł æī¬
æİ¥åıĹ çļĦ
æĺĤ è´µ
æĬ¥çº¸ åĴĮ
è´Ŀå°Ķçº³é»Ľ çļĦ
åĨĴéĻ©å®¶ åı£çĲ´
èŃ¦å¯Ł åİħ
å°±ç®Ĺ è¿Ļæł·
èĥ¡ æ¤Ĵ
ä¼´ éļıçĿĢ
ç§Ł éĩĳ
ä¾§å¤´ çľĭåĲĳ
æŁĲç§į ç¨ĭåº¦
è®¾ ç½®
åģı ç¦»
åº· çº³æĸ¯
æ»ĳ ç¨½
åĲŀ å°¾
åĲŀ åĴ½
å¤§åİħ çļĦ
å¤§åİħ åĨħ
ä¼¤å®³ åĪ°
å®īåħ¨ çļĦ
æİı åĩºäºĨ
æĭľæľĹ å¸ĿåĽ½
çİ«çĳ°åŃ¦æ´¾ çļĦ
æıĴ åľ¨
åĽłæŃ¤ èĢĮ
éº¦ åĵĪ
å¤ªå¤ļ äºĨ
æ¸ħéĨĴ è¿ĩæĿ¥
åĽŀåİ» åĲ§
åħ¥åı£ å¤Ħ
ä½İè¯Ń ä¸Ģåı¥
æ¯ıä¸ª äººçļĦ
æ°´æīĭ éķ¿
æŃ»åİ» çļĦ
æ¬º çŀĴ
è¾Ĩ åĩºç§Łé©¬è½¦
è¸ı åħ¥
ä¸°å¯Į çļĦ
ä¹¦æ¡Į ä¸Ĭ
é»ĺé»ĺ è¡¥äºĨä¸Ģåı¥
è±ª å°Ķæĸ¯
æłĭæĪ¿å±ĭ åĨħ
æĭĶ åĩº
æĭĶ é«ĺ
éĻ¡ åľ°
15 0
å¤§ä¸»æķĻ éĺģä¸ĭ
30 10
30 11
æĹłå½¢çļĦ å±ıéļľ
çī¹åĪ« çĶ³è¯·
æľĪåŁİ å±ħæ°ĳ
èº«æĹģ çļĦ
æĮ£æīİ çĿĢ
Ġè¯´å®Į ä¹ĭåĲİ
æīĵå¼ĢäºĨ æĪ¿éĹ¨
éĻĪ è¿°
Ġç»ıè¿ĩ ä¸Ģçķª
è´§ çī©
ç¥ŀå¥ĩ çļĦ
67 65
67 09
éĺ¿èĴĻçļĦ åĪĨèº«
åı¤åħ¸ é»ĳè¢į
éĺĶ åīĳ
ç©¿é»ĳèī² é£İè¡£
çļĦæĦıæĢĿ æĺ¯
åı¦å¤ĸä¸Ģ ä»¶äºĭæĥħ
åĩºå£° éģĵ
åĢ¾åĲ¬ èĢħ
ç»ĳ æŀ¶
æ©ĺ åħī
å±Ī æĮĩ
è½¦åİ¢ åĨħ
ç¬ĥ ç¬ĥ
300 2
æ¢³ å¦Ĩ
82 82
è¿Ļä»¶ å°ģåį°çī©
èĪ¹åĳĺ ä»¬
è´¦ åįķ
é»İæĺİ åı·
æĶ¿åºľ éĽĩåĳĺ
è´¸ æĺĵ
éŃħ æĥĳ
ĠæĢĿç»ª çº·åĳĪéĹ´
ĠæĢĿç»ª çĶµè½¬éĹ´
äºļéº» è¡¬è¡£
å¯¹åĩĨ äºĨ
åħĶ åŃĲ
ä¼ļè®® å®¤
äº¨ çī¹
å·´æİĮ å¤§å°ıçļĦ
æ¸ħæ¥ļåľ° è®°å¾Ĺ
Ġåĩłç§Ĵ ä¹ĭåĲİ
èĦļè¸ıè½¦ åħ¬åı¸
èĦ±æİī å¤ĸå¥Ĺ
çļĦçĪ± å¥½
62 40
åįĹå¨ģå°Ķ åķ¤éħĴ
ç»´åħĭ æīĺ
ç»³ ç´¢
åħ¬è¯ģ äºº
å°¸éª¨ æķĻåłĤ
æĻ¦ æļĹ
å¸ĤæĶ¿ å¹¿åľº
æłħ æłı
ä½İä¸ĭäºĨ èĦĳè¢ĭ
ç»¼ åĲĪ
å¤§æ°Ķæ±¡æŁĵè°ĥæŁ¥ å§Ķåĳĺä¼ļ
èī¾çĳŀéľį æł¼
768 4
960 1
Ļçĺ ©
æĸ¯èı²å°Ķ è¡Ĺ
åıĳéĻħ çº¿
ç§ĺç¥Ī äºº
è¥¿å¼¥ å§Ĩ
* *
3 9
ç Ģ
Ġ æĪĸè®¸
Ġ å°±è¿Ļæł·
Ġ éĢĶä¸Ń
Ġ èµ°çĿĢèµ°çĿĢ
çļĦ éħĴ
çļĦ èĤī
çļĦ äºĭä»¶
çļĦ è®¡åĪĴ
çļĦ åıĳå±ķ
çļĦ æ¦Ĥçİĩ
çļĦ èĦ¸èī²
çļĦ çľŁç¥ŀ
çļĦ éĺ´å½±éĩĮ
çļĦ åĮĸèº«
äºĨ å¤ļå°ĳ
ä¸į æıĲ
ä¸į å°±æĺ¯
ä¸į çŁŃ
ä¸į äºĨè§£
ä¸į å®³æĢķ
ä¸į è®¤è¯Ĩ
æľī å¯ĨåĪĩ
åĩ ĭ
è¿Ļ ä»¶çī©åĵģ
ä»ĸ åıª
ä»ĸ æĿ¥è¯´
ä»ĸ å¿įä¸įä½ı
ä»ĸ èĥĮåĲİ
çĿ ¬
æĪĳ æĺİçĻ½
åĨ ľ
åħĭèİ±æģ© åıªèĥ½
åħĭèİ±æģ© åĨ³å®ļ
åħĭèİ±æģ© çĸĳæĥĳ
éĤ£ è½®
åĴ ¯
æĿ¥ æĭľè®¿
ä¸ĭ åŀĤ
å°± è¿Ļä¹Ī
åĴĮ ä¸į
åĴĮ æĿĲæĸĻ
åĴĮ å¥¹çļĦ
åĴĮ æīĭæĿĸ
åĴĮ è¡ĢèĤī
å°Ķ è¿ª
å¤§ ä½¬
å¯¹ æĪĳçļĦ
åĲİ ä»£
ä¹Ł ä¸įæĺ¯å¤ª
ä¹Ł ç®Ĺæĺ¯
çİ° ä»£
çĤ¹ æĺ¯
å± ¥
åĽŀ è´Ŀåħĭåħ°å¾·
æı į
èĢĮ åħĭèİ±æģ©
å°Ĩ èĩªå·±çļĦ
çľ¼ ä¸ŃçļĦ
å¿ĥ åľ°
å¾Ī çŁŃ
å¾Ī éĩįè¦ģ
ä¸Ń æ¯Ĵ
Ġä»ĸ çĽ¸ä¿¡
Ġä»ĸ çĮĽåľ°
Ġä»ĸ é¡¿äºĨé¡¿
Ġä»ĸ è¾¹è¯´è¾¹
å°ı åĿĹ
é»ĳ éĵģ
è¢« çªĿ
å®¶ éĩĮçļĦ
ä½Ĩ ä¸įæĺ¯
ä½Ĩ ä»ĸä»¬
åĿ ŀ
çļĦç ĵ
çĻ½ æĺ¼
éķ¿ åīĳ
ç§į ç±»
åĪĨ æķ£
æĦŁ åĴĮ
æĦŁ çŁ¥
åĩł å¼ł
ä»İ ç¥ŀ
ä»İ åİĨåı²åŃĶéļĻéĩĮ
æĢĿ è®®
çĽ´ çĽ´
éĹ¨ ç¼Ŀ
åĪ°äºĨ æŀģçĤ¹
æ°Ķ çļĦ
ä¸İ ä»ĸä»¬
ä¸İ çİ°å®ŀ
éĩį è¿Ķ
éĩį åĲ¯
Ġåħĭèİ±æģ© é¡¿æĹ¶
åįĬ æİ©
åı¯ä»¥ åĪ©çĶ¨
æĽ´ å¤§çļĦ
ä¸įæĺ¯ ä»Ģä¹Ī
æ·± çľł
æ·± é»ĳçļĦ
æ·± åĿĳ
ç»Ļ åħĭèİ±æģ©
æľĪ åįİ
ä¸ī å±Ĥ
èģ ĺ
æĭī æī¯
çĲĨ äºĭ
çĲĨ çĿ¬
æĶ¾ çļĦ
é£İ çļĦ
æ¸ħ æ°´
äºĨä¸ĭ åĺ´å·´
æľª æĿ¥çļĦ
åĽłä¸º ä»ĸä»¬
æĭ¿ è¿ĩ
èĲ½ ç¬Ķ
å¸¦ ä¸ĬäºĨ
éĤ£ä¸ª äºº
äºĮ çŃī
äºĮ ä¸īåįģ
ç®Ĺ å¾Ĺä¸Ĭ
å·¨ æŁ±
ç©¿ è¡Į
æĮĩ çĶ²
åĽĽ äºĶ
äº¤ æ±ĩ
èĦ¸ çļ®
ä»£ åħ¥
åĩºçİ° è¿ĩ
åĩºçİ° æĦıå¤ĸ
çĽ´æİ¥ è¿Ľåħ¥
åįłåįľ èĢħ
éĤ£ä½į åħĪçĶŁ
è¿ĺæĺ¯ å¾Ī
éľĢè¦ģ æĪĳ
æķ´ æķ´é½Ĳ
æĬĬ æĪĳ
æĹłæ³ķ æĥ³è±¡
å¾ħ éģĩ
åĽ¾ çĶ»
åºĶè¯¥ ä¼ļ
æŁĲ æŁĲ
ç¥ŀç§ĺ é¢ĨåŁŁ
åĪĩ æį¢
éĿŀå¸¸ æľī
ä¾Ŀ å¾ª
ç½® äºİ
çģ°éĽ¾ çļĦ
è¿ŀ ä¸²
ç§ĳ åŃ¦
åı³ èĩĤ
ç¦»å¼Ģ åĲİ
å¸ĥ éģĵ
å¸ĥ å¨ĥå¨ĥ
èĪ¹ åĿŀ
ä¸Ŀ çº¿
æĬ¬ é«ĺ
æİ¨ è¿Ľ
ä¸ľ éĿ¢
éĶĻ è§ī
å½ĵçĦ¶ æĺ¯
æ¡Ī çļĦ
åĳ¨åĽ´ çİ¯å¢ĥ
åĨ· æ¸ħ
ä¹Į å°Ķè¿ª
ä¹Łä¸į æ¸ħæ¥ļ
æģĲ æħĮ
äº² è¿ĳ
äº² çİĭ
åĳ¼ æķĳ
è½® æµģ
ä¼¸ äºĨåĩºæĿ¥
éĻĦ å±ŀ
çº¦ ç¿°
ä¸ĥ å¤§æķĻä¼ļ
èĻļå¹» å±ĤåıłçļĦ
å¼Ħ åĩº
éļĲç§ĺ çĬ¶æĢģ
æ¥¼ ä¸ĭ
èĭ¦ èĭ¦
çľŁçļĦ æľī
çĽ¸ä¿¡ èĩªå·±
ç²¾ç¥ŀ çĥĻåį°
åı¤èĢģ èĢĮ
åħ¶ä»ĸ åľ°æĸ¹
æĥħç»ª é¢ľèī²
Ġå°±åľ¨ åħĭèİ±æģ©
å¼¹ èµ·
æŀª æĶ¯
åı¬åĶ¤ åĩºæĿ¥çļĦ
è¿Ļæł·çļĦ çİ¯å¢ĥ
æĿ¥åĪ° è¿ĻéĩĮ
åħĪçĶŁçļĦ å°ĬåĲį
åģļåĩº åĽŀåºĶ
æĽ¾ç»ı è¯´è¿ĩ
éĢĢ ç¼©
æĻĭåįĩ äºĨ
å¸¦çĿĢ åĩłåĪĨ
éĻĲ åº¦
æ²¡ä»Ģä¹Ī åıĺåĮĸ
å°¾ æ¬¾
æ³¢ æ¾
å½Ĵ å®¿
å¹³éĿĻ è¯´éģĵ
è¶ĬæĿ¥è¶Ĭ å¤§
åıĺæĪĲ æĢªçī©
å·§ å¦Ļ
ä¸įåı¯ æĢĿè®®
æľ¬èĥ½ çļĦ
çľ¼åīį çļĦ
Ġå¯¹ ä»ĸæĿ¥è¯´
ĠçŃīåĪ° ä¸ĢåĪĩ
ä¾į åį«
æĪ´çĿĢ é»ĳèī²
å¾Īæľī è¶£
çĭ¬ ç«ĭ
çĭ¬ å±ŀäºİ
æĤ¬ èµıéĩĳ
é¦ĸå¸Ń ç§ĳæŀĹ
è´´ è¿ĳ
çĥ¦ èºģ
æ£ķ çŀ³
è¯¯ ä¼ļ
éĺħè¯» èĢħ
åĩłç§Ĵ éĴŁ
ä¸ĬéĿ¢ æľī
æĬĬæı¡ ä½ı
è®¨ å¥½
åıĪä¸Ģ åľĪ
æľīåħ³ çļĦ
éŃĶæ³ķ ä¹¦
èİ«éĩĮäºļ èĴĤçļĦ
éļĲèĹı çļĦ
èħĲ åĮĸ
çļĦå°ı åŃ©
æıĴ æīĭ
æıĴ åħľ
èĤ¡ ä¸ľ
åĴ¬ ä½ıäºĨ
è¿ľå¤Ħ çļĦ
åĺ² ç¬ĳ
åļ £
æīĳ åĲĳäºĨ
äºĨä¸ĢäºĽ äºĭæĥħ
çĹķè¿¹ åľ°
çīĽ æİĴ
æļĹä¸Ń æĿ¾äºĨåı£æ°Ķ
åĩĳ åĪ°
ä»ĩ æģ¨
æķŀ å¼ĢçļĦ
åĲŁ åĶ±
è§£è¯» åĩº
ä¸Ģæĸ¹éĿ¢ æĺ¯
é¼ĵ èĥĢ
çĸ¯çĭĤçļĦ åĨĴéĻ©å®¶
å¸ĥæıĲ æĸ¯çļĦ
ä½© æĸ¯èı²å°Ķè¡Ĺ
ç§°åĳ¼ æĪĳ
è¿ĻæĿ¡ éĢĶå¾Ħ
å©´åĦ¿ è½¦
åĨĽæĥħä¹Ŀå¤Ħ çļĦ
è¯Ĺ æŃĮ
è®¢ éĺħ
åıĳæķ£ å¼ĢæĿ¥
åľ£èµĽç¼ªå°Ķ æķĻåłĤçļĦ
æĸŁéħĮ äºĨä¸ĭ
æ¿ĢåĬ¨ åľ°
çļĦç¾İ æĦŁ
éģŃåıĹ äºĨ
æ½ľèĹı çļĦ
å°¼æł¹åħ¬çĪµ çļĦ
èµļ éĴ±
åĩ¯ æĸĩ
çĤİ çĥŃ
ç¾½æ¯Ľ ç¬Ķ
åįģåĩł å¹´
æ¶Įçİ° åĩº
ä¾§è¿ĩ èº«ä½ĵ
ä¸įè¿ľå¤Ħ çļĦ
æĿ¥æī¾ æĪĳ
å¾Īéķ¿ä¸Ģæ®µæĹ¶éĹ´ åĨħ
ç¾ŀ æĦ§
æĺ¯å¦ĤæŃ¤ çļĦ
ä¸ĥéģį ä¹ĭåĲİ
çļĦç¥ŀè¯ĿçĶŁçī© å½¢æĢģ
ä¸įèĢģ éŃĶå¥³
åĴ§ å¼Ģ
æĬĺå¥½ ä¿¡çº¸
æĳĺæİī å¸½åŃĲ
éķ¿æĿ¡ æ¡Į
æŀķ å¤´
çļĦçı Ń
é«ĺèĢ¸ çļĦ
èħĭä¸ĭ æŀªè¢ĭ
ç¼Ń ç»ķ
èľ¥ é¾Ļ
æ²Ĳæµ´ çĿĢ
æĭīäºĨ æĭī
åĴĮèĶ ¼
å¦¨ ç¢į
åĲŀå°¾ èĢħ
äº¨çī¹ åĪ©
æķ´æķ´é½Ĳ é½Ĳ
æ³¢æ¾ ľ
¨ è¯¢
Ġ ä¸ĭæĦıè¯Ĩ
Ġ ä¸ĺçº³æĸ¯
Ġ ç½ĹçıĬ
Ġ é»ĺå¿µ
Ġ åħĭéĽ·æĸ¯æ³°
Ġ éĻ¤æŃ¤ä¹ĭå¤ĸ
çļĦ èº«ä¸Ĭ
çļĦ å·¥ä½ľ
çļĦ è¦ģæ±Ĥ
çļĦ è¯·æ±Ĥ
çļĦ å¦»åŃĲ
çļĦ èĸªæ°´
çļĦ å¿ĥæĢģ
çļĦ æĹĭå¾ĭ
äºĨ æĬĬ
ä¸Ģ å¤´
ä¸Ģ èĤ¡
ä¸Ģ å±Ĥå±Ĥ
ä¸į å¸ĮæľĽ
ä¸į å¿ħè¦ģçļĦ
æľī åį±éĻ©
æľī äºĨä¸Ģä¸ª
è¿Ļ åľ¨
è¿Ļ ç¬Ķ
è¿Ļ åı¯æĺ¯
ä»ĸ è¦ģ
ä»ĸ ä¾ĿæĹ§
ç» £
åľ¨ éĤ£ä¸ª
åľ¨ åħĭèİ±æģ©çļĦ
æģ© é©¬
åĽ Ĭ
æĪĳ ä¸Ģä¸ª
æĪĳ è¢«
æĪĳ è®¤è¯Ĩ
æĪĳ æĦ¿æĦı
æĪĳ ä¸ºä»Ģä¹Īè¦ģ
åħĭèİ±æģ© å¼Ģå§ĭ
åħĭèİ±æģ© æĭ¿çĿĢ
åħĭèİ±æģ© ä¼¸æīĭ
åħĭèİ±æģ© åĲ«ç¬ĳ
äºº å·¥
åĴ ¨è¯¢
å°± çĽ´æİ¥
å°± åĪ°è¿ĻéĩĮ
ä¸Ĭ å¸Ŀ
å½ ¬
èĩª æĿ¥
æĸ¯ åĨħåħĭ
ä½ł æĿ¥
ä½ł è§īå¾Ĺ
ä½ł æīĵç®Ĺ
ä½ł ç©¶ç«Ł
ä½ł ä¸ºä»Ģä¹Īä¸į
åĲİ å¤©
åĲİ ä»°
åĲİ æ¢³
å¾Ĺ å¥½
å¾Ĺ å¾Īå¥½
æ³ ¯
ä¹Ł æľīäºĨ
ä¹Ł ä¼ļæľī
åı¯ è§ģçļĦ
éĿ¢ æľĿ
éĿ¢ æĹłè¡¨æĥħ
äºİ å¿ĥä¸Ń
æĥ³ è¯´
æĪĲ æŀľ
è¿ĺ æĹłæ³ķ
æĽ Ļ
å°Ĩ çĽ®æłĩ
è®© äºĭæĥħ
éĹ® å¥½
æŃ£ åįĪ
ä¸Ń èĢģ
Ġä»ĸ æĢĢçĸĳ
å°ı èĩĤ
é»ĳ éĽ¾
é»ĳ ä¹ĭåľ£èĢħ
Ġè¿Ļ è®©åħĭèİ±æģ©
ä½ĵ éĿ¢çļĦ
åģļ ä¸Ģä¸ª
åı£ ä¸ŃçļĦ
åıĪ ä¸Ģæł¹
åħī äºº
åħī çº¿
çŃī äºĭæĥħ
æł¼ è¨Ģ
ä¸¤ åĲį
æľ¬ æīĵç®Ĺ
å·² åħ¨éĥ¨
ç¬ĳ ç¬ĳ
åħĪçĶŁ ä»¬
åıĺ åĽŀ
çĽ¸ éļĶ
ä»İ å¤©
ä»İ è¿Ļä¸ª
éĺ¿ åĬł
éĺ¿ éľį
æķĻ æĿĲ
èĻ İ
å½± çļĦ
åĨį ä¸Ģæ¬¡
çĸ ¤
ä¸İ èĩªèº«
ä¿¡ æĬ¥ç®±
éĩį å½Ĵ
Ġåħĭèİ±æģ© æ²¡åĨį
Ġåħĭèİ±æģ© è½»è½»é¢Ķé¦ĸ
è¿Ľ åĩº
åı¯ä»¥ ç¡®è®¤
æĽ´ æĹ©
å¥¥ å¸ĥ
èĥ ŀ
èµ° è¿ĽäºĨ
éĩĳ é¢Ŀ
èĢģ ç¥Ńåı¸
çĭ Ĳ
èģ Ĩ
æĭī åĬ¨
æĭī åĵį
æĶ¾ éĢĲ
çº¢ èĶ·èĸĩ
åĮĸ å¦Ĩ
è± ¹
è¾¾ æĪĲäºĨ
æ¯Ķ ä½ł
æ¯Ķ ä¹ĭåīį
è´Ŀ çĲ³
æĭ¿ åĽŀ
ç² ®é£Ł
åıį å¸¸
åıĹ è¿ĩ
åįķ çľ¼
åįķ èĨĿ
ç»ĵ å·´
åº¦ è¿ĩ
éĢł åŀĭ
çķĻ åľ¨è¿ĻéĩĮ
åįłåįľ ç»ĵæŀľ
å½¢ åĪ¶
å¤©ä½¿ å±Ĥæ¬¡
çļĦäºº è®¾
æº ľ
åį´ çľĭè§ģ
èº«ä½ĵ åĴĮ
ä½Ľå°ĶæĢĿ åĴĮä¼ĳ
é¦ĸ çĽ¸
é»ĳèī² æīĭæĿĸ
éŃĶèį¯ çļĦä¸»æĿĲæĸĻ
æģ¶ åĮĸ
åı³ èĦļ
ç»Ĩ ç®¡
è¯· ç¥Ĥ
è¯· æĤ¨
ä¼ł æī¿
éĽħ åĲĦ
é¢Ħ æľŁ
ä»¿ä½Ľ æľī
åĨĻ çĿĢ
ä¸Ģå®ļ æĺ¯
åĢŁ çĿĢ
å·´ æīĺ
æķĪ åĬ³
èģĶ çĽŁ
ä¹Łä¸į ç®Ĺ
å®Įåħ¨ æĹłæ³ķ
åĲ¸ åĬĽ
çĻ¾ ç±³
æľį ä»İ
ä»Ĭ æĹ©
è´¨ éĩı
å¿½çĦ¶ åıĳçİ°
åıªæľī éĤ£ä¹Ī
ä¹Łè®¸ èĥ½
çģµæĢ§ çļĦæĿĲæĸĻ
æķ£ èĲ½
ä¹Łæĺ¯ è¿Ļæł·
çŁŃ æľŁ
å¿ħé¡» åħĪ
å¿ħé¡» è¶³å¤Ł
å¥³ç¥ŀ æķĻä¼ļ
é¡¶ å±Ĥ
åĲĮæł· æľī
éļ¾ä»¥ æĥ³è±¡
éļ¾ä»¥ çĲĨè§£
å¼Ĥå¸¸ åľ°
ä¸ĢçĽ´ åĪ°
è§¦ åıĬ
çº¦ å®ļçļĦ
ä¸ĥ å½©
å·¨äºº å±ħæīĢ
ä»»ä½ķ ä¸Ģä¸ª
ä»»ä½ķ äºĭæĥħ
åĺī èİī
è¿½ è®¢
æľīä¸Ģ æīĩ
åĳĬè¯ī è¿ĩ
ä¸įè¦ģ åĨį
å¿ĥçĲĨ çĬ¶æĢģ
çļĦå¤§ éĥ¨åĪĨ
æ¿ Ĵ
æĢ¥ è½¬
ä¸įåĨį åĥı
ç²¾ç¥ŀ çĺŁçĸ«
åĨ° æĻ¶
åĵĪ éĩĮ
çļĦç¥ŀ èģĮäººåĳĺ
é²ģæģ© çļĦ
éĻį çģµ
æľĢè¿ĳ åĩłå¤©
æ½ľ èĹıçĿĢ
çļĦçĬ¶æĢģ éĩĮ
åĢ¼å¤ľèĢħ åĨħéĥ¨
åĩĢ åħī
ç«ŁçĦ¶ æľī
æķ² å®ļ
ä¸ĩ ä¸Ģ
é¡¿æĹ¶ åıĺå¾Ĺ
ä¸¾ æŃ¢
ç¨³ åĽº
è¡¨éĿ¢ åį´
åĺ´è§Ĵ å¾®å¾®
å¹³éĿĻ äºĨä¸ĭæĿ¥
è¯¢éĹ® èµ·
ç¥ŀç§ĺåŃ¦ çĪ±å¥½èĢħ
ä¾¦æİ¢ åħĪçĶŁ
ä¸¢ æİī
åķª åĹĴ
è½¬èĢĮ ç¬ĳéģĵ
ä¹Ķ æĪĪ
ä¾į å¥ī
èĥ¡ ä¹±
çĪĨ å¼Ģ
ç§Ł å®¢
å·¨äººçİĭ å¥¥å°Ķç±³å°Ķ
ä¾§å¤´ çľĭäºĨ
æıĲéĨĴ äºĨä¸Ģåı¥
ç¢° åĪ°
åĲĵ åĪ°
æİ¥ä¸ĭæĿ¥ è¦ģ
æ¯ģ æİī
è¿Ł æĹ©
ä¸įä»ħ ä»ħ
åĽłèĴĤæĸ¯ äºº
åĽłèĴĤæĸ¯ å¤§ä½¿
åıĤä¸İ èĢħ
éĩİ çĶŁ
è°ĭ æĿĢ
æ²īéĩį åľ°
å¿ĥçĲĨçĤ¼éĩĳä¼ļ çļĦ
æĽ´å¤ļ åľ°
æĶ¾æĿ¾ äºĨä¸ĭæĿ¥
ç®¡å®¶ åħĪçĶŁ
æīĳ åħĭ
è¯¦ç»Ĩ åľ°
åľ¨ä¸Ģèµ· çļĦ
å¥ĳ åĲĪ
èºº çĿĢ
æĤ² åĵĢ
çĮİéŃĶ åŃĲå¼¹
è¸ı è¶³
æ¤ħåŃĲ åĿĲä¸ĭ
åĪĨæŀĲ èµ·
é»ĳåıĳ è¤Ĳçŀ³
çħ¤æ°Ķ å£ģçģ¯
æŁ¥å°¼æĸ¯éĹ¨ åĲİçļĦ
è´´èº« å¥³ä»Ĩå®īå¦®
è¿Ļåº§ åŁİå¸Ĥ
éļĲèĶ½ çļĦ
ç»ĺ åĪ»
èī¯ å¥½çļĦ
ä½İå¤´ çľĭäºĨçľ¼
è¡ĮäºĨä¸Ģç¤¼ éģĵ
ä¸įæŃ» çĶŁçī©
èĵĿèī²çļĦ çľ¼çľ¸
äºĨä»ĸ ä¸Ģçľ¼
å®¶çļĦ è±ªåįİåĪ«å¢ħåĨħ
åħĦ å¦¹
æ²īçľł ç¬¦åĴĴ
å§ĭç¥ĸ èİīèİīä¸Ŀ
ä»ħä»ħ åıªæĺ¯
è§ģè¯Ĩ è¿ĩ
ä¸Ģæŀļ éĩĳå¸ģ
è¯ļæģ³ åľ°
ä¼¯çī¹ åĪ©
è¿ĩåİ»çļĦ èĩªå·±
è¯´åĩº åı£
æ·±èĵĿ è¿ĳ
Ġæ²¡æľī çĬ¹è±«
èİ·å¾ĹçļĦ åĲ¯ç¤º
ä¸Ĭåīį ä¸ĢæŃ¥
æ·¹æ²¡ äºĨ
è£Ĥå¼Ģ äºĨä¸Ģéģĵ
ä¹łæĥ¯æĢ§ åľ°
æĮ½ æķĳ
å¯Ĩå¯Ĩéº»éº» çļĦ
å¼łäºĨå¼ł åĺ´å·´
æ»ĳèħ »çļĦ
æº¢ ä»·
å¸Įå°Ķ åħ°
æīĵçł´ äºĨ
ä½łè¿ĺ è®°å¾Ĺ
æĸ§ å¤´
ç±³åĭĴ ä¸»æķĻ
æĺłåħ¥ ä»ĸ
åľ°æĿ¿ ä¸Ĭ
æĿĳ åºĦ
èīº æľ¯
åĬ« æİł
ä¿Ŀå®Ī åħļ
è®²è§£ åĳĺ
æľĢéĩįè¦ģ çļĦæĺ¯
æ»ĳèħ» è§¦æīĭ
æĹłè¾¹æĹłéĻħ çļĦçģ°çĻ½éĽ¾æ°Ķ
Ġåĩłç§Ĵ åĲİ
æĪĲç¥ŀ ä»ªå¼ı
Ġçŀ¬æģ¯ ä¹ĭéĹ´
èĽĽ ä¸Ŀ
æľ«äºĨ éģĵ
è¯Ĭ æīĢ
æł¼èķ¾ åĺīèİī
æĤļçĦ¶ ä¸ĢæĥĬ
ä¸Ńäº§éĺ¶ çº§
æ¢ħæ¡ĳèĢ¶ æĸ¯
åİŁåİŁæľ¬ æľ¬
çľ¼çĿģ çĿģ
æģ©é©¬ çī¹
çº¢èĶ·èĸĩ åºĦåĽŃ
ä¸ĥå½© èľ¥é¾Ļ
ä¹ĶæĪĪ éĩĮ
¥ çıĢ
» çĤ¼
» åĲŁ
Ġ å¯¹æĸ¹
Ġ ç¬¬ä¸ī
Ġ æĥ³äºĨæĥ³
Ġ å½ĵåĪĿ
Ġ ç´¢æĸ¯çī¹
Ġ ç©¿è¿ĩ
Ġ è¯¡ç§ĺä¹ĭä¸»
Ġ åĤįæĻļ
Ġ åĵĴåĵĴåĵĴ
Ġ æīĳéĢļ
çļĦ å¤©
çļĦ æīĵç®Ĺ
çļĦ å®īå¾·æ£®
çļĦ å¤©ä½¿ä¹ĭçİĭ
çļĦ åŃĲå¼¹
çļĦ æĦ¿æľĽ
çļĦ åĲ¸è¡Ģé¬¼
çļĦ æ°Ķè´¨
çļĦ ç§įç§į
çļĦ çģ«åħī
çļĦ ç»ĵå±Ģ
è¿ Ń
âĢĿ âĢĶâĢĶ
ä¸Ģ è§Ĵ
ä¸Ģ ç±³
ä¸Ģ ä¸ĩ
æĺ¯ ä»¥
æĺ¯ çĶ¨
æĺ¯ åķĬ
å¾ Ĳ
ä¸į åı¯ä»¥
ä¸į æīĵç®Ĺ
ä¸į åħ·å¤ĩ
ä¸į éĢĤåĲĪ
ä¸į åłª
æľī å¤§
è¿Ļ ä¼¼ä¹İ
è¿Ļ æĶ¯
è¿Ļ å¹¶ä¸įæĺ¯
è¿Ļ ç®ĢçĽ´
æī Ľ
ä»ĸ ä¼¼ä¹İ
ä»ĸ æĢİä¹Ī
ä»ĸ èº«ä½ĵ
ä»ĸ è¿ĺæľī
ä»ĸ èĤ¯å®ļ
åľ¨ æĪĳçļĦ
æĪĳ çľŁ
æĪĳ ç¡®å®ŀ
æĪĳ æ²¡æ³ķ
æĪĳ æĺ¯ä¸Ģä¸ª
æĪĳ ç»Ļä½ł
åħĭèİ±æģ© åĢŁåĬ©
åħĭèİ±æģ© ç«ĭåĪ»
åħĭèİ±æģ© åıĳçİ°èĩªå·±
åħĭèİ±æģ© æĢĿç´¢
åľ° çĤ¹å¤´
åľ° ç¦»å¼ĢäºĨ
åĩº éĿ¢
æĿ¥ å®ĮæĪĲ
åĴĮ éĤ£ä¸ª
åĴĮ åĬĽéĩı
åĴĮ æ¯įäº²
æ²¡ ç«ĭåĪ»
æ²¡ æĿ¥å¾ĹåıĬ
ä¼ļ è®¡
ä¼ļ å¸¦æĿ¥
åĳ ¸
åĳ »åĲŁ
ä¹ĭ çī©
èĩª è®¤ä¸º
è¿ĩ äºĨä¸Ģéĺµ
å¤§ èħ¿
å¯¹ ä»ĸä»¬
å¯¹ æł¼å°ĶæĽ¼
ä½ł è¿Ļä¸ª
ä½ł è¿ĺæľī
äºĨä¸Ģ æł¹
æµ ĩ
åı¯ è¡Į
æĥ³ ä»Ģä¹Ī
åīį åĲĮäºĭ
åĽŀ æĶ¶
è¿ĺ ä¼ļæľī
èĢĮ éĻį
æīĭ èĦļ
çī© è´¨
æ²¡æľī äºº
å°Ĩ çĽ¸åºĶçļĦ
éĥ½ å·²
éĥ½ éľĢè¦ģ
ä»Ģä¹Ī æĦıå¤ĸ
è®© ä½łä»¬
å¥¹ èĥ½
å¥¹ åıĳçİ°
æŃ£ çļĦ
æŃ£ äºĨ
æŃ£ åĿĲåľ¨
å¾Ī å¥ĩæĢª
åĨħ éĩĮ
è§ģ éĿ¢çļĦ
æĹł åĲį
æĹł è½¨åħ¬åħ±é©¬è½¦
å°ı åįĬ
å°ı èĻ«
è¢« å½»åºķ
åĬ¨ äºĨä¸Ģä¸ĭ
åºĶ ä»ĺ
æ´ ¼
åĲĳ ä½ł
åĲĳ å¥³ç¥ŀ
æľĢ æ·±å¤Ħ
ä¸¤ é¢Ĺ
èĤ Ŀ
å¤ĸ å±Ĥ
åĪĨ å¿ĥ
æıĲ åĪ°äºĨ
ä»İ ä»ĸçļĦ
éĺ¿ å¾·
éĹ¨ åİħ
é«ĺ æĮº
ä¸İ å¥¹
å¹¶ è®©
åı¯ä»¥ è¯´
å¥¥ ç§ĺ
è¿Ļä¸ª çĮľæµĭ
ä¸įæĺ¯ åºĶè¯¥
èµ° å®Į
å°ĳ äºĨ
ä¸ī å¤§
ä¸ī ç§Ĵ
ä¸ī é¡µ
æŃ¥ è¡Į
è½¬ åĪ°
è¡Ģ ä¹ĭèĬ±
æĪ´ åįĬé«ĺä¸Ŀç»¸ç¤¼å¸½
éĶ »çĤ¼
çº¢ åħī
äºĨä¸ĭ èĩªå·±çļĦ
çģ° å°ĺ
è¯¥ æľīçļĦ
è¯¥ æŃ»çļĦ
æĪĳä»¬ å°±
æĪĳä»¬ è¦ģ
æĪĳä»¬ éĥ½
åĲį ä¸º
æľª å©ļ
åı¯èĥ½ åŃĺåľ¨
å·²ç»ı æľīäºĨ
ç´¢ æīĺæĸ¯
åħ¹ æĽ¼
æ°´ ä¸ĭ
æ°´ æŀľ
å¸¦ é¢Ĩ
åıĳçİ° ä¸įäºĨ
åıĹ æ¬¢è¿İ
åĢĴ åľ°
çļĦäºĭæĥħ ä¸Ĭ
ä¼¼ä¹İ æ²¡æľī
åĽĽ èĤ¢
ä¹ĭåīį éĤ£
åĩĨ æĹ¶
æĸ° ä¹¦
æĸ° æĻĭ
åĪ» åĪ©
èĴĻ é¡¿
çªģ è¢Ń
åįłåįľ åĴĮ
çŀ İ
åĿĲ äºĨä¸ĭåİ»
æĺŁ çĽĺ
åĽ´ ç»ķ
æµģ åĬ¨
åºĶè¯¥ ä¹Ł
çİ°åľ¨ çļĦçĬ¶æĢģ
æİ¢ ç©¶
æļ´ æ¯Ļ
ĠéĤ£ å¼ł
ç´§ éļı
åĪĩ åħ¥
Ġå¥¹ ä»¬
é¦ĸ åºľ
èĻļ åģĩçļĦ
æĸŃ æİī
åı¦ ä¸Ģç§į
çķ¥ ä¸Ģ
çķ¥ å¸¦
æģ¶ é¾Ļ
è¿ŀ æİ¥çĿĢ
éĺ¿èĴĻ å®¶æĹı
ç»Ĩ å¯Ĩ
å¿µ åĩº
å¸ĥ æĸĻ
çŁ³ ç¢ĳ
éģĩ åĪ°çļĦ
ä¼Ĭ çĶ¸
éľ² åĩºäºĨä¸Ģ
é¢Ħ è§ģ
é¢Ħ è®¾
æĻļ ç¤¼æľį
ĠèĢĮ çİ°åľ¨
æķĪ å¿ł
ä¹ħ ä¹ħ
çĶ» åĩº
åįĩ çº§
æį¢ ä¸Ģä¸ª
éĽ· åħĭ
æĿĢ æīĭ
çĥĪ éħĴ
æĥĬ åĬ¨
å°±åĥı ä¸Ģä¸ª
ç¾İ åĳ³
å¿½çĦ¶ è§īå¾Ĺ
èĵĿ å®ĿçŁ³
ä¹Łè®¸ åıªæĺ¯
ä»ħ éĻĲäºİ
åĮħ åĽ´
é£Ł çģµ
å¯» äºº
éĵģ è·¯
éĵģ çĶ²
å¼ķ åħ¥
éĤ£ä¹Ī å®¹æĺĵ
ä¸ĢçĽ´ æ²¡
å¿ĥéĩĮ çļĦ
éĴ± å¤¹
ç¥Ń åĵģ
è¯į æ±ĩ
ä½Ļ åĬĽ
æĺ¯ä¸Ģ åıª
è¿½ éļı
äº¡ çģµ
å¼Ħ å¥½
Ġä¸Ģ è·¯
æµ·çĽĹ çļĦ
åħĭèİ±æģ©çļĦ çľ¼çĿĽ
æ¥¼ ä¸Ĭ
æľĽåĲĳ éĿĴéĵľéķ¿æ¡ĮæľĢä¸Ĭé¦ĸ
è®©äºº æĦŁè§ī
æ²īé»ĺ çĿĢ
æ²īé»ĺ åĩłç§Ĵ
æ²īé»ĺ äºĨåĩłç§Ĵéģĵ
åıĺåĮĸ çļĦ
çļĦç¥ŀ ä½¿
ç¬ĳå®¹ æ»¡éĿ¢
åĨ² åĲĳ
åĨįæ¬¡ éĹ®éģĵ
äºĨè§£ åĪ°
å®¡ ç¾İ
åıªè¦ģ æľī
æłĳ çļ®
æĻĭåįĩ çļĦ
çĵ¦ å°Ķ
è§£åĨ³ éĹ®é¢ĺ
éĹŃ çĽ®
èĸĦ èį·
èĸĦ çº±
ä¿ĿæĮģ ä½ıäºĨ
æīŃæĽ² çĿĢ
åĲĥ äºĨ
æĺ¯ä»Ģä¹Ī æĦıæĢĿ
æ¶ĪåĮĸ çļĦ
å¿µå¤´ ä¸Ģè½¬
èº² è¿ĩäºĨ
ç¥ŀç§ĺåŃ¦ è¯¾ç¨ĭ
éĴ¢ çĲ´
ä¸¢ å¼ĥ
æ¯ķç«Ł ä»ĸ
åĪ¶éĢł äºĨ
å°ĸ åĪº
è´µæĹı çļĦ
æ¯«æĹł å¯Łè§ī
åĪĿæŃ¥ åĪ¤æĸŃ
åıĹåĪ° å½±åĵį
åĽ° æĥĳ
Ġå¯¹ æŃ¤
æĭ¿åĩº çº¸ç¬Ķ
æĦŁè°¢ å¤§å®¶
ç¡¬ çĶŁçĶŁ
çĨŁæĤī çļĦèº«å½±
åħľ éĩĮ
æŃĮ åĶ±
æģ¶éŃĶ çĬ¬
ç»Ŀå¯¹ æĺ¯
ç»Ŀå¯¹ ä¸įæĺ¯
åŃ©åŃĲ çļĦ
æľĽäºĨ æľĽ
æĪĺäºī çļĦ
Ġä»ĸä»¬ çļĦ
å¾®ç¬ĳ åĽŀåºĶéģĵ
æ¯Ķè¾ĥ å¥½
å¿ħçĦ¶ æĺ¯
ä¼ª éĢł
äºĮåįģ å¹´
æīĢåľ¨ çļĦåľ°æĸ¹
æĬĺ ç£¨
æ»ĳ è¿ĩ
ç²Ĺ å¤§çļĦ
è¶ħåĩ¡ åĽłç´ł
ä¸įä»ħ ä»ħæĺ¯
ĠèĻ½çĦ¶ ä»ĸ
æİı åĩºäºĨä¸Ģ
çĽĳ çĿ£
åİŁå§ĭ æ£®æŀĹ
æıĴ è¨Ģ
éħĴåĲ§ åĨħ
èµ«å¯Ĩæĸ¯ æĸĩ
çļĦç²¾ç¥ŀ æ±¡æŁĵ
åĳ¨åĽ´çļĦ çİ¯å¢ĥ
åĲĪä½ľ æĦīå¿«
çľĭèµ·æĿ¥ å¾Ī
ç¹ģ æĺŁ
ç¹ģ è¡į
ç¼ºä¹ı è¶³å¤Ł
ç¥ĸ çĪ¶
èĤ© ç«ł
åĵĪåĵĪ ç¬ĳéģĵ
ä½İå£° è¯´éģĵ
å¸ĥç½® èµ·
æ²¡æľīä»»ä½ķ éĹ®é¢ĺ
çļĦé«ĺ çº§
èµ¤ è£¸
è¯´ä¸įå®ļ ä¼ļ
æĦ§ çĸļ
è¦ģä¹Ī æĺ¯
åģľé¡¿ äºĨä¸Ģä¸ĭ
åģľé¡¿ äºĨä¸ĭæĿ¥
æ½® æ¹¿
é»Ħéĵľ èī²çļĦ
å¢ŀ éķ¿
æĶ¶æķĽ æĢĿç»ª
çĮľ åĪ°äºĨ
éŃĶèį¯çļĦ æ¶ĪåĮĸ
é¼ĵ åĬ±
çļĦé»ĳæļĹ ä¸Ń
å®ĺæĸ¹ ç»Ħç»ĩ
æ²¿çĿĢ æ¥¼æ¢¯
æĬļ å¹³
æĴķ æī¯
çĶľ åĨ°èĮ¶
çļĦä»ªå¼ı éŃĶæ³ķ
èĻĶè¯ļ åľ°
åİĭåĪ¶ ä½ı
æ³Ľ çĿĢ
Ġè¿ĩ äºĨåĩłåĪĨéĴŁ
èĤļåŃĲ éĩĮ
ä¸įèĩª åľ¨
å£® æ±ī
åĽ¾éĵİ çİĭæľĿ
åŁĥå¾· èĴĻé¡¿
æģ¼ æĢĴ
æ·±æ·± åľ°
äºĭå®ŀ ä¸Ĭ
æ¹¿ æ¶¦
æī© å¤§
èĪ¹éķ¿å®¤ åĨħ
æłĩåĩĨ çļĦ
æįĲ èµł
åıĳçĶŁäºĨ åıĺåĮĸ
æĦīå¿« åľ°
å®«å»· ä¾įåį«
çĨĦçģŃ äºĨ
ç¿»èº« ä¸ĭåºĬ
çļĦç´ ¢
é«ĺåº¦ ç´§ç»·
å¹½éĤĥ çļĦ
åĪĿæŃ¥çļĦ åĪ¤æĸŃ
ç»° ç»°
ä½ĵä¼ļ åĪ°
ç»½æĶ¾ åĩº
æĹłç©· æĹłå°½
éĹŃä¸ĬäºĨ åĺ´å·´
è®Ńç»ĥ åľº
ç»¯çº¢çļĦ æľĪåħī
æĹ· éĩİ
äº¤æı¡ åıĮæīĭ
è¡°è´¥ æ£®æŀĹ
æĸ½åĬł å½±åĵį
æĥ©æĪĴ éªĳå£«
è¶ĭ åĬ¿
æīĺæĸ¯ åį¡çī¹
èĤ¢ä½ĵ åĬ¨ä½ľ
ä¸įåıĹæİ§åĪ¶ åľ°
çĻ½çİĽçĳĻ åı·
æ©¡ çļ®
æ·±çº¢çļĦ åħīèĬĴ
å¯Ĩå¥ĳ ä»ªå¼ı
æľĢåĲİä¸Ģå¤© æ±ĤæľĪç¥¨
çļĦçħ§èĢĢ ä¸ĭ
å¤ĸä¹¡ äºº
äº¤éĢļ å·¥åħ·
çī¹éĩĮ å°Ķ
åĪ©äºļ çĵ¦å°Ķ
èµ«å°Ķå¢¨ æĸ¯
åıĮåĢįæľŁéĹ´ æ±ĤæľĪç¥¨
æį¢åı¥è¯Ŀè¯´ å°±æĺ¯
åĳĲ åĸĬ
åİĺ ç±³
éĺ¿éľį çĵ¦
åħ¹æĽ¼ æł¼
ä¼ĬçĶ¸ åĽŃ
1 9
Ġ å¤§
Ġ ä¹Łæĺ¯
Ġ åħ°å°Ķä¹Įæĸ¯
Ġ äºĮæĺ¯
Ġ å¡ĶåĪ©å§Ĩ
Ġ ä¹Įçī¹æĭīå¤«æĸ¯åŁºç¥ŀçĪ¶
Ġ èĢģç§ĳåĭĴ
Ġ ä¹Įçī¹æĭīå¤«æĸ¯åŁºä¸»æķĻ
Ġ ä¹Ķä¼įå¾·åĮº
Ġ åĴļåĴļåĴļ
Ĭ æģ¼
çļĦ çº¸
çļĦ ä½Ļ
çļĦ ä¸¤ä¸ª
çļĦ æĿĥæŁĦ
çļĦ åºķéĥ¨
çļĦ è½®å»ĵ
çļĦ ç»ĵè®º
äºĨ ä¸ĬæĿ¥
ä¸Ģ åıł
æĺ Ń
æĺ¯ æĪĳçļĦ
ä¸į çķĻ
ä¸į ç¡®å®ļ
ä¸į èı²
æľī éĥ¨åĪĨ
æľī æĺİæĺ¾
æľī çĽ¸åºĶçļĦ
æľī äºĨä¸Ģå®ļ
æľī åĬ©äºİ
è¿Ļ å¹¶ä¸į
ä»ĸ åĪļ
ä»ĸ ç«ĭåĪ»
ä»ĸ ç«ŁçĦ¶
åľ¨ ä»ĸä»¬
åľ¨ éĻĦè¿ĳ
åľ¨ æ¢¦ä¸Ń
æĢ ¯
åħĭèİ±æģ© ä¸įåĨį
åħĭèİ±æģ© å¹³éĿĻ
åħĭèİ±æģ© åĿĲåľ¨
åħĭèİ±æģ© èĩªæĪĳ
åħĭèİ±æģ© èİ«åĲį
åħĭèİ±æģ© æĿ¾äºĨåı£æ°Ķ
åħĭèİ±æģ© æİıåĩº
éĤ£ å®¶ä¼Ļ
èµ Ķ
äºº æĿ¥
åľ° å¸¦
çĽ Ī
å°± æ²¡
å°± å¥½
éĩĮ åĽ¾
åĴĮ çĽ¸åºĶ
èĥ½ æĪĲä¸º
èĥ½ è®©äºº
ä¼ļ éĢłæĪĲ
ä¹ĭ çĬ¬
å¤§ åı£
å¤§ æŃ¥
å¯¹ èĩªèº«
å¯¹ ä¸įèµ·
ä½ł ä»¥ä¸º
åĲİ éģĵ
äºĨä¸Ģ ä¼ļ
çľĭ ä¸įåĩºæĿ¥
æµ ©
è¦ģ åģļ
å¼Ģ éĺĶ
è¿ĺ è®°å¾Ĺ
èĢĮ åľ¨
åıĳ èī²
åıĳ è¡¨
åıĳ å°Ħ
æīĭ æ³ķ
æ²¡æľī å¤ļè¯´
å°Ĩ èĩªèº«
éĥ½ æĥ³
ä»Ģä¹Ī å½±åĵį
ä»Ģä¹Ī éĥ½ä¸į
çľ¼ çĨŁ
å¥¹ ä»İ
å¥¹ çļĦçĪ¶äº²
å¤ļ ä½į
æĹł ä¸Ģ
æĹł æĥħ
Ġä»ĸ æĥ³äºĨæĥ³
çģµ éŃĤçļĦ
é»ĳ çĦ°
åĬ¨ æľº
åģļ å®¢
é¡ ½
èī² åĿĹ
æİ¥ æĶ¶
æİ¥ ä½ıäºĨ
åıĪ æľīçĤ¹
å®¶ æĹħé¦Ĩ
å£° åĴĮ
åħī æŁ±
çŃī ä¼ļ
éĵ ®
è° ħ
æµ· èİī
æµ· åķ¸
åıĺ æĪĲçļĦ
çĽ¸ æľº
ä¸» åį§
è¾¹ çķĮ
æľĽ è¿ľ
é«ĺ å¤§çļĦ
Ġåħĭèİ±æģ© çľĭçĿĢ
åįĬ å·¨äºº
åı¯ä»¥ èĢĥèĻĳ
æĽ´ æĶ¹
è¿Ļä¸ª åĲįç§°
ä¸įæĺ¯ åľ¨
ä»ĸä»¬ æľī
æ·± èĵĿèī²çļĦ
èĬ ¯
åºıåĪĹ è¶Ĭé«ĺ
èĢģ å¤ªå¤ª
å¤± èĲ½
å¤± è¯¯
ä¸ī æł¹èľ¡çĥĽ
æł¹ ä¹ĭçĬ¬
éļĲ èĭ¥
çĲĨ æĢ§
éĹ®é¢ĺ ä¸įå¤§
é£İ ä¿Ĺ
åħ¨ æĸ°çļĦ
å¹´ èĸª
æĪĳä»¬ æľī
æĭ¿ èµ°äºĨ
å¦Ĥæŀľ ä½łä»¬
åĪ© åį¡
åĬł åĪ©æĸ¯
æĿ¡ éĢĶå¾Ħ
å¸¦ åĪ°
å¸ķ èĭı
ä½İ ç¬ĳäºĨä¸Ģå£°
ä½İ åĲ¼
å®¹ åĻ¨
å·¨ æµª
ç©¿ äºĨ
åĵģ æł¼
èħ »
è¶Ĭ å¥½
åŃĺ æ¬¾
äº¤ éģĵ
èĦ¸ çļĦ
åĩºçİ° å¼Ĥå¸¸
è¯ķ è¯ķ
çŀ ª
ç«Ł æ²¡æľī
èĥ½åĬĽ åĴĮ
ç«ĭ çĿĢ
æ´» åĬ¨çļĦ
æ´» æ³¼
åĵª éĩĮçļĦ
å§Ĳ å§Ĳ
æµģ åħī
åĺ´ é¼»
æŁĲ ä»¶
æļ´ èĻĲ
ĠéĤ£ æĿ¡
ĠéĤ£ äººå½±
èĥĮ çĶŁ
è¿ĺæľī ä¸ª
éĿŀå¸¸ æ£Ĵ
çģ« çĥ§
çļĦéĤ£ ä¹Ī
é£ŀ èµ·
é£ŀ éĢŁ
åĬŀ ä¸įåĪ°
åľ£ å¸Įå°Ķåħ°
å¨ģ åĬĽ
æĹ© æľŁ
ä¼ł äºĨåĩºæĿ¥
äºĶ ç«ł
éĨĴ äºĨè¿ĩæĿ¥
çļ® å¸¦
æĤ¨ åı¯ä»¥
éľį åľ°
åıªèĥ½ éĿł
ä¹Į åĪ©åį¡
ä¹Łä¸į è¦ģ
ä¹Łä¸į æĥ³
ä¹Łä¸į è¡Į
ç§° èµŀ
æĿĢ å®³
çĻ¾ è´§
éĵľ ç»¿èī²çļĦ
å¿½çĦ¶ æľīäºĽ
åįĪ å¤ľ
çĮİ äººçļĦ
çļĩ å®¤
éĿŀåĩ¡çī¹æĢ§ åĨħ
ä¼¸ å±ķ
ä¸Ģè¾¹ è®©
åı« å£°
è®¤ä¸º è¿Ļ
ä¸ĥ æľĪ
é»ĳå¤ľ éĩĮ
æ¢¦å¢ĥ ä¸ĸçķĮ
è¯» ä¹¦
è¿½ æĿĢ
è¿½ æº¯
ç»§ç»Ń éĹ®éģĵ
ç»§ç»Ń è¿Ļä¸ªè¯Ŀé¢ĺ
éļĶ äºĨ
Ġä¸Ģ å£°
åİŁæľ¬ å°±
èĭ¦ ç¬ĳ
æĬ½ åıĸ
é¾Ļ å¨ģ
æīŃ è½¬
éĿĴ èĵĿ
çĿĢä¸Ģ åıª
çĿĢä¸Ģ å±Ĥ
çĿĢä¸Ģ æĿ¡
å¢Ļ ä¸ĬçļĦ
ä¸ºäºĨ ä¸į
æķĳ æĪĳ
èģļä¼ļ æĪĲåĳĺ
å¡Ķç½Ĺä¼ļ ä¼Ĺä½įæĪĲåĳĺ
è¹ Ń
åĸĿ äºĨä¸Ģåı£
å±± ç¾Ĭ
ç¢İ äºĨ
ä¸Ģå®ļçļĦ æĹ¶éĹ´
æĻ®éĢļ äººçļĦ
çļĦæīĭ åĬ¿
çĹĽ æģ¨
çº¹ è·¯
è¾Ľ è¿ª
è§Ĥå¯Ł åĴĮ
æ¸¸ è¡Į
æĳĩå¤´ ç¬ĳéģĵ
ä¸įçĶ¨ çĿĢæĢ¥
åħ·ä½ĵ æĺ¯ä»Ģä¹Ī
èľ Ĥ
å¹¸ åŃĺ
åĺ´è§Ĵ ä¸Ĭç¿ĺ
çĪ± æĥħ
å¯Į æľī
è¿Ľåħ¥äºĨ çģ°éĽ¾ä¹ĭä¸Ĭ
æī§ æ³ķ
åĩłä¹İ æ²¡
æĩ Ĭæģ¼
éļıä¹ĭ åĵįèµ·
å¿įä¸įä½ı åľ¨å¿ĥéĩĮ
æ¼« æĹłè¾¹
èĳ £
å°ĸ ç«¯
è´µæĹı å°ıå§Ĳ
ä¸° åİļ
ä¸° åİļçļĦ
ä¼¯çĪµ å¤«äºº
èĭ¥ éļĲèĭ¥
æĭ¿åĩº äºĨä¸Ģä¸ª
æļĤæĹ¶ æ²¡
æĦŁè°¢ ä½ł
æĢ»æĺ¯ ä¼ļ
ä¸ĳ éĻĭ
åįģåŃĹ è·¯åı£
åįĸ åĩº
åĩºçİ°äºĨ æĺİæĺ¾çļĦ
å·¨é¾Ļ è¯Ń
æĢĶ ä½ı
æµħ ç¬ĳéģĵ
æµħ èĵĿ
æĺ¾å¾Ĺ é¢ĩä¸º
ä¿¡å¾Ĵ ä»¬
å¢ĵ èĳ¬
å¢ĵ ç©´
éĥ½æľī åı¯èĥ½
çĽĺ åŃĲ
ç¬¦åĲĪ éĢ»è¾ĳ
ä¸»è¦ģ æĿĲæĸĻ
ç§ģ äºº
ä¸ĢæĹ¶ æľīäºĽ
æľŁå¾ħ åľ°
èħĲ æľ½
èĻļå¹»çļĦ é»ĳèī²
å§ĭç»Ī æ²¡æľī
åĬłåħ¥ å¡Ķç½Ĺä¼ļ
ä¿ĿæĮģçĿĢ æ²īé»ĺ
æľªå¿ħ ä¼ļ
ä½İå£° èĩªè¯Ńéģĵ
çĹķè¿¹ çļĦ
çļĦçĥ Ļåį°
çªĥåıĸ èµ°
æ²¡æľīéĹ®é¢ĺ äºĨ
é»Ħéĵľ èī²æ³½
Ġçł° çł°çł°
çŀĦäºĨ ä»ĸä¸Ģçľ¼
åĩĢåĮĸ åŃĲå¼¹
çŃ¾ è®¢
å±ķçİ° åĩº
åĩ¶ æģ¶
ĠæŀľçĦ¶ æĺ¯
å¾®çļ± èµ·
è¯Ħ ä¼°
è¹² åľ¨
è¹² äºĨä¸ĭæĿ¥
Ġåı¦å¤ĸ ä¸Ģè¾¹
èįĴ éĩİ
æ¾ Ħ
æĪĳå¾Ī å¥½å¥ĩ
æ¬£åĸľ åľ°
åį°è±¡ æ·±åĪ»
çģĮ è¾ĵ
åħĭåĪ¶ ä½ı
æ¸©æļĸ çļĦ
è´´èº«çĶ·ä»Ĩ æģ©å°¤å°¼
èħ¹è¯½ äºĨä¸Ģåı¥
çļĦå·¥ äºº
çļĦç¤ ¾
èĭ± éĽĦ
ä¸Ľ ä¸Ľ
çĦ¶èĢĮ æŃ¢
éĺ´æ²ī ç¹ģå¤į
æ¼Ĥæµ® äºİ
çľĭè§ģäºĨä¸Ģ ä½į
å¿ł å®ŀ
æ¹¿ æ¼ī
å·¥åİĤ åĮº
æŀ¯ èĲİ
ä½İä¸ĭ å¤´
å¡« é¥±
ç°ĩæĭ¥ çĿĢ
åĽļ ç¦ģ
æĪĳå¹¶ä¸į æ¸ħæ¥ļ
è½»å¿« åľ°
å¾Ģå¸¸ ä¸Ģæł·
éĻĦåĴĮ éģĵ
åĪ·åĪ· åĪ·
æ±¡ç§½ ä¹ĭè¯Ń
åīįåĢ¾ èº«ä½ĵ
é«ĵ æ¶²
æĶ¶åĽŀäºĨ è§Ĩçº¿
æĿ¥åĽŀè¸± äºĨåĩłæŃ¥
åįĬç¥ŀåįĬ äºº
è¿Ļæľ¬ ç¬Ķè®°
çĭŃ çªĦ
èĦĬ é«ĵæ¶²
ä¼ļåıĳçĶŁ ä»Ģä¹Īäºĭæĥħ
ä»İèĻļç©º éĩĮ
çļĦç¼ĺ æķħ
åº·æĸ¯é¡¿ åŁİ
å¦ĸ å¼Ĥ
å¨±ä¹Ĳ å®¤
èĤº éĥ¨
èĩªå·±åı¬åĶ¤ èĩªå·±
éľįä¼Ĭ å¤§åŃ¦
çģµæķĻåĽ¢äººéĢłæŃ»ç¥ŀ æ´¾
çªģå¦Ĥåħ¶ æĿ¥çļĦ
æĪĽ çĦ¶èĢĮæŃ¢
éº¦åĵĪ å§Ĩæĸ¯
æ³¯ çģŃ
æĽĻ åħī
éĺ¿åĬł éĩĮåĽ¾
å¥¥å¸ĥ å°¼æĸ¯
å·´æīĺ éĩĮ
å·¨äººå±ħæīĢ èĪ¬çļĦ
åħ¹æĽ¼æł¼ åħļ
æµ·èİī åı¶
æľĽè¿ľ éķľ
å¸ķèĭı å²Ľ
æ¼«æĹłè¾¹ éĻħ
èĭ¥éļĲèĭ¥ çİ°
µ æĩĴ
Ġ å·²
Ġ æĪ´
Ġ åİŁæľ¬
Ġ è®©äºº
Ġ å½ĵæĹ¶
Ġ åĵĴ
Ġ è½°
Ġ åĲ¬èµ·æĿ¥
Ġ è¦ģä¸įæĺ¯
Ġ åį¡è¥¿ç±³
çļĦ æĢĿç»ª
çļĦ æŁĲäºĽ
çļĦ æī®æ¼Ķ
çļĦ åı¯æĢķ
çļĦ èĭįçĻ½
çļĦ è¡Ĺéģĵ
çļĦ éķ¿è¢į
çļĦ å·¦æīĭ
çļĦ éĩĳå±ŀ
çļĦ çº¸äºº
çļĦ ä¹¦ç±į
çļĦ å®«æ®¿åĨħ
çļĦ æĸ¹æ¡Ī
çļĦ å¿ĥèĦı
çļĦ ä¼¤åı£
çļĦ åİĨåı²åŃĶéļĻå½±åĥı
äºĨ éĤ£ä¸ª
ä¸Ģ æĮī
ä¸Ģ æłª
æĪ ®
å® ħ
ä¸į èµ·æĿ¥
ä¸į ä¹ı
ä¸į èĭŁ
è¿Ļ éĥ½
è¿Ļ ç¡®å®ŀ
ä»ĸ è§īå¾Ĺ
ä»ĸ æĭ¿èµ·
ä»ĸ å¾Īå¿«å°±
ä»ĸ åĲ¬è§ģäºĨ
å¼ §
åľ¨ åİŁåľ°
åľ¨ å»·æł¹å¸Ĥ
åľ¨ è¿Ļä¸ĢåĪ»
æĪĳ çĶ¨
æĪĳ å¤§æ¦Ĥ
æĪĳ è§ģè¿ĩ
æĪĳ ä¸įæ¸ħæ¥ļ
è® ª
éģĵ åħ·
åħĭèİ±æģ© è§īå¾Ĺ
åħĭèİ±æģ© çľĭè§ģäºĨ
åħĭèİ±æģ© éļĲçº¦
åħĭèİ±æģ© åıªè§ī
åħĭèİ±æģ© æĬ¬èµ·åı³æīĭ
åħĭèİ±æģ© ç¬ĳç¬ĳéģĵ
åħĭèİ±æģ© æĶ¶åĽŀçĽ®åħī
éĤ£ çĵ¶
çĿĢ å¯¹æĸ¹
ï¼ļ âĢĺ
æĿ¥ ä¿¡
ä¸ĭ ä¸Ģæ¬¡
å°± æĬĬ
å°± å¿ħé¡»
å°± ç«ĭåĪ»
åĴĮ éĤ£ä½į
åĴĮ æł¼å°ĶæĽ¼
æ²¡ å¸¦
èĥ½ éĢļè¿ĩ
ä¹ĭ åħī
èĩª è§ī
æĭ ¨
æĭ ½
ç¥ŀ éĻį
å¤§ è¡Ĺ
å¯¹ ä»ĸçļĦ
å¯¹ èĩªå·±çļĦ
ä¸º åºķ
ä½ł å¾Ī
ä½ł ä¸įä¼ļ
å¾Ĺ ç½ª
ä¹Ł å°Ĩ
ä¹Ł å¤ª
ä¹Ł è·ŁçĿĢ
ä¹Ł å¾Īéļ¾
çĤ¹ çļĦ
å± ¡
é¢ ħ
è´ ·
æĪĲ å°±
å¾· éĩĮå®ī
åıĳ éĹ®
åıĳ åĬĽ
æīĭ åĬ¿
å¥½ åįĬ
æ²¡æľī åĽŀåºĶ
å°Ĩ æīĭä¸Ń
èĩªå·± ä¼ļ
éĥ½ è¿ĺæ²¡æľī
ä»Ģä¹Ī å¼Ĥå¸¸
ä»Ģä¹Ī åı«
çľ¼ åºķ
çľ¼ çĲĥ
å¾Ī è½»
å¾Ī å°ıçļĦ
å¤ļ äºĨä¸ª
æĹł è¨Ģ
Ġä»ĸ åĴĮ
Ġä»ĸ æĥ³
Ġä»ĸ å¹¶ä¸į
é»ĳ æĿ¿
è¢« åħ³
ä½Ĩ æĪĳä»¬
ä½Ĩ èĢĥèĻĳåĪ°
æľĢ æĸ°
æľĢ åĿı
åħī æ»ĳ
éŃ Ħ
çľŁ å¿ĥ
çľŁ ç¥ŀçļĦ
éĵ Ľ
è° ±
éķ¿ æĹ¶éĹ´
å¤ĸ è²Į
æĺİ èī³
å·² æĹłæ³ķ
æĦŁ åĨĴ
æµ· å²¸
ç¼ ¸
åħĪçĶŁ ç¥Īæ±Ĥ
çĽ¸ åĥı
çĽ¸ éģĩ
ä»İ è¿ĻéĩĮ
çĽ´ çº¿
æīį æľīåı¯èĥ½
åĨį è§ģ
çĲ ¥çıĢ
é«ĺ äºİ
éĩį åĨłåĨķ
Ġåħĭèİ±æģ© åĪĻ
Ġåħĭèİ±æģ© æ²¡åİ»
å¹¶ ä¸įä¼ļ
åĺ Ī
åįĬ åĿįå¡Į
åįĬ éĹŃä¸Ĭçľ¼çĿĽ
å¥¥ å¾·
è¿Ļä¸ª åĬŀæ³ķ
èĥ ¶
ä¸įæĺ¯ æ²¡æľī
è®° åĲį
èµ° åĽŀ
æ·± åĳ¼åĲ¸
èĬ ¬
ç»Ļ åĩºçļĦ
æīĵ å¾Ĺ
å°±æĺ¯ åĽłä¸º
æħ µæĩĴ
åįģ æľĪ
æ²ī çĶ¸
æļĹ éĿ¢
è½» åı©
å¾® çľ¯
è®¸ è®¸å¤ļ
é£İ å¤§
åĳ¨ äºĶ
çº¢ éħĴ
çľĭè§ģ äºĨä¸Ģéģĵ
åĮĸ è§£
è§Ĩ çķĮ
æ¯Ķ ä»¥å¾Ģ
åħ¨ æĺ¯
åħ¨ åŁİ
éļ¾ é¢ĺ
å¼º åĪ¶
å¼º åĬĽçļĦ
çİĭ åĲİ
æĪĳä»¬ å·²ç»ı
åĽłä¸º éĤ£
åı¤ å¾·éĩĮå®ī
æĭ¿ æĿ¥
ç¤ ´
èĲ½ åħ¥äºĨ
èĲ½ äºĨä¸ĭæĿ¥
åıĳçİ° éĹ®é¢ĺ
èį¯ çī©
ä¸ĢçĤ¹ çļĦ
é©¬ æľ¯
ç«ĭ åľº
éĤ£ä½į åı«åģļ
è¿ĺæĺ¯ åľ¨
æĺŁ åº§
é»ĺ æķ°
è¿Ļæĺ¯ ä»Ģä¹Ī
è¿Ļæĺ¯ åĽłä¸º
çļĦäºº æł¼
èĮ Ĥ
æµģ è¡Į
æµģ è¡ĮçļĦ
é»Ħ æ²¹
çİ°åľ¨ äºĨ
è·¯ äºº
ĠéĤ£ èº«å½±
åĪĩ æĸŃäºĨ
çĹ ´
èĻļ é»ĳ
éĿŀå¸¸ éĩįè¦ģ
ä¾§ éĿ¢çļĦ
åıĸ æ¶Ī
åĲĬ çģ¯
é£ŀ äºĨè¿ĩæĿ¥
æŀģ åħ·
ç¦»å¼Ģ å»·æł¹
è¯· ä»ĸ
è¿Ĳ è½¬
å¨ģ èĥ½
éĺ¿å°ĶæĿ° çļĦ
äºĶ ä½į
äºĶ æł¹
åĳµ äºĨä¸Ģå£°
ä¸įåĲĮ é¢ľèī²çļĦ
ä¸įåĲĮ å¯»å¸¸
ç»Ħ å»º
åĢŁ çĶ¨
è¡¨æĥħ åĴĮ
è¡¨æĥħ ä¸įåıĺ
èģļ æĭ¢
éĽ· è¾¾å°Ķ
ä¸ºä»Ģä¹Ī èĥ½
æĿĢ æĪ®
çĨ ı
æİĴ æİĴ
æķ° æį®
æİ¥çĿĢ æīį
èĵĿ çľ¸
æľīäºĽ è®¸
ä¸įèĥ½ è®©
é£Ł æĿĲ
çĭĤ ä¹±
æľ¨ å¤´
çĽ¸å½ĵ åį±éĻ©
èµ« æĭī
ç¬¬äºĮ å¤©
èĦļ å°ĸ
äº§ åĵģ
ç§ĺåģ¶ æģ©å°¤å°¼
åĩĿ æĪĲ
åŁº åľ°
äºĨä¸¤ æ¬¡
çĻ½éĵ¶åŁİ ä¼Ĺäºº
åħŃ ç¥ŀ
é£İæļ´ åľ¨ä¸Ĭ
çĿ¡ äºĨè¿ĩåİ»
å¸®åĬ© ä»ĸ
åĺīå¾·ä¸½éĽħ çļĦ
é©¬è½¦ å¤«
åĳĬè¯ī ä»ĸä»¬
Ġä¸Ģ æĺ¯
åħĭèİ±æģ©çļĦ èº«ä½ĵ
å¿ĥçĲĨ åĩĨå¤ĩ
å¾Īå¿« æľīäºĨ
åİŁæľ¬ çļĦä½įç½®
æĢ¥ åĪĩ
ä»ĺ è¯¸
çľī çľ¼
æľīä»Ģä¹Ī äºĨè§£
æľīä»Ģä¹Ī åħ³ç³»
ç²¾ç¥ŀ åĪĨæŀĲ
æĹħ ç¨ĭ
æīĵç®Ĺ åħĪ
åı° åīį
çļĦç¥ŀ åºĻ
åĨ² åĩºäºĨ
çģµçķĮ æ·±å¤Ħ
çĿĢä¸Ģ æł¹
ç«¯ åĿĲ
çŁ¥è¯Ĩ åĴĮ
èº«ä»½ çļĦ
å±± æ´ŀ
éĹŃ äºĨä¸ĭçľ¼çĿĽ
ä¸Ģéģĵ åıĪä¸Ģéģĵ
ä¼Ļ ä¼´
æł¹æľ¬ ä¸įä¼ļ
åħ¶å®ŀ å·²ç»ı
çĬ¹è±« çĿĢ
çĬ¹è±« äºĨä¸ĭ
è®¤çľŁ æĢĿèĢĥ
è¡¨çİ° åĩºæĿ¥
é¢ĩ æľīäºĽ
Ġä»ĸçļĦ èº«ä½ĵ
èĸĦ çīĩ
å½Ĵ å±ŀ
å®Ŀ åºĵ
éĢĲæ¸Ĳ åıĺ
åĳ¢ åĸĥ
ä¹ĭä¸Ģ çļĦ
åĲĥ æİī
æ°¸ ä¸į
åī§ çĥĪçļĦ
ç¥Īæ±Ĥ æĤ¨
æ²¹ æ±¡
å°¼å°Ķ åħĪçĶŁ
ä¸»åĬ¨ å¼Ģåı£éģĵ
å¥½åĩł åĪĨéĴŁ
æ¶Į æĿ¥
çļĦç² Ĺ
åķª åķª
åķª åķ¦
ä¸įå¤Ł çľŁå®ŀ
è¯ķåĽ¾ ä»İ
åı¯æĢķ çļĦäºĭæĥħ
èĩªçĦ¶ èĢĮ
å¾®å¾® çļ±èµ·
è´µæĹı ä»¬
ç´ł è´¨
åĪĿæŃ¥ æİ§åĪ¶
æľīæīĢ å¯Łè§ī
åĭ¾ èµ·
çĭ¬ çľ¼
åĸĬ äºĨä¸Ģå£°
ç¦ı èİ±çī¹
é«ĺåºıåĪĹ å¼ºèĢħçļĦ
åĿļ åĨ³
åĩłä¸ª å°ıæĹ¶
æĢĶ äºĨä¸Ģç§Ĵ
èĢģå¸Ī çļĦ
åºĦ éĩį
è°¨æħİ åĴĮ
å½ĵåĪĿ çļĦ
é¢¤ åĬ¨
å®¡è§Ĩ çĿĢ
å»ºçŃĳ çī©
å¢ĵ äºº
å²ģ æľĪ
æĬĺ çļĦ
è¶ħåĩ¡ äºĭä»¶
éĴ» äºĨåĩºæĿ¥
ä¸įä»ħ æĺ¯
æĭĸ åĩºäºĨ
å·¦åı³ å¼łæľĽ
èĩªæĪĳ ä»ĭç»į
çĽ¥æ´Ĺå®¤ åĨħ
èĻļå¹»çļĦ çĻ½çº¸
åĽŀåĪ°äºĨ çİ°å®ŀä¸ĸçķĮ
å±ķå¼Ģ è¡ĮåĬ¨
é»Ħæĺı åħīèĬĴ
éº»çĥ¦ äºĨ
çĦ¦ é»Ħ
çĦ¦ èºģ
å¿ĥçĲĨçĤ¼éĩĳä¼ļ è¯Ħè®®åĽ¢
éĿĻéĿĻ çĩĥçĥ§
éĻįä¸´ çļĦ
æĬ¬å¤´ æľĽäºĨçľ¼
æĬ« ä¸Ĭ
çĹĽèĭ¦ çļĦ
æ¸ħæĻ° çļĦ
åĲĦèĩª çļĦ
å¢Ļå£ģ ä¸Ĭ
åļ ·
å½ĵåīį æĹ¶ä»£
èĤĥ ç©Ĩ
æĺŁè¾ ī
ä¹Łå°± æĦıåĳ³çĿĢ
çº¸äºº å¤©ä½¿
ä»¤ äºº
æĳĩäºĨæĳĩå¤´ éģĵ
ç¯ ¡
è¾¨ åĪ«
è¡¡ éĩı
ä¹¦åĨĻ çļĦ
è½¬ç§» åĪ°
å¡Ķç½ĹçīĮ ä¸º
åİĨåı²åŃĶéļĻ éĩĮçļĦ
æµĵéĥģ çļĦ
ä¸°å¯Į çļĦç»ıéªĮ
é»ĳåıĳ æ£ķçŀ³
éķ¿è£Ļ çļĦ
èĩªåĺ² äºĨä¸Ģåı¥
éĹªè¿ĩ äºĨä¸Ģä¸ª
æİ¢ç´¢å°ıéĺŁ éĺŁåĳĺ
è¿Ļæĸ¹éĿ¢çļĦ éĹ®é¢ĺ
è°¢è°¢ æĤ¨
å°½éĩı ä¸į
çĿģå¼Ģ åıĮçľ¼
è§£éĻ¤ æİī
èĤļåŃĲ éĩĮçļĦ
èİİä¼¦å°ıå§Ĳ åĴĮé©¬éĩĮå¥ĩ
æĺ¯æľĢ å¥½çļĦ
éľįçº³å¥ĩæĸ¯ ä¸»å³°
åĩºä¸Ģ åī¯
è¯ķæİ¢ çĿĢéĹ®éģĵ
æĪ´ä¸Ĭ å¸½åŃĲ
éĵĥ éĵĽ
çİĭåŃĲ æ®¿ä¸ĭ
æīĢåľ¨çļĦ åĮºåŁŁ
çļĦç± ³
æįĤ ä½ıäºĨ
è¡° èĢģ
ç»ĳ åĮª
è¿Ļä¸į å°±æĺ¯
åĴķåĵĿ äºĨä¸¤åı¥
çŀ³åŃĶ ä¸Ģç¼©
ä¸Ģå±Ĥ åıĪä¸Ģå±Ĥ
è¿Ļä¹Īä¸Ģä¸ª å¿µå¤´
æįĲ æ¬¾
å°Ĩæīĭ ä¼¸
åĮ¹ éħį
åľ¨èĥ¸åı£ çĶ»äºĨä¸ªç»¯çº¢ä¹ĭæľĪ
åį±å®³ åĪ°
æĶ¾ç¼ĵ èĦļæŃ¥
æ¯ĶæĪĳ é¢Ħæĥ³å¾Ĺ
é¼»æ¢ģ ä¸Ĭæŀ¶
æµ´ ç¼¸
éĵ¶çĻ½çļĦ éĹªçĶµ
ĠæŃ£ åĽłä¸ºå¦ĤæŃ¤
çľ¼å¸ĺ çļĦæĺ¯
åĪ® èµ·
å¿ĥçĲĨåŃ¦ éļĲèº«
èĭ¦ä¿®å£« é¦ĸé¢Ĩ
ç«Ļèµ·èº« æĿ¥
çļĦçħ¤æ°Ķ çģ¯
æİ¢åĩº åı³æīĭ
æĮºçĽ´ èħ°èĥĮ
çļĦç¾½æ¯Ľ ç¬Ķ
å¹ħåº¦å¾Īå°ı åľ°
æĹ©ä¸Ĭ å¥½
éģ¥ è¿ľ
æĳĺä¸ĭ å¸½åŃĲ
åĬłå°Ķæĸĩ ä¸Ĭæł¡
åħ¨çŁ¥åħ¨èĥ½ çļĦç¥ŀ
é©¯ åħ½
åĲŀäºĨåı£åĶ¾ æ¶²
æŃ§ è§Ĩ
æĺ¨æĹ¥ éĩįçİ°
è¥¿å¼¥å§Ĩ å²Ľ
æ·±çľł èĬ±
èģĨ åĲ¬
æģ¶é¾Ļ éħĴåĲ§
å®«å»·ä¾įåį« éķ¿
å¾®çļ±èµ· çľīå¤´
å¥½åįĬ å¤©æīį
1 6
3 2
8 000
¬ éģĵ
¼ éĩĮ
Ġ æĪĳçļĦ
Ġ çĽ®åħī
Ġ æ¢¦å¢ĥ
Ġ åĪļæīįçļĦ
Ġ è¹¬
Ġ èº«ç©¿
Ġ ç»´å°ĶæĿľ
Ġ å°¼å§Ĩ
Ġ æĶ¾å¥½
Ĭ æĦĪ
çļ Ļ
çļĦ æľī
çļĦ ä¸Ģæł·
çļĦ ç½Ĺå¡ŀå°Ķ
çļĦ å¸ĮæľĽ
çļĦ çģµçķĮ
çļĦ æĹłå½¢
çļĦ éģĹè¿¹
çļĦ æģ¶éŃĶ
çļĦ éªĳå£«
çļĦ éķľåŃĲ
çļĦ å¼ºå¤§
çļĦ çĽ´è§ī
çļĦ ç¬ĳæĦı
çļĦ åŃ¦çĶŁ
çļĦ èĦļæŃ¥å£°
ä¸Ģ çŀ¬éĹ´
åĪ ¸
ä¸į çĽ´æİ¥
ä¸į éĢĤ
ä¸į æ¶īåıĬ
æľī æĦı
æľī å¤©ä½¿
è¿Ļ åı¥
è¿Ļ ç±»
è¿Ļ è¿ĺæĺ¯
è¿Ļ ä¸¤å¤©
ä»ĸ çĽ®åīį
ä»ĸ ç©¶ç«Ł
åį ĵ
åħĭ éĩĮæĸ¯
åľ¨ è¿Ļç§į
åľ¨ æŁĲäºĽ
åľ¨ åģļä»Ģä¹Ī
åľ¨ åħ³éĶ®æĹ¶åĪ»
æĪĳ å¹¶æ²¡æľī
åħĭèİ±æģ© è¿ĺ
åħĭèİ±æģ© éļıåı£
çĿĢ åĲĦç§į
å¯ ¡
åľ° åĸĬéģĵ
åľ° ä½İè¯Ńéģĵ
ï¼ļ âĢĿ
ä¸ĭ èĳ¬
å°± åĮħæĭ¬
åĴĮ äºº
åĴĮ å¹³
åĴĮ èº«ä½ĵ
åĴĮ èĩªèº«
åĴĮ ç¬¦åı·
çº ²
ä¸Ĭ åįĥå¹´
æ²¡ åħ³ç³»
èĥ½ ç»´æĮģ
åĳ ²
ä¹ĭ åĪĥ
èĢħ ä»¬
ç¥ŀ åº§
å¤§ éĹ®é¢ĺ
å¤§ çī§é¦ĸ
å¯¹ æĪĳä»¬
ä¸º ä»ĸ
ä½ł å°±æĺ¯
ä½ł æľīæ²¡æľī
ä½ł ä¹Łåı¯ä»¥
åĲİ éģĹ
èº« çļĦ
èº« åľ¨
äºĨä¸Ģ åĪĩ
èµ· å§ĭ
äºİ éĤ£éĩĮ
äºİ åİŁåľ°
æĥ³ è®©
æĥ³ äºĨä¸ĭéģĵ
è¯´ æĪĳ
è¿ĺ çľŁ
æīĭ æıĲ
çī© èµĦ
æ²¡æľī ä¸Ģä¸ª
å°Ĩ ä»ĸä»¬
å°Ĩ å¯¹æĸ¹
çī¹ æĺĤ
éĥ½ åı¯èĥ½
éĥ½ ä¸įæķ¢
å¥¹ çľ¼åīį
å¿ĥ æĥĬ
è§ģ åĪ°çļĦ
çĶ¨ çľ¼è§Ĵä½Ļåħī
Ġä»ĸ åıĳçİ°
Ġä»ĸ å¿Ļ
Ġä»ĸ å½ĵåį³
Ġä»ĸ æŃ£è¦ģ
Ġä»ĸ ä¹ĭæīĢä»¥
çĻ «
çģµ å·«
éĹ´ æŃĩ
ä¸Ģä¸ª å°ıæĹ¶
è¢« æĹłå½¢
åģļ äºĽ
åħ¥ éĹ¨
éĿŀ æ³ķ
åıĪ ä¼ļ
åıĪ è§īå¾Ĺ
åıĪ æĺ¯ä»Ģä¹Ī
ä½Ĩ å¦Ĥæŀľ
ä½Ĩ åıªè¦ģ
æľĢ æĵħéķ¿
éŃ ģ
çŃī åĪ°äºĨ
æ¬¡ äºİ
å½ĵ åħĪ
è° ¬
è° Ĭ
çĻ½ çļĻ
éķ¿ æĸ¹å½¢
å·² å®Įåħ¨
è¡Į åĪĹ
ç¬ĳ äºĨèµ·æĿ¥
æĦŁ åĬ¨
åĩł åĲį
çĽ¸ è¿ŀ
çĽ¸ æ¯Ķè¾ĥ
ä»İ æ¢¦ä¸Ń
æ± ©
ä¸» å±ĭ
ä¸» åį§å®¤
å¦Ĥ æĹ¢
æ°Ķ éģĵ
æ°Ķ åĬ¿
ä½ı æĪ¿
åĨį çľĭ
åĨį ä¹Łæ²¡æľī
é«ĺ æ¡£
çĸ Ļçĺ©
ä½¿ èĢħ
ä¸İ åħĭèİ±æģ©
ä¸İ å®ĥ
Ġåħĭèİ±æģ© ç¬ĳç¬ĳéģĵ
ä¼¼ æĹł
çķĮ éĻĲ
åı¯ä»¥ å°Ĩ
æĤ ¸
ç¬¬ åħ«
è¿Ļä¸ª åºıåĪĹ
è¿Ļä¸ª æĪ¿éĹ´
è¿Ļä¸ª åĲįè¯į
ä»ĸä»¬ æľīçļĦ
éĿŀåĩ¡ åĬĽéĩı
æ·± åħ¥äºĨ
ç»Ļ ä½łçļĦ
ä¸ī æľĪ
ä¸ī åĪĨéĴŁ
è§£ å¼ĢäºĨ
åĲ¬ éĹ»
åįģ åħŃ
æļĹ éĹ¨
æļĹ éĩĳ
æŃ» æİī
æĶ¾ å¼Ģ
è¡Ģ èĢħ
æĪ´ ç¤¼å¸½
çĮ ª
å¾Ģ äºĭ
æĪĳä»¬ åħĪ
éª ĩ
æŀĹ æł¼å°Ķ
æĶ¶ è´¹
æĶ¶ æĿŁ
æĬ¥ ç«¥
ç®Ĺ ä¸Ĭ
åıĹ å½±åĵį
åıĹ å®³èĢħ
ç»ĵ å®ŀ
ä»ĸçļĦ è§Ĩçº¿
ç©¿ æļĹçº¢å¤ĸå¥Ĺ
æĮĩ å¯¼
åĽĽ åĪĨä¹ĭä¸Ģ
äº¤ å¾Ģ
ä¿Ŀ çķĻçĿĢ
ä¸įä¼ļ æ¯Ķ
æĢİ æł·
è¥¿ åĮĹ
åįłåįľ è¿ĩ
åįłåįľ ä¸Ģä¸ĭ
çŀ ©
è¿Ľåħ¥ æ¢¦å¢ĥ
è¿Ľåħ¥ çĽ¥æ´Ĺå®¤
èĩªå·±çļĦ ç§ĺåģ¶
å¡Ķ çİĽ
æº º
é»Ħ åıĳ
ä½Ľå°ĶæĢĿ åĴĮ
åĳĬ ä¸Ģæ®µ
æĪĳçļĦ åĲį
æĪĳçļĦ åĲįä¹ī
éĻ¤ å¤ĸ
çĹ ĬæĦĪ
èĤ¯å®ļ å¾Ī
ä¾§ èĢ³
çļĦéĤ£ ä»½
çļĦéĤ£ éĥ¨åĪĨ
åıĸ å¾Ĺ
çĶ± ä»ĸ
ç»Ĩ éķ¿
è¯· éĹ®
è¯· åħģè®¸
ç¬Ķ æĮº
æĢĢ æĬ±
èĪ¬ éģĵ
æİ¨ äºĨä¸ĭ
æĪĲä¸º å¤©ä½¿
äºĨä¸Ģåı¥ è¯Ŀ
åħ¬ éĩĮ
åħ¬ ä¼Ĺ
æŃ£å¸¸ åľ°
å°ģåį° æł¸å¿ĥ
ç®Ģ ç®Ģåįķ
é¢Ĩ åľ°
éĶĻ è¿ĩäºĨ
èĴĤ ä¸Ŀ
æ·¡ éĩĳèī²çļĦ
å·¥ ä¸ļ
éĽ· é¸£
ä¹Łä¸į çĶ¨
ç¿» æī¾
çĶļèĩ³ è¿ŀ
åĻ ¼éĩĮ
ä»ħ æ¬¡äºİ
çĶµ å½±
ä¸įèĥ½ è¢«
ä¸įèĥ½ çĽ´æİ¥
æĳĨ åĬ¨
çł´ è´¥
æķ£ éĢ¸
æĶ¹ è¿Ľ
äº² çĪ±
âĢĶâĢĶ âĢľ
å®¢ æĪ¿
åĳ¼ äºĨåı£æ°Ķ
ç¬¬äºĮ å±Ĥ
å¹½ å¹½
æĿĸ å¤´
ä¸įçŁ¥éģĵ ä»Ģä¹ĪæĹ¶åĢĻ
åĽ¢ éĺŁ
ä»»ä½ķ äºĭçī©
çĽ¸åºĶçļĦ æĥħæĬ¥
å°½ æķ°
å°½ åħ¨åĬĽ
èĲ¨ æŀĹæł¼å°Ķ
å¿į åıĹ
æĺ¯ä¸Ģ æĿ¡
è¿½ éĹ®äºĨä¸Ģåı¥
æĹłå£° åĲĲäºĨåı£æ°Ķ
è¶³å¤Ł å¤ļ
éŃĤ ä½ĵ
æĹħ æ³ķå¸Ī
æīĵç®Ĺ æĺ¯
çŀ¬éĹ´ åıĺå¾Ĺ
çļĦç¥ŀ åľ£
ä¸¤ä¸ª äºº
é²ģæģ© å£«åħµ
ä¹Ĳ è§Ĥ
æĪĲåĬŁ çİĩ
çĽĸ å°Ķ
ä½¿çĶ¨ èĢħ
æķĳ åĳ½
æŁĶ ç¾İ
åĸĿ ä¸ĭ
åī¯ å®ĺ
æĪ¿å±ĭ çļĦ
çļĦæīĭ ä¸ĭ
é¢ĩ æľī
éĿŀåĩ¡èĥ½åĬĽ çļĦ
èĩ³å°ĳ æľī
èĩ³å°ĳ èĥ½
ä¸įéĶĻ åľ°
èĸĦ éĽ¾
èĸĦ é£İè¡£
æµª æ½®
ä¸įçĶ¨ åľ¨æĦı
æĬ¬èµ· å¤´
åħ¶ä¸Ń ä¸Ģä½į
æķĮ å¯¹
åģ· èµ°
è¿Ľåħ¥äºĨ æ¢¦å¢ĥ
å¥½åĩł ä½į
é±¼ ç±»
é¦Ļ èįī
æĮīçħ§ é¢Ħå®ļçļĦ
æī« äºĨä¸Ģçľ¼
åĽŀåĪ° å®¶éĩĮ
çĥĽ åı°
æ¨¡ç³Ĭ èº«å½±
èĦ¸åºŀ æ¶Īçĺ¦
å°ĸ çīĻ
åĪĿæŃ¥ ç¡®è®¤
éļıçĿĢ æĹ¶éĹ´çļĦ
ä¹ĭéĹ´ çļĦ
èĥ¡ åŃĲ
åľĨ æ¡Į
èĹıçĿĢ ä»Ģä¹Ī
çĶŁæ´» éĩĮ
æĭ¿èµ· éĴ¢ç¬Ķ
è·ŁçĿĢ æĪĳ
ä¾§å¤´ æľĽåĲĳäºĨ
æıĲéĨĴ ä½ł
æĲľéĽĨ åĪ°çļĦ
è¦Ĩ çģŃ
ä¸Ģçīĩ çīĩ
ä¸Ģçīĩ å®īéĿĻ
æıĲçĿĢ åĽĽä¸ªéĩĳåıĳçº¢çľ¼
ä¿¡å¾Ĵ çļĦ
ç§ģ æ¸¯
åı¹æģ¯ ç¬ĳéģĵ
åĭ¾åĭĴ äºĨåĩºæĿ¥
æĭį çĶµæĬ¥
è¡¨ç¤º äºĨ
æıĲåįĩ èĩªå·±
å¯¹åºĶ åºıåĪĹ
åĿł åħ¥äºĨ
çĦ¦ é»ĳçļĦ
ä¼ĺ åħĪ
æĽ´å¤ļ æĺ¯
ç²¾çģµ éģĹè¿¹
æĬ¬å¤´ çľĭäºĨçľ¼
ç´¢ç½Ĺäºļæĸ¯å¾· å®¶æĹı
ç©ºæ°Ķ åŃĲå¼¹
åħ·çİ° åĩºæĿ¥çļĦ
ç»ıå¸¸ ä¼ļ
æĮĤ åľ¨
ç¯ Ŀçģ«
åģļåĩºäºĨ åĨ³å®ļ
å¤įæĿĤ ç¬¦åı·
ä¾ĿçĦ¶ æĺ¯
æĤĦçĦ¶ æĿ¾äºĨåı£æ°Ķ
éĶĻè¯¯ çļĦ
æĳĬ æīĭ
æįŁ å®³
æĳĨæĶ¾ çĿĢä¸Ģ
è°Ī åĪ¤
è´Ńä¹° äºĨ
æµĵéĥģ çģ°éĽ¾
çķ¥æĦŁ è¯§å¼Ĥ
ç½ª æģ¶
æµĳ æµĳåĻ©
éĤ£æĿ¡ å¿ĥçģµå·¨é¾Ļ
åĢ¼å¾Ĺ ä¿¡èµĸ
èĻļç©º éĩĮ
é½¿ è½®
å·¦æİĮ çļĦæīĭå¥Ĺ
éĺ´åĨ· ä¹ĭé£İ
è¹² äºĨä¸ĭåİ»
ĠçŃī ä»ĸ
æ³Ľ èµ·
é©¶ è¿ĩ
æ»¡æľĪ åĳĵè¯Ń
å¢¨ ç»¿èī²çļĦ
ä¸ĵä¸ļ äººå£«
å¤±è¸ª äºĨ
é»ĺå¿µ çĿĢ
èĪ± æĪ¿
ç¼ĸ åı·
è¯ķæİ¢ çĿĢ
åĬĪ åľ¨äºĨ
åģ¥ å£®
Ġè¿Ļæł·çļĦ åľºæĻ¯
æī§æİĮ çĿĢ
åºĨ ç¥Ŀ
å¤´é¡¶ çļĦ
æķ´é½Ĳ åĲİæ¢³
åĩĿéĩį åľ°
å°¤åħ¶ æĺ¯
èįīèį¯ åºĹ
éĻ·åħ¥äºĨ æ²īé»ĺ
ä¸Ģæ®µ è·Ŀç¦»
èī³ ä¸½
æ³ª æ°´
åįİä¸½ çļĦ
è¹¿ åįĩ
çĤ½ çĥĪçļĦ
æ²īç¨³ åľ°
çļĦç¤¼ çī©
éĤ® å·®
å·¡ è§Ĩ
æĳĶ åĢĴ
ä¿Ŀå¯Ĩ çŃīçº§
åľ¨èĥ¸åı£ é¡ºæĹ¶éĴĪçĤ¹äºĨåĽĽä¸ĭ
æį¢äºĨ ä½įç½®
èµĮ åľº
åħĭèİ±æģ©å¿įä¸įä½ı åľ¨å¿ĥéĩĮ
æłı æĿĨ
èĴ¸æ±½ä¸İæľºæ¢°ä¹ĭç¥ŀ æķĻä¼ļ
æİĢ èµ·
å¯¹åħĭèİ±æģ© éģĵ
éĢĢåĲİ ä¸ĢæŃ¥
éŀŃ åŃĲ
æŃ»çģµ å¯¼å¸Ī
çŃĸ çķ¥
æ¹ĸ æ³Ĭ
ç³Ł ç³ķ
æľīäºĨä¸ª çĮľæµĭ
èĥĸèį¯å¸Ī è¾¾åħĭå¨ģå°Ķ
è¢ĸåı£ åĨħçļĦ
å·´æİĮ å¤§å°ı
åĢ¼å®Ī å®¤
çħ¤ çĤŃ
é»Ħè¤Ĳèī² ç¾Ĭçļ®çº¸
çĶŁçĹħ äºĨ
åľ£èµĽçĲ³å¨ľ çļĦéª¨çģ°
ç£ħ ç¤´
çŀ¥ äºĨ
çº¢åıĳ ä¼Ĭèİ²
æ²ģ åĩº
å®īéŃĤ å¸Ī
ĠæĹ¶éĹ´ä¸ĢåĪĨä¸Ģç§Ĵ æµģéĢĿ
æİ¨éĹ¨ èĢĮåħ¥
åģľä½ı èĦļæŃ¥
çĽ´è§īåľ° è®¤ä¸º
ä¸įæŃ»é¸Ł å§ĭç¥ĸ
å®ł çī©
åĿİ èĴĤä¸Ŀ
æĨİ æģ¨
å¤ļä¸½ä¸Ŀ å¤ªå¤ª
è½¬è¿ĩäºĨ èº«ä½ĵ
éķĩéĿĻ åīĤ
èĻļå¹»å±ĤåıłçļĦ ç¥Īæ±Ĥå£°
èħĲåĮĸ çĶ·çĪµ
ä»İå¤© èĢĮéĻį
æ¿Ĵ ä¸´
åĲİéģĹ çĹĩ
å¦ĤæĹ¢ å¾Ģ
å¡ĶçİĽ æĭī
ç®Ģç®Ģåįķ åįķ
åĻ¼éĩĮ åķªåķ¦
æµĳæµĳåĻ© åĻ©
· éĶģ
Ġ è§Ĩçº¿
Ġ èĩ³å°ĳ
Ġ æ¯Ķå¦Ĥ
Ġ åįĬç©º
Ġ ä¸¤ä½į
Ġ å¼Ĺèİ±
Ġ åĲ¬çĿĢ
Ġ æľ¬æĿ¥
Ġ äºİå°Ķæł¹
Ġ æ½ĺå¨ľèĴĤäºļ
Ġ éħĴä¿Ŀ
Ġ èĭ¥éĿŀ
Ġ çģ°èĴĻèĴĻ
Ŀ åįľ
çļĦ è´Ŀåħĭåħ°å¾·
çļĦ ä¸Ģä¸ĭ
çļĦ å®īéĿĻ
çļĦ éģĵæģ©
çļĦ åīįæĸ¹
çļĦ åħ·ä½ĵ
çļĦ é¢ĨåŁŁ
çļĦ èĥĮåĲİ
çļĦ åıĮæīĭ
çļĦ åľ°éĿ¢
çļĦ èĮĥåĽ´
çļĦ åį§å®¤
çļĦ çİ»çĴĥ
çļĦ ä¼¤å®³
çļĦ åĲĪä½ľ
çļĦ ä¾įèĢħ
çļĦ åħ¥åı£
çļĦ éĶĻè¯¯
çļĦ éļĲç§ĺç»Ħç»ĩ
çļĦ åĽłç´ł
çļĦ å¤´éĥ¨
çļĦ èĥĮå½±
çļĦ åīįæıĲä¸ĭ
äºĨ éĤ£ä½į
ä¸Ģ å¹ķ
ä¸Ģ çĽı
æĺ¯ è¦ģ
æĺ¯ ä»ĸä»¬
æĺ¯ ç¥Ĥ
æĺ¯ æ²¡æ³ķ
æĺ¯ åĵªä½į
ä¸į æĪĲ
ä¸į éļ¾
æľī çļĦäºº
æľī è¿Ļä¹Ī
è¿Ļ åı¯èĥ½
è¿Ļ å¿ħé¡»
è¿Ļ æĹ¢
è¿Ļ å°ģä¿¡
ä»ĸ è¾¹
ä»ĸ ä¸įæĺ¯
ä»ĸ ä¸įä¼ļ
ä»ĸ åĢŁåĬ©
ä»ĸ èº«ä¸Ĭ
ä»ĸ è§īå¾Ĺèĩªå·±
ä»ĸ åıĳçİ°èĩªå·±
åħĭ æĺŁ
ç» Ĭ
çĶ ¬éģĵ
åľ¨ å¥¹
åľ¨ å¯»æī¾
æĪĳ çľŁçļĦ
æĪĳ èĥ½å¤Ł
æĪĳ å½ĵåĪĿ
åħĭèİ±æģ© æŃ£
åħĭèİ±æģ© å·²ç»ı
åħĭèİ±æģ© å¹¶æ²¡æľī
åħĭèİ±æģ© æł¹æį®
åħĭèİ±æģ© å¿ĥä¸Ń
åħĭèİ±æģ© åı¹äºĨåı£æ°Ķ
åħĭèİ±æģ© æĬ¬æīĭ
åħĭèİ±æģ© å¯¹æŃ¤
åħĭèİ±æģ© å¾®çļ±çľīå¤´
çĿĢ åħĭèİ±æģ©
å¯ ĤçļĦ
åĪ° äºĨä¸Ģä¸ª
åĪ° æĿ¥çļĦ
åĪ° æľĢåĲİ
åľ° å°±
æŃ ª
æĿ¥ è¿ĻéĩĮ
æĿ¥ è¢Ń
ä¸ĭ è¡Ĺ
ä¸ĭ ç§»
å°± å¾Ī
å°± å½ĵ
å°± æĦŁè§ī
åĴĮ ç¥Ĥ
åĴĮ çĸ¯çĭĤçļĦ
ä¸Ĭ ä½į
ä¸Ĭ æ¼Ķ
ä¸Ĭ åı¸
ä¸Ĭ åįĬèº«
æ²¡ æıĲ
èĥ½ æĪĲåĬŁ
å°Ķ å¨ľ
èĢħ åĴĮ
èĩª è±ª
ç¬ ¨
å¤§ è´µæĹı
å¯¹ ä¸Ģä¸ª
æĸ¯ èĴĤ
æĸ¯ æīĺ
æŀ ·éĶģ
æĥħ èĬĤ
äºĨä¸Ģ å±Ĥ
ä»¥ ä»ĸ
ä»¥ å¤ª
ä»¥ å¡Ķç½ĹçīĮä¸º
ä¹Ł æľĢ
ä¹Ł æīį
ä¹Ł èĤ¯å®ļ
éĿ¢ èįī
è½ ´
çĤ¹ åĪ°
é¢ Ī
åĽŀ ç¥ŀ
æĪĲ åŀĭ
è¿ĺ æ®ĭçķĻçĿĢ
å¾· å°¼å°Ķ
èĢĮ çŁ¥
èĢĮ åĿĲ
å¥½ è¡£çī©
å¥½ æ¶Īæģ¯
å°Ĩ éĩĮéĿ¢çļĦ
èĩªå·± èĥ½
éĥ½ åıªæĺ¯
éĥ½ éļ¾ä»¥
ä»Ģä¹Ī çļĦ
è®© è¿Ļ
è®© éĤ£ä¸ª
è®© è¿ĻéĩĮ
éĹ® è¿ĩ
æŃ£ è§Ħ
åĨħ å¤ĸ
å¤ļ ä½Ļ
è§ģ ä¸Ģ
è§ģ ä¹ł
çĶ¨ æīĭ
æ¸ £
Ġä»ĸ ä»İ
Ġä»ĸ èĦĳæµ·åĨħ
å°ı å°ı
å®ļ ä¹ī
å®ļ æľŁ
ä¸Ģä¸ª å°ı
Ġè¿Ļ èº«å½±
çŁ¥ è§ī
åģļ äºº
åģļ åĻ©æ¢¦
å¤© ä½ĵ
æİ¥ è¿ŀ
åĲĳ åĽĽåĳ¨
åıĪ åľ¨
åıĪ çĸĳæĥĳ
å®¶ ä¹¡
åħī èĢħ
åħī çħ§
çŃī å¡Ķç½Ĺä¼ļæĪĲåĳĺ
å½ĵ åľ°
çļĦç ĺ
ä¸¤ å±Ĥ
ä¸¤ å±ħå®¤
ä¸¤ åıªçľ¼çĿĽ
çĻ½ æ£®
çĻ½ éľľ
æ¶ Ľ
åĪĨ è§£
ç¬ĳ åĳµåĳµ
æĦŁ è§¦
å¤ª é«ĺ
å¥³ ç®¡å®¶
ä»İ çİ°åľ¨
ä¸» æĮģ
ä¸» ç®¡
è¾¹ èµ°
å¦Ĥ åľ¨
ä¸İ æĪĳ
ä¿¡ åı·
Ġåħĭèİ±æģ© åĲ¬å¾Ĺ
Ġåħĭèİ±æģ© æŃ£è¦ģ
è¡¨ çļ®
æĢ§ åĪ«
ï¼ĮâĢľ âĢĺ
åı¯ä»¥ åİ»
æĽ´ åĸľæ¬¢
èĲ Ŀåįľ
éħ ±
ä»ĸä»¬ èĥ½
èµ° åĽŀäºĨ
æ·± åĲ¸äºĨåı£æ°Ķ
æ·± ç´«
æīĵ éĢł
æīĵ ç£¨
å¨ ĩ
æŃ¥ åħ¥äºĨ
åĪ¶ çļĦ
è½» è§Ĩ
è½» åĴ¬
è¿ĳ åįģ
é£İ ä¸Ń
çľĭè§ģ éĤ£
æ¯Ķ ä¾ĭ
äºĨä¸ĭ æĸ¹
çģ° é»ĳ
æĪĳä»¬ å¾Ĺ
åı¤ ç±į
åı¤ èĳ£
å·²ç»ı æŃ»äºĨ
æĶ¶ å¥½
åħ¶ åĲİ
æĺ¾ éľ²åĩºäºĨ
æĺ¾ èĳĹ
æ°´ éĴ¢ç¬Ķ
åıĳçİ° å¯¹æĸ¹
åıį åįłåįľ
å¤ľ é¦Ļèįī
ä¼¼ä¹İ èĥ½
èħ ĮèĤī
åŁİ åĨħ
åĩºçİ° å¼Ĥåıĺ
æĹı ç¾¤
æŁ¥ çľĭ
çĽ´æİ¥ å°Ĩ
çĽ´æİ¥ éĹ®éģĵ
åı· ç§°
å¹³ åı°
è¿Ľåħ¥ è¿ĻéĩĮ
ä¹¦ æľ¬
å±ŀ ä¸ĭ
è¿ĺæĺ¯ æľīäºĽ
å¤©ä½¿ ä¹ĭ
å¤©ä½¿ ä½įéĺ¶
å¡Ķ åĨħ
æĬĬ ä½ł
è¿Ļæĺ¯ ä½ł
çļĦäºº åĲĹ
åºķ æ°Ķ
èº«ä½ĵ åīįåĢ¾
éķĳ å·¦åı³
é»Ħ èī²çļĦ
åĳĬ è§£
ç¥ŀç§ĺ èĬ±çº¹
æ³¨ å®ļ
å¸Į æĭīéĩĮæĺĤ
æĪĳçļĦ æĥ³æ³ķ
æĪĳçļĦ æĦıæĢĿæĺ¯
ç´§ è¿«
ç´§ æĬ¿
æĸ¯å¸ķç½Ĺ åıĶåıĶ
æĸŃ ç»Ń
çģ« èĭĹ
ä¾§ åĲİæĸ¹
çļĦéĤ£ ä»¶
éĺ¿èĴĻ ä»¬
é£ŀ åĲĳäºĨ
é£ŀ äºĨåĩºæĿ¥
ç»Ĩ ç»Ĩ
åľ£ é£İå¤§
èĪ¹ éĺŁ
åıĮ åīĳ
æĹ© åľ¨
ä¼ł æŁĵ
åĩ» è´¥
ä¸įåĲĮ çļĦæĺ¯
å½±åĵį çĿĢ
ä¸Ģå®ļ ç¨ĭåº¦çļĦ
å¹» å½±
é¢Ĩ æĤŁ
èģĶ æİĴ
èģĶ æĥ³èµ·äºĨ
å¸ĮæľĽ ä½łèĥ½
åŃĹ æķ°
æİĴ éĺŁ
çģ°éĽ¾ä¹ĭä¸Ĭ è¿Ļçīĩç¥ŀç§ĺç©ºéĹ´
ä»Ĭ å¹´
çĶļèĩ³ ä¼ļ
æľīçĤ¹ å¥ĩæĢª
è¸ Ŀ
ä»· éĴ±
çł´ è£Ĥ
æķ£ æĴŃ
çľŁå®ŀ æī®æ¼Ķ
äº² çľ¼
èĩ´ çļĦ
çĮİ çĬ¬
æĶ¯ æµģ
å¥³ç¥ŀ åķĬ
åĲĮæł· ä¼ļ
å¹¶ä¸į ç®Ĺ
è½® æį¢
èĦļ è¾¹
å®Ī å¤ľ
ä¸ĢçĽ´ æ²¡æľī
éĥ½æĺ¯ åľ¨
äºĨä¸¤ ä½į
ä¸įçŁ¥éģĵ è¯¥
å¯¼ æ¼Ķ
è·Ł ä¸Ĭ
çĿ¡ è¡£
æ¼Ķ åĳĺ
å¸®åĬ© åĪ°
å¸®åĬ© æĪĳä»¬
æĺ¯ä¸Ģ åľº
æľīä¸Ģ å¤´
èĢĥèĻĳ çĿĢ
çĨŁ çĿ¡
éĢģ åĪ°äºĨ
åĳĬè¯ī æĪĳä»¬
Ġä¸Ģ çľ¼
æ¸© çī¹
èį¡ èµ·
æĬ½ çĹĽ
åı¤èĢģ éķ¿æ¡Į
æĥ³åĪ° äºĨä¸Ģä»¶äºĭæĥħ
é£ŀå¿« åľ°
åĨ² åĪ°äºĨ
éĢłçī©ä¸» ä¹ĭåŃĲ
æİ§åĪ¶ èĩªå·±
æī¾åĪ° çļĦ
åĲ« èĵĦ
Ġåľ¨ ä»ĸçļĦ
å¢Ļ è§Ĵ
èĦĳæµ· ä¸Ń
æĢĿç»ª çº·åĳĪéĹ´
åı¬åĶ¤ åĩºäºĨ
è¿ĶåĽŀ èĩ³
æĿ¥åĪ° è´Ŀåħĭåħ°å¾·
åģļåĩº åĽŀçŃĶ
åĳ½è¿Ĳ ä¹ĭ
çĩ ¥
çļ± äºĨä¸ĭ
éĢĢ ä¼į
æ·· æĿĤçļĦ
äºī å¤º
éª¨ åīĳ
åį· èµ·
æıĲä¾Ľ ä¸Ģå®ļçļĦ
ç¼© çŁŃ
æ²¡ä»Ģä¹Ī äºĭæĥħ
æ´Ĺ ç¤¼
æķ² æīĵ
éĺŁéķ¿ åĬŀåħ¬å®¤
é¡¿æĹ¶ æľīçĤ¹
åİļ åİļ
æĬ¬èµ· å·¦æīĭ
èľ ľ
æĪĳä¼ļ ç»Ļä½ł
ä»»åĬ¡ çļĦ
ç¼º éĻ·
åįĥ å¹´çļĦ
åĸľæ¬¢ çļĦ
ä¸ĭäºĨ é©¬è½¦
å¯Į åķĨ
æī§ è¡Į
åĩłä¹İ æ²¡ä»Ģä¹Ī
æĩ Ī
èº² è¿ĩ
å»¶ è¿Ł
éļıä¹ĭ æ¶Īå¤±
åĿı äºĨ
è·ĳ äºĨ
ä¸įå¤Ł äºĨè§£
å¾®å¾® ç¬ĳéģĵ
æĲľ ç´¢
æĲľ å¯»
æľĭåıĭ ä»¬
æİ¥åıĹ è¿ĩ
ç»ĻäºĨ ä»ĸ
çĥ§ æİī
æĹ©å°± è¢«
é»ĳå¤ľå¥³ç¥ŀ æķĻä¼ļçļĦ
éŃĶèį¯éħįæĸ¹ åĴĮ
å®īæıĲ å°Ķå¨ľ
ä¸Ģç§į åı¯èĥ½
å°ĨçĽ®åħī ä»İ
æħİ éĩį
å·¨é¾Ļ ä¸ĢæĹı
ä¹Łæľī ç±»ä¼¼çļĦ
èĢģå¸Ī å¤ļéĩĮå®ī
åłĨ èµ·
è¿Ļçīĩ å¤§åľ°
æ»ļ æ»ļ
ç¼ł ä½ı
ç¢° éĿ¢
çº¸å¼ł åĴĮ
èħ¾ ç©º
éĥ½ä¼ļ è¢«
æĭĸ åĩº
äºĴ åĬ©
å®½ æĿ¾
æĭĽ æĿ¥
ä½ľçĶ¨ æĺ¯
è¿ĺæľª å®Įåħ¨
çĬ¯ äºĨ
å¡ŀå°¼å¥¥å°Ķ çļĦ
æĤĦ æĤĦ
çĸ¾çĹħ å°ĳå¥³
çļĦé£İ å£°
å½¼æŃ¤ éĹ´
ç»¯çº¢ ä¹ĭä¸»
éĶĲ èĬĴ
éĿĴéĵľéķ¿æ¡Į æľĢ
æī¿åıĹ çĿĢ
å¹¸è¿Ĳ åĦ¿
ç¼ĵç¼ĵ åĲĲäºĨåı£æ°Ķ
æĦŁåı¹ äºĨä¸Ģå£°
éªĹ åŃĲ
éĻµå¯Ŀ åĨħ
æĬ¢ å¤º
æĳĩæĻĥ çĿĢ
å¿§ éĥģ
é¡¹ çĽ®
å¥ĳ æľº
å¥ĩå¼Ĥ åħīéĹ¨
å¼ĢåĲ¯ åĴĴæĸĩ
çļĦé«ĺ ä½į
çļĦé«ĺ èĥĮæ¤ħ
çļĦçĥ Ī
åįģäºĮ å¯¹
åİīå®³ åķĬ
çļĦåħī åįİ
ç¨į åģļ
ç«ĭåľ¨ åİŁåľ°
æľ¬è´¨ æĺ¯
å·®çĤ¹ è¢«
çĪ¶äº² çļĦ
æĸľ å¯¹éĿ¢çļĦ
è°ĥæķ´ äºĨä¸ĭ
å±ķçİ° åĩºäºĨ
è½¬åĬ¨ éĹ´
äºĳ æ°Ķ
é»ĳåıĳ å¥³å£«
å®ĺæĸ¹ åĬ¿åĬĽ
æµĳ æµĬ
éĩĳåıĳ ç§ĺä¹¦
å¹¿åľº ä¸Ĭ
å®£ åĳĬ
çļĦçĲĨ è§£
çļĦçĲĨ å¿µ
çĪĨåıĳ äºĨ
èĶĵå»¶ åĩº
ä¹ĺåĿĲ åħ¬åħ±é©¬è½¦
åĽ½çİĭ ä¹Ķæ²»ä¸īä¸ĸ
åĩī æĦı
åİ¢ å£ģ
å¾Īå®¹æĺĵ è¢«
åĵ¥åĵ¥ åĴĮå¦¹å¦¹
èĳ¬ ç¤¼
å½ĵåľº å¤±æİ§
èįĴ è°¬
æĤ£ èĢħ
çģ°éĽ¾ä¹ĭä¸ĬçļĦ ç¥ŀç§ĺç©ºéĹ´
æ°¸æģĴçĥĪéĺ³ æķĻä¼ļ
æĬĽ å¼ĥ
ç¬¬äºĮçĻ¾ ä¸Ģåįģ
è¯´çĿĢ è¯´çĿĢ
æ·±æ·± çļĦ
åģĩè£ħ èĩªå·±
èµĲäºĪ çļĦä»ªå¼ı
è¯ļæģ³ è¯´éģĵ
åĲĳåĲİ éĿłä½ıæ¤ħèĥĮ
ä¸ĭå·´ éģĵ
çºł ç»ĵ
è¡Įèµ° åľ¨
æ©ĺ çº¢
çļĦæ¢¦å¢ĥ æĬķå½±
è®¸ä¹ħ æ²¡æľī
æ¬£èµı çĿĢ
æĽ´è¿Ľä¸ĢæŃ¥ çļĦ
çļĦæĪ¿å±ĭ åĨħ
åı¬éĽĨ èĢħ
èĦ¸éĥ¨ èĤĮèĤī
çģµæĳĨ æ³ķ
äºĭåĬ¡ å¾ĭå¸Ī
éļıèº« çī©åĵģ
çļĨ æĺ¯
æĹłå¥Ī åľ°
éĿłçĿĢ æ¤ħèĥĮ
éĢĴç»ĻäºĨ åħĭèİ±æģ©
éĽĨä¸Ń åľ¨
åħĭèİ±æģ©æĢĿç»ª ä¸Ģè½¬
å¸Įå°Ķ èĴĻ
èĪ· æ¢¯
äºĮåįģäºĮ å¼ł
çĽ¸è¿ĳ éĢĶå¾Ħ
éĵŃåĪ» çĿĢ
åİĮ æģ¶
åħĭæĸ¯ çİĽ
æ£± è§Ĵ
æ£± åĪº
éĢļç¼ī ä»¤
é»Ħè¤Ĳèī² çļĦç¾Ĭçļ®çº¸
è¯ĪéªĹ çĬ¯
åĵªæĿ¡ éĢĶå¾Ħ
æĴ¤ ç¦»
æİª æĸ½
æĹĹ èĪ°
èĭıåĭĴçļĦ çº¸å¸ģ
çļĦç¼ĺ çĶ±
åįķäºº æ²Ļåıĳ
ĠåĪ¹éĤ£ ä¹ĭéĹ´
éĿ¶ åľº
æĹłæļĹä¹ĭ æŀª
çŃīä»· äº¤æį¢
éĵ¸ å°±
æĽ´åĪ« è¯´
æĭĵ å±ķ
å¥½ä¸įå®¹æĺĵ æīį
å¸ĥé²ģ æĸ¯çī¹
å°ıå·§ è½¯å¸½
éķľä¸ŃçļĦ èĩªå·±
åħ½çļ® çģ¯ç¬¼
å±łæĿĢ èĢħ
é²į åĪ©
è±¡å¾ģç¬¦åı·åĴĮ éŃĶæ³ķæłĩè¯Ĩ
å¤©é¹ħ ç»Ĵ
å±¥ è¡Į
èĩªæĿ¥ æ°´
çľ¼çĿģçĿģ çľĭçĿĢ
éĺ¿å¾· ç±³ç´¢å°Ķ
éĵģçĶ² èĪ°
éĺ¿éľįçĵ¦ éĥ¡
çĻ¾è´§ åķĨåºĹ
æ²īçĶ¸ çĶ¸
èĩªçĦ¶èĢĮ çĦ¶
é©¯åħ½ å¸Ī
éŃģ æ¢§
æĸ¯æīĺ æģ©
2 4
u g
Ġ èĥ½
Ġ ç©¿
Ġ å¤ĸéĿ¢
Ġ ç©¿çĿĢ
Ġ ç±»ä¼¼çļĦ
Ġ åĪ·
Ġ æ¯«æĹłçĸĳéĹ®
Ġ éĽªä¼¦å¤«äºº
Ġ ä¼Ĭä¸½èİİçĻ½
Ġ åŁĥå¾·èĲ¨åħĭ
Ġ æ¸Ĳæ¸Ĳ
Ġ ä¸ºæŃ¤
Ġ èİ«è´Ŀçī¹
Ġ é»Ľè¥¿
Ġ è¾¾æĸ¯çī¹
Ġ èµ«æĭīæĸ¯
Ġ è¶ģçĿĢ
Ġ åį¡å°Ķæ£®
çļĦ çģ°çĻ½
çļĦ ç©ºéĹ´
çļĦ å®Įæķ´
çļĦ è¯Ŀé¢ĺ
çļĦ åįķçīĩçľ¼éķľ
çļĦ éĩĳèī²
çļĦ éĩĳåıĳ
çļĦ åı¤ç¥ŀ
çļĦ åĵ¥åĵ¥
çļĦ æ³¥åľŁ
çļĦ èµ°å»Ĭ
çļĦ çľ¼çıł
çļĦ è´ŁéĿ¢æķĪæŀľ
çļĦ è¡Įäºº
çļĦ åīįæıĲæĺ¯
çļĦ æ²³æ°´
äºĨ ä½ł
äºĨ å¥¹çļĦ
äºĨ çľ¨
âĢĿ ï¼ŁâĢľ
ä¸Ģ åĲ¬
ä¸Ģ ç´§
ä¸Ģ æĹ¥
ä¸Ģ è®²
æĺ¯ èĥ½
ä¸į è¿ľ
ä¸į èĢĥèĻĳ
æľī åıĳçİ°
æľī ä¸ĢçĤ¹
æľī éĴĪå¯¹
è¿Ļ äºĭ
è¿Ļ å¤ª
è¿Ļ å·²ç»ı
è¿Ļ åºĶè¯¥å°±æĺ¯
éĩ ī
å¼ Ĭ
æĪĳ åı«
æĪĳ å»ºè®®
éģĵ æŃī
æĢ ł
æ² Ľ
åħĭèİ±æģ© çĽ®åīį
åħĭèİ±æģ© åįĬæĺ¯
éĤ£ éĹ´
éĤ£ åı°
äºº éĿĻ
åľ° è¡¥åħħéģĵ
åľ° ç»§ç»Ńè¯´éģĵ
åĩº ç¥ŀ
åĩº çīĪ
ä¸ĭ ä¸Ģä¸ª
å°± å¼Ģå§ĭ
å°± åı«
åĴĮ æķĻä¼ļ
åĴĮ åĵ¥åĵ¥
åĴĮ ä¸įå®ī
åĴĮ æĶ¶ç¼©
åĴĮ ä¸¹é¡¿
ä¸Ĭ èĩ³
æ²¡ åľ¨
ä¼ļ æĺ¯ä»Ģä¹Ī
æĹ¶ ç©º
å¤§ æĪĺ
å¤§ åī¯
å¤§ å¾ĭå¸Ī
ä¸º æĤ¨
ä»¬ éĥ½
ä½ł å¾Ĺ
ä½ł æĬĬ
ä½ł çĮľ
åĲİ å°±
åĲİ æīį
å¾Ĺ åĩºæĿ¥
äºĨä¸Ģ åĿĹ
çľĭ ä»ĸ
çľĭ æĪĳ
ä¹Ł å¯¹
ä¹Ł å±ŀäºİ
åı¯ ä»ĸ
éĿ¢ çĶ²
äºİ èĦĳæµ·åĨħ
ä½į å±ħ
åīį è¿Ľ
å¼Ģ åħ³
çŃ ĭ
åĽŀ ä»¥
è¿ĺ å¾Ī
åıĳ å£°
åıĳ èªĵ
å¥½ äºº
æ²¡æľī è¢«
æ²¡æľī éļĲçŀĴ
éĽ Ģ
å¤´ åĥı
å¤´ åĦ¿
ä»Ģä¹Ī å¤ª
ä»Ģä¹Ī ä¸ľè¥¿
è®© æĪĳçļĦ
å¥¹ å°±
å¥¹ å°Ĩ
éĹ® éĹ®
å¿ĥ ä¸ŃçļĦ
æŃ£ è¢«
å¾Ī ä¸įéĶĻ
å¤ļ æĭī
å¤ļ å²ģ
ä¸Ń éĢĶ
Ġä»ĸ æĺ¯
Ġä»ĸ å·²
çģµ æķ°
é»ĳ æīĭ
é»ĳ éĿ¢èįī
Ġè¿Ļ åº§
åĬ¨ äºĨä¸ĭ
é£ ķ
åı£ éŁ³
åıĪ æģ¢å¤įäºĨ
ä½Ĩ å®ĥ
ä½Ĩ ç¥Ĥ
ä½Ĩ ä»ĸçļĦ
ä½Ĩ å¿ħé¡»
ä½Ĩ æĹ¢çĦ¶
æľĢ å°ĳ
æľĢ åħ³éĶ®
åħī æĺ¯
åħī çİ¯
åħī æĸĳ
çŃī æĥħç»ª
æł¼ åĪ¶æľį
çľŁ äºº
çľŁ æĺ¯ä¸Ģä»¶
å½ĵ éĿ¢
ä¸¤ æŀļ
éķ¿ è¾Ī
æ¶ ¸
æĺİ æĻļ
åĪĨ éĩı
åĪĨ æĪĲäºĨ
å·² æľī
å·² åıĺå¾Ĺ
å®ŀ çĶ¨
æµ· é¡¿
åħĪçĶŁ å¯¹
ä»İ å°ı
ä»İ ä»ĸä»¬
ä»İ å¯¹æĸ¹
ä»İ éĤ£éĩĮ
çĽ´ ç³»
è¾¹ è¯´éģĵ
è¾¹ éĻħ
å®ĥ åľ¨
å®ĥ è¢«
å¦Ĥ è¡Ģ
é«ĺ è¾¾
é«ĺ èĦļ
é«ĺ è¸ŀ
éĥ¨ å°±
éĩį çĶŁ
éĩį åıĪ
Ġåħĭèİ±æģ© çĶ¨
Ġåħĭèİ±æģ© çĮĽåľ°
Ġåħĭèİ±æģ© ç¬ĳäºĨç¬ĳéģĵ
åı¯ä»¥ å°Ŀè¯ķ
æĽ´ æĽ¿
æĽ´ é«ĺçļĦ
æĽ´ ä½ķåĨµ
è¿Ļä¸ª ç§°åı·
çª Ł
ä¸įæĺ¯ è¿Ļæł·
èµ° ä¸Ĭ
ä¸ī åĪ°
çŁ¥éģĵ æĪĳ
è§£ èĦ±
ä½ľ æŃ»
åĪļ ç¡¬
æļĹ éĩĳèī²çļĦ
æŃ» èĢĮ
æĭī è¿ĳ
æĭī ä¼¸
æĶ¾ åĽŀ
å¾® å¼ł
è¿ĳ è·Ŀç¦»
æ£ ī
å¼ł åĲĪ
åĳ¨ ä¸ī
æ¸ħ åĨ·
åĮĸ äºĨ
å¥¥é»Ľä¸½ åľ¨å¿ĥéĩĮ
åĲĪ æĬ±
è¾¾ ç±³å°Ķ
çĮ ©
åı¤ åŁİ
è¯Ĩ çł´
æĶ¶ åıĸ
åŃ¦ éĻ¢
æĺ¾ çİ°
æĺ¾ éľ²
æ°´ æ³¥
åıĳçİ° è¿Ļä½į
åıį æīĭ
ä½İ ç¬ĳ
ä½İ ç¬ĳä¸Ģå£°
éĤ£ä¸ª å®¶ä¼Ļ
æĬ¥ ä»·
éŁ §
åıĹ äºĨ
åįķ è°ĥ
å¤ľ ç©º
ç©¿ å¢Ļ
åĢĴ äºĨä¸ĭåİ»
èĦĳ åŀĤä½ĵ
èį¯ æ°´
åĪĻ è¢«
ä¸įä¼ļ æľīä»Ģä¹Ī
èĴĻ èĶ½
çĽ´æİ¥ çĶ¨
è¿Ľåħ¥ çģµçķĮ
èĩªå·±çļĦ æĪ¿éĹ´
è¿ĺæĺ¯ èĥ½
åĭ ¤
æķ´ æ´ģ
è¿Ļæĺ¯ ä¸Ģä½į
éĿł åľ¨
æĹłæ³ķ ç¡®è®¤
åĲĦ æĸ¹éĿ¢çļĦ
éķĳ éĴŀç¥¨
æµģ è½¬
ä½Ľå°ĶæĢĿ éģĵ
æŁĲ æ¬¡
äº® çļĦ
ä¸Ģä¸ĭ åįĪ
ç¥ŀç§ĺ ç¬¦åı·
ĠéĤ£ æł·
éĻ¤ æİī
çľ¼çĿĽ çļĦ
Ġå¥¹ è¯ĿéŁ³åĪļèĲ½
ä¾Ŀ ç¨Ģ
ä¾§ éĹ¨
çĦ¶åĲİ å°Ĩ
è¡Ĺ çļĦ
åĩĨå¤ĩ åİ»
åĩĨå¤ĩ ç¦»å¼Ģ
ä¼ł åħ¥äºĨ
æĢĢ éĩĮ
æİ¨ ç»ĻäºĨ
ä¸ĬçļĦ åĨħå®¹
æĢ» åħ±
è¿Ļç§į ç¨ĭåº¦çļĦ
äºĨåĩł åľĪ
å½±åĵį äºĨ
åĢŁ éĺħ
æĤ¨ å¿łè¯ļ
åģľ å°¸
çĶ» åį·
åĽŀåºĶ ç¥Īæ±Ĥ
ç¥Ī åħīäºº
æĬķ å°Ħ
ç»Ŀ å¤§å¤ļæķ°
çĳ ļ
èİ« å¦®
å®Įåħ¨ ä¸įåĲĮ
æķ° çĽ®
ä½įç½® ä¸Ĭ
æīĢæľī äººçļĦ
éĵľ ç»¿èī²
ç¿» å¼Ģ
æľīçĤ¹ æĦıæĢĿ
åĸľ å¥½
çļĦä¸Ģ æĿ¡
çļĦä¸Ģ ä»¶äºĭæĥħ
ä¹Łè®¸ åı¯ä»¥
çł´ æįŁ
æĺİæĺ¾ æĺ¯
æĶ¹ æĪĲäºĨ
ä¹Łæĺ¯ æľī
éĵģ éĿ¢åħ·
çŁŃ æĿ¿
çļĩ å®¶
éĤ£ä¹Ī ä¹ħ
é¡¶ çº§
é¡¶ æĽ¿
ä¼Ĺ äººçļĦ
ç¬¬äºĮ éĥ¨
æľ¬èº« æĺ¯
æľŁ åĪĬ
éļ¾ä»¥ æİ©é¥°
ç±»ä¼¼ äºİ
æ´Ľ æĸ¯
æ´Ľ æł¹
çº¦ æĿŁ
å¹² å¹²åĩĢ
å¹² æ¶¸
æĬĵ äºĨ
æĬĵ èµ·
ç¡®è®¤ ä¸Ģä¸ĭ
èĻļå¹» å¤§éĹ¨
æĺ¯ä¸Ģ åº§
æĹłå£° èĩªè¯ŃäºĨä¸Ģåı¥
çľĭäºĨ åħĭèİ±æģ©ä¸Ģçľ¼
è¯¡ æľ¯
æĻ® éģį
è¶³å¤Ł å¹¸è¿Ĳ
çģ¯ å¡Ķ
æ¸© æĸĩ
çļĦå¤§ åľ°
é¡¾ éĹ®
èĭ¦ ç¬ĳéģĵ
æľīä»Ģä¹Ī ä¸ľè¥¿
æīĵç®Ĺ åľ¨
æī¾åĪ° ä»ĸ
æĪĲåĬŁ çļĦåı¯èĥ½
ä»Ĭå¤© ä¸¤
ç¡®å®ŀ å¾Ī
æ®ĭ å½±
æ®ĭ éª¸
æ³¨æĦı äºĭé¡¹
åĶĲæ³°æĸ¯ è¿Ļä¸ªèº«ä»½
å®ĮæĪĲ äº¤æĺĵ
éĩĬ çĦ¶
åħ« ä½į
åīįæĸ¹ éģĵ
ç¢İ çŁ³
ç¼© åĽŀäºĨ
ç»ĵæĿŁ åı¬åĶ¤
è°ĥæŁ¥ æĬ¥åĳĬ
æĿ¥èĩª åĵªéĩĮ
Ġä»ĸçļĦ çĽ®åħī
Ġä»ĸçļĦ è§Ĩçº¿
æ³¢ åħī
ä¿ĿæĮģ æ¸ħéĨĴ
æīŃæĽ² äºĨ
çĹħ äºº
åĲĥ çļĦ
åĩºåİ» çļĦ
ç©¶ç«Ł æĥ³åģļä»Ģä¹Ī
çĸ¯çĭĤ åĴĮ
è¡£çī© åĨħä¾§
é¦Ļ çĥŁ
ä¸¢ åĪ°äºĨ
ä¸¢ åĲĳäºĨ
æ¼« ä¸įç»ı
è¡ĢæĹı çĶ·çĪµ
çĥĽ åħī
è½¬èĢĮ æľĽåĲĳ
çľ¼åīį çªģçĦ¶
æİ¥è¿ĳ å¤±æİ§
çĥŁ èĬ±
æĭ¥æľī çļĦ
ĠçŃīåĪ° ä»ĸ
æĦŁè°¢ äºĨ
ä¸įå¤ª æĺİæĺ¾çļĦ
æĬµè¾¾ çĽ®çļĦåľ°
æĤ¬ æµ®
éĹªçĶµ åĬĪ
å°ıå¿ĥ åľ°
èµĦæĸĻ éĩĮ
åıĳåĩº ä¸Ģå£°
æĴĳ çĿĢ
ç»ıéªĮ åĴĮ
èĴ¸æ±½ åľ°éĵģ
è¯´è¯Ŀ çļĦåĲĮæĹ¶
çļĦéĤ£äºĽ äºº
ä»£è¡¨ çĿĢä»Ģä¹Ī
èĮ¶ æ°´
èĮ¶ æĿ¯
æĲľéĽĨ åĴĮ
çļĦçĮ «
åĳĪçİ° äºİ
æ²Ļ é¾Ļ
æıĲçĿĢ æīĭæĿĸ
åº· æĸ¯
åľ°ä¸ĭ å»ºçŃĳ
é»Ħéĩĳ éħĴæĿ¯
èĭ¥æľī ä¼¼æĹł
æĪĳæľī äºĭæĥħ
èħ¾ èµ·äºĨ
ä¿¡ä»° çļĦ
ç»ĻäºĪ åĽŀåºĶ
å¤§å®¶ éĥ½
éĵ¶çĻ½ èī²çļĦ
éĵ¶çĻ½ éĹªçĶµ
è¯¡å¼Ĥ åľ°
æ··ä¹± çļĦ
èĩªæĪĳ æĦıè¯Ĩ
è´Łè´£ äºº
æĺĤèµĽæ±Ģ çļĦ
çļĦç²¾ç¥ŀ çĥĻåį°
æŀĲ åĩºçļĦ
åĿł èĲ½
çłģ åŃĹ
ç£ ģ
ç²¾çģµ æŃĮèĢħ
éľĩ é¢¤
ç¹ģ åįİ
åĥµ ä½ı
ä¿ĿæĮģçĿĢ åĪļæīįçļĦ
è¯± äººçļĦ
çĻ½èī² è¡¬è¡£
è¯¦ç»Ĩ æııè¿°
æľªå¿ħ æĺ¯
çļĦé»ĳèī² éķ¿è¢į
ç»· ç´§
ä»¥åīį çļĦ
æļĹä¸Ń è§Ĥå¯Ł
ä¸įå¯¹ ç§°
çļĦåħī çĲĥ
æ´Ĵ èĲ½
æ»¡è¶³ åľ°
çĮ®ç¥Ń ç»Ļ
æĮ¡ åľ¨äºĨ
æĻļä¸Ĭ ä¸ĥçĤ¹
æĶ¯ä»ĺ æĬ¥éħ¬
çĲĨæĻº åľ°
æįŁ ä¼¤
æĳĨæĶ¾ äºİ
æĸľ çĿĢ
å¼¥æ¼« çĿĢ
éģıåĪ¶ åľ°
è®¤çŁ¥ éĩĮ
ä¸ĢåĿĹ åĿĹ
ä»¥æŃ¤ ä¸º
æĭĶ æŀª
åı¶ åŃĲ
æŁľ åŃĲ
å¥¶ å¥¶
æĪĴæĮĩ çĽĴ
æĿľ èĴĻçī¹
æĿ¡ä»¶ åıįå°Ħ
æ¯ıæ¬¡ éĥ½
æĶĴ å¤Ł
åĲ«ç¬ĳ è¯´éģĵ
äºĶå®ĺ æŁĶåĴĮ
éĤ£åıª åįĥçº¸é¹¤
åĩºç§Ł å±ĭåĨħ
å¤§èĩ´ æĺİçĻ½äºĨ
æīĭæľºçīĪ æĽ´æĸ°
æĸŁéħĮ äºĨä¸ĭéģĵ
æ³ī æ°´
çİĭå®¤ çļĦ
åħĭåĪ¶ ä½ıäºĨ
éĤ£æīĩ éĹ¨
åħĦ éķ¿
ä½łæĥ³ åģļä»Ģä¹Ī
ç¾İä¸½ çļĦ
å®ŀéªĮ å®¤
Ġæľī éĤ£ä¹Ī
çĸı å¿½
ä¸ºä»Ģä¹Īä¸į çĽ´æİ¥
æľ´ ç´ł
çģµæĢ§çĽ´è§ī åĳĬè¯īä»ĸ
æī© å¼ł
ä»ĺåĩº ä»Ģä¹Ī
ä¸ĢèĦ¸ èĮ«çĦ¶
æĺİç¡® åľ°
ç§Ģ ç¾İ
è¡Ģèī² èįĨæ£ĺ
åĶ± æŃĮ
æŀ¯ é»Ħ
æĽ´ä¸º éĩįè¦ģçļĦæĺ¯
çº± å¸½
çĤ½ çĻ½çļĦ
ä¸Ģæľ¬ æŃ£ç»ı
åįķçĭ¬ çļĦ
ä¸Ģé¢Ĺ å¿ĥ
åºĨå¹¸ èĩªå·±
ĠåĪ°äºĨ æľĢåĲİ
çľ¨ äºĨçľ¨
å´ĸ å£ģ
ä»İæĿ¥ æ²¡
å¡Ķç´¢åħĭ æĬ¥
ä¸Ģéģį åıĪä¸Ģéģį
èµĭ äºĪ
èĮ¶åĩł ä¸Ĭ
æıĲéĹ® äºĨ
åĽŀè¿ĩ å¤´æĿ¥
åĬłå¿« èĦļæŃ¥
åıĳèĩª åĨħå¿ĥçļĦ
èĦ¸ä¸ĬçļĦ ç¬ĳå®¹
éĿĻé»ĺ åĲİ
å¥¢ æľĽ
æµ·æµª æķĻåłĤ
å¼ķäºº çŀ©
åĹ¡ åĹ¡
åĺŁåĽĶ éģĵ
æŃ¤åľ° ç¦ģæŃ¢
å¾·æĭī åħĭ
çģ¼ çĥŃ
æ®ĭåŃĺ çļĦ
çļĦçł´ åĿı
å®ĩå®Ļ æļĹéĿ¢
æīĺåĭĴ çĿ£å¯Ł
æįĤä½ı åĺ´å·´
Ġäºİ ä»ĸèĢĮè¨Ģ
éĨĴæĤŁ è¿ĩæĿ¥
èĵ¬ åĭĥ
ä¸ĢæĦ£ ä¸ĢæĦ£
ç²¾ç¥ŀæ±¡æŁĵ çļĦåĬŀæ³ķ
æĭĲè§Ĵ å¤Ħ
çļĦç¢İ çīĩ
åĢĴåľ¨äºĨ åľ°ä¸Ĭ
å¤¹æĿĤ çĿĢ
å±ħé«ĺä¸´ ä¸ĭ
æĪĳä»¥ æĪĳçļĦåĲįä¹ī
æľĢå¿« ç½ĳåĿĢ
æİ¢åħ¥ è¡£åħľ
åŀĥåľ¾ æ¡¶
å¤ľæ·± äººéĿĻ
è±ªå°Ķæĸ¯ è¡ĹåĮº
æľīå¯ĨåĪĩ èģĶç³»
èµĶ åģ¿
è®°åĲį è´¦æĪ·
å¡ĶåĨħ å¨ħ
å¤ļæĭī åı¤
èİ«å¦® åį¡
å¹²å¹²åĩĢ åĩĢ
æīĭæľºçīĪæĽ´æĸ° æľĢå¿«ç½ĳåĿĢ
3 6
7 000
8 00
Ġ åħĪ
Ġ éĩĮéĿ¢
Ġ èĢĥèĻĳ
Ġ åĽĽåĳ¨
Ġ çĲĨæŁ¥å¾·æ£®
Ġ ä¼Ĭèİ²
Ġ å¤ıå¡Ķä¸Ŀ
Ġ æĭľå°Ķæĸ¯
Ġ å¹¸è¿ĲçļĦæĺ¯
Ġ è¦ģçŁ¥éģĵ
Ġ åĲ±åĳĢä¸Ģå£°
Ĳ ç¯·
ľ èĵ
çļĦ åı¬åĶ¤
çļĦ åĨ³å®ļ
çļĦ ç¬Ķè®°
çļĦ ç§ĳæŀĹ
çļĦ æŃ£æĺ¯
çļĦ è§ĴèĲ½
çļĦ ä¹łæĥ¯
çļĦ è§ĦåĪĻ
çļĦ åĴĴæĸĩ
çļĦ ä¾µèļĢ
çļĦ è¿ĩç¨ĭéĩĮ
çļĦ éĢļéģĵ
çļĦ æıĲè®®
äºĨ è¿Ļä¸ª
äºĨ æĿ¯
âĢĿ ï¼Ľ
ä¸Ģ å°ı
ä¸Ģ ç»Ħ
ä¸Ģ æĪª
ä¸Ģ å¦ĤæĹ¢å¾Ģ
æĪ Ł
æĺ¯ éĤ£ä½į
æĺ¯ éĿŀåĩ¡èĢħ
ä¸į åĪ©
ä¸į ä¹ħ
ä¸į æĬķ
æľī æĹł
æľī ä¸ī
æľī å¤ªå¤ļ
æľī ä¸Ŀæ¯«
è¿Ļ åĲĮæł·
è¿Ļ ä¹Łè®¸å°±æĺ¯
ä»ĸ æĭ¿åĩº
ä»ĸ å¾Īæ¸ħæ¥ļ
éģ £
ç» ļ
åľ¨ ä¿¡
åľ¨ æĮĩ
åľ¨ åįĹå¤§éĻĨ
æĪĳ åĲ¬
æĪĳ åĲĹ
æĪĳ æļĤæĹ¶
æĪĳ çŃīä¸ĭ
å¸ Ĳç¯·
éĿ ¡
åħĭèİ±æģ© ä»¥
åħĭèİ±æģ© éĩįæĸ°
åħĭèİ±æģ© çĮĽåľ°
åħĭèİ±æģ© çĤ¹äºĨçĤ¹å¤´
åħĭèİ±æģ© æĳĩäºĨæĳĩå¤´
éĤ£ éĥ¨åĪĨ
éĤ£ åıł
éĤ£ æĺ¯ä¸Ģä¸ª
éĤ£ åı¥è¯Ŀ
éĤ£ ä¸Ģä¸ªä¸ª
çĿĢ æīĭ
äºº æķ°
åĪ° çĽ®åīį
åĩº åħ¥
åĩº åĲįçļĦ
æĦ ģ
å°± åºĶè¯¥
åĴĮ ä¸Ģä½į
åĴĮ é»ĳèī²
åĴĮ åĸĦ
åĴĮ çıŃæ£®
åĴĮ åĩłä½į
æ²¡ æĪ´
èĥ½ ä»¥
ä¼ļ éĿŀå¸¸
æĹ¶ çļĦçĬ¶æĢģ
ä¹ĭ æ³ī
éĺ Ĳ
çĦ ļ
æĭ ±
æĭ Ĥ
æĭ Ļ
è¿ĩ æ¿Ģ
ç¥ŀ ç»ı
å¤§ æµ·çĽĹ
ä½ł ä¸įè¦ģ
ä½ł ä»Ģä¹ĪæĹ¶åĢĻ
å¾Ĺ ä¸įéĶĻ
äºĨä¸Ģ åıª
äºĨä¸Ģ åįĬ
ä¹Ł å¥½
ä¹Ł éľĢè¦ģ
ä¹Ł çĽ¸å½ĵ
è¦ģ æ¯Ķ
çĤ¹ åĴĮ
è¯´ åĪ°è¿ĻéĩĮ
è¢ ĸåŃĲ
æĪĲ äºĨä¸Ģä¸ª
æĪĲ å¹´çļĦ
è¿ĺ æĥ³
è¿ĺ èĹıçĿĢ
åıĳ çĻ½
åĢ Ķ
å¥½ å¿ĥ
å¥½ ä¸Ģä¼ļåĦ¿
æ²¡æľī åıĺåĮĸ
å°Ĩ æľī
å°Ĩ æīĢæľī
èĩªå·± åĵįåºĶ
éĥ½ å¿«
éĥ½ å¿ħé¡»
éĥ½ åĩºçİ°äºĨ
è®© æķ´ä¸ª
è®© å¤§å®¶
çľ¼ åħī
æĮ İ
æĮ ĤçļĦ
å¥¹ è¯´
å¥¹ ä¼¼ä¹İ
å¥¹ ä¸Ģçľ¼
æŃ£ é¢ĺ
æŃ£ æīĵç®Ĺ
æŃ£ ç«Ļåľ¨
å¾Ī æĺİæĺ¾
å¾Ī çĨŁæĤī
å¤ļ äºĨä¸Ģä¸ª
æĹł æĦıè¯Ĩ
æĹł è¯¯
åħĪ åģļ
Ġä»ĸ åĨ³å®ļ
å°ı è¯´
å°ı åĮħ
å°ı å²Ľ
å°ı è·ĳ
é»ĳ çº¿
é»ĳ èĽĩ
é»ĳ èĥ¡æ¤Ĵ
å®ļ å±ħ
ä¸Ģä¸ª çĮľæµĭ
ä¸Ģä¸ª å¤ļæľĪ
è¢« çģ°éĽ¾
æ³ķ èĢģ
åıĪ éķ¿
åıĪ çľĭäºĨçľĭ
åıĪ å¥½ç¬ĳ
ä½Ĩ æ²¡
ä½Ĩ æĹłæ³ķ
ä½Ĩ å®ŀéĻħä¸Ĭ
çŃī æĪĲåĳĺ
çľŁ åľ°
çľŁ èº«
å½ĵ ä½ł
ä¸¤ åĽ¢
ä¸¤ é¡µ
ä¸¤ é¬ĵ
çĻ½ åıĳ
å¤ĸ æ³Ħ
å¤ĸ å£³
åĪĨ é£Ł
å·² åľ¨
å·² æĽ´
æıĲ çĿĢä¸Ģ
å¥³ çļĦ
åħĪçĶŁ ä¸Ģçľ¼
åıĺ äº®
ä»İ éĤ£
ä»İ åºıåĪĹ
ä»İ æĿĤçī©åłĨéĩĮ
ä¸» ä½ĵ
æīĢ éľĢ
æīĢ å±ŀ
éĺ¿ åı¤
å®ĥ åĴĮ
å¦Ĥ æľī
æķĻ åĮºçļĦ
ä½ı å®¢
é«ĺ åı°
é«ĺ è´µçļĦ
Ġåħĭèİ±æģ© åĴĮ
Ġåħĭèİ±æģ© ä¸Ģè¾¹
å¹¶ æľī
å¹¶ ä¸įå°ĳ
ä¼¼ æľī
åįĬ å¼Ģçİ©ç¬ĳ
åı¯ä»¥ èĤ¯å®ļ
å®Į ä¹ĭåĲİ
ä»ĸä»¬ å¯¹
èµ° äºĨä¸¤æŃ¥
å°ĳ æľī
æīĵ è¿ĩ
æīĵ æīĭ
æīĵ æĹĭ
å¤± æĢģ
æī¾ åĢŁåı£
èĭ ľèĵ
åĲ¬ ä¸įæĩĤ
ç¡ ķ
å¥ĩ å½¢
è½¬ ä¸º
è½¬ åħ¥
æļĹ è¢ĭ
è½» æĺĵ
çĲĨ å¿µ
æ¡ ħ
åĥı æĺ¯ä»Ģä¹Ī
å¾® ç¬ĳçĿĢ
åĳ¨ è¾¹
é© ´
è§Ĩ ä¸º
åĲĪ æł¼
è¾¾ ä¸įåĪ°
äºĨä¸ĭ åĺ´
çģ° èĵĿèī²çļĦ
ä¸ĸçķĮ ä¸Ĭ
åĩºäºĨ ä»Ģä¹Īäºĭæĥħ
æĶ¶ äºĨåĽŀæĿ¥
åİŁ è°ħ
æ°´ å¹³
åıĳçİ° å®ĥ
å¸ķ æĸ¯
éĤ£ä¸ª åı«åģļ
éŁ µ
æľº å¯Ĩ
æľº æŀª
ç©¿ è¡Įäºİ
åĵģ è´¨
è¿ĻéĩĮ æ²¡æľī
åĮº åĪĨ
çº¿ çļĦ
äº¤ äºĴ
äº¤ ç»Ļä½ł
ä¸įä¼ļ åĲ§
åĩºçİ° äºĨä¸Ģå®ļçļĦ
ä¸ĢçĤ¹ ä¸ĢçĤ¹
ç§Ĵ çļĦå·¥å¤«
æŁ¥ çĲĨ
çĽ´æİ¥ çļĦ
åı· è§Ĵ
ç±» æ³ķæľ¯
ç¿ Ķ
éĤ£ä½į å¤§äººçī©
æ´» äºĨ
æĹ¶éĹ´ åĴĮ
å½¢ ä½ĵ
é»ĺ è®¤
æĬĬ çİ©
è¿Ļæĺ¯ ä¸Ģç§į
çļĦäºº éĢī
éĢĶå¾Ħ éĿŀåĩ¡èĢħ
æĹłæ³ķ çĲĨè§£
æĢª çļĦ
åºķ çº¿
åĲĦ åĽ½
é»Ħ åħī
çİ°åľ¨ å·²ç»ı
äº® äºĨèµ·æĿ¥
æİ¢ æŁ¥
è·¯ è¿ĩçļĦ
ç¥ŀç§ĺ äºº
æĸ¯å¸ķç½Ĺ è¿Ļä¸ª
èī¾ æĸ¯çļĦ
çķ¥ çŃīäºİ
æķĻä¼ļ åĨħéĥ¨
çļĦæĺ¯ ä¸Ģä¸ª
å·¦ èĤ©
é£ŀ æ¯¯
ç»Ĩ ä¸Ŀ
è¡Ĺ åĮºçļĦ
æŀģ é«ĺ
è§Ĥ çľĭ
å¨ľ è¿¦
å¤« å¦ĩ
åľ¨äºĨ åľ°ä¸Ĭ
é¢Ħ æĶ¯
ä»¿ä½Ľ èĥ½
ä»¿ä½Ľ è¦ģ
ä»¿ä½Ľ èĹıçĿĢ
è°ģ æĺ¯
åĢĴåĲĬäºº åħĪçĶŁ
éĢı éľ²åĩº
å¿Ļ ä¸į
çĶ» æ¡Ĩ
è¡¨æĥħ æīŃæĽ²
éĺµ éĺµ
Ġä¸į éĶĻ
èĻ½çĦ¶ æľī
æį¢ ä¸ĬäºĨ
åĳ¨åĽ´ çļĦä¸ĢåĪĩ
å·¥ ä¼ļ
ä¸ºä»Ģä¹Ī ä¼ļæľī
ä¸ºä»Ģä¹Ī è¿ĺè¦ģ
éĵľ ç»¿
ç¾İ å¦Ļ
çĶļèĩ³ æľī
çĶļèĩ³ åºıåĪĹ
æľīçĤ¹ éĹ®é¢ĺ
æľīäºĽ äºĭæĥħ
æķ£ æ¼«
åħħ è¶³
åħħ æ²Ľ
å¿ħé¡» å°½å¿«
æĿĲæĸĻ åĴĮ
çŃīå¾ħ äºĨ
èĦļ è¸Ŀ
éļ¾ä»¥ æİ§åĪ¶
è§¦ æĦŁ
è®¤ä¸º æĺ¯
æ¢¦å¢ĥ ä¸Ń
å¹² çļĦ
æĬĵ åĲĳäºĨ
çĿ¡ è¢į
æľĢåĲİ ä¸Ģä¸ª
ä¸įçŁ¥ ä¸ºä»Ģä¹Ī
é»ĳæļĹ éĩĮçļĦ
éļĶ äºĨåĩłç§Ĵ
éĢģ æĿ¥çļĦ
èµŀ èµı
Ġä¸Ģ æł¹æł¹
åĩºäºĨä¸Ģ çīĩ
åħĭèİ±æģ©çļĦ è¡¨æĥħ
å¿ĥçĲĨ éĹ®é¢ĺ
åĨ° å±Ĥ
æ°ĳ ä»¬
æĥ³åĪ° çļĦ
æ²īé»ĺ äºĨä¸¤ç§Ĵ
çļĦç¥ŀ å¥ĩ
çģµçķĮ è§ģéĹ»
çģµçķĮ ä¹ĭä¸ĬçļĦ
éĿĴ å¹´
çĿĢä¸Ģ ä»¶
å°Ĭ è´µ
åģĩ æľŁ
çľĭè§ģäºĨ éĤ£
æĢĿç»ª çĶµè½¬éĹ´
åĪº çĽ®çļĦ
æ®ĭ çł´
æ®ĭ éħ·
ç«¯ æŃ£
æĿĥ åĬ¿
æĿĥ éĻĲ
æķĳ æµİ
éģŃéģĩ è¿ĩ
çļ± äºĨèµ·æĿ¥
äºī æī§
åĢ¼å¤ľèĢħ ä»¬
æĺı æ²ī
è§£åĨ³ çļĦ
çºµ çģ«
åħ« çĤ¹
ä¸ľè¥¿ æĭľæľĹ
åĲ¬åĪ° çļĦ
çģ«çĦ° çļĦ
åİļ å®ŀ
å½Ĵ å±ŀäºİ
ç¨³ å®ļçļĦ
ãĢĭ ãĢĬ
å¹¸ åħį
å¤´åıĳ èĬ±çĻ½
ä¸»åĬ¨ è¯´éģĵ
çĩĥ èµ·
é¦Ļ æ°´
é¦Ļ çħİ
ä¸¢ åħ¥
çİ¯å¢ĥ ä¸ĭ
ä»° æľĽ
æµĵ æµĵ
èħ° å¸¦
è½¬èĢĮ å¯¹
çľīå¤´ å¾®å¾®çļ±èµ·
çĥ§ æİīäºĨ
è¿Ī åĩº
æĦŁè°¢ æĤ¨
å¾Īæľī éģĵçĲĨ
ç»´å°Ķ çİĽ
çĵ¶ åŃĲ
åľĨ å½¢
åľĨ çİ¯
åĽŀäºĨ çİ°å®ŀä¸ĸçķĮ
çİĭåĽ½ çļĦ
åıĮæīĭ äº¤æı¡
åĢ¾ åĢĴ
åįĬç©º çļĦ
çļĦç²¾ åĬĽ
ç¦ı æł¹ä¹ĭçĬ¬
äº¤æĺĵ çļĦ
å¤©ä½¿ä¹ĭçİĭ ä»¬
å°ĨçĽ®åħī æĬķ
å°Ħ åĩº
ç»Ŀå¯¹ ä¸įä¼ļ
è¯Ńæ°Ķ å¹³æ·¡
åĻ¨ å®ĺ
åŃ©åŃĲ ä»¬
åĩłä¸ª äºº
æµħ æµħ
çļĦçĸ ²æĥ«
ä¸Ģçīĩ æ¼Ĩé»ĳ
é£ĺ èĲ½
æıĲçĿĢ è¡ĮæĿİç®±
èµ°äºĨ è¿Ľåİ»
ä»Ķç»Ĩ æĢĿèĢĥ
åĲ¹ åĵį
åıĪä¸Ģ ä»£
åĬªåĬĽ è®©èĩªå·±
æĦĪ åĲĪ
æĬĺ æĸŃ
æ²¡åĨį å¤ļéĹ®
è¶ħåĩ¡ åĬĽéĩı
éĽ¨ ä¼ŀ
åı¤ä»£ éģĹè¿¹
ä½łæĺ¯ æĢİä¹Ī
å¤§å®¶ çļĦ
åıªè§ī èĩªå·±
æľŁå¾ħ çĿĢ
æ°´æĻ¶ éĽķ
éĤ£å¼ł çº¸
æĭį åĩ»
è¡¨ç¤º èĤ¯å®ļ
èĭ¥æľīæīĢæĢĿ åľ°éĹ®éģĵ
å±ķå¼Ģ ä¿¡çº¸
éĻįä¸´ äºİ
éģĩåĪ° åį±éĻ©
éľĩ åĬ¨
å¤¹ çĿĢ
æļ´éľ² èĩªèº«
éĿĴéĵľéķ¿æ¡Į è¾¹ç¼ĺ
åľ°ä¸Ĭ å¤©ä½¿
ç½ĳ ç»ľ
åĩĿåĽº äºĨ
çļĦé»ĳèī² æīĭæĿĸ
æĤ² æĥ¨
éļıæĹ¶ åı¯ä»¥
è¢Ńåĩ» èĢħ
åĩĳ é½Ĳ
ä»Ĩäºº ä»¬
æĸľ åīįæĸ¹
åįı å¥ı
éĤªç¥ŀ æģ¶éŃĶ
è¯ģæĺİ äºĨ
çļĦå¥³ å£°
å¤©ç©º çļĦ
æĸŁéħĮçĿĢ å¼Ģåı£éģĵ
éĹªè¿ĩ äºĨä¸Ģ
åĵªä¸ª åľ°æĸ¹
Ġåģļå®Į è¿Ļä»¶äºĭæĥħ
å·¦æİĮ æĪ´çĿĢ
éĺ´åĨ· çļĦ
åĵįèµ· äºĨä¸Ģéģĵ
é¸Ł ç±»
ä¹ĺåĿĲ åĩºç§Łé©¬è½¦
æ´»åĬ¨ äºĨä¸ĭ
çīµ å¼ķ
å¢¨ åıĳ
å¾ĢåĲİ ä¸ĢéĿł
å¯¸ å¯¸
çĽ¯ ä¸ĬäºĨ
éļ¾ä»¥éģıåĪ¶ çļĦ
çģ¾éļ¾ ä¸»ç¥Ń
è§¦ç¢° åĪ°
è§¦ç¢° åĪ°äºĨ
ç¼ĿéļĻ éĩĮ
ä»ĵ ä¿ĥ
æľ¬æĿ¥ å°±
è¿Ļä¹Īå¤ļ å¹´
å¸ĮæľĽèĥ½ å¾ĹåĪ°
çļĦçª ģ
æħĪåĸĦ åŁºéĩĳ
èĶļèĵĿ ä¹ĭé£İ
é¢¤æĬĸ äºĨä¸Ģä¸ĭ
éĻ·åħ¥äºĨ æ²īæĢĿ
è¿ªè¥¿ é¦ħé¥¼
å§ĵ æ°ı
å½¢æĪĲ äºĨä¸Ģä¸ª
æ¸©åĴĮ ç¬ĳéģĵ
æµģæµª éŃĶæľ¯å¸Ī
åĩĮæĻ¨ ä¼ļ
èį· åı¶
æ¼Ĥäº® çļĦ
é¥± åĲ«
è¿½éĢĲ çĿĢ
è¸± æŃ¥
çļĦç¤¼ ä»ª
éĤ® ç¥¨
åĵ¼ äºĨä¸Ģå£°
çľ¨ äºĨä¸ĭçľ¼çĿĽ
ä¸Ĭä¸ĭ æīĵéĩıäºĨ
è°· çī©
çļĦç¾½ ç¿¼
åĲīå°Ķå¸Į èī¾æĸ¯çļĦ
åĳĬè¾ŀ ç¦»å¼Ģ
è¤ ¶
åħīæĺİ æŃ£
æ½®æ°´ èĪ¬
äººçļ® æīĭå¥Ĺ
çģ«æŁ´ çĽĴ
ä½ĵä¼ļ åĪ°äºĨ
èĤ¤èī² åı¤éĵľ
åİĨåı²è¿·éĽ¾ éĩĮ
çļĦä¸ī å±Ĥ
ĠçĽ´åĪ° æŃ¤æĹ¶
ç±³çļĦ è·Ŀç¦»
ä»Ģä¹Īéĥ½æ²¡ è¯´
é»ı æ¶²
èĭ¦ä¿®å£« æĸ¯è¯ºæĽ¼
çļĦå¸®åĬ© ä¸ĭ
é«ĵ è´¨
ä¸Ģä¸Ŀ ä¸įèĭŁ
åĩĦ æĥ¨
éļıæľº æĢ§
æ¯ĶæĪĳæĥ³è±¡å¾Ĺ æĽ´åĬł
çģ¼ çĥ§
åĺ¶åĵĳ çĿĢ
å¥¥åı¤æĸ¯éĥ½ å®¶æĹı
åĻĻçĿĢ ç¬ĳå®¹
Ġä¸įçŃīåħĭèİ±æģ© å¼Ģåı£
æ²¡çĶ¨ å¤ļä¹ħ
æ¬¢æĦī éŃĶå¥³
èħ® å¸®
è¶ĭ åĲĳ
å²© æµĨ
éĶĭ åĪ©
åĪ·åľ° ä¸Ģä¸ĭ
å¾®ç¼© çļĦ
çļĦä¸Ńå¹´ çĶ·å£«
Ġä¸įç®¡ æĢİä¹Īæł·
ç±³æĸ¯çī¹æĭīå°Ķ ä¼¯çĪµ
æķ²åĩ» å£°
è´¢æĶ¿ çĬ¶åĨµ
ĠæĹ¶éĹ´ä¸ĢåĪĨä¸Ģç§Ĵ è¿ĩåİ»
åıĺå½¢ èĢħ
å¹²ç¬ĳ ä¸¤å£°
æĹłæļĹä¹ĭ åŁŁ
åħħæĸ¥ çĿĢ
çļĦçĭ¬ çī¹
åĵ² åŃ¦
å¼ĳ åħīèĢħ
èĥ¸èħ¹ éĹ´
ç¬¬ä¹Ŀ å¾ĭ
åħīä¸İ å½±çļĦ
è¿·å¹» é£İéĵĥ
èĤīçľ¼ åı¯è§ģçļĦ
æĶ¯ç¦» çł´ç¢İ
é«ĺä½İ åºĬ
åĸ§ åļ£
å®ĪæģĴ å®ļå¾ĭ
å¤ªéĺ³ç¥ŀ å®ĺ
æĮĳäºĨä¸ĭ çľīæ¯Ľ
èĥİ åĦ¿
Ġä¸ĭæĦıè¯Ĩ éĹ´
ä¸ŃèĢģ å¹´çĶ·åŃĲ
åįķèĨĿ è·ª
æ·±èĵĿè¿ĳ é»ĳ
æģ©é©¬çī¹ æ¸¯
æĺŃ ç¤º
åįĪå¤ľ è¯Ĺäºº
ç¯¡ æĶ¹
åİĨåı²åŃĶéļĻéĩĮçļĦ å½±åĥı
åįĵ è¶Ĭ
çĽ¸æ¯Ķè¾ĥ èĢĮè¨Ģ
çĻ½æ£® æ£®çļĦ
å¤©ä½¿ä¹ĭ æĭ¥
æ£±è§Ĵ åĪĨæĺİ
è¯¡æľ¯ éĤª
éĺ¿åı¤ å¸Įå¾·
èĭľèĵ ¿
å¥ĩå½¢ æĢª
åįıå¥ı æĽ²
åħīä¸İå½±çļĦ åįıå¥ıæĽ²
¥ å¹¸
« æ¯Ľ
Ġ 1
Ġ è®©
Ġ é»ĳ
Ġ èµ°
Ġ å¸ĮæľĽ
Ġ å°±ç®Ĺ
Ġ åĺ¶
Ġ åĲİèĢħ
Ġ çİĽä¸½
Ġ å®īæ´ģèİīåį¡
Ġ å¸ķåĪĩç§ĳ
Ġ é¦ĸåħĪ
Ġ çĩķå°¾æľįå°ıä¸ĳ
Ġ åį¡æĭīçī¹
Ġ åį¢åį¡
Ĺ è½¬
ľ çŁ³
çļĦ åħ¬
çļĦ æĵįçºµ
çļĦ æŁĲä¸ª
çļĦ ç»´æĮģ
çļĦ æĹ¶ä»£
çļĦ æľ¬è´¨
çļĦ æ¥¼æ¢¯
çļĦ éĺ¶æ®µ
çļĦ åĲİè£Ķ
çļĦ ä¼Ĭèİ²
çļĦ æ¡ĮåŃĲ
çļĦ éĢĶä¸Ń
çļĦ æĢ§æł¼
çļĦ è§Ĵèī²
çļĦ äºĮåī¯
çļĦ æķ²éĹ¨å£°
åħ »çļĦ
å¤ ·
ä¸Ģ äºĭ
ä¸Ģ èĬ±
æĺ¯ æ²¡æľī
æĺ¯ ä¸įä¼ļ
æĺ¯ åĵª
æĺ¯ æł¼å°ĶæĽ¼
æĺ¯ çĶ±
æĺ¯ å¿ħé¡»
ä¸į æĢİä¹Ī
ä¸į å±ĳ
æľī æĿ¡
è¿Ļ åıª
è¿Ļ æł¹
è¿Ļ åĮħæĭ¬
è¿Ļ åĢĴæĺ¯
æĹ º
ä»ĸ æľĢ
ä»ĸ å¸ĮæľĽ
ä»ĸ å¾Īå¿«
ä»ĸ æľĢè¿ĳ
ä»ĸ ç¼ĵæħ¢
ä»ĸ æĹ©å°±
ä»ĸ å¿½åľ°
ä»ĸ çľ¼è§Ĵä½Ļåħī
å¥ ¸
åħĭ çĵ¦
åľ¨ æľī
åľ¨ è¢«
åľ¨ æĪĳä»¬
åľ¨ é²ģæģ©
åľ¨ æ¢¦å¢ĥéĩĮ
æĪĳ å°±ä¼ļ
æĪĳ å¥½åĥı
éģĵ éģĵ
éģĵ å¾·
å· ŀ
åħĭèİ±æģ© è§ģ
åħĭèİ±æģ© æľĽåĲĳ
åħĭèİ±æģ© æĿ¥åĪ°
åħĭèİ±æģ© å°ĨçĽ®åħīæĬķåĲĳäºĨ
åħĭèİ±æģ© è½»è½»é¢Ķé¦ĸéģĵ
åħĭèİ±æģ© æĥ³äºĨæĥ³éģĵ
åħĭèİ±æģ© å¿ĥå¤´
åħĭèİ±æģ© èĩªåĺ²ä¸Ģç¬ĳ
éĤ£ åĩł
éĤ£ çķ¥æĺ¾èĭįèĢģçļĦåĹĵéŁ³
äºº çĶŁçļĦ
åĪ° ä»ĸ
åľ° åĮº
åľ° å¼Ģåı£
åľ° æ³¨è§ĨçĿĢ
æł ©
èĩ ĤçļĦ
åĩº åĲį
çĽ ¼
ä¸ĭ æ²ī
ä¸ĭ è½¦
ä¸ĭ èĪ¹
ä¸ĭ æ¥¼
å°± ä¸įæĺ¯
å°± çŁ¥éģĵ
å°± çľĭè§ģäºĨ
å°± æµªè´¹äºĨ
åĴĮ æ´ĽèĸĩéĽħ
ä¸Ĭ çıŃ
èĥ½ åĢŁåĬ©
èĥ½ æıĲä¾Ľ
èĥ½ åıĳæĮ¥
åĳ Ľ
åŃ Ļ
ä¸º æĪĳ
ä¸º æķ°
ä½ł è¿ĺæĺ¯
ä½ł çľŁçļĦ
ä½ł çľŁæĺ¯
è¾ Ĺè½¬
å¾Ĺ ä¸įåĪ°
èº« çĿĢ
èº« åīįçļĦ
æ³ ŀ
ä¹Ł åıªèĥ½
èµ· èĩªå·±çļĦ
èµ· è¿ŀçİ¯æĿĢäººæ¡Ī
èµ· æĸĳé©³éķ¿æ¡ĮçļĦè¾¹ç¼ĺ
æĥ³ æĺİçĻ½äºĨ
è¯´ åĩºæĿ¥
âĢĻ âĢĺ
è¿ĺ ä»·
åıĳ éŁ³
åıĳ åĨ·
åıª åģļ
åıª å¸ĮæľĽ
åıª åŃĺåľ¨äºİ
åĢ ļ
å¥½ åĥıæĺ¯
æĽ ľçŁ³
æ²¡æľī ä»Ģä¹Ī
å°Ĩ åľ¨
å°Ĩ ä½ł
å°Ĩ éĤ£ä¸ª
å°Ĩ åĪļæīį
å°Ĩ è¯Ŀé¢ĺ
èĩªå·± çļĦçĮľæµĭ
éĥ½ è¿ĺ
éĥ½ æľīçĿĢ
ä»Ģä¹Ī æĥħåĨµ
ä»Ģä¹Ī ä¹Łæ²¡æľī
è®© å¼Ģ
è®© è¿Ļä½į
è®© çĽ®æłĩ
å¥¹ è¿ĺ
å¥¹ åĲ¬è§ģ
éĹ® äºĨ
éĹ® çŃĶ
æŃ£ æĥ³
å¾Ī è¿ĳ
å¾Ī æİ¥è¿ĳ
å¾Ī åı¯æĥľ
å¾Ī é«ĺçļĦ
å¾Ī å¼ºçļĦ
åŃĲ å¼Ł
è§ģ äºĨ
çĶ¨ èĩªå·±çļĦ
Ġä»ĸ è®¤ä¸º
Ġä»ĸ åĨįæ¬¡
å°ı åŃ©åŃĲ
çģµ èĪŀ
ä¾ ¥å¹¸
ç© Ĺ
Ġè¿Ļ ä¸İ
Ġè¿Ļ æĿ¡
Ġè¿Ļ å°±åĥı
çŁ¥ ä¼ļ
æ³ķ ä»¤
åı£ ç½©
å¤© å¹³
åĲĳ æĤ¨
åıĪ éĩįæĸ°
åıĪ åĽŀåĪ°äºĨ
ä½Ĩ èĩ³å°ĳ
çľŁ åĪĩ
çĻ½ åħĶ
éķ¿ å¤§
éķ¿ éķ¿çļĦ
ç§į åŃĲ
å¤ĸ ç§ĳåĮ»çĶŁ
æľ¬ æ¬¡
æĺİ æĻº
è· ·
è¡Į å°Ĩ
æıĲ è¿ĩçļĦ
æıĲ è£ĻæĳĨ
å¸¸ è§Ħ
åıĺ å¼º
åıĺ å¹»
ä»İ æŁĲç§įæĦıä¹īä¸ĬæĿ¥è¯´
è¾¹ æĢĿç´¢
éĹ¨ çªĹ
åĪ°äºĨ çİ°åľ¨
å¦Ĥ æ°´
æīį å¯¹
æīį åıĳçİ°
ä½ı åĳ¼åĲ¸
é«ĺ æ·±
Ġåħĭèİ±æģ© ä¸Ģä¸ĭ
Ġåħĭèİ±æģ© åİŁæľ¬
è¡¨ æī¬
åı¯ä»¥ æĬĬ
åı¯ä»¥ çľĭåĩº
æĤ į
å®Į å¥½çļĦ
è¿Ļä¸ª æīĵç®Ĺ
è¿Ļä¸ª éĺ¶æ®µ
è®° ä¸ĭ
æ·± éĩį
æ·± æ£ķèī²çļĦ
å¿« åĪ°
æľĪ åŃ£
æīĵ åŃĹ
æīĵ åĵįæĮĩ
æį ¶
å°¼ åĿ¦
æī¾ ä¸Ģä¸ª
åĲ¬ åĲ¬
åįģ åħ«
çĭ Ī
å¥ĩ éģĩ
åĪļ éĹªè¿ĩ
çº³ åħ¥
è½» é£ĺ
çĲĨ æĥ³
çĲĨ çŁ³
éĹ®é¢ĺ äºĨ
è¡Ģ è¿¹
å¾® æľī
å¾® éĿł
å¾® åĭ¾
å¼ł å¼ł
åĳ¨ åħŃ
æ¸ħ èĦĨ
åĮĸ èº«ä¸º
é¦ ı
åĲĪ æ³ķ
åħ¨ çĻ½
éļı é£İ
å¾Ģ æĹģè¾¹
æĪĳä»¬ è¡ĢæĹı
åĲį æ°Ķ
åĽłä¸º å¯¹æĸ¹
åı¤ æĿ¿
å¼Ĥ è®®
åİŁ å§Ķ
å¤į çĶŁ
åĪ« çļĦäºº
åıį è¿ĩæĿ¥
ç®Ĺ ä¸įä¸Ĭ
å¤ľ ç²ī
åľº æīĢ
å·¨ çĬ¬
ä¼¼ä¹İ å¯Łè§īåĪ°äºĨ
ä¼¼ä¹İ éļıæĹ¶ä¼ļ
æĮĩ ä½¿
åĽĽ äºº
ä¹ĭåīį éĤ£ä½į
çł į
è¶Ĭ ä¹ħ
åŃĺ æĶ¾
äº¤ èŀį
åŁİ å¢Ļ
ä»£ æĮĩ
åĩºçİ° äºĨä¸Ģä¸ª
ä¸ĢçĤ¹ æĺ¯
æĸ° åħļ
çĽ´æİ¥ åİ»
è¿Ľåħ¥ æĪ¿éĹ´
ç«ĭ ä½ĵ
æ´» çĶŁçĶŁ
è¿Ļæĺ¯ æľĢ
è¿Ļæĺ¯ ä½łçļĦ
æ¢¦ åĪ°äºĨ
çļĦäºº åı£
ä¸Ģä½į æµ·çĽĹå°ĨåĨĽ
æĹłæ³ķ çĶ¨
åį´ çªģçĦ¶
éķĳ éĿ¢é¢Ŀ
æµģ çĿĢ
æµģ æ°´
æµģ éľ²åĩº
é»Ħ èī²
æŁĲ æł·
å¤ªéĺ³ åľ£èĢħ
çī©åĵģ çļĦ
æļ´ éľ²åĩº
è·¯ ç¨ĭ
éĻ¤ åİ»
èĥĮ éĿ¢
Ġå¥¹ çľĭè§ģ
æĸ¯å¸ķç½Ĺ çļĦä¿¡ä½¿
èĻļ åģĩ
æĹ¥ ç¨ĭ
éĿŀå¸¸ æ¸ħæ¥ļ
çģ« åłĨ
çļĦéĤ£ æł¹
åıĸ äºĨ
è¿ŀ è¿ŀ
ç§ĳ åŃ¦å®¶
è¿ľ ç¨ĭ
ç»Ĩ èĥŀ
å¿µ åĩºäºĨä¸Ģä¸ª
åľ£ ä¹Ķæ²»
åľ£ èģĮäººåĳĺ
åľ£ å¤ľç²ī
è¯· è½¬åĳĬ
å¸ĥ æ»¡äºĨ
å¸ĥ èİ±çī¹
ä»ªå¼ı éĩĮ
å¨ģ å°¼åĿ¦
æĹ© å°±åľ¨
èĪ¬ éĹ®éģĵ
èĪ¬ çļĦå£°éŁ³
æĢ» æľīä¸Ģå¤©
çħ§ é¡¾
æĴ ®
åıĺå¾Ĺ é¢ĩä¸º
æ¡Į ç¼ĺ
æĻļ ä¼ļ
åĨĻ åĪ°
åıªèĥ½ ä¾ĿéĿł
éħĴ å®¢
çľĭçĿĢ è¿Ļä¸Ģå¹ķ
èĻ½çĦ¶ æĺ¯
èĻ½çĦ¶ è¿Ļ
æĮī äºĨä¸ĭ
åĳ¨åĽ´ çļĦæĥħåĨµ
åįĬç¥ŀ çº§çļĦ
ç»Ŀ å¢ĥ
è£ħ ç½®
è¿Ļä½į åı¤ç¥ŀ
åĴĴ éªĤ
çĥĪ æľĹé½Ĳ
ç¿» è¿ĩ
ç¿» çľĭçĿĢ
æľīçĤ¹ åĥı
ä½łçļĦ åĳ½è¿Ĳ
çļĦä¸Ģ ä»¶
ä¹Łè®¸ å°±
æľīäºĽ å¥ĩæĢª
çģµæĢ§ çģĮæ³¨
çł´ çĥĤçļĦ
åħħ å½ĵ
æĺİæĺ¾ åľ°
æĶ¹ ä¸º
éĵģ æłħæłı
äº² èº«
éĤ£ä¹Ī ç®Ģåįķ
æĿĲæĸĻ çļĦ
å®¢ è§Ĥ
éĤ£äºĽ èĺĳèıĩ
çľŁæŃ£ çļĦç¥ŀçģµ
ç§ĺåģ¶ åĮĸ
ä¸ĢçĽ´ æľī
ä¸ĢçĽ´ å»¶ä¼¸
åĩĿ æľĽäºĨ
çº¦ å¾·æ£®
åıĳçĶŁ åĨ²çªģ
çĻ½éĵ¶åŁİ åĴĮ
èĻļå¹» çļĦå¤§éĹ¨
æĹłå£° æģ¯
çº¯ çĻ½ä¹ĭ
æķĻåłĤ åĨħéĥ¨
è®² äºĨ
è®² å®Į
éĢĶå¾ĦçļĦ é«ĺåºıåĪĹ
åİĭ çĿĢåĹĵéŁ³
Ġä¸Ģ æŃ¥
ä¸įè¦ģ å¿ĺè®°
åħĭèİ±æģ©çļĦ èĢ³æľµ
çļĦå¤§ æµ·çĽĹ
çļĦå¤§ è´µæĹı
æ¯Ľ å·¾
æĿĤ äº¤
æĢ¥ è¿«
Ġè¿Ļæĺ¯ åľ¨
Ġè¿Ļæĺ¯ å¥¹
Ġè¿Ļä¸ª éĹ®é¢ĺ
æľĪäº® èĬ±
åĨ° éĽª
æ²īé»ĺ åĲİ
æĺ¯åĲ¦ åŃĺåľ¨
çľ¼çľ¸ éĩĮ
ä¸¤ä¸ª éĢīæĭ©
éĿĴ æ¶©
éĿĴ æĺ¥
çĿĢä¸Ģ æŀļ
çľŁæĺ¯ çļĦ
æĹĭåį³ åıĪ
ä»Ĭå¤© æĺ¯
åĹĵéŁ³ çķ¥æĺ¾
åģļåĩº åıįåºĶ
åĿ¦ è¯ļ
æŃ»äº¡ åĲİ
è½»è½» çĤ¹äºĨä¸ĭå¤´
æŁĶ é¡º
èĪ¬çļĦ åħīèĬĴ
å±± ä¸ĺ
æķ´ä¸ª è¿ĩç¨ĭ
æ²¡ä»Ģä¹Ī åĮºåĪ«
ç¥Īç¥· éģĵ
æĢĿèĢĥ çĿĢ
å±Ģ éĻĲäºİ
æķ² åĵį
æķ² éĴŁ
åħ¶å®ŀ å¹¶ä¸į
æľĢç»Ī åĨ³å®ļ
èĸĦ å¼±
æľīçļĦ åĪĻ
æµª æ¼«
èİİä¼¦ åĴĮé©¬éĩĮå¥ĩ
èĢ³ è¯Ń
æīŃæĽ² ä¹ĭçº¿
åĲĥ é¥±
é¬¼ æķħäºĭ
ä¸»åĬ¨ éĹ®éģĵ
èº² åĪ°äºĨ
è·ĥ èµ·
èĴ¸ é¦ı
å¥ĩæĢª çļĦäºĭæĥħ
å°ıéĺŁ éĺŁéķ¿
å¿«éĢŁ æµıè§ĪäºĨä¸Ģéģį
åıĹåĪ° ä¼¤å®³
ä¸° æ»¡
çĥŁ èįī
è¿Ī å°Ķ
æŃ£æĺ¯ åĽłä¸º
èĥĮåĲİ æľī
æĭ¿çĿĢ æīĭæĿĸ
çĭ¼ çĭĪ
å°±ç®Ĺ æĺ¯è¿Ļæł·
é¢Ĺ é¢Ĺ
é¢Ĺ ç²Ĵ
éĹªçĶµ çļĦ
æłĭ åħ¬å¯ĵ
æģ¶éŃĶ æ²¹çĶ»
æģ¶éŃĶ å·¨çĬ¬
æĸĳ çĻ½çļĦ
å¤§åľ° æ¯įç¥ŀçļĦ
åĩłç§Ĵ éģĵ
æĪĳæĺ¯ ä¸įæĺ¯
äºĭä»¶ éĩĮ
æ´ĭ æ´ĭ
åĿļ å®Ī
éĿ¢åħ· çļĦ
è¯¥æĢİä¹Ī åĬŀ
æĪĺäºī ä¹ĭç¥ŀ
èļ Ĭ
åĩ¸ åĩº
éĻ¢ éķ¿
è¯ħåĴĴ çļĦ
æ²¡èĥ½ æī¾åĪ°
æ²¡èĥ½ æĪĲåĬŁ
å¾®ç¬ĳ éĹ®éģĵ
èķ¾ ä¸Ŀ
éľįå°Ķ å°ıå§Ĳ
æ»ļ åĬ¨
å®ŀåĬĽ åĴĮ
æĬĬæı¡ ä½ıäºĨ
åĽŀèį¡ åľ¨
åĲĵ äºº
ä¸»è¦ģ çĽ®çļĦ
æĥ¨ æ¡Ī
åı¹æģ¯ çĿĢ
åı¹æģ¯ ä¸Ģå£°
å®½ å¹¿
æĬ¹ åİ»
å¾Īåı¯èĥ½ ä¼ļ
å±ķå¼Ģ æĿ¥
çĦ¦ èĻĳ
çľĭèµ·æĿ¥ åĥıæĺ¯
èĤ¡ ç¥¨
éģĩåĪ° è¿ĩ
æĶ¾æĿ¾ åľ°
ç²¾çģµ ä¹ĭæ³ī
æĹħé¦Ĩ åĨħ
æĦ¿æľĽ ä¹ĭç¥ŀ
éº¦ èĬ½
ä¸ĢåľĪ åľĪ
éŃĶéķľ éĺ¿ç½Ĺå¾·æĸ¯
å¥¹ä»¬ çļĦ
å³° é¡¶
æĢİä¹Īæł· äºĨ
çĲĨè§£ äºĨ
æĦĪåıĳ è§īå¾Ĺ
çĭ©çĮİ å°ıéĺŁ
æī£ åĬ¨
çĻ½èī² ç¾½æ¯Ľ
æĬ¢ åĬ«
å»ºç«ĭ èģĶç³»
è¢«äºº åıĳçİ°
éĽ¶ æķ£
çĻ» ä¸´
æ³¥ æ³ŀ
ä»ĸæĺ¯ ä¸ª
æįı çĿĢ
æįı äºĨä¸ĭ
Ġä½ľä¸º ä¸Ģä¸ª
åĲĳçĿĢ åĽĽåĳ¨
æ¯ıä¸ª æľĪ
æ®ĭçķĻ çļĦ
ä¹¦åĨĻ ä¸ĭ
ç²ī å°ĺ
åİīå®³ çļĦ
åıĤåĬł èģļä¼ļ
æīĶ åĩº
ä¸ĢçĤ¹ä¹Łä¸į æĭħå¿ĥ
æ·±åħ¥ åľ°
è½¬è¿ĩ èĦĳè¢ĭ
èī¾å°Ķåħ° èĪ¹éķ¿
ç¥Ĥä»¬ çļĦ
é»Ħéĵľ èī²
æİıåĩº æĢĢè¡¨
æĢ»ç»ĵ åħ¼
ä¸¤ä¾§ çļĦ
é»¯æ·¡ çļĦ
èī° æ¶©
å±ı ä½ıåĳ¼åĲ¸
éļıåı£ è¯´éģĵ
æľĿ åĲĳ
æīĭéĩĮ æĭ¿çĿĢ
ç»ĿæľĽ å¥³å£«
æĿĥæŁĦ çļĦ
éĻ¨ çŁ³
æŃ£å¼ı çļĦ
æļĹçº¢ èī²
æ¼ł çĦ¶
å®£ æ³Ħ
ä¸ĢåĬ¨ ä¸įåĬ¨
çĶľ çĤ¹
æĦŁåºĶ åĪ°äºĨ
åĿ¦çĦ¶ è¯´éģĵ
è¶³ä»¥ è®©
è¶³ä»¥ è¯´æĺİ
éĺ¿åħ¹åħĭéĵľåĵ¨ åĴĮ
èĨ¨èĥĢ åĴĮæĶ¶ç¼©
åĨĽæĥħä¹Ŀå¤Ħ çļĦäºº
åİŁæĿ¥ æĺ¯è¿Ļæł·
å¾Īå®¹æĺĵ å°±
é¢ĦæĸĻ åĪ°
åħįå¾Ĺ è¢«
æĭĲ åħ¥
æĬĽ åĪ°äºĨ
çģĮ åħ¥
ç¼ĸ éĢł
è§¦ç¢° åĲĳ
æĽ´æĺ¯ å¦ĤæŃ¤
å®ŀåľ¨ æĺ¯
ä¸ĢåįĬ çļĦ
éĤªå¼Ĥ çļĦ
ä¼łéĢĴ ç»Ļ
å¹³å¤į äºĨä¸ĭ
èĥĨ å°ı
æ»ĭ éķ¿
å¦ĩ å¥³
äººéĢł åĲ¸è¡Ģé¬¼
åħīä¹ĭ ç¢İçīĩ
éĹ¹ é¬¼
åħ·ä½ĵçļĦ ç»ĨèĬĤ
å¼ºè°ĥ äºĨä¸Ģåı¥
çĽı é©¬çģ¯
ä¸įä¼ļæľī ä»»ä½ķ
èĤ¯å®ļçļĦ çŃĶæ¡Ī
æĤ¬èµı ä»¤
éĻĪæĹ§ ä¸īè§Ĵå¸½
è¿Ļä»¶ ç¥ŀå¥ĩçī©åĵģ
èį£ åħī
è´ĿåħĭæľĹ å¤§ä½¿
çº¸çīĮ å®¤
éļĲç§ĺçļĦ ç»Ħç»ĩ
éĺ³åı° ä¸Ĭ
æıĲè®® éģĵ
è·Į åĢĴ
éļ¾ä»¥è¨Ģåĸ »
çģ°èī² èĢģé¼ł
åĩĨå¤ĩçļĦ è¡¨æ¼Ķ
åĪ°çİ°åľ¨ ä¸ºæŃ¢
è¯ŃéĢŁ ä¸įå¿«ä¸įæħ¢
è¶ħè¶Ĭ äºĨ
é«ĺä½į èĢħ
æłĳæŀĹ åĨħ
çĶ¨è¿ĩ æĹ©é¤Ĳ
èĤĨ æĦı
æ¨¡æĭŁ åĩº
æķ´çĲĨ äºĨä¸ĭ
åİļéĩį çļĦ
æĪĺèĥľ äºĨ
å±Ĥå±Ĥåıłåıł çļĦ
åħĭèİ±æģ©èħ¹è¯½ ä¸Ģåı¥
åĿļå®ļ åľ°
åĨ» ç»ĵ
ä¸Ģæ»´ æ»´
çŁ¥åĲį æµ·çĽĹ
æĪ´å¥½ å¸½åŃĲ
çıį è´µ
è¶´ åľ¨
å²© çŁ³
åľ£èµĽçĲ³å¨ľ æķĻåłĤ
åħĭèİ±æģ©æļĹ åı¹ä¸Ģå£°
èĦĬ æ¤İ
å¿½æľī è§¦åĬ¨
èĤ¢ä½ĵ è¯Ńè¨Ģ
èķ´åĲ« çĿĢ
è±Įè±Ĩ èĹ¤
é¼ĵèµ· åĭĩæ°Ķ
å²Ķ è·¯
åĹĸåĹĸ åĹĸ
æ··è¡Ģ åĦ¿
æĽ´åĪ« æıĲ
çļĦçĨŁ æĤī
çļĦç¦ ı
åį¡éļĨ èĩªæĿĢ
çĲĨè®ºä¸Ĭ æĿ¥è¯´
æĹłçŀ³ ä¹ĭçľ¼
èĭ¦æ¶© ç¬ĳéģĵ
èĦĵ æ¶²
ç«ĻçĽ´ èº«ä½ĵ
éļĲç§ĺä¹ĭ ä»Ĩ
è¶Ĭæĥ³è¶Ĭ è§īå¾Ĺ
é¦ĸé¥° çĽĴ
åıįéĶģä½ı æĪ¿éĹ¨
ç¿»äºĨ ç¿»
Ġåľ¨å¥¹ çľĭæĿ¥
è½¬ç§»äºĨ è¯Ŀé¢ĺ
éĨĩ åİļ
éĵģè¡Ģ éªĳå£«
æŃ¢ä¸įä½ı åľ°
çļĦæĿĥ åĪ©
æĬ¥çº¸åĴĮ æĿĤå¿Ĺ
åįķçľ¼ éª·é«ħ
åı¯è¡Į æĢ§
æŃ£äºĨ æŃ£
ç´§éļı åħ¶åĲİ
æ©¡çļ® æĵ¦
èĻļé»ĳ ç¾½ç¿¼
ä¸įæŃ»é¸Łå§ĭç¥ĸ æł¼èķ¾åĺīèİī
ä»¥å¤ª ä½ĵ
å¤©ä½ĵ æķĻæ´¾
é«ĵè´¨ ç»ĵæĻ¶
è¯¡æľ¯éĤª æĢª
çº¯çĻ½ä¹ĭ è§Ĩ
3 5
4 8
5 500
6 000
B ug
§ éª¨
¨ çĦ¶
¬ èıľ
Ġ çŁ¥éģĵ
Ġ æĥ³æ³ķ
Ġ èĭ¥
Ġ äº¤æµģ
Ġ å¡ŀå°¼å¥¥å°Ķ
Ġ ç»ĵåĲĪ
Ġ åıįæŃ£
Ġ ç½ĹæĢĿå¾·ç¾¤å²Ľ
Ġ èµĽçĲ³å¨ľ
Ġ æĶ¶èµ·
Ġ æ¢ħé«ĺæ¬§ä¸Ŀ
Ġ åīįèĢħ
Ġ èº«ä¸º
Ġ èĢģæĿ¿
Ġ æ¯Ķå°Ķçī¹
Ġ åĿĲèĩ³
Ġ æ¬§åĨħæĸ¯
Ġ æĸ¯åĽ¾äºļçī¹
Ġ å¸ķçī¹éĩĮåħĭ
Ġ è¥¿åĮº
Ġ çľĭå®Į
ī å¦
Ĵ éĽħ
Ĵ ĢçĴ¨
çļĦ ç©º
çļĦ åİŁ
çļĦ éĵ¶
çļĦ åĩºçİ°
çļĦ å°ģåį°
çļĦ è§Ĥå¯Ł
çļĦ è§£éĩĬ
çļĦ å¤ĦçĲĨ
çļĦ è´µæĹı
çļĦ ä¸¤ä½į
çļĦ å¼Ĥåıĺ
çļĦ åĲ©åĴĲ
çļĦ éĴŀç¥¨
çļĦ ç¬¬ä¸Ģä¸ª
çļĦ è´¹çĶ¨
çļĦ è¯±æĥĳ
çļĦ ä½ıæīĢ
çļĦ èĦĬé«ĵæ¶²
ä» į
äºĨ åĿĹ
äºĨ çīĩåĪ»
ä¸Ģ æĭī
ä¸Ģ å°ģ
ä¸Ģ è¨Ģ
ä¸Ģ åĩĿ
ä¸Ģ å¹´çļĦ
ä¸Ģ çŀ§
ä¹ į
æĺ¯ æŃ£ç¡®çļĦ
ä¸į åıª
ä¸į å¸¦
ä¸į åıªæĺ¯
ä¸į åľ¨æĦı
ä¸į èĪį
ä¸į è®°åĲįè´¦æĪ·
æľī åĬĽ
æľī ç±»ä¼¼
æľī ä¸¤ä½į
æľī ä¸īä¸ª
æľī æĹłæķ°
æľī èµĦæł¼
è¯ «
è¿Ļ å®¶
è¿Ļ åĿĹ
è¿Ļ çľŁæĺ¯
ä»ĸ å®Įåħ¨
ä»ĸ å°±åĥı
ä»ĸ æľ¬èº«
ä»ĸ æĢĢçĸĳ
ä»ĸ åı³æīĭ
ä»ĸ åħ¶å®ŀ
åį ¸
åľ¨ æ²¡æľī
åľ¨ çİ°å®ŀ
æĥ ¬
çĿ «æ¯Ľ
æĪĳ çľĭè§ģäºĨ
æĪĳ ä¸ĢçĽ´åľ¨
éģĵ äºĨå£°
åħĭèİ±æģ© çŁ¥éģĵ
åħĭèİ±æģ© åį´
åħĭèİ±æģ© ä»¿ä½Ľ
åħĭèİ±æģ© éĢļè¿ĩ
åħĭèİ±æģ© æĹ©å°±
åħĭèİ±æģ© çŃīäºº
åħĭèİ±æģ© çĤ¹äºĨä¸ĭå¤´
åħĭèİ±æģ© æĦķçĦ¶
åħĭèİ±æģ© å·®çĤ¹
åħĭèİ±æģ© çľĭå¾Ĺ
åħĭèİ±æģ© å¿½åľ°
åħĭèİ±æģ© çİ¯é¡¾ä¸ĢåľĪ
åħĭèİ±æģ© çĿģå¼Ģçľ¼çĿĽ
åħĭèİ±æģ© æīĭæĮĩè½»æķ²
éĤ£ ä¸įæĺ¯
éĤ£ åı¥
éĤ£ æĶ¯
éĤ£ å·¨å¤§çļĦ
çĿĢ ä»ĸçļĦ
çĿĢ ä¸Ģä½į
çĿĢ åĳ¨åĽ´
äºº äºĨ
åĪ° åºķ
åĪ° åºĬä¸Ĭ
åľ° åĴĮ
åľ° çłĸ
æł ½
åº ¸
ä¸ĭ èĩ³
ä¸ĭ è¾¾
ä¸ĭ éĻ¢è®®åĳĺ
å°± è¯¥
å°± ä¸įèĥ½
å°± çŃīçĿĢ
å°± è¶³å¤ŁäºĨ
åĴĮ å°ı
åĴĮ èĩªå·±çļĦ
åĴĮ éĥ¨åĪĨ
åĴĮ æĪ´éĩĮåħĭ
åĴĮ ä½łä»¬
åĴĮ åĳ¨åĽ´
æ²¡ ä»»ä½ķ
èĥ½ è¢«
èĥ½ åģļ
èĥ½ å®ĮæĪĲ
èĥ½ æıĲåīį
ä¹ĭ æŃ»
èĩª éĹ®
ç¥ŀ è¿¹
å¤§ ç¬ĳ
å¤§ è§Ħæ¨¡
å¯¹ ç¥Ĥ
å¯¹ è¿Ļç§į
ä½ł å¸ĮæľĽ
ä½ł å°±èĥ½
ä½ł åľ¨è¿ĻéĩĮ
åĲİ éĹ¨
å¾Ĺ ä¸įå¤Ł
å¾Ĺ åĥıæĺ¯
çľĭ æ¸ħ
çľĭ äºĨä¸ĭ
ä»¥ ä¸ĭçļĦ
ä»¥ ä¸Ģç§į
çİ° èº«
äºİ ä¸Ģ
äºİ è´Ŀåħĭåħ°å¾·
æĥ³ æĿ¥
æĥ³ äºĨä¸ĭ
é¢ §éª¨
åīį æīĢ
åīį çĪª
æĸ¹ åŀĭ
å¼Ģ ä»·
æĪĲ æľ¬
äºĭ è¿¹
æīĭ éĵ¾
å¥½ å¤ļ
çī© çĲĨ
æ²¡æľī å¿ħè¦ģ
å¤´ çĽĶ
ä¿ ©
ä¿ ¨çĦ¶
çī¹ çĲ³
è®© è¿Ļä¸ª
éĹ® æĪĳ
éĹ® ä¸ºä»Ģä¹Ī
å¿ĥ ä¸Ĭ
å¿ĥ çĽ®
å¾Ī éģĹæĨ¾
çĶ¨ åľº
çĶ¨ æīĭæĮĩ
åħĪ ä»İ
æ¸ ²
Ġä»ĸ ä¸Ģè¾¹
Ġä»ĸ ä¸ĭæĦıè¯Ĩ
Ġä»ĸ æ²¡åĨį
çģµ åħī
é»ĳ æ°Ķ
é»ĳ åºķ
å®ļ åĨ³å¿ĥ
ä¸Ģä¸ª æľºä¼ļ
è¢« åħĭèİ±æģ©
è¢« çł´åĿı
Ġè¿Ļ ä¸ĢçĤ¹
Ġè¿Ļ ä¹Łå°±æĺ¯
Ġè¿Ļ åı¥è¯Ŀ
ä½ĵ è´¨
åģļ äºĨä¸Ģå®ļçļĦ
åı£ çļĦ
åı£ æ°Ķ
åı£ èħĶ
èī² è°ĥ
å¤© æĸĩåŃ¦
åıĪ æľŁå¾ħ
åıĪ è¡¥äºĨä¸Ģåı¥
ä½Ĩ ä¹Łä¸į
ä½Ĩ å¹¶ä¸į
æľĢ åı¤èĢģ
æľĢ åĸľæ¬¢
çŃī é£Łçī©
æł¼ å±Ģ
çļĦç ĴĢçĴ¨
ä¸¤ åĪĨéĴŁ
è° £
è° §
çĻ½ éĿ¢åĮħ
å¤ĸ äºº
å·² å½»åºķ
å·² æİ¥è¿ĳ
è¡Į ç¨ĭ
ç¬ĳ äºĨä¸¤å£°
å®ŀ æĪĺ
æıĲ äºĨ
ç»ı çĲĨ
æµ· æĪĺ
åıĺ æĢģ
çĽ´ æĮĩ
ç§ĺ æľ¯
ä¸» ä¹ī
è¾¹ å°Ĩ
é«ĺ åľ°
é«ĺ æ½®
ä¸İ æģĲæĥ§
ä¸İ èµĲäºĪ
Ġåħĭèİ±æģ© ä»İ
å¹¶ ä¸İ
è¿Ľ ç¨ĭ
åįĬ è½¬è¿ĩèº«ä½ĵ
åı¯ä»¥ åĴĮ
åı¯ä»¥ æľīæķĪ
åı¯ä»¥ çĲĨè§£
åı¯ä»¥ çĶ¨æĿ¥
æĽ´ åģı
ä»ĸä»¬ ä¹ĭä¸Ń
èµ° åĲ§
æĪĸ çĽ´æİ¥
éĩĳ æĿ¡
æ·± çļĦ
æ·± åº¦
æ·± èī²çļĦ
æ·± æ£ķ
æ·± æ£ķèī²
ç»Ļ åĪ«äºº
å°ĳ è§ģçļĦ
èĢģ èĢģå®ŀ
å°±æĺ¯ ä»ĸ
ä¸ī éĩįåĨłåĨķ
ä¸ī æ£±åĪº
èĩ³ ä»Ĭ
åįģ ç±³
æ²ī å¯Ĥ
ä½ľ åĵģ
ä½ľ è¯ģ
åħ° å¥ĩ
è½¬ äºĨ
è½¬ åĽŀ
è½¬ åĽŀäºĨ
æĭī åĵįäºĨ
æĪ´ ä¸Ŀç»¸ç¤¼å¸½
æĪ´ å°ĸé¡¶è½¯å¸½
åĳ¨ æľŁ
çľĭè§ģ éĩĮéĿ¢
å¥¥é»Ľä¸½ åĲ¬å¾Ĺ
åħ¨ ä¸ĸçķĮ
å¼º å¿įçĿĢ
çİĭ èĢħ
æĪĳä»¬ åİ»
åĽłä¸º è¿Ļæĺ¯
å¦Ĥæŀľ çľŁ
å¦Ĥæŀľ æľīæľºä¼ļ
åİŁ è·¯
åĬł åī§
å¤į è¿°
åħ¶ ä¸ŃçļĦ
åıĳçİ° ä»»ä½ķ
åıį åĩ»
éĤ£ä¸ª ä½įç½®
äºĮ å±Ĥ
ä»ĸçļĦ çĽ®åħī
ä»ĸçļĦ éĿ¢åīį
äº¤ çķĮ
å¿ħ è¢«
ç±» åĲĮ
è¿Ľåħ¥ äºĨä¸Ģ
å¸® å¥¹
çĶ· äººçļĦ
åıªæĺ¯ ä¸ª
åıªæĺ¯ åĽłä¸º
è¿ĺæĺ¯ æĮº
åĽ´ æĶ»
è¿Ļæĺ¯ ä¸Ģä»¶
æ¢¦ ä¸ŃçļĦ
æ¢¦ æ¸¸
æ¢¦ åĳĵ
æµģ ä¸ĭäºĨ
åºĶè¯¥ ä¸įæĺ¯
æİ¢ è·¯
ĠéĤ£ çĶ·åŃĲ
éĻ¤ å¼Ģ
èĥĮ å¯¹çĿĢ
é¦ĸ å°¾
éŃĶèį¯ æ¶ĪåĮĸ
ä¾§ çļĦ
åĹ¯ åĹ¯
åıĸ ä»£
åıĸ åĨ³
çļĦæĺ¯ è°ģ
è½¦ è½®
çªģçĦ¶ è¢«
çªģçĦ¶ æľīäºĨ
ä¼ĳ æķ´
è¡Ĺ å¤´
ç²¾ ç¡®
ç²¾ å½©
åĲ¦ è®¤
è°ĥ åĴĮ
æĸĩ æ£®
éĺ¿å°ĶæĿ° åĴĮ
éĺ¿å°ĶæĿ° åĪĻ
æĹ© æĹ©
åĪĿ ä»£
ä¼ł æī¬
è¿Ļä¹Ī å¤§
è¿Ļä¹Ī ç®Ģåįķ
äºĶ å¹´
æĢĢ å¿µ
åħ¬ å¼Ģ
çİ¯ èĬĤçļĦ
ä¼¯ æł¹
ä¸Ģå®ļ èĮĥåĽ´åĨħ
çļ® éĿ©
æĲ Ģ
å¹» åĲ¬
è¾¾å°¼åħ¹ éģĵ
å·´ å·´
åĽŀåºĶ ä¿¡å¾Ĵ
èĸ ħ
åıªèĥ½ è¯´
çľĭçĿĢ éĤ£
æ¡Ī ä¾ĭ
ç½Ĺå¡ŀå°Ķ çļĦ
ç½Ĺå¡ŀå°Ķ çļĦæĹ¥è®°
æ·¡ çĦ¶
èĤī èĬ½
æĮī éĥ¨å°±
åĳ¨åĽ´ æľī
åŀ Ĵ
èĦ± å¸½
è¿Ļä½į åįĬç¥ŀ
èŃ¦ æĪĴ
åĲ¸ äºĨåı£
åĲ¸ é£Ł
åĲ¸ æ°´éĴ¢ç¬Ķ
æİĴ éĻ¤äºĨ
çĻ¾ éķĳ
æĥĬ æĥ§
æľį çļĦ
ç¿» é¡µ
æľīçĤ¹ ä¸į
å¿½çĦ¶ åıĺå¾Ĺ
ä½łçļĦ æĦıæĢĿæĺ¯
èĵĿ å±±
è¿ĩæĿ¥ äºĨ
è¾ĥ å°ĳ
è¾ĥ ä½İ
æį® çĤ¹
åħħ å¡ŀ
é£Ł çĶ¨
æĶ¹ æī®
ä¹Łæĺ¯ åľ¨
éĵģ é»ĳ
å¾ĹåĪ° è¿ĩ
çĮİ æŀª
å¹¶ä¸į åĥı
è½® æ¤ħ
æ¨¡ å¼ı
ç§ĺåģ¶ ä¸ĺçº³æĸ¯
ç§ĺåģ¶ æģ©ä½Ĳ
æ´¾ åĩº
åıĳçĶŁ çļĦä¸ĢåĪĩ
å°½ åĬĽ
çĿ¡ åĪ°
åĬ¡ å¿ħ
è®² ä¸Ģè®²
åİĭ çĿĢ
é»ĳæļĹ åľ£å¾½
èµŀ äºĨä¸Ģåı¥
é©¬è½¦ ä¸Ĭ
Ġä¸Ģ åĪĩ
æĢ¥ åĿł
æľĽåĲĳ çªĹå¤ĸ
Ġè¿Ļæĺ¯ ä½į
Ġè¿Ļæĺ¯ ä¸Ģä½į
è®©äºº éļ¾ä»¥
æĹħ éĢĶ
æľĪäº® æľ¨åģ¶
æĺ¯åĲ¦ è¦ģ
æĺ¯åĲ¦ è¿ĺæľī
æ¿Ģ èį¡
éĢłçī©ä¸» çļĦ
åĨįæ¬¡ å¼Ģåı£
çľ¼çľ¸ çļĦ
çľ¼çľ¸ è½¬æ·±
æīŃ åĬ¨
çĿĢä¸Ģ äºĽ
è¿Ļä»¶äºĭæĥħ çļĦ
Ġåľ¨ è¿Ļ
è·³ ä¸ĭ
åĪº éª¨
æĬ¤ åį«
æķĳ ä¸ĸ
æķĳ æı´
å®īéĿĻ äºĨä¸ĭæĿ¥
çģµä½ĵ åĨħ
éĻ¤äºĨ è¿ĻäºĽ
æĽ¾ç»ı åľ¨
å°±ä¼ļ æľī
è½»è½» æĳĩæĻĥ
éĩįæĸ° åĿĲä¸ĭ
åĸĿ éĨī
éª¨ é«ĵ
åį· åħ¥äºĨ
æķ´ä¸ª è´Ŀåħĭåħ°å¾·
åħ« æĿ¡
æĢĿèĢĥ èĥ½åĬĽ
è£Ĥ çĹķ
åĦ ĴéĽħ
Ġä»ĸçļĦ çľ¼çĿĽ
åħ¨éĥ¨ çļĦ
ç¨³ å¦¥
è¡ĮåĬ¨ åĬĽ
ä»»åĬ¡ æĺ¯
åĳµåĳµ ä¸Ģç¬ĳéģĵ
åĮ» çĸĹ
åħ¶ä¸Ń ä¸Ģéĥ¨åĪĨ
å®³æĢķ è¢«
åĲĥ è´§
æķĮ è§Ĩ
è®¤è¯Ĩ äºĨ
åįĥ ä¸ĩ
æĦıå¤ĸ åıĳçĶŁ
æĵįçºµ èĢħ
æ²¹ èĦĤ
ç»¿ çŀ³
èº² åĪ°
å¥½åĩł å¤©
å»¶ ä¼¸åĩº
é¦Ļ æłĳåı¶
åĿĲåľ¨ æ¤ħåŃĲä¸Ĭ
ä¸¢ ä¸ĭ
è¡ĢæĹı åŃĲçĪµ
ä¸įåı¯ çĽ´è§Ĩ
äºĨåĩłç§Ĵ éĴŁ
æµĵ æ±¤
èĦ¸åºŀ èĤĮèĤī
èĦ¸åºŀ çĺ¦åīĬ
çļĦéĿŀåĩ¡èĢħ ä»¬
çģŃ åı£
å¿«éĢŁ åľ°
æ¯«æĹł å¾ģåħĨ
é¡µ ç½Ĺå¡ŀå°ĶæĹ¥è®°
å¿ĥçģµ çļĦ
ç¬¬ä¸ī æ¬¡
ç¬¬ä¸ī éĥ¨
ç¬¬ä¸ī å±Ĥ
èŃ¦å¯Ł ä»¬
æĤ¬ æĮĤçļĦ
éļĲçº¦ èĥ½
æĦ£ äºĨä¸Ģç§Ĵ
çĶŁæ´» çļĦ
å¤ļå°ĳ éĴ±
Ġå¦Ĥæŀľ æĺ¯
Ġå¦Ĥæŀľ æ²¡æľī
æĸĳ åĿĹ
æ²³ æ¹¾
æ»´ èĲ½
å®īæıĲåĵ¥åĬª æĸ¯çļĦ
é«ĺåºıåĪĹ ä»¥ä¸ĭ
æĪĳæĺ¯ æĮĩ
ä½İæ²ī éĹ®éģĵ
ä½İæ²ī ç¬ĳéģĵ
æıĲéĨĴ éģĵ
æĲľéĽĨ æĥħæĬ¥
æĥ¯ ä¾ĭ
åģļä»Ģä¹Ī äºĭæĥħ
æµħ æ·¡
è¿Ľè¡Į çĿĢ
è¿ĺèĥ½ è¿Ļæł·
ä¸¤ä½į å¥³å£«
å®¡è§Ĩ äºĨä¸ĭ
åĽŀèį¡ èµ·
çī¹èİīä¸Ŀ å¥ĩåħĭ
æĳĨèĦ± åĽ°å¢ĥ
æ°Ķæģ¯ çļĦ
ä½ĵåĨħ èĭıéĨĴ
ä¾µ æŁĵ
å¼Ĺåħ° å¥ĩ
æĬĺ èħ¾
è®°å½ķ ä¸ĭ
ç²Ĺ æļ´
ä¿¡ä»° çĿĢ
ä¸įä»ħ æ²¡æľī
æĥ¨ çĻ½
ç»ľ èħ®
çĽ´åĪ° ä»Ĭå¤©
çĽĳ åĲ¬
è¯¦ å°½
çĬ¯ éĶĻ
è®¡åĪĴ æĺ¯
è®©å¥¹ ä»¬
åĽŀå¿Ĩ äºĨä¸ĭ
æĭ³ å¥Ĺ
æĶ¾æĿ¾ äºĨä¸ĢçĤ¹
å´© è£Ĥ
éº¦ ç©Ĺ
æĶ¾ä¸ĭ æĬ¥çº¸
çĹĽèĭ¦ åľ°
æ¸ħæĻ° åľ°
é¹ ¿
å¼Ĥåıĺ çļĦ
è½° çĤ¸
è¿ĳä¹İ æĹłå½¢çļĦ
çĶ·çĪµ çļĦ
è¡¬ æīĺ
è¡¬ è¡«
å»ºç«ĭ èµ·äºĨ
å« īå¦
åĪ¶ä½ľ æĪĲ
åĴĸåķ¡ æĿ¯
éľįå°Ķä¼¯çĪµ å®¶çļĦè±ªåįİåĪ«å¢ħåĨħ
è¾¨ è¯Ĩ
è¾¨ è®¤åĩº
æ¬¾ é¡¹
åĲĳçĿĢ åĽĽéĿ¢åħ«æĸ¹
åģļåĩºäºĨ åĽŀçŃĶ
æĴŀ åĪ°äºĨ
æ²Ļåıĳ åĮºåŁŁ
ç«ĸ çľ¼
æĦıå¿Ĺ çļĦ
èµŀç¾İ éģĵ
å¤ļäºĨ çĤ¹
ĠåĲ¬åĪ° è¿ĻéĩĮ
è¿İ äºĨè¿ĩæĿ¥
çĪ¶äº² éľįå°Ķä¼¯çĪµ
æĢ»ç»ĵ åĩº
çĺ¦ å¼±
åģľçķĻ åľ¨
è¸ı ä¸ĬäºĨ
Ġæ²¡ çŃī
ä¼łè¯´ ä¸ŃçļĦ
çĽĳæİ§ èĢħ
ç½ª è¡Į
èĦ±åı£ éģĵ
æ·±æ²ī çļĦé»ĳæļĹ
åį¡ç»´åĽ¾çĵ¦ çļĦ
ç§°åĳ¼ ä½ł
æľªçŁ¥ çļĦåŃĺåľ¨
æ±ī æĻ®
ä¼Łå¤§çļĦ åŃĺåľ¨
çļĦçĲĨ è®º
é¢Ħè¨Ģ å¤§å¸Ī
èĻĶè¯ļ çļĦ
éĻ¨èĲ½ åĲİ
ä¸įåľ¨ ä¹İ
åĸ· åļı
ä¸įæŃ» èĢħ
éĺŁåĳĺ ä»¬
æ¯ģçģŃ éŃĶçĭ¼
è¯¾ æľ¬
æ¸¯åı£ åŁİå¸Ĥ
åİ¨ èīº
å¾Īå¤§ ä¸Ģéĥ¨åĪĨ
è¿Ļè¾¹ çļĦ
é»ĺå¿µ èµ·
Ġä¸įçŁ¥ ä¸įè§ī
æľīçĶ¨ çļĦ
æ²¡åģļ ä»»ä½ķ
ç¬¬äºĮçĻ¾ ä¸īåįģ
å°ĳè®¸ åĬĽéĩı
æĪĴå¤ĩ åľ°
èµ°å»Ĭ ä¸Ĭ
å¤§åŃ¦ çļĦ
åºķéĥ¨ çļĦ
äº§çĶŁäºĨ å¼ºçĥĪçļĦ
æĹłéľĢ åĨį
ä¸Ģæīĭ æĭ¿çĿĢ
ç¢§ çľ¼
åĬŀåħ¬å®¤ åĨħ
ç¤ºæĦı èĩªå·±
ä¸įæĺ¯éĤ£ä¹Ī å¥½
ä¸ľæĭľæľĹ èĪ¹åĿŀ
éĺ²å¤ĩ æĦıå¤ĸ
çĥ¤ èĤī
åĽĽåįģ æĿ¥å²ģ
å¤ļå¹´ åīį
åĩ¯ çī¹çĲ³
éģĹæĨ¾ åķĬ
å±ħä½ı çļĦåľ°æĸ¹
æĽ´è¿Ľä¸ĢæŃ¥ åľ°
è¿Ļä¹Īä¸Ģä¸ª æĥ³æ³ķ
åįģåĩł åĪĨéĴŁ
é©±ä½¿ çļĦ
çļĦç±» ä¼¼
ç¬¬äºĮçºª åħĥ
æĭīå¼Ģ è·Ŀç¦»
æĭīå¼Ģ æĪ¿éĹ¨
éĵ¶åĪ¶ çļĦ
çŁ¥è¯Ĩä¸İæĻºæħ§ä¹ĭç¥ŀ æķĻä¼ļ
å¡« æ»¡
çĬ¶ä¼¼ éļıæĦı
åĵĹåķ¦ åķ¦
éĤ£ä»¶ ç¥ŀå¥ĩçī©åĵģ
åıĳæĺİ çļĦ
çĽŁ åıĭ
åİ»çģ°éĽ¾ä¹ĭä¸Ĭ åįłåįľ
èĭıå°¼äºļæµ· æľĢ
èĲ½åľ° çªĹ
çľīå¿ĥ ä¸¤ä¸ĭ
ä½£ åħµ
èµĮ åįļ
çļĦéķ¿ æĿ¡
åİĦè¿Ĳ å¸ĥåģ¶
æº¢ åĩº
å¥ĸ èµı
åİĨåı²è¿·éĽ¾ åĨħ
é¡ºæĹ¶éĴĪ è½¬åĬ¨
ä¼Łå¤§ ä¸»å®°
åĨ¬ å¤©
å¯¹åħĭèİ±æģ© æĿ¥è¯´
åı²èĴĤ æĸĩæ£®
å¤ĸç¥ŀ ä»¬
æį¡ èµ·
æ¯ıä¸ªäºº éĥ½æľī
éĢĢåĲİ ä¸¤æŃ¥
æķıæį· åľ°
çĶ¨è¿ĩ æĻļé¤Ĳ
çĸ¯çĭĤåĨĴéĻ©å®¶ æł¼å°ĶæĽ¼
çħ¤æ°Ķè·¯çģ¯ çļĦåħīèĬĴ
å°Ĩæ³¨æĦıåĬĽ æĶ¾åĽŀäºĨ
Ġåı¯æĥľ åķĬ
çļĦçĻ½èī² ç¾½æ¯Ľ
åĺŁåĽĶ äºĨä¸Ģåı¥
å¼łå¼ĢäºĨ åıĮèĩĤ
åŃĺæ´» ä¸ĭæĿ¥çļĦ
åĹ¤ ç¬ĳéģĵ
é»ĳçĻ½ æł¼åĪ¶æľį
åħĭèİ±æģ©èħ¹è¯½ äºĨä¸Ģåı¥
æ´ª æ°´
åĨĽå®ĺ ä¿±ä¹Ĳéĥ¨
åĩºäºĨä¸ĢæĿ¡ åıĪä¸ĢæĿ¡
æ¿ĢçĥĪçļĦ æĪĺæĸĹ
ç²¾ç¥ŀä¸Ģ ç´§
åħ¸ç±į éĩĮ
èĤ¿ èĥĢ
ä½łçľĭ æĪĳ
åĿĲçĽ´ äºĨèº«ä½ĵ
è¯ºæĸ¯ åŁİ
è¶Ĭæĥ³ è¶Ĭæĺ¯
é©±æķ£ äºĨ
çŁŃæ¯Ľ çĮ«
çģ°éĽ¾ä¹ĭä¸Ĭç¥ŀç§ĺç©ºéĹ´ çļĦåĬĽéĩı
èĤ¥ èĥĸ
èĹıèº« å¤Ħ
å¸Ĥæ°ĳ ä»¬
éĹ¯ åħ¥
æĦ¿å¥³ç¥ŀåºĩä½ĳ ä½ł
ä»İèĻļç©º ä¸Ń
ç®¡çĲĨ åĳĺ
åĪĬ çĻ»
éĢĹ çķĻ
ä¼ĺç§Ģ çļĦ
åħ³ä¸ĬäºĨ æĪ¿éĹ¨
çĤĸ ç¾Ķç¾ĬèĤī
éĩİèĽ® äºº
èĢĲå¿ĥåľ° çŃīå¾ħ
éī´ å®ļ
ĠåĵĹåķ¦ åķ¦
åħĭèİ±æģ©ç¼ĵæħ¢ åĲĲäºĨåı£æ°Ķ
è¤ª åİ»
åĩ³ ä¸Ĭ
ç§įæ¤į åĽŃ
å¸ĥåĳĬ çīĮ
è£¸éľ² åľ¨
èķĬ å¦®
äººçļ®å¹½å½± çļĦçī¹æĢ§
åĬ³ç»´æĸ¯ å¤ªå¤ª
å¥½ä¸Ģéĺµ åŃĲ
å®īä¸½èĲ¨ å¤ªå¤ª
æį®æĪĳ æīĢçŁ¥
æľĪç¥¨ç¬¬ä¸Ģ åĬłæĽ´
çļĦç¡® è®¤
åĪ°æŃ¤ ç»ĵæĿŁ
çļĦäººçļ® æīĭå¥Ĺ
äºĨåįĬ åľĪ
æĤ¬èµıéĩĳ é¢Ŀ
éĻįçģµ ä»ªå¼ı
æĺłåħ¥ä»ĸ çľ¼å¸ĺçļĦæĺ¯
éĵľç»¿èī²çļĦ åįģåŃĹæŀ¶
å±¡ æ¬¡
èµ«æĭī ä¼¯æł¹
è°¨æħİåĴĮ å°ıå¿ĥ
é¼»æ¢ģä¸Ĭæŀ¶ çĿĢçļĦ
å®Īå¤ľ äºº
çļ±äºĨä¸ĭ çľīå¤´
èĶĵå»¶åĩº çģµæĢ§
æ²īçĶ¸çĶ¸ çļĦ
è¾¾ç±³å°Ķ æ¸¯
çľ¨äºĨçľ¨ çľ¼çĿĽ
ä¸įæĬķ å°±æµªè´¹äºĨ
æ°´æĻ¶éĽķ æĪĲçļĦåįķçīĩçľ¼éķľ
åĩĮæĻ¨ä¼ļ æıĲåīįæĽ´æĸ°
èĭľèĵ¿ åı·
åľ£ä¹Ķæ²» åĮº
åįķçľ¼éª·é«ħ åı·
èĢģèĢģå®ŀ å®ŀ
åıĸåĨ³ äºİ
æĮīéĥ¨å°± çıŃ
èĵĿå±± å²Ľ
å«īå¦ Ĵ
9 000
T M
¹ é¥
é Ħ
Ġ å°ı
Ġ åĩł
Ġ å·²ç»ı
Ġ é»ĳèī²
Ġ è¿ŀ
Ġ å£°éŁ³
Ġ åħīèĬĴ
Ġ æ´Ľ
Ġ åĲĦç§į
Ġ åĨįæ¬¡
Ġ åĲ¬è§ģ
Ġ æĸ°çļĦ
Ġ æĭ¿çĿĢ
Ġ ä»Ķç»Ĩ
Ġ å·¨å¤§çļĦ
Ġ æĹģè¾¹çļĦ
Ġ é½ĲæŀĹæł¼æĸ¯
Ġ å¯Łè§īåĪ°
Ġ å¸ĥæıĲæĸ¯
Ġ åĳĥ
Ġ åħ¨èº«éķľ
Ġ åĹĸ
Ġ ä¼ĬæĢĿåħ°çī¹
Ġ åį¡æĸ¯å¸ķæĸ¯
Ġ å¤ıå°Ķå¤«
Ġ å¾·å°ĶåĬ³
Ġ é£İå£°
Ġ ä¸ĥéģįä¹ĭåĲİ
İ åĽł
çļĦ åĩł
çļĦ åıĮ
çļĦ åĳ¨åĽ´
çļĦ è¡ĢèĤī
çļĦ åĲİç»Ń
çļĦ å§Ķæīĺ
çļĦ æĬĬæı¡
çļĦ çļ®èĤ¤
çļĦ é¢Ŀå¤´
çļĦ åĲ¯ç¤º
çļĦ æłĳæľ¨
çļĦ çĶŁçģµ
çļĦ ç§°åı·
çļĦ å°ĳå¹´
çļĦ ä¼ĺåĬ¿
çļĦ åĬ©æīĭ
çļĦ èī²å½©
çļĦ æ°ĽåĽ´
åı ¼
äºĨ ä½łçļĦ
ä¸Ģ çĶŁ
ä¸Ģ æıĲ
ä¸Ģ ç¿»
ä¸Ģ æ¯«
ä¸Ģ ä¸¾
ä¸Ģ ç³»åĪĹ
æĺ¯ æĪĳä»¬
ä¸į è§īå¾Ĺ
ä¸į è®©äºº
ä¸į è¡¨ç¤º
ä¸į ä»ĭæĦı
ä¸į è¿ľçļĦåľ°æĸ¹
ä¸į èµ°è¿Ĳ
æľī æĹ¶
æľī åĩł
æľī å¸ĮæľĽ
æľī å¤ªå¤ļçļĦ
æľī ä¸įå°ı
æľī åĪ©äºİ
è¿Ļ åĴĮæĪĳ
ä»ĸ æīĢ
ä»ĸ çĽ´æİ¥
ä»ĸ å¿ĥéĩĮ
ä»ĸ æł¹æľ¬
ä»ĸ å§ĭç»Ī
å¥ İåĽł
éĩ ľ
åľ¨ ç¥Ĥ
åľ¨ éĤ£äºĽ
åľ¨ å¡Ķç½Ĺä¼ļ
åľ¨ åľ°éĿ¢
æĥ ´
æĪĳ ç¬¬ä¸Ģæ¬¡
éģĵ è°¢
å¸ ħ
èİ± å°Ķ
åħĭèİ±æģ© çĽ´æİ¥
åħĭèİ±æģ© æľīäºĽ
åħĭèİ±æģ© åı³æīĭ
åħĭèİ±æģ© æĳĩå¤´
åħĭèİ±æģ© çļĦç²¾ç¥ŀ
åħĭèİ±æģ© ä¿ĿæĮģçĿĢ
åħĭèİ±æģ© ç«ĭåľ¨
åħĭèİ±æģ© æĮĩçĿĢ
åħĭèİ±æģ© çªģåľ°
åħĭèİ±æģ© æİ§åĪ¶ä½ı
åħĭèİ±æģ© æ²īåĲŁ
åħĭèİ±æģ© å¥½ç¬ĳ
åħĭèİ±æģ© åħĪæĺ¯ä¸ĢæĦ£
éĤ£ å¯¹
éĤ£ ä¸¤ä¸ª
éĤ£ æ®µæĹ¶éĹ´
éĤ£ åĩłä¸ª
åľ° èµ°åĲĳäºĨ
æŃ ¹
åĩº èĩª
æĿ¥ å®¢
æĿ¥ å¤ĦçĲĨ
æĿ¥ åºĶå¯¹
æĿ¥ äº¤æį¢
ä¸ĭ æ»ĳ
ä¸ĭ å®ļäºĨ
å°± å±ŀäºİ
å°± è¯´æĺİ
åĴĮ æĪĳçļĦ
åĴĮ æľĪç¥¨
åĴĮ éģĵæģ©
åĴĮ èµĦæºĲ
çº ¤
ä¸Ĭ åĪ°
ä¸Ĭ ç©º
ä¸Ĭ åįĩ
ä¸Ĭ ä¸ªæľĪ
æ²¡ æĢİä¹Ī
æ²¡ è§ģè¿ĩ
èĥ½ å°Ĩ
èĥ½ ç¡®å®ļ
ä¼ļ æĽ´åĬł
æĹ¶ ä¸Ģæł·
åī ¿
åī ĸ
å¤§ èĮĥåĽ´
çĦ¶ å¤§
å¯¹ ç§°
æĸ¯ æŀĹ
ä¸º æķĮ
ä½ł åĨį
ä½ł èĤ¯å®ļ
ä½ł ä¸įçĶ¨
è¾ ĸ
å¾Ĺ åİ»
å¾Ĺ çŁ¥
å¾Ĺ çĽ¸å½ĵ
å¾Ĺ çĽĬ
çĶŁ éĶĪ
èº« åĲİçļĦ
äºĨä¸Ģ èµ·
äºĨä¸Ģ æ®µæĹ¶éĹ´
çľĭ ä¸įæ¸ħæ¥ļ
ä»¥ æĿ¥çļĦ
åı¯ ä¸ĢæĹ¦
åīį åħĨ
çŁ ¢
å¼Ģ åľº
åĽŀ åİ»äºĨ
å¾· å·ŀ
å¾· èİ±å°Ķ
åıĳ è¨Ģ
åıĳ åŀĭ
åıĳ æ³Ħ
åıª åıª
æīĭ æĮģ
æīĭ ä¸ĭçļĦ
ç½ ²
åĮ Ģ
çī© åĴĮ
å°Ĩ ç¥Ĥ
çī¹ éķ¿
åİ» æİ¢ç´¢
èĩªå·± çļĦäºĭæĥħ
éĥ½ ä¸įå¤ª
è®© è¾¾å°¼åħ¹
çľ¼ å½±
å¥¹ å·²
å¥¹ çŁ¥éģĵ
å¥¹ å¿½çĦ¶
å¥¹ ç»Īäºİ
å¾Ī éĢĤåĲĪ
ä¸Ń æĮĩ
çĶ¨ æĦı
çĶ¨ å¤ļä¹ħ
æĹł åĬ©
æĹł è¡ĢèĢħ
Ġä»ĸ æľī
å°ı åı·
å°ı å°ıçļĦ
çģµ çŁ¥ä¼ļ
é»ĳ æĽľçŁ³
éĹ´ æĸŃ
è¢« ä»ĸä»¬
è¢« å¯¹æĸ¹
Ġè¿Ļ éĥ½æĺ¯
Ġè¿Ļ è¯´æĺİ
åħ¥ ä½ı
æİ¥ ç»Ń
åĲĮ ä¸º
åĲĮ åĮĸ
åĲĳ ä¸Ĭ
åıĪ èĮ«çĦ¶
ä½Ĩ å·²
ä½Ĩ æĪĳåı¯ä»¥
æľĢ ä¸Ĭæĸ¹
çŃī ä¸Ģä¸ĭ
äºĭæĥħ å°±
å¤ĸ æĿ¥çļĦ
æĺİ æ¾Ī
è¡Į äºĭ
å¤ª è¿ľ
æıĲ èµ·äºĨ
æµ· å¹³
åħĪçĶŁ ä»ĸä»¬
åħĪçĶŁ ç¥·åĳĬ
åıĺ éķ¿
åıĺ å¿«
çĽ¸ å·®
ä»İ æŃ¤
å®ĥ æľī
å®ĥ å°±
å®ĥ åı«
æīį çŁ¥éģĵ
æīį æĺ¯æľĢ
é«ĺ é«ĺçļĦ
ä¸İ ä»¥å¾Ģ
éĩį åĽŀ
Ġåħĭèİ±æģ© çĤ¹äºĨä¸ĭå¤´
å¹¶ éĢļè¿ĩ
åĩ¡ æľī
åĺ »
æ¢ Ĺ
åı¯ä»¥ ä»İ
éĴ Ŀ
è¿Ļä¸ª è¯į
ä¸įæĺ¯ åĲĹ
ä»ĸä»¬ è¿ĺ
ä»ĸä»¬ æ²¡æľī
éĩĳ çľ¼
æ·± å±Ĥæ¬¡
æ·± éĻ·
æ·± å±Ĥæ¬¡çļĦ
ç»Ļ èĩªå·±çļĦ
èĢģ å¹´
èĢģ å¥İåĽł
æīĵ èµ·
æīĵ äº¤éģĵ
æį £
åĸ Ł
æī¾ ä»ĸ
èĩ³ é«ĺ
èĩ³ åħ³
å¥ĩ è¯¡
åĪļ è¿Ľåħ¥
åĪ¶ å®ļçļĦ
çº³ åħ¥äºĨ
æļĹ éĩĳèī²
è½» ç¬ĳäºĨä¸Ģå£°éģĵ
æĭī ä¸Ĭ
å¾® å°ı
æĪ´ éĻĪæĹ§ä¸īè§Ĵå¸½
éĶ ¯
é£İ åĮĸ
çľĭè§ģ ä¸Ģä½į
çľĭè§ģ é»Ħæ°´æĻ¶åĲĬåĿł
æ¸ħ çĪ½
å¥¥é»Ľä¸½ ä¸Ģä¸ĭ
æ¯Ķ è¿Ļ
å¼º åº¦
çİĭ åŃĲçļĦ
æľª è¯´å®Į
åı¤ ç§°
å¼Ĥ åĬ¨
æĭ¿ æĸ¯
å·²ç»ı æ²¡æľī
å¦Ĥæŀľ æĤ¨
å¦Ĥæŀľ ä¸įèĥ½
åĬł äºĨ
åĪ« çļĦéĹ®é¢ĺ
åıĳçİ° è¿ĻéĩĮ
ä½İ äºİ
ä½İ ä½İ
ä½İ åĸĬ
ä½İ ç¬ĳäºĨä¸Ģå£°éģĵ
å¤ľ éĹ´
ä»ĸçļĦ èĥĮå½±
ç©¿ è¿ĩäºĨ
ä¼¼ä¹İ ç»Īäºİ
ä¼¼ä¹İ åıĺæĪĲäºĨ
ä¼¼ä¹İ å¤±åİ»äºĨ
å¯¹æĸ¹ ä¼ļ
æĮĩ åĩº
æĮĩ å®ļ
æĮĩ æĮ¥
ä¹ĭåīį çļĦäºĭæĥħ
ä¹ĭåīį éĤ£æł·
åŁİ åĮº
ä¸įä¼ļ æľīäºº
åĩºçİ° éĹ®é¢ĺ
æĸ° çļĦä¸Ģ
çĽ´æİ¥ å½±åĵį
çĽ´æİ¥ å¤±æİ§
ç«ĭ ä¸ĭ
ç«ĭ åĽ¾ä¹¦é¦Ĩ
ä¹¦ åį·
èĩªå·±çļĦ èĦĳè¢ĭ
èĩªå·±çļĦ åį§å®¤
åĿĲ äºĨèµ·æĿ¥
éľĢè¦ģ å¸®å¿Ļ
æ»¡ èĦĳåŃĲ
é»ĺ ç®Ĺ
è¿Ļæĺ¯ å¯¹
çļĦäºº ç¾¤
ä¸Ģä½į æĺ¯
æĹłæ³ķ è¨Ģåĸ
ç»Ī ç»ĵ
æµģ è¡Ģ
æı¡ äºĨ
è´Ŀåħĭåħ°å¾· éĵ¶è¡Į
åŃĺåľ¨ è¿ĩ
æĪĳçļĦ å»ºè®®
çľ¼çĿĽ å¾®çľ¯
ç´§ äºĨ
åıĬ èĨĿ
æĸ¯å¸ķç½Ĺ ä¸Ģçľ¼
åĪļæīį çļĦäºĭæĥħ
æĹ¥ åŃĲ
èĤ¯å®ļ ä¸įæĺ¯
éŃĶèį¯ åĲİ
ä¾§ èĦ¸
ä¾§ åīįæĸ¹
æķĻä¼ļ åĴĮ
ç¢ Ĺ
çļĦéĤ£ åıª
åıĸ åĩºäºĨä¸Ģä¸ª
è¡£ é¢Ĩ
éĺ¿èĴĻ æĺ¯
é£ŀ åĲĳ
éĤ£éĩĮ èİ·å¾Ĺ
å¿µ éģĵ
æ¯ı æĹ¥
åľ£ å¥³
åľ£ åīĳ
è¯· äºĨ
èĪ¹ å¤´
è°ĥ åĪ¶
äºĨåı£ ä¸Ń
åıĮ çľ¼çĿĽ
äºĶ æľĪ
æĬ¬ äºĨèµ·æĿ¥
æİ¨ æķ²
æİ¨ è¿Ł
æĢ» ä¸įèĥ½
åħ¬ è®¤
åħ¬ åĳĬ
åħ¬ åĽŃ
ç»Ħ æĪĲäºĨ
ä»¿ä½Ľ æĿ¥èĩª
åĢ¼ éĴ±
è¿Ļç§į å±Ĥæ¬¡çļĦ
ç±³ å¤ĸçļĦ
æŃ£å¸¸ äºĨ
å¼Ģåı£ è¯¢éĹ®
éĹª éģ¿
éĹª èĢĢ
å°ģåį° çļĦ
åĨĻ æľī
åĨĻ æ»¡äºĨ
ä¸Ģå®ļ ä¼ļ
è°ģ ä¹Łä¸įçŁ¥éģĵ
æĪĸèĢħ åºıåĪĹ
æĪĸèĢħ çĽ´æİ¥
åĢŁ åıĸ
çĶ» éĿ¢çļĦ
åıªèĥ½ ä»İ
åıªèĥ½ ç»´æĮģ
åıªèĥ½ åĭīå¼º
çľĭçĿĢ å®ĥ
çľĭçĿĢ å¯¹æĸ¹
èĩªèº« åĪĻ
æ·¡ åİ»
æį¢ æĪĲ
æį¢ äºĨä¸ª
å±ķ è§Ī
å¸ĮæľĽ çļĦ
èĦ± èĲ½
å®Įåħ¨ ä¸Ģèĩ´
æīĢæľī äºĭçī©
æīĢæľī çĶŁçģµ
çĶļèĩ³ æ²¡æľī
çĶļèĩ³ åı¯ä»¥
æľīçĤ¹ æĢĢçĸĳ
è¾ĥ é«ĺçļĦ
èĢĮä¸Ķ è¿ĺæľī
è¶ħ åĩº
æĳĨ åĩºä¸Ģåī¯
æķ£ åıĳåĩºäºĨ
é£Ł æ¬²
æĶ¹ çĶ¨
çľŁå®ŀ çļĦæĥ³æ³ķ
äº² äºº
æľ¨ çĽĴ
éĿŀåĩ¡çī¹æĢ§ ä¸įçģŃ
èµ« å¾·æĭīåħĭ
å¹¶ä¸į åŃĺåľ¨
å¹¶ä¸į æĦıå¤ĸ
æľ¬èº« ä¹Ł
äº§ ä¸ļ
ä¼¸ æİĮ
åĨĴ åĩºäºĨä¸Ģä¸ª
å®Ī åľ¨
ä¸ĢçĽ´ éĥ½
æ´¾ éģ£
åİĨåı² éĩĮ
åİĨåı² åŃ¦å®¶
æ¢¦å¢ĥ çļĦ
å·® ä¸ĢçĤ¹
æĬĵ çĿĢ
çĽ¸åºĶçļĦ æĿĲæĸĻ
çĽ¸åºĶçļĦ çº¿ç´¢
çĽ¸åºĶçļĦ åĨħå®¹
çĽ¸åºĶçļĦ éĿŀåĩ¡æĿĲæĸĻ
ä¹± ç³Ł
å°½ æĥħ
è¯» èĢħ
æĹłå£° åı¹äºĨåı£æ°Ķ
æĹłå£° åĲ¸äºĨåı£æ°Ķ
éĤĵæģ© åĴĮ
å°Ŀè¯ķ èµ·
åİĭ ä¸ĭ
éĢģ æĿ¥
åĳĬè¯ī èĩªå·±
åĩºäºĨä¸Ģ åıª
åĩºäºĨä¸Ģ æĬĬ
å¾Īå¤ļ å¾Īå¤ļ
æµ·çĽĹ èĪ¹
åİŁæľ¬ å±ŀäºİ
ä»ĺ åĩºçļĦ
ä¸įåĨį å¤ļè¯´
æīĵç®Ĺ çĶ¨
çļĦç¥ŀ èī²
çļĦç¥ŀ åĥı
ä¹Ŀ çĤ¹
åĨ² åĩº
åĨ² åĪ·
ä¸´ æĹ¶çļĦ
æī¾åĪ° æľºä¼ļ
éĤª çī©
è´µ éĩį
ä¸»æķĻ ä»¬
éĻį çĶŁ
è¿ĶåĽŀ è´Ŀåħĭåħ°å¾·
åĪ«çļĦ éĿŀåĩ¡èĢħ
çģµä½ĵ çļĦ
æ½ľ åħ¥äºĨ
æķ´ä¸ª æĪ¿éĹ´
åĺ´å·´ åįĬå¼ł
è£Ĥ å¼ĢäºĨ
åĪĴ çł´
æĪĸè®¸ å°±æĺ¯
æķ² å®ļäºĨ
æĽ´åĬł éĩįè¦ģ
ä¸ĩ åŃĹ
äº§çĶŁ äºĨä¸Ģä¸ª
äº§çĶŁ äºĨä¸Ģå®ļçļĦ
æĪĳä¼ļ åĬªåĬĽ
çļĦä¸» ä½ĵ
èı Į
èĢ³ è¾¹
èĢ³ çĨŁ
æĺ¯ä»Ģä¹Ī æĹ¶åĢĻ
ç©¶ç«Ł æľīå¤ļä¹Ī
å¤§æ¦Ĥ æĺ¯
ĠâĢľâĢ¦âĢ¦ âĢĺ
åĵªæĢķ æľī
è·ĥ äºĨåĩºæĿ¥
æ¶Į åĲĳäºĨ
æģ¶çģµ çļĦ
ä¸ĢæĿ¡ è¡Ĺéģĵ
è¡ĢæĹı ä¼¯çĪµ
è¡ĢæĹı é«ĺå±Ĥ
æµ®çİ° åĩºä¸Ģ
åĽŀåĪ° è´Ŀåħĭåħ°å¾·
åĽŀåĪ° å®¶ä¸Ń
æĻ¶ ä½ĵ
ç¾¤ ä½ĵ
è§Ĥä¼Ĺ åľ£èĢħ
åºĬ æ²¿
åºĬ éĵº
çļĦéĿŀåĩ¡èĢħ èģļä¼ļ
å¤§éĥ¨åĪĨ éĥ½
èģĮ è´£
è´µæĹı åŃĲå¼Ł
çĳŀ äºļ
ä¸įéľĢè¦ģ æĭħå¿ĥ
èģĶç³» åľ¨ä¸Ģèµ·
è±¡å¾ģ æĦıä¹ī
æİ¥è§¦ åĪ°çļĦ
æĹ©å°± å·²ç»ı
æĹ©å°± åĩĨå¤ĩå¥½çļĦ
æĪ´çĿĢ åħľå¸½
çŀĦ åĪ°
èĥ½å¤Ł æĪĲåĬŁ
éĹªçĶµ åĪĴè¿ĩ
çĺ ¤
éĽª èĬ±
éĺ» æĮ¡
çļĦçĪ µ
æĢ¨éŃĤ å¹½å½±
çº· äºī
ç»Ŀå¯¹ èĥ½
å¤§åľ° çļĦ
çªĥ èµ°
ä»Ķ ä»Ķç»Ĩ
ä½İæ²ī çļĦåĹĵéŁ³
æĪĺäºī éĩĮ
å¼ĹèĲ¨åħĭ åĴĮ
è°¨æħİ ä¸º
åģı æī§
å¯Ħ æĿ¥çļĦ
ç¬¼ç½© çļĦ
æĺ¾å¾Ĺ éĿŀå¸¸
æĺ¾å¾Ĺ æŀģä¸º
Ġè¿Ļä½į å¥³å£«
åº· çº³å¾·
æĬĸ äºĨä¸Ģä¸ĭ
å¿ħçĦ¶ æľī
åĲĵ åĶ¬
ä¹Łæ²¡ åĬŀæ³ķ
åıĪä¸Ģ é¢Ĺ
æĪĳæľī ä¸ª
ç²Ĺ å¤§
åĬ³ å·¥
çİ«çĳ°åŃ¦æ´¾ åįĬç¥ŀ
çĽĳ çī¢
æĭĽ å¾ħ
éļĲèĹı äºİ
éļĲèĹı èµ·æĿ¥
èİ«åĲį çļĦ
æ²īéĩį çľ¼éķľ
éĩįå¤į äºĨ
Ġè§ģ æł¼å°ĶæĽ¼
æĤĦ æĹłå£°æģ¯
æŀĦ æĪĲäºĨ
åĮħæĭ¬ ä½Ĩä¸į
è¿ĺæ²¡ åĪ°
éº¦ åħĭæĸ¯
æĶ¾ä¸ĭ æīĭä¸ŃçļĦ
çº¯ç²¹ çĶ±
å¯Ĵ æĦı
è¯¦ç»Ĩ çļĦ
æģĴ æĺŁ
é¤Ĳåİħ åĨħ
å¾·ç»´å°Ķ åĽ¾ä¹¦é¦Ĩ
åħ¶ä½Ļ åľ°æĸ¹
æ²¡æľīä»»ä½ķ åıĺåĮĸ
çĻ» èĪ¹
ä¼¸åĩº åıĮæīĭ
æĤ² çĹĽ
å¤ĸå¥Ĺ åĴĮ
åģļåĩºäºĨ åĪ¤æĸŃ
æĴŀ åľ¨äºĨ
è§ĦåĪĻ çļĦ
æĦķçĦ¶ åľ°
çļĦåħī çĤ¹
çľ¼ç¥ŀ éĩĮ
æĹ¶åĪ» æ³¨æĦı
åįķçīĩçľ¼éķľ çļĦéĺ¿èĴĻ
çĮ®ç¥Ń ä¸İèµĲäºĪ
æĭ¾ èµ·
æĭ¾ èµ·äºĨ
Ġåģļ å¥½
æĶ¯ä»ĺ äºĨ
æİıåĩº éĴ¥åĮĻ
åĽłä¸ºä»ĸ çŁ¥éģĵ
è§£è¯» åĩºäºĨ
åīįéĿ¢ éĥ¨åĪĨ
å¼¥æ¼« äºİ
æİ©é¥° èĩªå·±çļĦ
ä¹Łä¸įæĺ¯ éĤ£ä¹Ī
è°ĥæķ´ å¥½
çļĦèĢģ é¼ł
è®¤çŁ¥ åĪ°
ç´§å¼ł åĴĮ
æľįé£Ł äºĨ
æĺ¨æĻļ çļĦ
ç¬¬äºĶ éĥ¨
çī¢ è®°
çıĬ çĳļ
æºĥ æķ£
è¿ĻæĿ¡ è¡Ĺéģĵ
éĵ¶èī² çĽĶçĶ²
éĵ¶èī² åħ¨èº«çĽĶçĶ²
æĪĳåĴĮ ä½ł
æļĹèĩª æĿ¾äºĨåı£æ°Ķ
æł¼æĭī ç±³å°Ķ
èĻĶè¯ļ ä¿¡å¾Ĵ
æ¯ıå¤© éĥ½
åįķçº¯ åıªæĺ¯
ç»Ŀå¤§éĥ¨åĪĨ æĹ¶åĢĻ
æĥĬè®¶ åĴĮ
æ³Ľ é»Ħ
å»·æł¹å¸Ĥ åĢ¼å¤ľèĢħå°ıéĺŁ
æĶĴ éĴ±
äºĭæĥħçļĦ åıĳå±ķ
åıįå¤į çļĦ
èĬ±åĽŃ åĨħ
è½»æķ² äºĨä¸ĭ
å¢¨ ç»¿èī²
åħĭèİ±æģ©æĹłå£° èĩªè¯Ń
åħĭèİ±æģ©æĹłå£° èĩªè¯ŃäºĨä¸Ģåı¥
åĪĹè½¦ éķ¿
æľ«æĹ¥ æĿ¥ä¸´
ä¸¤ä¸ī å¤©
ç¥ŃåĿĽ ä¸Ĭ
åĽ¾éĵİ å®¶æĹı
åłĤå¨ľ åĴĮä¸¹é¡¿
çļĦç¾İ å¥½
è¿Ļæ®µæĹ¶éĹ´ çļĦ
ç¬¬äºĮçĻ¾ äºĮåįģ
æľ¬æĿ¥ æĥ³
åĺĢåĴķ éģĵ
åĺĢåĴķ äºĨä¸¤åı¥
å¯Ĩä¿®ä¼ļ é¦ĸé¢Ĩ
ä¸°æĶ¶ å¥³ç¥ŀ
æĲ¬ åĪ°
èµĸ çī¹
éĩįéĩį çĤ¹å¤´
çļĦçª ¥
å°½å¤´ çļĦ
èĥĸ ä¹İä¹İçļĦ
äººæł¼ éĿ¢åħ·
æ¼Ĥæµ® äºİåįĬç©º
è¯ŀ çĶŁçļĦ
çľ¯ èµ·
åħ´å¥ĭ åľ°
æŃ£éĿ¢ æĪĺæĸĹ
æ²¡äºº çŁ¥éģĵ
ä¸įèĩªè§ī å°±
å®¹çº³ äºĨ
å¼ºè°ĥ éģĵ
éĢ¼ å¾Ĺ
çļĦç¨ ³
æłĹ èī²
ä¸ĢéĹª èĢĮ
åįģåĩł äºĮåįģ
åħĭèİ±æģ©èĭ¥æľīæīĢæĢĿåľ° çĤ¹äºĨä¸ĭå¤´
èį£ èĢĢ
èį£ èªī
æįĲ çĮ®
éĵ¶åĪ¶ å°ıåĪĢ
åī§çĥĪ åĴ³åĹ½
Ġè¿Ļç§į æĥħåĨµä¸ĭ
ä¸Ĭåīį åĩłæŃ¥
ä¹¦æĪ¿ åĨħ
åĸĿäºĨåı£ çº¢èĮ¶
èĩ´åĳ½ ä¸Ģåĩ»
ä¸ĥåħ« å²ģ
ä¸Ģé¢Ĺ é¢Ĺ
èĩªå·±åľ¨ åģļæ¢¦
éĨī é¬¼
çļĦç´ ł
å··åŃĲ åĨħ
Ġè½°éļĨ éļĨ
å¹ķåĲİ é»ĳæīĭ
çĽ¸ä¼¼ çļĦ
è·Łåľ¨ åĲİéĿ¢
å°Ħåĩ» ä¿±ä¹Ĳéĥ¨
å«Į å¼ĥ
èĤ¤èī² åģı
åįĳ å¾®
æİĢ å¼Ģ
å½»åºķæ¶ĪåĮĸ å®Į
è¡Ģèħ¥ åĳ³
èĥĮè´Ł çĿĢ
åŁ¹ è®Ń
ä¸Ģæ¥¼ çļĦ
é±¼äºº è¢ĸéĴī
ç´« çº¹
ä¸Ģè¾Ĩ é©¬è½¦
äºĴæį¢ ä½įç½®
ç¥ŀä¹ĭ æŃĮèĢħ
æİ¥å¾ħ åİħ
æ¶¨ çº¢
åı®åĺ± äºĨä¸Ģåı¥
çģ°èī²çļĦ èĢģé¼ł
çķ¸ åıĺ
åłª æ¯Ķ
åĶ¯ä¸ĢçļĦéĹ®é¢ĺ åľ¨äºİ
å¿½çķ¥ äºĨ
åľ°ä¸ĭéģĹè¿¹ åĨħ
åĴ§ åĺ´
èĩªå¸¦ çļĦ
çķ¥æĺ¾èĭįèĢģ çļĦå£°éŁ³
çİ¯è§Ĩ äºĨä¸ĢåľĪ
åģļå¥½äºĨ åĩĨå¤ĩ
ç¼ķ ç¼ķ
èįĴèĬľ çļĦ
æīĭèħķ ä¸ĢæĬĸ
åĨ·å³ »çļĦ
å¥īçĮ® ç®±
å¤´çļ® åıĳéº»
æĪĳæĽ´ åĸľæ¬¢
èĵ¬ æĿ¾
è¿Ļä¼ļä¸įä¼ļ å¤ª
è¦ģç´ł é»İæĺİ
æĤ¬å´ĸ è¾¹ç¼ĺ
çĮ«å¤´é¹° åĵĪéĩĮ
æ·±æµ· å¨ľè¿¦
çº¯çĻ½ å¤©ä½¿
æ²īæµ¸ äºİ
è¥¿ç»´æĭīæĸ¯ åľº
ä¹³ çĻ½èī²çļĦ
ä¸¤æĬĬ çĽ´åīĳ
æ£ķåıĳ å¥³åŃ©
çĤ¼éĩĳ å®¤
æ·±åĪ»çļĦ åį°è±¡
çļĦç²ī æľ«
æĶ¯éħį èĢħ
å¥½ä¹ħ ä¸įè§ģ
å¦ĵ éĻ¢
ä¸Ģä¸įå°ıå¿ĥ å°±ä¼ļ
éĶ®çĽĺ å¼ºèĢħ
å®µ ç¦ģ
ä¾¿çŃ¾ çº¸
æŁĲç§įç¨ĭåº¦ ä¸ĬçļĦ
çļĦçıŃ æ£®
æĹłåĲį å°ıå²Ľ
å¡«é¥± èĤļåŃĲ
å¥¥å¸ĥå°¼æĸ¯ æµ·æĢª
åĳĬä¸Ģæ®µ èĲ½
è¯·åħģè®¸ æĪĳ
éļıçĿĢæĹ¶éĹ´çļĦ æİ¨ç§»
è§ģä¸Ģ è§ģ
ç»Ĩç»Ĩ çļĦ
åĳ½è¿Ĳä¹ĭ è½®
çĽ´ç³» åĲİè£Ķ
ĠéĤ£æł· ä¸ĢæĿ¥
æĪĳä»¥æĪĳçļĦåĲįä¹ī åı¬åĶ¤
åĪ°çĽ®åīį ä¸ºæŃ¢
å¸ķæĸ¯ æ²³è°·
æľĪåŃ£ èĬ±è¡Ĺ
æ¸² æŁĵ
æĲĢ æī¶
é¦Ļæłĳåı¶ éħĴåĲ§
ç»ľèħ® èĥ¡
¹é¥ ª
éĦ Ļ
å¾·èİ±å°Ķ æ£®æŀĹ
çľ¼å½± åĴĮ
ä»Ķä»Ķç»Ĩ ç»Ĩ
åĮħæĭ¬ä½Ĩä¸į éĻĲäºİ
2 9
¢ å°¾
¨ ç³Ĭ
® è¾±
Ġ åĳµ
Ġ é¢Ŀ
Ġ çľŁçļĦ
Ġ ç¡®å®ŀ
Ġ æľĢè¿ĳ
Ġ å¤§å¸Ŀ
Ġ ï¼Ī
Ġ æĪ¿éĹ¨
Ġ æĦŁè°¢
Ġ èī¾å¼¥çķĻæĸ¯
Ġ åıĪæĺ¯
Ġ ä»ħä»ħ
Ġ çŀĦäºĨçľ¼
Ġ åĶĶ
Ġ è´ĿåħĭæľĹ
Ġ æ¸ħæĻ¨
Ġ ps
Ġ åĨįåĬłä¸Ĭ
Ġ æĪĸè®¸æĺ¯
Ġ æĢ»ç®Ĺ
Ġ çĻ½éĵ¶ä¹ĭåŁİ
Ġ æ·±å¤ľ
Ĥ åĽŀ
ĥ åıĸ
Ĩ å°½
Ĭ æĥĳ
ĸ å·§
Ŀ åģ
çļ ¿
çļĦ éĿ¢
çļĦ é¢Ĩ
çļĦ éĺ¿åħ¹åħĭ
çļĦ çģµä½ĵ
çļĦ éŃĶå¥³
çļĦ çĶŁåĳ½
çļĦ æŀ¶
çļĦ å¥³ä»Ĩ
çļĦ æľ¬ä½ĵ
çļĦ è¢Ńåĩ»
çļĦ ç»ĿæľĽ
çļĦ æĢĿè·¯
çļĦ çľ¼ä¸Ń
çļĦ èº«æĹģ
çļĦ åĪĻæĺ¯
çļĦ åĲİæĸ¹
çļĦ èįīèį¯
çļĦ è¡Ģèī²
çļĦ ä½ĵéªĮ
çļĦ åĬ¨çī©
çļĦ å°¾å£°
çļĦ åĳ½ä»¤
çļĦ å§Ķåĳĺ
çļĦ æĦıåĽ¾
çļĦ åĳ¼åĸĬ
äº ¢
è¿ ĤåĽŀ
äºĨ ä»ĸä»¬
äºĨ ä¸įçŁ¥å¤ļå°ĳ
ä¸Ģ é¡¶
ä¸Ģ é¢¤
ä¸Ģ è´¯
ä½ Ŀåģ
ä¹ ĸå·§
æĺ¯ éĢļè¿ĩ
æĺ¯ ç¬¬åĽĽçºª
ä¸į èĢĲ
ä¸į åħģè®¸
æľī åºı
æľī å¾ħ
æľī åĬŀæ³ķ
æľī ä½Ļ
æľī ä¸¤ç§į
æľī åĲįçļĦ
æľī ä¿¡å¿ĥ
è¯ ī
è¿Ļ ç®Ĺ
è¿Ļ æĿ¥èĩª
è¿Ļ ä¸¤ä½į
ä»ĸ ç¦»å¼Ģ
ä»ĸ çĽ®åħī
ä»ĸ è¿ħéĢŁ
ä»ĸ æĿ¥åĪ°
ä»ĸ ä¸ĭæĦıè¯Ĩ
ä»ĸ åĳĬè¯īæĪĳ
ä»ĸ èĢ³çķĶ
ä»ĸ åĲ¬åĪ°äºĨ
å¼ Ľ
å¼ Ń
åľ¨ ä¸Ģ
åľ¨ ä¸į
åľ¨ èº«ä¸Ĭ
åľ¨ å¿ĥä¸Ń
åľ¨ å¤ĸçķĮ
æĪĳ ä¼¼ä¹İ
æĪĳ å®Įåħ¨
æĪĳ ç»Īäºİ
æĪĳ ç«ŁçĦ¶
æĪĳ æīįèĥ½
æĪĳ æĭħå¿ĥ
æĪĳ è¿ĺèĥ½
æĪĳ éĥ½èĥ½
æĪĳ çļĦçĪ¶äº²
æĪĳ åıªæĺ¯ä¸Ģä¸ª
å· ¢
åħĭèİ±æģ© åįĬ
åħĭèİ±æģ© åıªæĺ¯
åħĭèİ±æģ© èĻ½çĦ¶
åħĭèİ±æģ© ç»§ç»Ń
åħĭèİ±æģ© ç®Ģåįķ
åħĭèİ±æģ© éļıæĦı
åħĭèİ±æģ© å¾®ä¸įåı¯è§ģåľ°
åħĭèİ±æģ© çŀĦäºĨçľ¼
åħĭèİ±æģ© çŀ³åŃĶ
åħĭèİ±æģ© ä¸ĢæĹ¶ç«Ł
éĤ£ å°Ĩ
éĤ£ å±Ĥ
éĤ£ å¸®
éĤ£ æ»´
éĤ£ æī¹
éĤ£ ä¸¤ä»¶
çĿĢ åĺ´åĶĩ
åĪ° è®©äºº
çĽ Ĩ
æĿ¥ å¾Ĺ
éĢ ŀ
åĴĮ æľĭåıĭ
åĴĮ çĹĽèĭ¦
åĴĮ çĲĨæĻº
æ²¡ æľºä¼ļ
æ²¡ éģĵçĲĨ
æ²¡ å¥½æ°Ķ
ä¹ĭ ç±»
èĢħ ä¹ĭä¸Ģ
èĩª åĬ©
èĩª ä¿Ŀ
æĭ Į
è¿ĩ åº¦
è¿ĩ äºĨåĩłç§Ĵ
ç¥ŀ ä½į
ç¥ŀ çľ·èĢħ
ä¸º äºĨä¸Ģ
ä½ł æīį
ä½ł è¯¥
ä½ł æĥ³è¦ģ
ä½ł æľĢå¥½
ä½ł ä¸ºä»Ģä¹Īä¼ļ
åĲİ åįĬ
å¾Ĺ å¹²å¹²åĩĢåĩĢ
çĶŁ æķĪ
çĶŁ æ¶©
äºĨä¸Ģ æĬĬ
çľĭ åĩºäºĨ
ä»¥ ä»ĸçļĦ
ä¹Ł é¡¶å¤ļ
çİ° ä»»
æĥ³ ç¬ĳ
æĥ³ èģĶ
æĥ³ äºĨåĩłç§Ĵ
æĥ³ è¡¨è¾¾
ä½į ç©¿
åīį æ®µæĹ¶éĹ´
çŁ ©
åĽŀ äºĨä¸Ģåı¥
åĽŀ æĥ³çĿĢ
æĪĲ åĵģ
è¿ĺ ä¸įæĺ¯
è¿ĺ ä¿ĿæĮģçĿĢ
èĢĮ å¥¹
èĢĮ è¿ĻäºĽ
èĢĮ æĪĲçļĦ
äºĭ åħĪ
æ¯ ħ
åıĳ åħī
åıĳ çº¢
åıĳ å¸ĥ
èī ¹
æīĭ ä¸ĬçļĦ
çī© ç§į
æ²¡æľī è°ģ
å¤´ çĽ®
å¤´ çĹĽ
å°Ĩ è¢«
å°Ĩ è¿Ļä¸ª
å°Ĩ éĤ£äºĽ
åİ» åĪ«çļĦåľ°æĸ¹
èĩªå·± è¢«
è®© éĤ£ä½į
å¥¹ è¿ĺæĺ¯
å¿ĥ æĿ¥
å¾Ī ç¬¦åĲĪ
å¤ļ çĵ¦
å¤ļ äºĨä¸įå°ĳ
è§ģ ä»ĸ
æĹł æīĢè°ĵ
æĹł èĥ½ä¸º
æĹł åĩĨå¤ĩçļĦè¡¨æ¼Ķ
Ġä»ĸ é¡¿
Ġä»ĸ ç»Īäºİ
Ġä»ĸ å®³æĢķ
Ġä»ĸ å¾Īæ¸ħæ¥ļ
Ġä»ĸ é¡¿äºĨä¸Ģä¸ĭ
çģµ åŃĲå¼¹
ä¾ ®è¾±
Ġè¿Ļ åı¯æĺ¯
Ġè¿Ļ ä¸ĢåĪĩ
ä½ĵ éŃĦ
åģļ ä¹īå·¥
å¤© é»ĳ
å¤© è¾¹
åĲĮ æŃ¥
åıĪ ä¸į
åıĪ æľīäºĨ
åıĪ æĺ¯è°ģ
ä½Ĩ å¯¹æĸ¹
ä½Ĩ åıªèĥ½
ä½Ĩ ä½ľä¸º
ä½Ĩ å§ĭç»Ī
æľĢ æł¸å¿ĥ
åĿ Ĭ
çŃī ä»ĸ
çŃī åįĬç¥ŀ
æł¼ ç½Ĺ
çľŁ å¥½
çļĦç ¹ģ
ä¸¤ å¤§
éķ¿ åŃĲ
å¤ĸ åĬĽ
ç½Ĺ å°Ķ
æĺİ å¹´
å·² æ²¡æľī
æıĲ åıĸ
æıĲ åĩºçļĦ
åĩł åįĥå¹´
åĩł çĻ¾å¹´
åħĪçĶŁ æľī
åħĪçĶŁ ä¼ļ
çĽ¸ ä»¿
ä»İ åħĭèİ±æģ©
ä»İ èĩªå·±
ä»İ çģµçķĮ
ä¸» åľº
éĺ¿ åļı
å®ĥ æīĢ
éĹ¨ ä¸Ĭ
åĪ°äºĨ èĩªå·±
å¦Ĥ æĦ¿
å½± å½±
åĨį å¤ļ
åĨį æĹł
éŃĶ åŃĲå¼¹
å®ī æĶ¾
é«ĺ è´µ
çĸ ²
çĸ ¾
åĪĹ å¥¥å¾·
Ġåħĭèİ±æģ© åĺ´è§Ĵ
Ġåħĭèİ±æģ© çļĦèº«å½±
Ġåħĭèİ±æģ© ä¿ĿæĮģçĿĢ
å®Į ç»ĵ
å®Į æĹ©é¤Ĳ
ç¬¬ ä¸Ģä½į
éĴ ©
æĽ´ èĥ½
æĽ´ å¿«
æĽ´ å®īåħ¨
è¿Ļä¸ª æ¦Ĥå¿µ
ä¸įæĺ¯ æĪĳ
ä»ĸä»¬ æĪĸ
èµ° åĬ¨
æ·± èĵĿèī²
åºıåĪĹ åĩł
åºıåĪĹ éŃĶèį¯
èĢģ æĹ§
èĢģ ç»ĥ
æīĵ æĸĹ
æīĵ æī«
æīĵ æĭĽåĳ¼
å¤± å¸¸
ä¸ī æŃ¥
ä¸ī åī¯
æī¾ è°ģ
æł¹ èĮ
åĲ¬ ä¸įåĪ°
èĩ³ åºıåĪĹ
ä¼¦ ä½Ĳ
åįģ ä¸ª
æ²ī éĹ·
å¥ĩ å¥ĩæĢª
è½¬ æĬĺ
è½¬ äº¤ç»Ļ
æļĹ æ²ī
æļĹ åı·
è½» å£°
æŃ» åĪĳ
æĭī éķ¿
æ® Ĩå°½
è¯Ŀ æľªè¯´å®Į
åĥı æĪĳ
å¾® æī¬
è¿ĳ åĽĽ
æĪ´ åľ¨äºĨ
éĶ ¢
å¼ł åĬĽ
çº¢ å®ĿçŁ³çļĦ
é© °
çľĭè§ģ èĩªå·±
çľĭè§ģ ä¸Ģä¸ª
è§Ĩ åĬĽ
è§Ĩ æĥħåĨµ
å¥¥é»Ľä¸½ ä¹Ł
å¥¥é»Ľä¸½ åıĪ
çĮ Ŀ
å¾Ģ å·¦
å¾Ģ ä¸ĭçļĦ
å¾Ģ åĽĽåĳ¨
æĪ¿ ç§Ł
æĪĳä»¬ å°Ĩ
æĪĳä»¬ éľĢè¦ģ
åı¤ æĹ§
æĭ¿ ä½ı
åı¯èĥ½ æ¶īåıĬ
æĶ¶ ä¸ĭ
æĶ¶ èµ·äºĨ
æĶ¶ åī²
åİŁ çīĪ
åĪ« æīŃ
æ¶Ī å¼Ń
[...]
