{"<s>":0,"<pad>":1,"</s>":2,"<unk>":3,"<mask>":4,"!":5,"\"":6,"#":7,"$":8,"%":9,"&":10,"'":11,"(":12,")":13,"*":14,"+":15,",":16,"-":17,".":18,"/":19,"0":20,"1":21,"2":22,"3":23,"4":24,"5":25,"6":26,"7":27,"8":28,"9":29,":":30,";":31,"<":32,"=":33,">":34,"?":35,"@":36,"A":37,"B":38,"C":39,"D":40,"E":41,"F":42,"G":43,"H":44,"I":45,"J":46,"K":47,"L":48,"M":49,"N":50,"O":51,"P":52,"Q":53,"R":54,"S":55,"T":56,"U":57,"V":58,"W":59,"X":60,"Y":61,"Z":62,"[":63,"\\":64,"]":65,"^":66,"_":67,"`":68,"a":69,"b":70,"c":71,"d":72,"e":73,"f":74,"g":75,"h":76,"i":77,"j":78,"k":79,"l":80,"m":81,"n":82,"o":83,"p":84,"q":85,"r":86,"s":87,"t":88,"u":89,"v":90,"w":91,"x":92,"y":93,"z":94,"{":95,"|":96,"}":97,"~":98,"¡":99,"¢":100,"£":101,"¤":102,"¥":103,"¦":104,"§":105,"¨":106,"©":107,"ª":108,"«":109,"¬":110,"®":111,"¯":112,"°":113,"±":114,"²":115,"³":116,"´":117,"µ":118,"¶":119,"·":120,"¸":121,"¹":122,"º":123,"»":124,"¼":125,"½":126,"¾":127,"¿":128,"À":129,"Á":130,"Â":131,"Ã":132,"Ä":133,"Å":134,"Æ":135,"Ç":136,"È":137,"É":138,"Ê":139,"Ë":140,"Ì":141,"Í":142,"Î":143,"Ï":144,"Ð":145,"Ñ":146,"Ò":147,"Ó":148,"Ô":149,"Õ":150,"Ö":151,"×":152,"Ø":153,"Ù":154,"Ú":155,"Û":156,"Ü":157,"Ý":158,"Þ":159,"ß":160,"à":161,"á":162,"â":163,"ã":164,"ä":165,"å":166,"æ":167,"ç":168,"è":169,"é":170,"ê":171,"ë":172,"ì":173,"í":174,"î":175,"ï":176,"ð":177,"ñ":178,"ò":179,"ó":180,"ô":181,"õ":182,"ö":183,"÷":184,"ø":185,"ù":186,"ú":187,"û":188,"ü":189,"ý":190,"þ":191,"ÿ":192,"Ā":193,"ā":194,"Ă":195,"ă":196,"Ą":197,"ą":198,"Ć":199,"ć":200,"Ĉ":201,"ĉ":202,"Ċ":203,"ċ":204,"Č":205,"č":206,"Ď":207,"ď":208,"Đ":209,"đ":210,"Ē":211,"ē":212,"Ĕ":213,"ĕ":214,"Ė":215,"ė":216,"Ę":217,"ę":218,"Ě":219,"ě":220,"Ĝ":221,"ĝ":222,"Ğ":223,"ğ":224,"Ġ":225,"ġ":226,"Ģ":227,"ģ":228,"Ĥ":229,"ĥ":230,"Ħ":231,"ħ":232,"Ĩ":233,"ĩ":234,"Ī":235,"ī":236,"Ĭ":237,"ĭ":238,"Į":239,"į":240,"İ":241,"ı":242,"Ĳ":243,"ĳ":244,"Ĵ":245,"ĵ":246,"Ķ":247,"ķ":248,"ĸ":249,"Ĺ":250,"ĺ":251,"Ļ":252,"ļ":253,"Ľ":254,"ľ":255,"Ŀ":256,"ŀ":257,"Ł":258,"ł":259,"Ń":260,"ï¼":261,"ï¼Į":262,"čĊ":263,"ĠĠ":264,"ä¸":265,"âĢ":266,"çļ":267,"çļĦ":268,"äº":269,"ĠĠĠ":270,"ä»":271,"ãĢ":272,"ãĢĤ":273,"è¿":274,"åı":275,"äºĨ":276,"åħ":277,"æľ":278,"âĢľ":279,"å¤":280,"å°":281,"âĢĿ":282,"ä¸Ģ":283,"ä½":284,"æĺ":285,"ä¹":286,"åľ":287,"åĪ":288,"åĲ":289,"æĪ":290,"âĢ¦":291,"å®":292,"æĺ¯":293,"å¾":294,"ä¸į":295,"æľī":296,"ĠâĢľ":297,"åĩ":298,"è¯":299,"ä¼":300,"è¿Ļ":301,"æī":302,"æĹ":303,"æĿ":304,"æģ":305,"ä»ĸ":306,"å¥":307,"æĸ":308,"èĢ":309,"åį":310,"éģ":311,"åħĭ":312,"ç»":313,"éĩ":314,"çľ":315,"èİ":316,"å¼":317,"çĶ":318,"åľ¨":319,"æĥ":320,"æģ©":321,"åĽ":322,"çĿ":323,"æĪĳ":324,"éĤ":325,"ĥ½":326,"è§":327,"è®":328,"éģĵ":329,"âĢ¦âĢ¦":330,"å¸":331,"æĢ":332,"åĬ":333,"åĨ":334,"æ²":335,"éĹ":336,"èİ±":337,"éĿ":338,"çī":339,"å·":340,"ä¸ª":341,"åħĭèİ±":342,"åħĭèİ±æģ©":343,"éĤ£":344,"çĿĢ":345,"å¿":346,"å¯":347,"ç¥":348,"èµ":349,"äºº":350,"åĴ":351,"åĪ°":352,"åľ°":353,"æŃ":354,"æł":355,"åº":356,"èĩ":357,"åĩº":358,"ï¼ļ":359,"çĽ":360,"æĦ":361,"æĿ¥":362,"è¡":363,"æİ":364,"ç§":365,"ãĢĤâĢĿ":366,"ä¸ĭ":367,"å°±":368,"çİ":369,"éĩĮ":370,"éĢ":371,"åĴĮ":372,"çº":373,"ä¸Ĭ":374,"æ²¡":375,"èĥ½":376,"åİ":377,"ä¼ļ":378,"å°Ķ":379,"åĳ":380,"åŃ":381,"--":382,"é»":383,"æķ":384,"å½":385,"æĹ¶":386,"ä¹ĭ":387,"éĺ":388,"å¹":389,"èĢħ":390,"èĩª":391,"æĬ":392,"çĦ":393,"ï¼Ł":394,"çģ":395,"æĭ":396,"è¿ĩ":397,"ä¹Ī":398,"åī":399,"ç¬":400,"ç¥ŀ":401,"å¤§":402,"çĦ¶":403,"å¯¹":404,"èº":405,"æĸ¯":406,"ä¸º":407,"ä»¬":408,"ä½ł":409,"æŀ":410,"åĲİ":411,"è¾":412,"çĤ":413,"å¾Ĺ":414,"çĶŁ":415,"èº«":416,"æĥħ":417,"éļ":418,"åģ":419,"äºĨä¸Ģ":420,"æ³":421,"çľĭ":422,"æµ":423,"ä»¥":424,"ä¹Ł":425,"èµ·":426,"çİ°":427,"è¦":428,"åı¯":429,"éĿ¢":430,"äºİ":431,"è½":432,"è¦ģ":433,"éĻ":434,"æĥ³":435,"åĵ":436,"ä½į":437,"çĤ¹":438,"å±":439,"é¢":440,"å£":441,"åīį":442,"è¯´":443,"éķ":444,"ï¼ģ":445,"æĸ¹":446,"è´":447,"çŁ":448,"å¼Ģ":449,"è¢":450,"âĢĺ":451,"âĢĻ":452,"çŃ":453,"æĶ":454,"åĽŀ":455,"æı":456,"æĪĲ":457,"è¿ĺ":458,"å¾·":459,"èĢĮ":460,"äºĭ":461,"æ¯":462,"åıĳ":463,"æ°":464,"åıª":465,"åĢ":466,"èī":467,"æīĭ":468,"ç½":469,"çķ":470,"å¥½":471,"åĮ":472,"çī©":473,"æĽ":474,"æ²¡æľī":475,"ç«":476,"æ¬":477,"éĽ":478,"å¤´":479,"å°Ĩ":480,"ä¿":481,"çī¹":482,"åİ»":483,"å·±":484,"èĩªå·±":485,"éĥ½":486,"ä»Ģ":487,"ä»Ģä¹Ī":488,"è®©":489,"çľ¼":490,"æĮ":491,"å¥¹":492,"èĦ":493,"éĹ®":494,"å§":495,"å¿ĥ":496,"æŃ£":497,"å¾Ī":498,"åĨħ":499,"å¤ļ":500,"æĦı":501,"ä¸Ń":502,"åŃĲ":503,"è§ģ":504,"çĶ¨":505,"æĹł":506,"åħĪ":507,"æł·":508,"æ¸":509,"Ġä»ĸ":510,"å°ı":511,"çĻ":512,"çģµ":513,"----":514,"é»ĳ":515,"éĹ´":516,"å¦":517,"åŁ":518,"å®ļ":519,"ä¾":520,"ä¸Ģä¸ª":521,"æŁ":522,"ç©":523,"è¢«":524,"æĻ":525,"Ġè¿Ļ":526,"çŁ¥":527,"æ³ķ":528,"åĬ¨":529,"åºĶ":530,"ä½ĵ":531,"åģļ":532,"ãĢģ":533,"é¡":534,"ï¼ŁâĢĿ":535,"åħ¥":536,"æ·":537,"é£":538,"åı£":539,"äºĽ":540,"èī²":541,"éĿŀ":542,"å¤©":543,"æļ":544,"æİ¥":545,"åĲĮ":546,"æ´":547,"åĲĳ":548,"è¶":549,"åıĪ":550,"å®¶":551,"åĬĽ":552,"å£°":553,"ä½Ĩ":554,"æľĢ":555,"åħī":556,"åĿ":557,"éŃ":558,"çŃī":559,"æł¼":560,"æ¬¡":561,"éľ":562,"çľŁ":563,"éĵ":564,"å½ĵ":565,"çļĦç":566,"ä¸¤":567,"è°":568,"äºĭæĥħ":569,"çĻ½":570,"éķ¿":571,"èĤ":572,"ç§į":573,"æ¶":574,"å¤ĸ":575,"ç½Ĺ":576,"æľ¬":577,"ç®":578,"æĺİ":579,"è·":580,"åĪĨ":581,"å·²":582,"è¡Į":583,"ç¬ĳ":584,"å®ŀ":585,"éĥ":586,"æĦŁ":587,"ç´":588,"å¤ª":589,"æıĲ":590,"åĩł":591,"ä¸½":592,"ç»ı":593,"æµ·":594,"ç¼":595,"åĽł":596,"å¥³":597,"åħĪçĶŁ":598,"å¸¸":599,"åıĺ":600,"çĽ¸":601,"ä»İ":602,"æĢĿ":603,"çĽ´":604,"ç§ĺ":605,"æ±":606,"ä¸»":607,"è¾¹":608,"æīĢ":609,"éĺ¿":610,"å®ĥ":611,"éĹ¨":612,"åĪ°äºĨ":613,"æľĽ":614,"è§ī":615,"å¦Ĥ":616,"æķĻ":617,"èĻ":618,"æīį":619,"æŀľ":620,"å½±":621,"æ°Ķ":622,"ä½ı":623,"é«":624,"èį":625,"åĨį":626,"éŃĶ":627,"çĲ":628,"èĪ":629,"å®ī":630,"é«ĺ":631,"çĸ":632,"ä½¿":633,"åĪĹ":634,"ä¸İ":635,"éĥ¨":636,"ä¿¡":637,"éĩį":638,"Ġåħĭèİ±æģ©":639,"å¡":640,"å¹¶":641,"è¡¨":642,"æĢ§":643,"çĥ":644,"åĩ¡":645,"ï¼ĮâĢľ":646,"åķ":647,"ä¼¼":648,"åĺ":649,"è¿Ľ":650,"çķĮ":651,"åįĬ":652,"æ¢":653,"åı¯ä»¥":654,"æĤ":655,"å®Į":656,"ç¬¬":657,"éĴ":658,"çĽ®":659,"æĽ´":660,"å¥¥":661,"èĴ":662,"è¿Ļä¸ª":663,"åºı":664,"çª":665,"èĲ":666,"èĥ":667,"éħ":668,"ä¸įæĺ¯":669,"è®°":670,"ä»ĸä»¬":671,"èµ°":672,"âĢ¦âĢ¦âĢĿ":673,"æĪĸ":674,"éĿŀåĩ¡":675,"éĩĳ":676,"è®¤":677,"æ·±":678,"ç¦":679,"å¿«":680,"èĬ":681,"åºıåĪĹ":682,"ç»Ļ":683,"ç±":684,"æĳ":685,"æľĪ":686,"å°ĳ":687,"èĢģ":688,"æīĵ":689,"çĪ":690,"é¢ĺ":691,"åĥ":692,"æŃ¤":693,"å°±æĺ¯":694,"é»Ľ":695,"å¤±":696,"æį":697,"æ»":698,"åĸ":699,"å°¼":700,"ä¸ī":701,"æī¾":702,"èĭ":703,"å¤Ħ":704,"å¨":705,"çŁ¥éģĵ":706,"è§£":707,"æł¹":708,"åĲ¬":709,"èĩ³":710,"æħ":711,"ä¸ĸ":712,"ä¼¦":713,"åįģ":714,"ä¹İ":715,"æ²ī":716,"çĭ":717,"ç¡":718,"å¥ĩ":719,"ä½ľ":720,"æŃ¥":721,"åĪļ":722,"è¯Ń":723,"åħ°":724,"åĪ¶":725,"è½¬":726,"çº³":727,"èģ":728,"æļĹ":729,"å¢":730,"ä»¶":731,"âĢĿï¼Į":732,"éļĲ":733,"è½»":734,"æŃ»":735,"æĭī":736,"æ®":737,"çĲĨ":738,"éĹ®é¢ĺ":739,"æĶ¾":740,"è¯Ŀ":741,"æ¡":742,"è¡Ģ":743,"åĥı":744,"å¾®":745,"ä½Ľ":746,"è¿ĳ":747,"æĪ´":748,"è®¸":749,"ļèĢħ":750,"éĶ":751,"é£İ":752,"æ£":753,"å¼ł":754,"ç¦»":755,"åĳ¨":756,"éĢļ":757,"çº¢":758,"é©":759,"è£":760,"çľĭè§ģ":761,"æ¸ħ":762,"åĮĸ":763,"è±":764,"è§Ĩ":765,"å¥¥é»Ľ":766,"å¥¥é»Ľä¸½":767,"é¦":768,"åĲĪ":769,"è¾¾":770,"æ¯Ķ":771,"äºĨä¸ĭ":772,"åħ¨":773,"ç©º":774,"éļı":775,"çģ°":776,"è¯¥":777,"éļ¾":778,"çĮ":779,"åĹ":780,"å¾Ģ":781,"åĢĻ":782,"åĶ":783,"ä¸ĸçķĮ":784,"å¹´":785,"æĪ¿":786,"åł":787,"å¼º":788,"æĦļèĢħ":789,"çİĭ":790,"æĪĳä»¬":791,"åı¥":792,"äºļ":793,"åĩºäºĨ":794,"ç¨":795,"æĹ¶åĢĻ":796,"åĲį":797,"ç¡®":798,"å¸Ī":799,"æľª":800,"å£«":801,"åĳĺ":802,"éª":803,"åĽłä¸º":804,"éĿĻ":805,"è´Ŀ":806,"åı¤":807,"--------":808,"åį³":809,"æŀĹ":810,"è¯Ĩ":811,"å±Ĥ":812,"éĽ¾":813,"å¼Ĥ":814,"æĭ¿":815,"åı¯èĥ½":816,"æ¼":817,"å·²ç»ı":818,"éĻ©":819,"å¦Ĥæŀľ":820,"æĶ¶":821,"åİŁ":822,"åĪ©":823,"ç¤":824,"åĬł":825,"æĿ¡":826,"èĲ½":827,"ç´¢":828,"å¼ı":829,"å¤į":830,"¥¿":831,"åħ¶":832,"åŃ¦":833,"åĪ«":834,"çĬ":835,"æĺ¾":836,"æ±Ĥ":837,"æ¶Ī":838,"åħ¹":839,"æ°´":840,"ç²":841,"å¸¦":842,"åıĳçİ°":843,"å¸ķ":844,"çŃĶ":845,"åıį":846,"ä½İ":847,"éĤ£ä¸ª":848,"æĬ¥":849,"âĢĶ":850,"éŁ":851,"äºĮ":852,"åħ³":853,"ç®Ĺ":854,"æľº":855,"åıĹ":856,"å»":857,"å®¹":858,"ç¥Ĥ":859,"éĩı":860,"åįķ":861,"éĵ¶":862,"ç»ĵ":863,"çīĩ":864,"éĺ³":865,"å¤ľ":866,"åľº":867,"å·¨":868,"ä»ĸçļĦ":869,"è¯´éģĵ":870,"ç¾":871,"ç©¿":872,"åįł":873,"åĵģ":874,"åĢĴ":875,"çļĦäºĭæĥħ":876,"èĦĳ":877,"è¿ĻéĩĮ":878,"åĲĹ":879,"ä¼¼ä¹İ":880,"èį¯":881,"å¯¹æĸ¹":882,"æĮĩ":883,"èħ":884,"åĽĽ":885,"åķĬ":886,"åĮº":887,"æĽ¼":888,"éŁ³":889,"æĢģ":890,"½çĦ¶":891,"éľĢ":892,"ä¹ĭåīį":893,"åĬ©":894,"å¤ĩ":895,"ï¼ģâĢĿ":896,"çł":897,"å§Ĩ":898,"è¶Ĭ":899,"åŃĺ":900,"çº¿":901,"äº¤":902,"ä¿Ŀ":903,"çº¸":904,"åŁİ":905,"å¿ħ":906,"æģ¯":907,"åĩĨ":908,"åĪĻ":909,"ä¸įä¼ļ":910,"åĵį":911,"çĸĳ":912,"å§ĭ":913,"æ¥":914,"åº¦":915,"éĢĶ":916,"æĢİ":917,"éĢł":918,"è¿Ļæł·":919,"èĦ¸":920,"ç³":921,"ä»£":922,"è¥¿":923,"åĩºçİ°":924,"åįľ":925,"ä¸ĢçĤ¹":926,"æĸ°":927,"åĪ»":928,"ç§Ĵ":929,"å¯Ĩ":930,"èĴĻ":931,"çªģ":932,"æĹı":933,"è¯ķ":934,"æĢİä¹Ī":935,"æŁ¥":936,"çķĻ":937,"æİĮ":938,"çĽ´æİ¥":939,"åı·":940,"åįłåįľ":941,"çŀ":942,"é©¬":943,"ç«Ł":944,"å¹³":945,"ç±»":946,"èĢĥ":947,"èĥ½åĬĽ":948,"ç¿":949,"è¿Ľåħ¥":950,"å¸®":951,"ç«ĭ":952,"ä¹¦":953,"éĹ®éģĵ":954,"éĤ£ä½į":955,"æ´»":956,"å±ŀ":957,"çĶ·":958,"åĨµ":959,"èĩªå·±çļĦ":960,"åıªæĺ¯":961,"åĿĲ":962,"æĹ¶éĹ´":963,"è¿ĺæĺ¯":964,"åĵª":965,"å½¢":966,"åħ·":967,"å¤©ä½¿":968,"åĭ":969,"éľĢè¦ģ":970,"åĩºæĿ¥":971,"å¡Ķ":972,"ä¹ĭä¸Ĭ":973,"æ»¡":974,"æĺŁ":975,"ä¹ī":976,"æķ´":977,"è±¡":978,"ĠâĢ¦âĢ¦":979,"é»ĺ":980,"åĽ´":981,"å¾Ħ":982,"æĬĬ":983,"è¿Ļæĺ¯":984,"æ¢¦":985,"ä»»":986,"çļĦäºº":987,"éĿł":988,"å¡ŀ":989,"æº":990,"éĢĶå¾Ħ":991,"è´Ŀåħĭ":992,"èĮ":993,"ä¸Ķ":994,"ä¸Ģä½į":995,"å§Ĳ":996,"æĹłæ³ķ":997,"åį´":998,"æĢª":999,"çº³å¾·":1000,"å°ģ":1001,"åºķ":1002,"èº«ä½ĵ":1003,"åĲĦ":1004,"æĢķ":1005,"ç»Ī":1006,"å¤Ł":1007,"æ£®":1008,"éķĳ":1009,"æµģ":1010,"æİ§":1011,"å¾ħ":1012,"èĹ":1013,"åĽ¾":1014,"é¡¿":1015,"åĺ´":1016,"çħ":1017,"ç»´":1018,"åħ°å¾·":1019,"å¯Ł":1020,"é»Ħ":1021,"å°ıå§Ĳ":1022,"ç¼ĵ":1023,"è§Ĵ":1024,"æı¡":1025,"è´Ŀåħĭåħ°å¾·":1026,"å°ĶæĢĿ":1027,"ä½Ľå°ĶæĢĿ":1028,"åºĶè¯¥":1029,"çİ°åľ¨":1030,"æĸĻ":1031,"æĸ¯å¸ķ":1032,"ä¼¦çº³å¾·":1033,"æŁĲ":1034,"ç«ł":1035,"åŃĺåľ¨":1036,"å¤ªéĺ³":1037,"å®¤":1038,"äº®":1039,"æł¼å°Ķ":1040,"çī©åĵģ":1041,"æİ¢":1042,"æļ´":1043,"è·¯":1044,"èµ·æĿ¥":1045,"çľ¼çĿ":1046,"éĺŁ":1047,"ä¸Ģä¸ĭ":1048,"éĢŁ":1049,"æĪĺ":1050,"åĳĬ":1051,"ç¥ŀç§ĺ":1052,"èĤ¯":1053,"æ³¨":1054,"ĠéĤ£":1055,"å¸Į":1056,"æĪĳçļĦ":1057,"éĻ¤":1058,"åį°":1059,"èĥĮ":1060,"çľ¼çĿĽ":1061,"ç´§":1062,"åıĬ":1063,"åĪĩ":1064,"çĹ":1065,"Ġå¥¹":1066,"æĥħåĨµ":1067,"é¦ĸ":1068,"æĸ¯å¸ķç½Ĺ":1069,"åĳ½":1070,"èĻļ":1071,"ä¸Ģæ¬¡":1072,"æł¼å°ĶæĽ¼":1073,"è¿ĺæľī":1074,"æīĢä»¥":1075,"åĪļæīį":1076,"æĿ°":1077,"èĹı":1078,"æİī":1079,"ç»Ń":1080,"è¢ĭ":1081,"é»ĳèī²":1082,"æĸŃ":1083,"æĹ¥":1084,"è¶³":1085,"éĿŀå¸¸":1086,"ä¾Ŀ":1087,"èĤ¯å®ļ":1088,"åı¦":1089,"ç½®":1090,"éŃĶèį¯":1091,"éĺ¿å°Ķ":1092,"å¢ĥ":1093,"èī¾":1094,"çģ«":1095,"ä¾§":1096,"åį±":1097,"åĹ¯":1098,"åŁĥ":1099,"é²":1100,"ä»½":1101,"çĦ¶åĲİ":1102,"çģ°éĽ¾":1103,"åĽŀçŃĶ":1104,"çķ¥":1105,"æķĻä¼ļ":1106,"ç¢":1107,"çļĦéĤ£":1108,"åıĸ":1109,"éĿŀåĩ¡èĢħ":1110,"çļĦæĺ¯":1111,"è¡£":1112,"æģ¶":1113,"è¿ŀ":1114,"åĲĬ":1115,"åľ°æĸ¹":1116,"éĺ¿èĴĻ":1117,"è½¦":1118,"å·¦":1119,"ä»ª":1120,"éĥ¨åĪĨ":1121,"é£ŀ":1122,"ç§ĳ":1123,"åŁŁ":1124,"çĶ±":1125,"çªģçĦ¶":1126,"åĲ§":1127,"è¿ľ":1128,"åģ¶":1129,"ç¥¨":1130,"éĤ£éĩĮ":1131,"åı³":1132,"æĮģ":1133,"ä¼ĳ":1134,"ç»Ĩ":1135,"æĦŁè§ī":1136,"éĿ¢çļĦ":1137,"¨Ģ":1138,"åĬŀ":1139,"è¡Ĺ":1140,"è¨Ģ":1141,"æŀģ":1142,"å¿µ":1143,"æ¯ı":1144,"åľ£":1145,"ç²¾":1146,"¶æĢģ":1147,"ç¦»å¼Ģ":1148,"è¯·":1149,"å¸ĥ":1150,"éĩĮåħĭ":1151,"èİ·":1152,"èĪ¹":1153,"è¿Ĳ":1154,"å±ŀäºİ":1155,"åİĨ":1156,"ä»ªå¼ı":1157,"éĨ":1158,"åĲ¦":1159,"å¨ģ":1160,"ç»ª":1161,"è§Ĥ":1162,"è°ĥ":1163,"æĸĩ":1164,"äºĨåı£":1165,"åĩĨå¤ĩ":1166,"å¨ľ":1167,"ç¨ĭ":1168,"åıĮ":1169,"æĹģ":1170,"ä»¿":1171,"åĨ³":1172,"æºĲ":1173,"æħ¢":1174,"ä¸Ŀ":1175,"å¤«":1176,"éĺ¿å°ĶæĿ°":1177,"çŁ³":1178,"æĹ©":1179,"éģĩ":1180,"åį¡":1181,"åĪĿ":1182,"ä¼Ĭ":1183,"ä¼ł":1184,"åĲĮæĹ¶":1185,"åľ¨äºĨ":1186,"è¿¹":1187,"è¿Ļä¹Ī":1188,"åĲĳäºĨ":1189,"ç¬¦":1190,"å¸Ŀ":1191,"éħį":1192,"åį±éĻ©":1193,"ç¬Ķ":1194,"äºĶ":1195,"éľ²":1196,"ç¬ĳéģĵ":1197,"æĢĢ":1198,"æŃ£ä¹ī":1199,"å¼Ģå§ĭ":1200,"èĬ±":1201,"æĬ¬":1202,"å¤§çļĦ":1203,"èĪ¬":1204,"åĩ»":1205,"æİ¨":1206,"å²":1207,"ä¸ĬçļĦ":1208,"æĳĩ":1209,"åĽ½":1210,"çĪµ":1211,"æĪĲä¸º":1212,"çĽ®åħī":1213,"åĳµ":1214,"æĢ»":1215,"çħ§":1216,"æĴ":1217,"ä¸ľ":1218,"éķľ":1219,"éĽħ":1220,"æĪ´éĩĮåħĭ":1221,"00":1222,"äºĨä¸Ģåı¥":1223,"------------":1224,"é¢Ħ":1225,"å®³":1226,"ä¸įåĲĮ":1227,"æ¥ļ":1228,"åħ¬":1229,"çİ¯":1230,"ç»Ħ":1231,"ä»¿ä½Ľ":1232,"åĢ¼":1233,"åıĺå¾Ĺ":1234,"åº§":1235,"æ¡Į":1236,"æĿĲ":1237,"æ¸ħæ¥ļ":1238,"è¿Ļç§į":1239,"äºĨåĩł":1240,"ĠâĢ¦âĢ¦âĢ¦âĢ¦":1241,"ä¼¯":1242,"æłĩ":1243,"ç±³":1244,"æŃ£å¸¸":1245,"åºĶçļĦ":1246,"ä½łä»¬":1247,"éĨĴ":1248,"å¼Ģåı£":1249,"éĹª":1250,"åĢĴåĲĬ":1251,"æĻļ":1252,"ä¸Ģæł·":1253,"å¸½":1254,"å°ģåį°":1255,"åĨĻ":1256,"å½±åĵį":1257,"ĤçļĦ":1258,"ä¸Ģå®ļ":1259,"çļ®":1260,"æľ¯":1261,"è°ģ":1262,"ç®Ģ":1263,"å§ĨæŀĹ":1264,"åŁĥå§ĨæŀĹ":1265,"æľīäºĨ":1266,"æĪĸèĢħ":1267,"åĢŁ":1268,"æĲ":1269,"èµ·äºĨ":1270,"æĤ¨":1271,"çī¹æĢ§":1272,"éĺ´":1273,"åģľ":1274,"âĢĻï¼Į":1275,"å¹»":1276,"è¾¾å°¼":1277,"èī²çļĦ":1278,"åĢĴåĲĬäºº":1279,"è¾¾å°¼åħ¹":1280,"ĠèĢĮ":1281,"èİİ":1282,"é¢Ĩ":1283,"éĶĻ":1284,"å·´":1285,"éľį":1286,"éĢı":1287,"é¥":1288,"æķĪ":1289,"æĵ":1290,"æ®µ":1291,"äºĨä¸Ģä¸ª":1292,"æĪĲåĳĺ":1293,"ä¹ħ":1294,"çĤ¹å¤´":1295,"å¿Ļ":1296,"çĶ»":1297,"ç¤¼":1298,"å½ĵçĦ¶":1299,"éģĹ":1300,"èĴĤ":1301,"è§īå¾Ĺ":1302,"è¡¨æĥħ":1303,"åĽŀåºĶ":1304,"èĸ":1305,"éĺµ":1306,"èĦĳè¢ĭ":1307,"åıªèĥ½":1308,"æĪ¿éĹ´":1309,"éħĴ":1310,"ä¹ĭåĲİ":1311,"å¼Ĺ":1312,"èĵ":1313,"åı²":1314,"çľĭçĿĢ":1315,"ç«Ļ":1316,"äºĨåı£æ°Ķ":1317,"æ¡Ī":1318,"Ġä¸į":1319,"èģļ":1320,"æĿ¥çļĦ":1321,"å®ĥä»¬":1322,"åįĩ":1323,"ä»¶äºĭæĥħ":1324,"èĩªèº«":1325,"ç½Ĺå¡ŀ":1326,"èĻ½çĦ¶":1327,"ç½Ĺå¡ŀå°Ķ":1328,"æ·¡":1329,"èĤī":1330,"çīĮ":1331,"æį¢":1332,"è¿°":1333,"æĮī":1334,"åĳ¨åĽ´":1335,"åŀ":1336,"ç¥Ī":1337,"åĨ·":1338,"ç»§":1339,"äººçļĦ":1340,"çĵ":1341,"åįĬç¥ŀ":1342,"ä¸įå°ĳ":1343,"å·¥":1344,"æĬķ":1345,"ä¹Į":1346,"éĽ·":1347,"æĿ¾":1348,"åĬŀæ³ķ":1349,"å±ķ":1350,"å¥½çļĦ":1351,"éĴŁ":1352,"èģĶ":1353,"ç»Ŀ":1354,"åĬĽéĩı":1355,"æĹ§":1356,"è¿ĩåİ»":1357,"çĽĹ":1358,"ç³»":1359,"é¡»":1360,"å¸ĮæľĽ":1361,"ä¹Łä¸į":1362,"å¥³å£«":1363,"ç§°":1364,"èĦ±":1365,"ä¸ºä»Ģä¹Ī":1366,"è£ħ":1367,"çĳ":1368,"åŃĹ":1369,"æĦ¿":1370,"ç®¡":1371,"èº«å½±":1372,"è¿Ļä½į":1373,"èİ«":1374,"æĿĢ":1375,"æĭľ":1376,"çĶļ":1377,"èĭı":1378,"èŃ":1379,"åłĤ":1380,"èŃ¦":1381,"æĺĵ":1382,"çľ¸":1383,"çĸ¯":1384,"å®Įåħ¨":1385,"¤Ĳ":1386,"åħ¥äºĨ":1387,"åĴĴ":1388,"çĨ":1389,"çĥĪ":1390,"å£°éŁ³":1391,"ç¤º":1392,"çı":1393,"åĲ¸":1394,"æİĴ":1395,"æķ°":1396,"ä½įç½®":1397,"çģ°éĽ¾ä¹ĭä¸Ĭ":1398,"å°±åľ¨":1399,"äºĨä¸Ģä¸ĭ":1400,"æīĢæľī":1401,"çĻ¾":1402,"æĥĬ":1403,"æĪĲäºĨ":1404,"âĢĿãĢĤ":1405,"éĵľ":1406,"ç¬¬ä¸Ģ":1407,"åĳ³":1408,"æľį":1409,"éĢī":1410,"æľºä¼ļ":1411,"æİ¥çĿĢ":1412,"ç¿»":1413,"åĨĽ":1414,"ä»Ĭ":1415,"å°±åĥı":1416,"ç¾İ":1417,"ä½ķ":1418,"è´¨":1419,"èĬĴ":1420,"çĶļèĩ³":1421,"æľīçĤ¹":1422,"å¿½çĦ¶":1423,"ä½łçļĦ":1424,"åıªæľī":1425,"åĸľ":1426,"èĵĿ":1427,"æıı":1428,"è¿ĩæĿ¥":1429,"&#":1430,"è¾ĥ":1431,"èĢĮä¸Ķ":1432,"æ¨":1433,"åĻ":1434,"æį®":1435,"çļĦä¸Ģ":1436,"å¥Ĺ":1437,"æŁĵ":1438,"èİ·å¾Ĺ":1439,"ä¹Łè®¸":1440,"æľīäºĽ":1441,"è¸":1442,"çģµæĢ§":1443,"è¶ħ":1444,"æģĲ":1445,"æ¯«":1446,"ä»ħ":1447,"åįĪ":1448,"ä»·":1449,"çĶµ":1450,";&#":1451,"ä¸įèĥ½":1452,"åĮħ":1453,"æĳĨ":1454,"çł´":1455,"éº":1456,"æķ£":1457,"åı¦å¤ĸ":1458,"åħħ":1459,"æĺİæĺ¾":1460,"æ¤":1461,"é£Ł":1462,"æĶ¹":1463,"çĻ½éĵ¶":1464,"å¯»":1465,"ä¹Łæĺ¯":1466,"çĭĤ":1467,"éĵģ":1468,"èİī":1469,"å¾ĹåĪ°":1470,"çŁŃ":1471,"å¿ħé¡»":1472,"æĦıè¯Ĩ":1473,"çľŁå®ŀ":1474,"äº²":1475,"èĩ´":1476,"åİħ":1477,"å¡Ķç½Ĺ":1478,"çĮİ":1479,"æľ¨":1480,"çļĩ":1481,"å»º":1482,"æ½":1483,"æĶ¯":1484,"çĽ¸å½ĵ":1485,"éĢļè¿ĩ":1486,"é²ģ":1487,"æ¶Īå¤±":1488,"åı¹":1489,"å¥³ç¥ŀ":1490,"å¼ķ":1491,"éĤ£ä¹Ī":1492,"âĢĶâĢĶ":1493,"é¡¶":1494,"åĲĮæł·":1495,"æĿĲæĸĻ":1496,"éĿŀåĩ¡çī¹æĢ§":1497,"å®¢":1498,"ä¼Ĺ":1499,"è®®":1500,"èµ«":1501,"åĳ¼":1502,"åľĪ":1503,"å®¶æĹı":1504,"éĽĨ":1505,"å¹¶ä¸į":1506,"éĤ£äºĽ":1507,"å¨ģå°Ķ":1508,"çŃīå¾ħ":1509,"è½®":1510,"ç¬¬äºĮ":1511,"çľŁæŃ£":1512,"æľ¬èº«":1513,"æľŁ":1514,"èĦļ":1515,"å¹½":1516,"æ¨¡":1517,"äº§":1518,"ä¼¸":1519,"éļ¾ä»¥":1520,"å¼Ĥå¸¸":1521,"ç±»ä¼¼":1522,"åĨĴ":1523,"ä¸Ģè¾¹":1524,"çļĦåľ°æĸ¹":1525,"å®Ī":1526,"æĿĸ":1527,"ç§ĺåģ¶":1528,"ç»ĩ":1529,"å¾Ĵ":1530,"ä¸ĢçĽ´":1531,"å¿ĥéĩĮ":1532,"èĶ":1533,"åħīèĬĴ":1534,"åı«":1535,"è§¦":1536,"æĥ³æ³ķ":1537,"åĩĿ":1538,"èĻĳ":1539,"å°¸":1540,"éĻĦ":1541,"æ¶²":1542,"æ´¾":1543,"å®ĺ":1544,"ä¼¤":1545,"æ´Ľ":1546,"è¿·":1547,"çº¦":1548,"è®¤ä¸º":1549,"åŁº":1550,"éĥ½æĺ¯":1551,"ä¸ĥ":1552,"æĹĭ":1553,"é¢Ŀ":1554,"åıĳçĶŁ":1555,"äºĨä¸¤":1556,"æ¢ħ":1557,"å°Ŀ":1558,"æĭħ":1559,"å·¨äºº":1560,"æµ®":1561,"çĽ®æłĩ":1562,"åİĨåı²":1563,"éĴ±":1564,"çĻ½éĵ¶åŁİ":1565,"åĿĹ":1566,"æĸĹ":1567,"ä¸įçŁ¥éģĵ":1568,"ç¥Ń":1569,"æııè¿°":1570,"åĽ¢":1571,"æīĺ":1572,"é»ĳå¤ľ":1573,"ä»»ä½ķ":1574,"æĿ¿":1575,"æ¢¦å¢ĥ":1576,"æ¦":1577,"å¹²":1578,"åĺī":1579,"è°¢":1580,"å¯¼":1581,"ä¸¥":1582,"çĶŁçī©":1583,"è¯į":1584,"ä»Ĩ":1585,"è¯ģ":1586,"å·®":1587,"æĬĵ":1588,"å°ģåį°çī©":1589,"ä¾¿":1590,"çļĦæĹ¶åĢĻ":1591,"ä½Ļ":1592,"èµĦ":1593,"çĽ¸åºĶçļĦ":1594,"åħŃ":1595,"ä¹±":1596,"ç¡®è®¤":1597,"èĻļå¹»":1598,"è´¹":1599,"å°½":1600,"è·Ł":1601,"é£İæļ´":1602,"è¯»":1603,"éģŃ":1604,"äºĨä¸Ģå£°":1605,"çĿ¡":1606,"æ¼Ķ":1607,"å¼ĥ":1608,"èĲ¨":1609,"å¸®åĬ©":1610,"æ¯į":1611,"æľĢåĲİ":1612,"ä¸½éĽħ":1613,"åĺīå¾·":1614,"åĬ¡":1615,"æŃ¢":1616,"åĭĴ":1617,"åĺīå¾·ä¸½éĽħ":1618,"ç©¶":1619,"åĳĬè¯":1620,"é¾":1621,"å¿į":1622,"ä½ıäºĨ":1623,"æĺ¯ä¸Ģ":1624,"éĺ¿åħ¹":1625,"éĺ¿åħ¹åħĭ":1626,"è¿½":1627,"æĹłå£°":1628,"èĬĤ":1629,"ç»Īäºİ":1630,"é½":1631,"äº¡":1632,"çº¯":1633,"çĬ¶æĢģ":1634,"åĬŁ":1635,"æĥĳ":1636,"ï¼ĮâĢĺ":1637,"çļĦåħĭèİ±æģ©":1638,"æľīä¸Ģ":1639,"çľĭäºĨ":1640,"ĵæģ©":1641,"å¼Ħ":1642,"éĤĵæģ©":1643,"éĩĮéĿ¢":1644,"èĢĥèĻĳ":1645,"ç»§ç»Ń":1646,"çĨŁ":1647,"é¤Ĳ":1648,"è¯¡":1649,"çŀ¬":1650,"æķĻåłĤ":1651,"ä¸įçŁ¥":1652,"å±ħ":1653,"çªĹ":1654,"æĹģè¾¹":1655,"éļĲç§ĺ":1656,"è®²":1657,"åŃĶ":1658,"éĢĶå¾ĦçļĦ":1659,"å°Ŀè¯ķ":1660,"çļĦæĥħåĨµ":1661,"åİĭ":1662,"æĻ®":1663,"è¿ĩäºĨ":1664,"é»ĳæļĹ":1665,"éļĶ":1666,"å±ĭ":1667,"æ¸Ĳ":1668,"åĲĦç§į":1669,"éĢģ":1670,"éªĮ":1671,"åı¬":1672,"èµŀ":1673,"è¡¥":1674,"é©¬è½¦":1675,"äºĨèµ·æĿ¥":1676,"ä¸įè¿ĩ":1677,"è¶³å¤Ł":1678,"çº§":1679,"åĳĬè¯ī":1680,"çģ¯":1681,"è®©ä»ĸ":1682,"éŃĶæľ¯":1683,"æĿ¥è¯´":1684,"å£ģ":1685,"Ġä¸Ģ":1686,"ä¸įè¦ģ":1687,"å¾·æ£®":1688,"æ¦Ĥ":1689,"åĩºäºĨä¸Ģ":1690,"æµĭ":1691,"å¾Īå¤ļ":1692,"æµ·çĽĹ":1693,"åħĭèİ±æģ©çļĦ":1694,"éŃĤ":1695,"æ¸©":1696,"æľĪç¥¨":1697,"å¿ĥçĲĨ":1698,"å¾Īå¿«":1699,"æ¤ħ":1700,"çŃīåĪ°":1701,"æķ¢":1702,"å²Ľ":1703,"çļĦå¤§":1704,"åĬ¿":1705,"çĦ°":1706,"æ¯Ľ":1707,"åĮºåŁŁ":1708,"çİ°å®ŀ":1709,"æĻ¯":1710,"é¡¾":1711,"æ¥¼":1712,"èį¡":1713,"åĶ¤":1714,"åİŁæľ¬":1715,"çĶ·åŃĲ":1716,"éħįæĸ¹":1717,"æ¿":1718,"æĿĤ":1719,"æĢªçī©":1720,"åľ°è¯´éģĵ":1721,"ç®Ģåįķ":1722,"èĭ¦":1723,"æĢ¥":1724,"æľĽåĲĳ":1725,"é¼":1726,"ä»ĺ":1727,"æĬ½":1728,"Ġè¿Ļæĺ¯":1729,"æĢĢçĸĳ":1730,"è¿Ļä¸Ģ":1731,"è®©äºº":1732,"ä¸įåĨį":1733,"Ġè¿Ļä¸ª":1734,"çľī":1735,"åıĭ":1736,"æľīä»Ģä¹Ī":1737,"æģ¢":1738,"çľŁçļĦ":1739,"ä¸Ģçľ¼":1740,"çĽ¸ä¿¡":1741,"ä½ľä¸º":1742,"æĿŁ":1743,"ç²¾ç¥ŀ":1744,"å±Ĥæ¬¡":1745,"ç»Ħç»ĩ":1746,"çļĦçĬ":1747,"å°±èĥ½":1748,"è´Ł":1749,"é¾Ļ":1750,"çļĦéĹ®é¢ĺ":1751,"æĹħ":1752,"ä¸ŃçļĦ":1753,"åĲĲ":1754,"éŃĶæľ¯å¸Ī":1755,"è®º":1756,"å¸Ĥ":1757,"æľĪäº®":1758,"¥æľī":1759,"æĺİçĻ½":1760,"åĨ°":1761,"åĵĪ":1762,"æīĵç®Ĺ":1763,"éĩĮçļĦ":1764,"åĵ¥":1765,"æĻº":1766,"åł¡":1767,"æ³°":1768,"æ°ĳ":1769,"åı¤èĢģ":1770,"é¡º":1771,"æİĮæı¡":1772,"åı°":1773,"æĥ³åĪ°":1774,"æ²īé»ĺ":1775,"äºĭçī©":1776,"æĽ¾":1777,"åıĺåĮĸ":1778,"é£ŀå¿«":1779,"æĺ¯åĲ¦":1780,"ä¾ĿæĹ§":1781,"çŀ¬éĹ´":1782,"åŃ©":1783,"éĢłçī©":1784,"ä¸ĬäºĨ":1785,"æŀļ":1786,"çļĦç¥ŀ":1787,"è¿Ķ":1788,"èµĽ":1789,"å¼ĢäºĨ":1790,"ç¬ĳå®¹":1791,"åħ¶ä»ĸ":1792,"ä¹Ŀ":1793,"ç¥·":1794,"æĥħç»ª":1795,"æ¿Ģ":1796,"åĨ²":1797,"åĢŁåĬ©":1798,"éº»":1799,"éĢłçī©ä¸»":1800,"åī©":1801,"åĨįæ¬¡":1802,"çºª":1803,"çľ¼çľ¸":1804,"ä¸¤ä¸ª":1805,"æŃ¤æĹ¶":1806,"æī¿":1807,"Ġå°±åľ¨":1808,"ä¸´":1809,"æķħ":1810,"æĸ¯çī¹":1811,"çģµçķĮ":1812,"æİ§åĪ¶":1813,"èĽ":1814,"ç«ĭåĪ»":1815,"ä¸įåĪ°":1816,"éĢĲ":1817,"æī¾åĪ°":1818,"ä¸ĭæĿ¥":1819,"æīŃ":1820,"éĿĴ":1821,"éĤª":1822,"åĬª":1823,"ä¾Ľ":1824,"é²ģæģ©":1825,"äºĨä¸ª":1826,"æĬĹ":1827,"è´µ":1828,"çĿĢä¸Ģ":1829,"çľŁæĺ¯":1830,"ä¹Ĳ":1831,"æĹĭåį³":1832,"çļĦå£°éŁ³":1833,"è¿ĻäºĽ":1834,"å¼¹":1835,"éĺ¶":1836,"å°Ĭ":1837,"è¿Ļä»¶äºĭæĥħ":1838,"æĪĲåĬŁ":1839,"åĲ«":1840,"æī®":1841,"èł":1842,"æŀª":1843,"æĸ¹éĿ¢":1844,"æ¬¢":1845,"Ġåľ¨":1846,"ä»Ĭå¤©":1847,"ä¹°":1848,"è¿ħ":1849,"å½»":1850,"äºĨè§£":1851,"æĬµ":1852,"è§Ħ":1853,"å®¡":1854,"è·³":1855,"å¢Ļ":1856,"èĦĳæµ·":1857,"åĪ¤":1858,"åģĩ":1859,"ç¡®å®ŀ":1860,"åĹĵ":1861,"ä¸»æķĻ":1862,"çľĭè§ģäºĨ":1863,"æģ¢å¤į":1864,"æĢĿç»ª":1865,"éģ¿":1866,"åĪº":1867,"çĽĸ":1868,"æ®ĭ":1869,"åı¬åĶ¤":1870,"æĭ©":1871,"åı³æīĭ":1872,"ï¼Ľ":1873,"ç«¯":1874,"éĻį":1875,"è¿Ļæł·çļĦ":1876,"æľĢè¿ĳ":1877,"æ³¨æĦı":1878,"æĬ¤":1879,"ä½¿çĶ¨":1880,"è¿ĶåĽŀ":1881,"è¿ħéĢŁ":1882,"å½»åºķ":1883,"çŁ¥è¯Ĩ":1884,"è®¡":1885,"ä¸ºäºĨ":1886,"åĨħçļĦ":1887,"éĢīæĭ©":1888,"åĹĵéŁ³":1889,"æĿĥ":1890,"æĿ¥åĪ°":1891,"ä¸ĢæŃ¥":1892,"è¯Ŀè¯Ń":1893,"æĻĭ":1894,"Ġè¯´":1895,"åĪ«çļĦ":1896,"èº«ä»½":1897,"åıªè¦ģ":1898,"æļĤ":1899,"é½Ĳ":1900,"æķĳ":1901,"çľĭåĪ°":1902,"äºĨåĩºæĿ¥":1903,"å®īéĿĻ":1904,"æłĳ":1905,"çģµä½ĵ":1906,"å¾ģ":1907,"åħĪçĶŁçļĦ":1908,"æ¯ķ":1909,"åĤ":1910,"åģļåĩº":1911,"åĳ½è¿Ĳ":1912,"æ½ľ":1913,"ä¸įä½ı":1914,"åºŀ":1915,"éģŃéģĩ":1916,"åĶĲ":1917,"æķĪæŀľ":1918,"çĩ":1919,"çļ±":1920,"éģį":1921,"ľæµĭ":1922,"éĻ¤äºĨ":1923,"åħ´":1924,"åİ»äºĨ":1925,"å¯Łè§ī":1926,"èģļä¼ļ":1927,"åĿ¦":1928,"å¡Ķç½Ĺä¼ļ":1929,"èĩ³äºİ":1930,"æŃ»äº¡":1931,"ç³Ĭ":1932,"æĽ¾ç»ı":1933,"ä¸ĵ":1934,"æĽ²":1935,"ä¿®":1936,"æ±¡":1937,"ç»ķ":1938,"éĢĢ":1939,"æ··":1940,"èĨ":1941,"ĠâĢľâĢĺ":1942,"ä¹ĭçİĭ":1943,"æ³°æĸ¯":1944,"åĶĲæ³°æĸ¯":1945,"çİĩ":1946,"äºī":1947,"åĢ¼å¤ľ":1948,"æĻĭåįĩ":1949,"äºĨä¸ĭæĿ¥":1950,"å¤±æİ§":1951,"åı¸":1952,"ç§»":1953,"å°±ä¼ļ":1954,"å¥¹çļĦ":1955,"åĨĴéĻ©":1956,"è¹":1957,"è½»è½»":1958,"å¿Ĩ":1959,"èº«ä¸Ĭ":1960,"æŁĶ":1961,"åĬ¨çļĦ":1962,"ç¼ĵæħ¢":1963,"æİ¢ç´¢":1964,"çļĦçĬ¶æĢģ":1965,"åĢ¼å¤ľèĢħ":1966,"éĩįæĸ°":1967,"åĸĿ":1968,"éª¨":1969,"å¯»æī¾":1970,"èłķ":1971,"ä¸ĢäºĽ":1972,"èĪ¬çļĦ":1973,"åī¯":1974,"éļĲèĢħ":1975,"çĵ¦":1976,"æĺı":1977,"æĵį":1978,"ä¹Łå°±æĺ¯":1979,"å®ĮæĪĲ":1980,"ä¸Ģèµ·":1981,"éĩĬ":1982,"å±±":1983,"çļĦä¿¡":1984,"ä¸½èİİ":1985,"åį·":1986,"å®īå¾·æ£®":1987,"è§£åĨ³":1988,"æķ´ä¸ª":1989,"åıĤ":1990,"çºµ":1991,"åħ«":1992,"éģĵæģ©":1993,"æĪ¿å±ĭ":1994,"éĻĨ":1995,"åħ±":1996,"ä¹ł":1997,"éĹŃ":1998,"ä¸Ģéģĵ":1999,"åĽŃ":2000,"åĪ©çĶ¨":2001,"éĢĥ":2002,"æıĲä¾Ľ":2003,"åĽŀçŃĶéģĵ":2004,"çıŃ":2005,"çĶ²":2006,"åīįæĸ¹":2007,"åĺ´å·´":2008,"ç¢İ":2009,"æ²¡æ³ķ":2010,"éĩįè¦ģ":2011,"çĬ¹":2012,"ç»ĵæŀľ":2013,"ç¼©":2014,"ä¸Ģå®ļçļĦ":2015,"æ²»":2016,"å¸¦çĿĢ":2017,"ä¸ľè¥¿":2018,"åŀĭ":2019,"åĩĢ":2020,"ä¼Ļ":2021,"éĻĲ":2022,"ç§ĺå¯Ĩ":2023,"æ²¡ä»Ģä¹Ī":2024,"åĨ³å®ļ":2025,"éĢıæĺİ":2026,"PS":2027,"å®¹æĺĵ":2028,"æĪĳæĥ³":2029,"ç¥Īç¥·":2030,"ĠPS":2031,"è±«":2032,"æĢĿèĢĥ":2033,"çĽ®åīį":2034,"è£Ĥ":2035,"ç»ĵæĿŁ":2036,"åĪĴ":2037,"æĪĸè®¸":2038,"ç«ŁçĦ¶":2039,"æĹ¢":2040,"å±Ģ":2041,"æł·åŃĲ":2042,"åıł":2043,"æ´Ĺ":2044,"çĮĽ":2045,"åĦ":2046,"æķ²":2047,"å¹ķ":2048,"æıĲåīį":2049,"è§Ĩçº¿":2050,"åĵªéĩĮ":2051,"è¯¢":2052,"åĲ¬åĪ°":2053,"åįķè¯į":2054,"è°ĥæŁ¥":2055,"ç¬Ķè®°":2056,"åħį":2057,"æł¹æľ¬":2058,"åħ¶å®ŀ":2059,"é¬":2060,"æĿ¥èĩª":2061,"æĻ®éĢļ":2062,"æīįèĥ½":2063,"çģ«çĦ°":2064,"çĬ¹è±«":2065,"è®¤çľŁ":2066,"çļĦæīĭ":2067,"èĻ«":2068,"æĽ´åĬł":2069,"çĹĽ":2070,"ä¸Ģéĺµ":2071,"ä¸ĩ":2072,"æĦıæĢĿ":2073,"è¯º":2074,"è¡¨çİ°":2075,"å°¾":2076,"çº¹":2077,"å¼¥":2078,"èµı":2079,"å¤§å¸Ŀ":2080,"é¢ĩ":2081,"éĿŀåĩ¡èĥ½åĬĽ":2082,"åľ¨å¿ĥéĩĮ":2083,"ç¡®å®ļ":2084,"çĬ¶":2085,"å¤ļçļĦ":2086,"å¦®":2087,"åĲ¯":2088,"æĢ¨":2089,"Ġä»ĸçļĦ":2090,"èĩ³å°ĳ":2091,"éĺŁéķ¿":2092,"å®«":2093,"åĳĪ":2094,"æ³¢":2095,"åĶ¯":2096,"æľĢç»Ī":2097,"åĲ¬è§ģ":2098,"æİ©":2099,"ä¸įéĶĻ":2100,"é¡¿æĹ¶":2101,"ä¸¾":2102,"è·Ŀ":2103,"åİļ":2104,"æĪĲçļĦ":2105,"æł·çļĦ":2106,"è¾Ľ":2107,"çĸĳæĥĳ":2108,"çķ¥æĺ¾":2109,"èĸĦ":2110,"æľīçļĦ":2111,"å¼±":2112,"ä¿ĿæĮģ":2113,"ãĢģâĢľ":2114,"äº§çĶŁ":2115,"åħ¨éĥ¨":2116,"è¿ĩç¨ĭ":2117,"è§Ĥå¯Ł":2118,"çļĩå¸Ŀ":2119,"èķ":2120,"å½Ĵ":2121,"æ¸¸":2122,"ç¨³":2123,"å®Ŀ":2124,"æµª":2125,"è¡ĮåĬ¨":2126,"åį³ä½¿":2127,"Ġå¥¥é»Ľä¸½":2128,"çļĦæĦŁè§ī":2129,"çľł":2130,"âĢ¦âĢ¦âĢľ":2131,"ç¥ŀçģµ":2132,"è¡¨éĿ¢":2133,"èİİä¼¦":2134,"éĢĲæ¸Ĳ":2135,"éĻ·":2136,"æĳĩå¤´":2137,"å´":2138,"ãĢĬ":2139,"ãĢĭ":2140,"ä¸įçĶ¨":2141,"çº¿ç´¢":2142,"æĬ¬èµ·":2143,"æ®¿":2144,"æ¬²":2145,"æľīçĿĢ":2146,"æĶ¶åĽŀ":2147,"åħ·ä½ĵ":2148,"å¾ĭ":2149,"æĥ³è¦ģ":2150,"èľ":2151,"åĨħå®¹":2152,"è¿Ļæ¬¡":2153,"æĪĳä¼ļ":2154,"ä»»åĬ¡":2155,"é¸":2156,"å¹¸":2157,"éĿ¢åīį":2158,"åįłåįľå®¶":2159,"åĺ´è§Ĵ":2160,"çļĦä¸»":2161,"çĪ±":2162,"æĥħæĬ¥":2163,"åĳµåĳµ":2164,"éĺ´å½±":2165,"åĮ»":2166,"è®©æĪĳ":2167,"å½ĵåį³":2168,"åħ¶ä¸Ń":2169,"å®³æĢķ":2170,"ä¸ĭçļĦ":2171,"æĸ¹å¼ı":2172,"æºĲåł¡":2173,"å¤§éĹ¨":2174,"çĪ¶":2175,"åĳ¢":2176,"æĿ¥è¶Ĭ":2177,"å¹³éĿĻ":2178,"è¯ļ":2179,"éŃĶå¥³":2180,"èı":2181,"è¶ĬæĿ¥è¶Ĭ":2182,"æŁĲäºĽ":2183,"å¥Ķ":2184,"èĥ¸":2185,"çĶŁåĳ½":2186,"èĢ³":2187,"æīŃæĽ²":2188,"ä¹ĭä¸Ģ":2189,"åĨħéĥ¨":2190,"ï¼Ī":2191,"ç¼º":2192,"çĹħ":2193,"ç¨ĭåº¦":2194,"å¼Ģåı£éģĵ":2195,"åĲĥ":2196,"åľºæĻ¯":2197,"æķĮ":2198,"é¦Ĩ":2199,"ï¼ī":2200,"è®¤è¯Ĩ":2201,"æľĹ":2202,"æĺ¯ä»Ģä¹Ī":2203,"åįĥ":2204,"è¢į":2205,"æ°¸":2206,"æ¶ĪåĮĸ":2207,"æĹ¥è®°":2208,"æĦıå¤ĸ":2209,"çģ°çĻ½":2210,"å¿µå¤´":2211,"ç¬¦åı·":2212,"åĸľæ¬¢":2213,"æĭħå¿ĥ":2214,"åĶ¯ä¸Ģ":2215,"çľ·":2216,"å¸ģ":2217,"ä¸ĭäºĨ":2218,"å§Ķ":2219,"åĦ¿":2220,"åĩºåİ»":2221,"åī§":2222,"ç§ĳæŀĹ":2223,"ç¥Īæ±Ĥ":2224,"å¯Į":2225,"åĪĨéĴŁ":2226,"ç©¶ç«Ł":2227,"æĵįçºµ":2228,"åģ·":2229,"è¶£":2230,"ä¸ļ":2231,"æ²¹":2232,"å¤´åıĳ":2233,"å¥ĩçī©åĵģ":2234,"ç»¿":2235,"åıįåºĶ":2236,"æĥ§":2237,"åºŃ":2238,"æŀ¶":2239,"èĮľ":2240,"çĸ¯çĭĤ":2241,"å¤§æ¦Ĥ":2242,"å°¼å°Ķ":2243,"ä¸įæĸŃ":2244,"å¤§éĻĨ":2245,"åıĺæĪĲ":2246,"éĺħ":2247,"ç¼ĺ":2248,"æľĽçĿĢ":2249,"çĲĥ":2250,"æĿ¯":2251,"ä¾¦":2252,"å¦ĤåĲĮ":2253,"åįĹ":2254,"èĢĮæĺ¯":2255,"è¿Ľåħ¥äºĨ":2256,"é¬¼":2257,"äººç±»":2258,"æī®æ¼Ķ":2259,"æī§":2260,"éļıåį³":2261,"å¤ı":2262,"ĠâĢľâĢ¦âĢ¦":2263,"éķ¿æ¡Į":2264,"è´Ŀå°Ķ":2265,"æĪĺæĸĹ":2266,"ä¸»åĬ¨":2267,"è®¸å¤ļ":2268,"åĵªæĢķ":2269,"è¯¢éĹ®":2270,"ä¸ĭæĦıè¯Ĩ":2271,"åĩłä¹İ":2272,"è§£éĩĬ":2273,"ç¬¦åĴĴ":2274,"æĩ":2275,"èº²":2276,"åĬ¨ä½ľ":2277,"å®¶ä¼Ļ":2278,"è·ĥ":2279,"ç¥ŀç§ĺåŃ¦":2280,"çļĦèĥ½åĬĽ":2281,"å¥½åĩł":2282,"æ¶Į":2283,"å»¶":2284,"éĹ»":2285,"ä¸įè§ģ":2286,"å¹¶æ²¡æľī":2287,"è¡£çī©":2288,"ç§ĳå°Ķ":2289,"æ¢ħä¸½èİİ":2290,"çĩĥ":2291,"é±":2292,"ĠâĢĶâĢĶ":2293,"èĴ¸":2294,"å¥ĩæĢª":2295,"éļıä¹ĭ":2296,"éľ²åĩº":2297,"éĻĦè¿ĳ":2298,"ä¾¦æİ¢":2299,"é±¼":2300,"å¸Ń":2301,"äºĨä¸Ģéĺµ":2302,"é¦Ļ":2303,"éĽ¾æ°Ķ":2304,"Ġå½ĵçĦ¶":2305,"å¥½äºĨ":2306,"éĴ¢":2307,"åĿĲåľ¨":2308,"é¢ĨåŁŁ":2309,"å¿įä¸įä½ı":2310,"ä¸¢":2311,"æ¼«":2312,"éļĻ":2313,"è´¥":2314,"çĤ¹äºĨ":2315,"æ¸¯":2316,"æ¶ī":2317,"æĮīçħ§":2318,"åĽº":2319,"èĪ¹éķ¿":2320,"æ®µæĹ¶éĹ´":2321,"èĳ":2322,"çļĦç²":2323,"çĴ":2324,"å¤ĸéĿ¢":2325,"å¯Ĩæĸ¯":2326,"æģ¶çģµ":2327,"ç¬¬ä¸ĢçĻ¾":2328,"åĿı":2329,"åķª":2330,"èĲ¨åħĭ":2331,"æ¯ķç«Ł":2332,"æ¸İ":2333,"è·ĳ":2334,"æ³¨è§Ĩ":2335,"å·§":2336,"äºĪ":2337,"ä¸įå¤Ł":2338,"å°ıéĺŁ":2339,"éĿłè¿ĳ":2340,"ä¸ĢæĿ¡":2341,"æĬ±":2342,"éĴĪ":2343,"åĪ¶éĢł":2344,"è¡ĢæĹı":2345,"äºĨä¸ĭå¤´":2346,"çĲ³":2347,"éĩĮå®ī":2348,"æī«":2349,"çĽ®çļĦ":2350,"æµ®çİ°":2351,"å¿ĺ":2352,"èĩĤ":2353,"åĽŀåĪ°":2354,"å¤ļä¹ħ":2355,"æĻ¶":2356,"çİ°å®ŀä¸ĸçķĮ":2357,"å»·":2358,"è·Ŀç¦»":2359,"å®ļçļĦ":2360,"è¸ª":2361,"åįİ":2362,"åĩºçļĦ":2363,"æ¯Ķå¦Ĥ":2364,"ç¾¤":2365,"å©":2366,"ä¸įåı¯":2367,"çĥĽ":2368,"æ·±å¤Ħ":2369,"èĭį":2370,"è¯ķåĽ¾":2371,"é²ľ":2372,"è§Ĥä¼Ĺ":2373,"äºĨåĩłç§Ĵ":2374,"çļĦèº«å½±":2375,"æŀľçĦ¶":2376,"åºĬ":2377,"åıĪä¸Ģæ¬¡":2378,"çİ¯å¢ĥ":2379,"æ¨¡ç³Ĭ":2380,"æ±¡æŁĵ":2381,"ç¬¼":2382,"åı¯æĢķ":2383,"ä¿¡ä½¿":2384,"éľįçĦ¶":2385,"ä»°":2386,"èįĲ":2387,"é¥°":2388,"ä»ĭ":2389,"æµĵ":2390,"å®ĥçļĦ":2391,"æīĵå¼Ģ":2392,"èĦ¸åºŀ":2393,"æľ¬èĥ½":2394,"æ±ĤæľĪç¥¨":2395,"ç©¿çĿĢ":2396,"çļĦéĿŀåĩ¡èĢħ":2397,"å°ĸ":2398,"çģŃ":2399,"çī¹æ®":2400,"å¤ĦçĲĨ":2401,"çī¹æ®Ĭ":2402,"æľĭ":2403,"å¤§éĥ¨åĪĨ":2404,"æµ·ç¥ŀ":2405,"è¡Ģæ¶²":2406,"æĶ¹åıĺ":2407,"èĩªçĦ¶":2408,"å¾®å¾®":2409,"èħ°":2410,"æĲľ":2411,"ä¸įæķ¢":2412,"è½¬èĢĮ":2413,"çł°":2414,"çĽĴ":2415,"é¢Ķ":2416,"Ġç´§":2417,"èģĮ":2418,"æİ¨èįĲ":2419,"æľĭåıĭ":2420,"å¿«éĢŁ":2421,"è´µæĹı":2422,"ç´ł":2423,"éĥ½æ²¡æľī":2424,"çĮ®":2425,"çĳŀ":2426,"èĽĩ":2427,"Ġä¸İ":2428,"æ¯«æĹł":2429,"å°¸ä½ĵ":2430,"æĤł":2431,"è®°å¾Ĺ":2432,"èŀ":2433,"è¿ª":2434,"æľīäºº":2435,"éĻħ":2436,"æĻĥ":2437,"æĪ¿éĹ¨":2438,"åĪĿæŃ¥":2439,"çļĦéĤ£ä¸ª":2440,"æĮĳ":2441,"æİ¥åıĹ":2442,"èĢģå°¼å°Ķ":2443,"ķè¿¹":2444,"åľ°éĹ®éģĵ":2445,"ä¸ĭåįĪ":2446,"åıĹåĪ°":2447,"çľ¼åīį":2448,"éĶ®":2449,"çľīå¤´":2450,"éĺ²":2451,"æĸ°çļĦ":2452,"æĦ¿æĦı":2453,"å®«æ®¿":2454,"ĠçĦ¶åĲİ":2455,"æĸ¯çļĦ":2456,"æīĭå¥Ĺ":2457,"æĽ¿":2458,"ç»ĻäºĨ":2459,"çļĦåĬĽéĩı":2460,"ä¸įéľĢè¦ģ":2461,"åı¯æĺ¯":2462,"çĥ§":2463,"èģĶç³»":2464,"ä¸°":2465,"äºĨè¿ĩæĿ¥":2466,"ç¬¬åĽĽ":2467,"æī°":2468,"æİ¥è¿ĳ":2469,"æĤī":2470,"è±¡å¾ģ":2471,"èĢħçļĦ":2472,"æİ¥è§¦":2473,"ä¸ĢçĤ¹çĤ¹":2474,"é¢Ķé¦ĸ":2475,"çĥŁ":2476,"åĲ¦åĪĻ":2477,"èĸĩ":2478,"è¿Ī":2479,"æĭ¥æľī":2480,"æŃ£æĺ¯":2481,"èĥĮåĲİ":2482,"åĽ°":2483,"çĤ¹å¤´éģĵ":2484,"å¿½":2485,"æ¢¯":2486,"è¿Ļä¸ªæĹ¶åĢĻ":2487,"æĹ©å°±":2488,"åīĳ":2489,"Ġå¯¹":2490,"ĠçŃīåĪ°":2491,"æĺĤ":2492,"çŃīäºº":2493,"ä¹Ķ":2494,"æł¹æį®":2495,"ä¼¯çĪµ":2496,"åĽŀåºĶéģĵ":2497,"ä¾į":2498,"æŃ¤åĲĮæĹ¶":2499,"æŃ»ç¥ŀ":2500,"ä¹ĭä¸Ĭå°Ĩ":2501,"æľīæīĢ":2502,"é¡µ":2503,"ç»ıè¿ĩ":2504,"æĪ´çĿĢ":2505,"æĭ¿çĿĢ":2506,"æĬ¥çº¸":2507,"æĭ¢":2508,"æĶ»":2509,"éĹ¨åı£":2510,"èįī":2511,"çĥŃ":2512,"é¥¿":2513,"ä¸įå¾Ĺ":2514,"æīĭæĿĸ":2515,"å¿ĥçģµ":2516,"çĭ¼":2517,"çº³é»Ľ":2518,"åĪ«äºº":2519,"è´Ŀå°Ķçº³é»Ľ":2520,"æīĩ":2521,"åĨħå¿ĥ":2522,"èĭ¥":2523,"çĮľæµĭ":2524,"æĭ¿åĩº":2525,"åĩºæĿ¥çļĦ":2526,"èŀį":2527,"åħħæ»¡":2528,"åĪ¤æĸŃ":2529,"ä»¥åıĬ":2530,"èĪŀ":2531,"çŃĶæ¡Ī":2532,"ä»ĸä»¬çļĦ":2533,"èĮ«":2534,"åĨĴéĻ©å®¶":2535,"å¿Ĺ":2536,"æĹłå½¢":2537,"ç¬¬ä¸ī":2538,"åĭ¾":2539,"äºļçī¹":2540,"æļĤæĹ¶":2541,"æĦŁè°¢":2542,"éĶģ":2543,"éļıçĿĢ":2544,"èĮĥ":2545,"èŃ¦å¯Ł":2546,"çľŁå®ŀéĢłçī©ä¸»":2547,"æĺ¯ä¸Ģä¸ª":2548,"ä¸įå¤ª":2549,"æĥ³äºĨ":2550,"æ¬²æľĽ":2551,"ç§¯":2552,"ä¹ĭéĹ´":2553,"å¥½å¥ĩ":2554,"çŀĦ":2555,"è¿ĩçļĦ":2556,"å¾Īæľī":2557,"ä»Ģä¹ĪæĹ¶åĢĻ":2558,"åĸĦ":2559,"ç¡¬":2560,"ç±»ä¼¼çļĦ":2561,"é»ĳå¤ľå¥³ç¥ŀ":2562,"æĬµè¾¾":2563,"ä¸Ģå£°":2564,"èĥ½å¤Ł":2565,"çĤ¹äºĨä¸ĭå¤´":2566,"å°Ĩå®ĥ":2567,"çĨŁæĤī":2568,"èĦĳæµ·åĨħ":2569,"æľ«":2570,"å°±ç®Ĺ":2571,"èĥ¡":2572,"çĭ¬":2573,"ç»´å°Ķ":2574,"çĵ¶":2575,"äºİæĺ¯":2576,"å¿ĥä¸Ń":2577,"çĪĨ":2578,"æĪĴ":2579,"çİ«":2580,"èĤ¤":2581,"åħ³éĶ®":2582,"äºĨä»Ģä¹Ī":2583,"æ±½":2584,"çĶ»éĿ¢":2585,"Ġç´§æİ¥çĿĢ":2586,"åľĨ":2587,"éĤ£æł·":2588,"é¢Ĺ":2589,"æĤ¬":2590,"èİīä¸Ŀ":2591,"å³":2592,"åĽŀäºĨ":2593,"éļĲçº¦":2594,"äº¤æµģ":2595,"ä¿ĿæĬ¤":2596,"é¦ĸå¸Ń":2597,"æĢ»æĺ¯":2598,"äºĨä¸Ģçľ¼":2599,"ç½©":2600,"åĮĹ":2601,"éĹªçĶµ":2602,"ä¼´":2603,"å°ıå¿ĥ":2604,"è¾¹ç¼ĺ":2605,"æ¢°":2606,"è¡ĢèĤī":2607,"æŁĲä¸ª":2608,"éŃĶèį¯éħįæĸ¹":2609,"é¥¥":2610,"éģĹè¿¹":2611,"éĢĤ":2612,"å¯¹æĸ¹çļĦ":2613,"è´£":2614,"çĺ":2615,"é»ĳçļĩå¸Ŀ":2616,"èµĦæĸĻ":2617,"ĠæĪĳ":2618,"é»¯":2619,"åİŁåĽł":2620,"èĹıçĿĢ":2621,"äºĨä¸įå°ĳ":2622,"éĢĴ":2623,"æĮ¥":2624,"çİĭåĽ½":2625,"ä¸ĳ":2626,"åħľ":2627,"ç§Ł":2628,"æķı":2629,"ä¹ĭä¸Ń":2630,"çľĭæĿ¥":2631,"åıĳåĩº":2632,"å®īæıĲ":2633,"åıĮæīĭ":2634,"é¼»":2635,"åĪĽ":2636,"çĿģ":2637,"æłĭ":2638,"å¥³çİĭ":2639,"å¹´è½»":2640,"ç»´æĮģ":2641,"æĢĸ":2642,"è´´":2643,"ç¤¼å¸½":2644,"è¿ĻæĹ¶":2645,"æŃĮ":2646,"èĩªè¯Ń":2647,"çĥ¦":2648,"éĤ£å°±æĺ¯":2649,"å½ķ":2650,"æĥ³çĿĢ":2651,"éĽª":2652,"åĽĽåĳ¨":2653,"åĢ¾":2654,"åķĨ":2655,"åįĬç©º":2656,"åįģåŃĹ":2657,"çļĦç²¾":2658,"ĠæŃ¤æĹ¶":2659,"éĺ»":2660,"çļĦçĪ":2661,"é¥¥é¥¿":2662,"å°¤":2663,"çĤ¼":2664,"æĥ³è±¡":2665,"è°¨":2666,"å¿ħè¦ģ":2667,"æĴĳ":2668,"æģĲæĢĸ":2669,"çī§":2670,"åĸĬ":2671,"æ£ķ":2672,"çĮĽåľ°":2673,"æĺł":2674,"æĸ¹åĲĳ":2675,"ç¦ı":2676,"åħ³ç³»":2677,"æŁ¥æĭī":2678,"æľµ":2679,"ä¼ļæľī":2680,"æŁ¥æĭīåĽ¾":2681,"éķĩ":2682,"æĦıåĳ³":2683,"âĢĿï¼ģ":2684,"äººåĳĺ":2685,"ç»ıéªĮ":2686,"ç¾Ĭ":2687,"æģ¶éŃĶ":2688,"æ¶īåıĬ":2689,"åľ¨è¿ĻéĩĮ":2690,"æĦ£":2691,"åĲİç»Ń":2692,"çĶŁæ´»":2693,"å¤ļå°ĳ":2694,"åĮ»çĶŁ":2695,"Ġå¦Ĥæŀľ":2696,"Ġä¼¦çº³å¾·":2697,"æľºæ¢°":2698,"äº¤æĺĵ":2699,"ç½Ĺå¡ŀå°Ķå¤§å¸Ŀ":2700,"èĴ¸æ±½":2701,"²Į":2702,"è²Į":2703,"åįĸ":2704,"å°ıçļĦ":2705,"è£Ļ":2706,"åĩºçİ°äºĨ":2707,"ä¸Ģç§į":2708,"è¯¯":2709,"çº¢çļĦ":2710,"æĸĳ":2711,"çľ¼éķľ":2712,"å¦ĤæŃ¤":2713,"æĭ¿èµ·":2714,"çľ·èĢħ":2715,"è¯´è¯Ŀ":2716,"ç¬ĳçĿĢ":2717,"åŃ¦æ´¾":2718,"çļĦä½įç½®":2719,"å¤©ä½¿ä¹ĭçİĭ":2720,"åĴķ":2721,"æĥ³äºĨæĥ³":2722,"å°ĨçĽ®åħī":2723,"å·¨äººçİĭ":2724,"æĢ¨éŃĤ":2725,"éĺħè¯»":2726,"Ġä¸İæŃ¤åĲĮæĹ¶":2727,"ä¸Ģåı¥":2728,"éĤ£ç§į":2729,"çº·":2730,"é¢ľ":2731,"Ġè¿ĻæĹ¶":2732,"éħ¬":2733,"æħİ":2734,"å¤«äºº":2735,"è·ŁçĿĢ":2736,"å°Ħ":2737,"çļĦéĤ£äºĽ":2738,"åį§":2739,"çİ©":2740,"ä¾§å¤´":2741,"èĦļæŃ¥":2742,"ä¸ĢåĪĩ":2743,"èĦ¸ä¸Ĭ":2744,"ç¿¼":2745,"ç»Ŀå¯¹":2746,"æ²¿":2747,"ä¹ĭç¥ŀ":2748,"è¯Ńæ°Ķ":2749,"è¶ħè¿ĩ":2750,"Ġä½Ĩ":2751,"äºļå½ĵ":2752,"æ²³":2753,"å¹¿":2754,"å¤§åľ°":2755,"æĸ¹éĿ¢çļĦ":2756,"åĩłç§Ĵ":2757,"çªĥ":2758,"æ»´":2759,"æ¶Īæģ¯":2760,"çľŁæŃ£çļĦ":2761,"åĵ¥åĬª":2762,"å®īæıĲåĵ¥åĬª":2763,"ä¸Ģæł¹":2764,"éĿ¢å¯¹":2765,"è¯´æĺİ":2766,"é«ĺåºıåĪĹ":2767,"å¥¥å°Ķ":2768,"ä»Ķ":2769,"æĪĳæĺ¯":2770,"äºĭä»¶":2771,"æ´ĭ":2772,"åĻ¨":2773,"åŃ©åŃĲ":2774,"å·¨é¾Ļ":2775,"æŁĲç§į":2776,"ç»ĥ":2777,"æĶ¾å¼ĥ":2778,"ä½İæ²ī":2779,"çģ¾":2780,"å¯¹åºĶçļĦ":2781,"å§¿":2782,"åĿļ":2783,"æľĽäºĨ":2784,"è½»æĿ¾":2785,"éļ¾éģĵ":2786,"å¼ºèĢħ":2787,"è¯¡ç§ĺ":2788,"éĿ¢åħ·":2789,"è¢Ń":2790,"æıĲéĨĴ":2791,"åĩłä¸ª":2792,"è¯¥æĢİä¹Ī":2793,"æĢĶ":2794,"ä¹Łæľī":2795,"çİ¯é¡¾":2796,"å»·æł¹":2797,"æİ¨èįĲç¥¨":2798,"æĹħè¡Į":2799,"è¿Ļå°±æĺ¯":2800,"æĿ¥äºĨ":2801,"æ¸ħæĻ":2802,"éªĳ":2803,"ä¾ĿéĿł":2804,"çĳ°":2805,"çĥĪçļĦ":2806,"µæ¸İ":2807,"äºµæ¸İ":2808,"çİĽ":2809,"æĳ¸":2810,"ä»£è¡¨":2811,"000":2812,"èľ¡":2813,"æĶ»åĩ»":2814,"ĮçĿĢ":2815,"ç»ıåİĨ":2816,"èĮ¶":2817,"æĪĺäºī":2818,"éĿĴéĵľ":2819,"èļ":2820,"æ´ģ":2821,"å¼ĹèĲ¨åħĭ":2822,"çİ«çĳ°":2823,"æĺ¯çļĦ":2824,"åľ°éĿ¢":2825,"èĢģå¸Ī":2826,"åĪļæīįçļĦ":2827,"æĲľéĽĨ":2828,"èĮĥåĽ´":2829,"çļĦçĮ":2830,"åľŁ":2831,"åĩ¸":2832,"åºĦ":2833,"åŃĲå¼¹":2834,"å°ıä¸ĳ":2835,"åłĨ":2836,"ç¥ŀå¥ĩçī©åĵģ":2837,"å¤ĸçļĦ":2838,"éĩĳä¼ļ":2839,"åĳĪçİ°":2840,"ä¸ĢæĿ¥":2841,"æĺ¯åĽłä¸º":2842,"æĥ¯":2843,"ä¹ĭä¸»":2844,"è¦Ĩ":2845,"ä¸Ńå°Ĩ":2846,"éĻ¢":2847,"åģļä»Ģä¹Ī":2848,"åıĺæĪĲäºĨ":2849,"æľªæĿ¥":2850,"å®īæıĲåĵ¥åĬªæĸ¯":2851,"ç©ºéĹ´":2852,"æºĲäºİ":2853,"é£Łçī©":2854,"èłķåĬ¨çļĦ":2855,"ä¸ĬéĿ¢":2856,"æµħ":2857,"æ¬§":2858,"Ġä»ĸä»¬":2859,"çļĦçĸ":2860,"æĬ¥éħ¬":2861,"è°¨æħİ":2862,"ħåĴĴ":2863,"è¯ħåĴĴ":2864,"è¿Ļçīĩ":2865,"æ²¡èĥ½":2866,"åĽłæĸ¯":2867,"è¿Ľè¡Į":2868,"Ġå°±åľ¨è¿ĻæĹ¶":2869,"çıŃæ£®":2870,"å§Ķæīĺ":2871,"âĢĿãĢģâĢľ":2872,"æľīæķĪ":2873,"ä¼Ł":2874,"è®¾":2875,"æ´ŀ":2876,"æł¼å¨ģå°Ķ":2877,"å½ĵåĪĿ":2878,"èµŀæł¼å¨ģå°Ķ":2879,"ä¸Ģçīĩ":2880,"è¿ĺèĥ½":2881,"å¾®ç¬ĳ":2882,"åħ´è¶£":2883,"ä¸Ģå¼ł":2884,"åģı":2885,"é¢¤":2886,"èĭįçĻ½":2887,"éĹ²":2888,"å¯Ħ":2889,"èµ¶":2890,"åĲįåŃĹ":2891,"ä¸įåĲĮçļĦ":2892,"ç¬¼ç½©":2893,"åħ¸":2894,"åĵ¨":2895,"é£ĺ":2896,"åľ£èĢħ":2897,"èķ¾":2898,"ä¸¤ä½į":2899,"å¸®å¿Ļ":2900,"éľįå°Ķ":2901,"Łéħ":2902,"ä¸Ģç§Ĵ":2903,"æĸŁéħ":2904,"éģ®":2905,"æ²Ļ":2906,"å±¿":2907,"æıī":2908,"æıĲçĿĢ":2909,"æ»ļ":2910,"å²Ľå±¿":2911,"èľ¡çĥĽ":2912,"ç»¯":2913,"çŃĳ":2914,"åĽłèĴĤ":2915,"èµ°äºĨ":2916,"æĺ¾å¾Ĺ":2917,"è¡Ĺéģĵ":2918,"å®ŀåĬĽ":2919,"æħ¨":2920,"çļĦæĹ¶éĹ´":2921,"åĪ°è¿ĻéĩĮ":2922,"å½ĵæĹ¶":2923,"æĬĬæı¡":2924,"ç»ĨèĬĤ":2925,"ä¹ĭåľ°":2926,"å¦¹":2927,"Ġè¿Ļä½į":2928,"è®°å¿Ĩ":2929,"éļıæĦı":2930,"ä»Ķç»Ĩ":2931,"æĦķ":2932,"æĶ¿":2933,"æĺ¨":2934,"åº·":2935,"æĬĸ":2936,"å°ıæĹ¶":2937,"æ¼Ĩ":2938,"å®¡è§Ĩ":2939,"åĲ¹":2940,"å®ģ":2941,"çĤ¸":2942,"å¿ĥæĥħ":2943,"æ¯Ķè¾ĥ":2944,"å¿ħçĦ¶":2945,"åºĶè¯¥æĺ¯":2946,"èĩªèº«çļĦ":2947,"ä¼ª":2948,"åľ¨éĤ£éĩĮ":2949,"åľ°ä¸ĭ":2950,"åĽŀèį¡":2951,"ä¸įç®¡":2952,"æ¼Ĩé»ĳ":2953,"æĥľ":2954,"æĹ¶èĢĮ":2955,"ä¹Łæ²¡æľī":2956,"ç¼ł":2957,"è®¨":2958,"æ±Ģ":2959,"ç¢°":2960,"æĵħ":2961,"æģĲæĥ§":2962,"ä¸¥éĩį":2963,"é¢ĩä¸º":2964,"æķĮäºº":2965,"åĲĵ":2966,"ä¹Łæ²¡":2967,"çī¹èİīä¸Ŀ":2968,"åĪĨåĪ«":2969,"äºĮåįģ":2970,"å»ºçŃĳ":2971,"åıĪä¸Ģ":2972,"çº¸å¼ł":2973,"æĬķåĲĳäºĨ":2974,"æ·±çº¢":2975,"æİ¥ä¸ĭæĿ¥":2976,"æħ§":2977,"åĥıæĺ¯":2978,"æĶ¶èİ·":2979,"åĬªåĬĽ":2980,"Ġå®ĥ":2981,"æľīåħ³":2982,"çļĦç¾":2983,"ä¿¡å¾Ĵ":2984,"ç¥ĤçļĦ":2985,"åħ¬åı¸":2986,"è¾ĥä¸º":2987,"æĻºæħ§":2988,"æ¯ģ":2989,"å¤±åİ»":2990,"æĪı":2991,"ä¹Łèĥ½":2992,"å¢ĵ":2993,"æĦĪ":2994,"ç½ķ":2995,"åį§å®¤":2996,"çļĦåĬŀæ³ķ":2997,"çļĦåħīèĬĴ":2998,"çļĦæł·åŃĲ":2999,"ç»Ł":3000,"éļĨ":3001,"æīĢåľ¨":3002,"åį³å°Ĩ":3003,"é»Ħéĩĳ":3004,"æĪ¿éĹ´åĨħ":3005,"æĳĨèĦ±":3006,"ç¦»å¼ĢäºĨ":3007,"è¡¥åħħ":3008,"çļĦä»ĸ":3009,"æĹ¶ä»£":3010,"ä»¥ä¸º":3011,"éĥ½æľī":3012,"æ°Ķæģ¯":3013,"èİ«éĩĮ":3014,"çīĻ":3015,"ä½ĵåĨħ":3016,"èĭ¥æľī":3017,"ç»į":3018,"éķ¶":3019,"ä¾µ":3020,"çº³æĸ¯":3021,"å¼Ĺåħ°":3022,"ä»ĭç»į":3023,"è¿«":3024,"ä¸Ģä»¶":3025,"åĪ°çļĦ":3026,"åŃĲçĪµ":3027,"ç®±":3028,"å²ģ":3029,"æĢĴ":3030,"æĬĺ":3031,"åīįå¾Ģ":3032,"æ»ĳ":3033,"å¿ĺè®°":3034,"èłķåĬ¨çļĦé¥¥é¥¿":3035,"Ġéĺ¿å°ĶæĿ°":3036,"è¯µ":3037,"æĪĳæľī":3038,"çĽĺ":3039,"å°Ķçī¹":3040,"çļĦçĹ":3041,"è®°å½ķ":3042,"ç²Ĺ":3043,"Ġè¿Ļä¸ªæĹ¶åĢĻ":3044,"è¿Ł":3045,"åĲŀ":3046,"è®¿":3047,"éĽķ":3048,"æ¯«ä¸į":3049,"çĤ¹äºĨçĤ¹å¤´":3050,"ç¬¦åĲĪ":3051,"éĵľåĵ¨":3052,"æī¬":3053,"æ²¡åĨį":3054,"å¤§åİħ":3055,"è´Ń":3056,"ä¸»è¦ģ":3057,"å¤±è´¥":3058,"èģĬ":3059,"èħ¾":3060,"è¶ħåĩ¡":3061,"»çĴ":3062,"¾çĹħ":3063,"çİ»çĴ":3064,"è¯´ä¸į":3065,"éĥ½ä¼ļ":3066,"åĿĢ":3067,"è½»è½»é¢Ķé¦ĸ":3068,"çĲ³å¨ľ":3069,"çİ»çĴĥ":3070,"Ġä½Ľå°ĶæĢĿ":3071,"ä¹ı":3072,"ä¹ĺ":3073,"èĢĢ":3074,"å¯¹éĿ¢":3075,"èµ·èº«":3076,"éķ¿è¢į":3077,"ä¿¡ä»°":3078,"éĴ»":3079,"éĩĳå¸ģ":3080,"åı¥è¯Ŀ":3081,"Ġä¸įè¿ĩ":3082,"äº«":3083,"ä¸įä»ħ":3084,"ç§ģ":3085,"éĽ¨":3086,"éĥģ":3087,"ç»ĻäºĪ":3088,"åı¤ä»£":3089,"èī¾å°Ķ":3090,"çļĦçī©åĵģ":3091,"åľ¨æĦı":3092,"æĥ¨":3093,"æĭĸ":3094,"ä½łæĺ¯":3095,"éŃĶæ³ķ":3096,"å¤±åİ»äºĨ":3097,"ä¼¤å®³":3098,"ĠèĻ½çĦ¶":3099,"åĬ³":3100,"åĳĨ":3101,"å¤§å®¶":3102,"å®īåħ¨":3103,"èħ¹":3104,"èħ¿":3105,"éªĳå£«":3106,"åĽłèĴĤæĸ¯":3107,"ĩä½":3108,"ä¸įåı¯èĥ½":3109,"éĵ¶çĻ½":3110,"èĤ¯å®ļä¼ļ":3111,"åı¹æģ¯":3112,"èİ«éĩĮäºļ":3113,"ä¸ĢæĹ¶":3114,"ä¸įå¤ļ":3115,"ç»ľ":3116,"æİı":3117,"æ¬£":3118,"ç½Ĺå¾·":3119,"æĭīç½ķ":3120,"äºļä¼¯":3121,"æĭľæľĹ":3122,"ä»·åĢ¼":3123,"è¯¡å¼Ĥ":3124,"çļĦæĥħåĨµä¸ĭ":3125,"åıĤä¸İ":3126,"äºļä¼¯æĭīç½ķ":3127,"ä¸Ĭå°Ĩ":3128,"å·¦åı³":3129,"èĭıèĮľ":3130,"æ··ä¹±":3131,"äºĴ":3132,"èĩªæĪĳ":3133,"åı¯æĥľ":3134,"æīĢæĢĿ":3135,"çļ®èĤ¤":3136,"éĺ¿åħ¹åħĭåħĪçĶŁ":3137,"å½©":3138,"çĽ¸åħ³":3139,"çĽ´åĪ°":3140,"èµ°åĲĳ":3141,"éĩİ":3142,"ä¹ĭèĻ«":3143,"å¥³æĢ§":3144,"çĽ¸å¯¹":3145,"åłķ":3146,"è§ĴèĲ½":3147,"¥æ´Ĺ":3148,"±ä¹Ĳ":3149,"çĽ¥æ´Ĺ":3150,"ä¸ľåĮº":3151,"èĶ½":3152,"æĬĵä½ı":3153,"è´Łè´£":3154,"çİ«çĳ°åŃ¦æ´¾":3155,"è¦ĨçĽĸ":3156,"çļĦæĥ³æ³ķ":3157,"çļĦè¯Ŀè¯Ń":3158,"åįļ":3159,"å¼¯":3160,"é©³":3161,"å½¢è±¡":3162,"åĲĲäºĨåı£æ°Ķ":3163,"æĺĤèµĽ":3164,"ä¸ĢåĲį":3165,"å®½":3166,"æģį":3167,"åľ¨è´Ŀåħĭåħ°å¾·":3168,"çĽĳ":3169,"è½¯":3170,"å¼ºè¡Į":3171,"çķĻä¸ĭ":3172,"æŀģåħī":3173,"åĭ¾åĭĴ":3174,"çĽ¥æ´Ĺå®¤":3175,"èĢĲ":3176,"æĭĽ":3177,"å¯¹æĬĹ":3178,"åıªè§ī":3179,"éĺ¿ç½Ĺå¾·":3180,"è¯Ńè¨Ģ":3181,"æĪ´èİī":3182,"æķħäºĭ":3183,"åĴ³":3184,"åľ°åĽŀçŃĶéģĵ":3185,"ä¸įæĺ¯å¤ª":3186,"è®®åĳĺ":3187,"ä¹łæĥ¯":3188,"åłķèĲ½":3189,"æĺĤèµĽæ±Ģ":3190,"éĤ£çīĩ":3191,"ä¸īä¸ª":3192,"éļĲèĹı":3193,"å·¥ä½ľ":3194,"æľŁå¾ħ":3195,"æ°´æĻ¶":3196,"æķĻä¼ļçļĦ":3197,"å·¦è½®":3198,"èİ«åĲį":3199,"è¿·éĽ¾":3200,"Ġèĩ³äºİ":3201,"ä¸Ģåıª":3202,"è¯¦":3203,"éĤ£æĺ¯":3204,"æĬ¹":3205,"çī¹æĭī":3206,"å¾Īåı¯èĥ½":3207,"ä½ľçĶ¨":3208,"æĺİçĻ½äºĨ":3209,"æŀģåħīä¼ļ":3210,"çļĦåŃĺåľ¨":3211,"æŃ£åľ¨":3212,"åİŁå§ĭ":3213,"èħĲ":3214,"æ´Ľåħĭ":3215,"æĹ¦":3216,"æĪĳå°±":3217,"éĤ£å¼ł":3218,"æĭį":3219,"ä¹Łä¼ļ":3220,"è¡¨ç¤º":3221,"å¸ķåĪĹ":3222,"æĦıåĳ³çĿĢ":3223,"è¿ĺæľª":3224,"è°ĭ":3225,"ç»Ļä½ł":3226,"çĬ¯":3227,"æĿ¾äºĨåı£æ°Ķ":3228,"èĻļå¹»çļĦ":3229,"èĭ¥æľīæīĢæĢĿ":3230,"©çĮİ":3231,"ç¬ĳäºĨä¸Ģå£°":3232,"å®Įæķ´":3233,"åĳ¨ä¸Ģ":3234,"å·¦æīĭ":3235,"è®¡åĪĴ":3236,"10":3237,"çļĦå°ı":3238,"âĢĿâĢ¦âĢ¦":3239,"æľīæ²¡æľī":3240,"ä¼ļä¸įä¼ļ":3241,"æĭ¬":3242,"æıĴ":3243,"æ¯Ĵ":3244,"æĦıä¹ī":3245,"æıĲåįĩ":3246,"åĽłæŃ¤":3247,"æ²īéĩį":3248,"å·¨å¤§":3249,"éħĴåĲ§":3250,"èµ«å¯Ĩæĸ¯":3251,"çļĦç²¾ç¥ŀ":3252,"å¸ķåĪĹæĸ¯":3253,"äºĨä¸Ģéģį":3254,"éĻµ":3255,"æħĮ":3256,"ä¹Łå°±æĺ¯è¯´":3257,"è¿ĩç¨ĭä¸Ń":3258,"æĩĤ":3259,"çļĦæĪĲåĳĺ":3260,"å®īæİĴ":3261,"ç»ĻæĪĳ":3262,"éķľåŃĲ":3263,"¹ģ":3264,"ä¸įç®Ĺ":3265,"ç¼Ŀ":3266,"åľ°åºķ":3267,"æķ¬":3268,"å½¼":3269,"åĽŀåĪ°äºĨ":3270,"æĦŁåıĹ":3271,"éĩįå¤į":3272,"æĭ¿åĪ°":3273,"åĪ©äºļçī¹":3274,"ä¼ĬåĪ©äºļçī¹":3275,"å±ķå¼Ģ":3276,"äººå½±":3277,"è¿ĺå¥½":3278,"èĦı":3279,"è®°ä½ı":3280,"å¸¦æĿ¥":3281,"åĪ·":3282,"åĴļ":3283,"æķĽ":3284,"å¯¹åºĶ":3285,"åĽŀæĥ³":3286,"æľĽåĲĳäºĨ":3287,"å¼ºå¤§":3288,"ç¬¬åĽĽçºª":3289,"æĪ·":3290,"æŀĲ":3291,"æ³½":3292,"è®©å¥¹":3293,"åŁĭ":3294,"åŁİå¸Ĥ":3295,"å¡ŀå°¼":3296,"é»Ħæĺı":3297,"æĬķå½±":3298,"å¯¼èĩ´":3299,"çº§å°ģåį°çī©":3300,"å¿ĥçĲĨçĤ¼":3301,"é¢ľèī²":3302,"Ġè§ģ":3303,"å°Ķä¹Į":3304,"åĵĴ":3305,"åħ°å°Ķä¹Į":3306,"çľĭäºĨçľ¼":3307,"éº»çĥ¦":3308,"å¡ŀå°¼å¥¥å°Ķ":3309,"çĿĢçļĦ":3310,"è¿ĺæ²¡æľī":3311,"åĮĻ":3312,"åĿł":3313,"åĳ¨åĽ´çļĦ":3314,"æ¶²ä½ĵ":3315,"å¹ħ":3316,"çĦ¦":3317,"è¿ĺåľ¨":3318,"è§ģè¿ĩ":3319,"æĹłè®º":3320,"æĤĦ":3321,"è½¬èº«":3322,"çłģ":3323,"ä½łåı¯ä»¥":3324,"åĽŀå¿Ĩ":3325,"å¾Īéļ¾":3326,"åĲ¬å¾Ĺ":3327,"åħ°æ¯Ķ":3328,"åĲĪä½ľ":3329,"äºļå§Ĩ":3330,"ä¹ĭåīįçļĦ":3331,"å¸½åŃĲ":3332,"æĭľäºļå§Ĩ":3333,"å¤ıæ´Ľåħĭ":3334,"èİ«éĩĮäºļèĴĤ":3335,"ç£":3336,"Ġä¼ĳ":3337,"çľĭèµ·æĿ¥":3338,"è¦ģæ±Ĥ":3339,"è¯´è¿ĩ":3340,"çĸ¾çĹħ":3341,"æĢĢçī¹":3342,"æĵ¦":3343,"èµ«æ¸©":3344,"å¿ĥçĲĨçĤ¼éĩĳä¼ļ":3345,"çīĪ":3346,"å¯¹ä»ĺ":3347,"æŀĦ":3348,"åıĳå±ķ":3349,"èĤ¡":3350,"é©¬éĩĮ":3351,"ç¥ŀç§ĺå¥³çİĭ":3352,"æİīäºĨ":3353,"æ¹":3354,"æīİ":3355,"éĿĻéĿĻ":3356,"çĸĳéĹ®":3357,"ä¾¿å£«":3358,"éĻįä¸´":3359,"å¦®çī¹":3360,"èķ¾å¦®çī¹":3361,"è¯µå¿µ":3362,"çļĦè¡¨æĥħ":3363,"ç¼ĩ":3364,"æĽ´å¤ļçļĦ":3365,"éģĩåĪ°":3366,"åĮħæĭ¬":3367,"åı«åģļ":3368,"é©¬éĩĮå¥ĩ":3369,"ä¼ĺ":3370,"æĭ³":3371,"ä»¥åĲİ":3372,"æĮº":3373,"åħĪæĺ¯":3374,"èĤļ":3375,"æĽ´å¤ļ":3376,"æĶ¾æĿ¾":3377,"åħ·å¤ĩ":3378,"éģĹçķĻ":3379,"ĠåĽłä¸º":3380,"æł¼æĸ¯":3381,"å¥³ä»Ĩ":3382,"è¿ĽæĿ¥":3383,"åĶĩ":3384,"ç²¾çģµ":3385,"æĬ¬å¤´":3386,"èµıéĩĳ":3387,"äºĨä¸ĢåľĪ":3388,"åıªåī©":3389,"éľĩ":3390,"æľ¬ä½ĵ":3391,"æĺİæĺ¾çļĦ":3392,"æĹħé¦Ĩ":3393,"å°ĬåĲį":3394,"æĹ¢çĦ¶":3395,"åĩºäºĨä¸Ģä¸ª":3396,"éĢļçģµ":3397,"å´©":3398,"ç¹ģ":3399,"æĺ¯è°ģ":3400,"éģĵè·¯":3401,"åİī":3402,"åĲİéĿ¢":3403,"è¿ĺæ²¡":3404,"ä¸Ģä¸ªä¸ª":3405,"æµ·æ´ĭ":3406,"çª¥":3407,"èĺ":3408,"çļĦçľ¼çĿĽ":3409,"åĴ¬":3410,"éĴ¥":3411,"çĭĹ":3412,"å§ĭç»Ī":3413,"åŀĤ":3414,"çļĦé£İ":3415,"å¹¶ä¸Ķ":3416,"å°¼ç§ĳå°Ķ":3417,"æĦ¿æľĽ":3418,"éº¦":3419,"ç¼ĩå°¼ç§ĳå°Ķ":3420,"çļĦæľºä¼ļ":3421,"ä¸ĢåľĪ":3422,"äºĨä¸ĢçĤ¹":3423,"åĽŀæĿ¥":3424,"æŁ±":3425,"å¤ªå¤ļ":3426,"å¼Ħæ¸ħæ¥ļ":3427,"å¼Ĺåħ°åħĭ":3428,"ĠæĪ´éĩĮåħĭ":3429,"æĿİ":3430,"æĬ«":3431,"æĸ¯å¾·":3432,"âĢĻãĢĤâĢĿ":3433,"ç½Ĺäºļ":3434,"é©±":3435,"å·¨å¤§çļĦ":3436,"è¿ľå¤Ħ":3437,"èıĩ":3438,"ç¼ºä¹ı":3439,"å½¼æŃ¤":3440,"Ķç©¶":3441,"äºĽè®¸":3442,"çĽ´è§ī":3443,"åĥµ":3444,"ä¼ĳæģ¯":3445,"å¼ĥä¹ĭåľ°":3446,"è¹¬":3447,"èĺĳ":3448,"éĴ¥åĮĻ":3449,"ç½Ĺäºļæĸ¯å¾·":3450,"åĨ¥":3451,"æµ·æŁĶ":3452,"åĬłåħ¥":3453,"ç´¢ç½Ĺäºļæĸ¯å¾·":3454,"èĺĳèıĩ":3455,"çļĦäºĭçī©":3456,"ä¹ĭçº¿":3457,"å¤§æµ·":3458,"ç´¯":3459,"éŃĶéķľ":3460,"èĭıåĭĴ":3461,"æµ·æŁĶå°Ķ":3462,"ä¸įæĥ³":3463,"å¥¹ä»¬":3464,"éŃĶçĭ¼":3465,"åĺ²":3466,"å¤Ħäºİ":3467,"æĶ¾ä¸ĭ":3468,"çŀĴ":3469,"ç®¡å®¶":3470,"çĮİäºº":3471,"ä¼¸æīĭ":3472,"æķħæĦı":3473,"çĹĽèĭ¦":3474,"æ¸ħæĻ°":3475,"ç»¯çº¢":3476,"çļĦæĸ¹å¼ı":3477,"å¤¹":3478,"èº«ç©¿":3479,"éĺ³åħī":3480,"é½ĲæŀĹ":3481,"ä¼ªè£ħ":3482,"è¤Ĳ":3483,"æĺ¯åľ¨":3484,"ç¥ĸ":3485,"å¾·å°Ķ":3486,"æł¼ç½Ĺå¡ŀå°Ķ":3487,"å°ĳå¥³":3488,"å¥ĩè¿¹":3489,"åĲĦèĩª":3490,"¤æ°Ķ":3491,"é¹":3492,"åĩŃ":3493,"ç¥ŀå¼ĥä¹ĭåľ°":3494,"çģµæĦŁ":3495,"åģļäºĨ":3496,"è¯ĿéŁ³":3497,"èĦ¸åŃĶ":3498,"æĺŁæĺŁ":3499,"åĳ³éģĵ":3500,"å¢Ļå£ģ":3501,"å®ĿçŁ³":3502,"ä¸ĢæĹ¦":3503,"å¼Ĥåıĺ":3504,"ç²¹":3505,"çº¯ç²¹":3506,"è¿Ļä¸ĢåĪĩ":3507,"å³°":3508,"å¯Ĵ":3509,"æĭ¥":3510,"çľĭåĲĳ":3511,"éĶĲ":3512,"æĢİä¹Īæł·":3513,"æŀģä¸º":3514,"è´ŁéĿ¢":3515,"éĺ¿ç½Ĺå¾·æĸ¯":3516,"æĿ¥åĪ°äºĨ":3517,"è½°":3518,"çĲĨè§£":3519,"åĲįç§°":3520,"çŀ³":3521,"æĳĩäºĨ":3522,"ä¿ĿæĮģçĿĢ":3523,"æĦĪåıĳ":3524,"åį«":3525,"äººçī©":3526,"æ»ŀ":3527,"çĭ©çĮİ":3528,"é»ĳèī²çļĦ":3529,"åļ":3530,"ä¼į":3531,"æī£":3532,"èĢĮè¨Ģ":3533,"ä¿±ä¹Ĳ":3534,"æŁĦ":3535,"å½ĵåīį":3536,"âĢ¦âĢ¦âĢĿâĢľ":3537,"è¿ĳä¹İ":3538,"æ¸ħéĨĴ":3539,"åİŁåľ°":3540,"çĶ·çĪµ":3541,"æĺŁä¹ĭä¸Ĭå°Ĩ":3542,"æļ´éľ²":3543,"èī¾ä¼¦":3544,"æ´Ľèĸĩ":3545,"éĿĴéĵľéķ¿æ¡Į":3546,"ä¿±ä¹Ĳéĥ¨":3547,"æ´ĽèĸĩéĽħ":3548,"ħå£«":3549,"è¯§":3550,"è¯±":3551,"ç»ħå£«":3552,"åºŁ":3553,"æģ¢å¤įäºĨ":3554,"åįĹå¤§éĻĨ":3555,"ä¾įèĢħ":3556,"çļĦçĶ·åŃĲ":3557,"æīĳ":3558,"éĤ£åº§":3559,"å¾ĹåĪ°äºĨ":3560,"åĪĨèº«":3561,"èĪĴ":3562,"ä¸įäºĨ":3563,"è¡¬":3564,"æĬĢ":3565,"èĤĥ":3566,"éĩĳå±ŀ":3567,"ç±į":3568,"ç©ºæ°Ķ":3569,"æī¿åıĹ":3570,"å¹¸è¿Ĳ":3571,"è¯§å¼Ĥ":3572,"èĤ©":3573,"åħ·çİ°":3574,"çĻ½èī²":3575,"ç¼ĵç¼ĵ":3576,"å¹²æī°":3577,"æĹģè¾¹çļĦ":3578,"è¯¦ç»Ĩ":3579,"Ġè¾¾å°¼åħ¹":3580,"æĦŁåı¹":3581,"éĢŁåº¦":3582,"èĬ±çº¹":3583,"èĶĵ":3584,"è¶³å¤ŁçļĦ":3585,"åĵĪåĵĪ":3586,"æ¼Ĥ":3587,"å®īæıĲåĵ¥åĬªæĸ¯å®¶æĹı":3588,"ä»ĸåľ¨":3589,"æĪĳå·²ç»ı":3590,"åľ°ä¸Ĭ":3591,"éĥ½æ²¡":3592,"è¡Įä¸º":3593,"æľªå¿ħ":3594,"ä½İå£°":3595,"åĺ´åĶĩ":3596,"åı¹äºĨåı£æ°Ķ":3597,"å°½å¿«":3598,"çļĦçĪ¶":3599,"ä¸ĺ":3600,"æģĴ":3601,"è½½":3602,"æīĭä¸ŃçļĦ":3603,"ç½ĳ":3604,"è¶ģ":3605,"æīĵéĩı":3606,"å¤įæ´»":3607,"éķĸ":3608,"è¿Ľåİ»":3609,"ä¸ĢåĪ»":3610,"å¯Ŀ":3611,"åĲİçļĦ":3612,"äºĨä¸Ģéģĵ":3613,"æĺŁè¾":3614,"èī¾å¾·":3615,"æĿĥæĿĸ":3616,"éĴ¢ç¬Ķ":3617,"èĮ«çĦ¶":3618,"åľ¨ä¸Ģèµ·":3619,"ä¹Łå°±":3620,"çŃīäºİ":3621,"æ±ĩ":3622,"ä¸»äºº":3623,"èĪª":3624,"éªĹ":3625,"åĲ¸äºĨåı£æ°Ķ":3626,"é¤Ĳåİħ":3627,"éĻµå¯Ŀ":3628,"ĠåŁĥå§ĨæŀĹ":3629,"ç»ıå¸¸":3630,"ä¿Ŀéķĸ":3631,"çº¸äºº":3632,"èī¾è¾Ľ":3633,"ä¸Ģæ®µæĹ¶éĹ´":3634,"æĬ¢":3635,"åĽŀåİ»":3636,"å¤ªå¤ª":3637,"æĳĩæĻĥ":3638,"å»ºç«ĭ":3639,"èī¾è¾Ľæł¼":3640,"ãĢĤâĢĿâĢľ":3641,"åīįè¡Į":3642,"è¢«äºº":3643,"å¸ĥç½®":3644,"æĪĲä¸ºäºĨ":3645,"èĦ±ç¦»":3646,"åĶ¯ä¸ĢæĢ§":3647,"å«":3648,"äºĨè¿ĩåİ»":3649,"æĪĳåı¯ä»¥":3650,"éĤ¦":3651,"å¿§":3652,"ç¥ŀçļĦ":3653,"äºĨä¸ĢäºĽ":3654,"å¾·ç»´å°Ķ":3655,"æīĭæĮĩ":3656,"å¤ļéĩĮå®ī":3657,"æĺİå¤©":3658,"åħ¶ä½Ļ":3659,"æīĢæľīçļĦ":3660,"åĩĿåĽº":3661,"çģµä½ĵä¹ĭçº¿":3662,"å°ĨçĽ®åħīæĬķåĲĳäºĨ":3663,"èļĢ":3664,"åºĦåĽŃ":3665,"ä»¤":3666,"ä¸ĭæĸ¹":3667,"ä½įæł¼":3668,"æ²¡æľīä»»ä½ķ":3669,"æĮĤ":3670,"é¡¹":3671,"ä¸¤äºº":3672,"çĥĤ":3673,"åĺ¶":3674,"è¿ĽäºĨ":3675,"åĤ¬":3676,"æĳĩäºĨæĳĩå¤´":3677,"è¿Ļæĸ¹éĿ¢":3678,"å¥ĳ":3679,"ä¹ĭçľ¼":3680,"æī¾åĪ°äºĨ":3681,"å¥ĩå¼Ĥ":3682,"è¯Ŀé¢ĺ":3683,"è£¹":3684,"æī¯":3685,"åľ°çľĭçĿĢ":3686,"å¼ĢåĲ¯":3687,"éĽ¶":3688,"çĻ»":3689,"åģļçļĦ":3690,"çł´åĿı":3691,"æĵħéķ¿":3692,"åħ°æ¯Ķæĸ¯":3693,"çļĦé»ĳèī²":3694,"çļĦåĨħå®¹":3695,"çģµè§Ĩ":3696,"¯å¨ľ":3697,"æ³¥":3698,"éĽ¯å¨ľ":3699,"çĽ¸åºĶ":3700,"åĪ¶ä½ľ":3701,"å¤§æ¦Ĥçİĩ":3702,"èī¾å¾·éĽ¯å¨ľ":3703,"ç¯":3704,"Ġæİ¥çĿĢ":3705,"çļĦé«ĺ":3706,"ä¼ı":3707,"åĴĸ":3708,"æĭĴ":3709,"èºº":3710,"ç¬ĳäºĨ":3711,"èĥĢ":3712,"æ±Ĥæİ¨èįĲç¥¨":3713,"çĹķè¿¹":3714,"çŁ³æĿ¿":3715,"æŃ£å¸¸çļĦ":3716,"ä»ĸæĺ¯":3717,"éĩĩ":3718,"çīĽ":3719,"æŃ¦":3720,"æĦŁæħ¨":3721,"åķ¡":3722,"æįı":3723,"å·¨äººçİĭåºŃ":3724,"åĴĸåķ¡":3725,"è´¢":3726,"å°ĨåĨĽ":3727,"åµ":3728,"Ġä½ľä¸º":3729,"ç»·":3730,"æĪĳåľ¨":3731,"åĲĮä¼´":3732,"çļĦçĥ":3733,"èį¯å¸Ī":3734,"è§īå¾Ĺèĩªå·±":3735,"éľįå°Ķä¼¯çĪµ":3736,"åħ°å°Ķä¹Įæĸ¯":3737,"èµ¤":3738,"å°±è¿ŀ":3739,"è¾¨":3740,"åħ¥åı£":3741,"æľĢåĪĿ":3742,"çłĶç©¶":3743,"åĩĮ":3744,"è¯¸":3745,"é»İ":3746,"éĺģ":3747,"ä»¥åīį":3748,"ä¿¡æģ¯":3749,"ä½İè¯Ń":3750,"çŁŃæļĤ":3751,"çļĦåĲĮæĹ¶":3752,"è¡¡":3753,"å°±åı¯ä»¥":3754,"æ¬¾":3755,"å¾Īå¥½":3756,"æĻ¨":3757,"åĲĳçĿĢ":3758,"åįģäºĮ":3759,"åıĳçİ°èĩªå·±":3760,"é¢Ŀå¤´":3761,"çªĥåıĸ":3762,"è¯´ä¸įå®ļ":3763,"è¿Ļä¸įæĺ¯":3764,"åĳĵ":3765,"é«ĺçļĦ":3766,"å°¼æĸ¯":3767,"æ£Ģ":3768,"çĸĳä¼¼":3769,"ä¼¸åĩº":3770,"åĲ¯ç¤º":3771,"çļĦå½±åĵį":3772,"å¾½":3773,"æĬ¿":3774,"è¦ģæĺ¯":3775,"éĥ½åľ¨":3776,"éĥ½èĥ½":3777,"æŃ£è¦ģ":3778,"æĤ²":3779,"æļĹä¸Ń":3780,"éļıæĹ¶":3781,"å¹´çļĦ":3782,"æĢģåº¦":3783,"æ¯ıä¸ª":3784,"ä¸Ĭæ¬¡":3785,"åĽŀå½Ĵ":3786,"å¤ĸå¥Ĺ":3787,"ç¥Ńåı¸":3788,"æ®ĭçķĻ":3789,"åģļåĩºäºĨ":3790,"å°¼äºļ":3791,"ç»ĵåĲĪ":3792,"æĴŀ":3793,"è¢Ńåĩ»":3794,"éķ¶åµ":3795,"æĦ§":3796,"ï¼ŁâĢľ":3797,"æĢĿç´¢":3798,"å¾Ģä¸ĭ":3799,"å¤įæĿĤ":3800,"éĢłæĪĲ":3801,"ä¹¦åĨĻ":3802,"ä¾ĿçĦ¶":3803,"ç«Ļåľ¨":3804,"è§ĦåĪĻ":3805,"ä¸įå¾Ĺä¸į":3806,"ĠéĤĵæģ©":3807,"å¤§å¸Ī":3808,"è¦ģä¹Ī":3809,"æĥ³åĪ°äºĨ":3810,"å¼ĢéĹ¨":3811,"åĩłä½į":3812,"ç²ī":3813,"åİīå®³":3814,"åĩĳ":3815,"åºľ":3816,"æĸ¯åŁº":3817,"éĻ©äºĽ":3818,"ç´¢æĸ¯çī¹":3819,"å¤«æĸ¯åŁº":3820,"ä¹Įçī¹æĭī":3821,"çĳŁ":3822,"åıĤåĬł":3823,"çļĦçĮľæµĭ":3824,"æĦķçĦ¶":3825,"ä¹Įçī¹æĭīå¤«æĸ¯åŁº":3826,"Ġåĳ¼":3827,"ä¸įå¯¹":3828,"å®ŀéĻħ":3829,"ä¸¥èĤĥ":3830,"èĭ¥æľīæīĢæĢĿåľ°":3831,"æĺŁè¾°":3832,"çļĦåħī":3833,"å¸ĺ":3834,"åºĵ":3835,"ç¥ŀè¯Ŀ":3836,"è¾¾åħĭ":3837,"ç¨į":3838,"åįķçīĩ":3839,"åĭī":3840,"åģľé¡¿":3841,"å¼Ĺèİ±":3842,"åĴĴæĸĩ":3843,"æ½®":3844,"æ²Ļåıĳ":3845,"ä¸įæ¸ħ":3846,"å¼Ł":3847,"å°Ķæĸ¯":3848,"èĩªè¡Į":3849,"ç«ĸ":3850,"åĩłå¤©":3851,"æĪĳä»¬çļĦ":3852,"ĸåŃĲ":3853,"æīĶ":3854,"ãĢģâĢĺ":3855,"æ´Ĵ":3856,"å¼ºçĥĪçļĦ":3857,"ç¾½":3858,"ä¸ĢçĤ¹ä¹Łä¸į":3859,"éĻ¤éĿŀ":3860,"å¸ĿåĽ½":3861,"æĤ¨çļĦ":3862,"æĸĳé©³":3863,"è®¨è®º":3864,"æĤĦçĦ¶":3865,"æ©":3866,"çļĦéĿŀåĩ¡çī¹æĢ§":3867,"ä¸Ĭé¦ĸ":3868,"è¾ħ":3869,"ç½ļèĢħ":3870,"çī¹çĤ¹":3871,"çľ¼ç¥ŀ":3872,"èĦī":3873,"å®ĮæĪĲäºĨ":3874,"æ°´æīĭ":3875,"ä»£ç½ļèĢħ":3876,"è¿ľåı¤":3877,"ä»Ĩäºº":3878,"å£ģçĶ»":3879,"é¡ºåĪ©":3880,"©åĴ":3881,"åĲ©åĴ":3882,"çľĭäºĨä¸Ģçľ¼":3883,"çİ°éĩĳ":3884,"æ²¡æľīä¸ĢçĤ¹":3885,"åıĪä¸Ģä¸ª":3886,"ä¸¾è¡Į":3887,"å§¿æĢģ":3888,"é½ĲæŀĹæł¼æĸ¯":3889,"åĲ©åĴĲ":3890,"çļĦçĽ®åħī":3891,"å°±æľī":3892,"éĥ½ä¸į":3893,"ä»Ģä¹Īäºĭæĥħ":3894,"æĮ£":3895,"æĦıå¿Ĺ":3896,"ä¾ĭ":3897,"æ·±åħ¥":3898,"ç«ĭåľ¨":3899,"åŃĶéļĻ":3900,"ĠæīĢä»¥":3901,"åĲİèĢħ":3902,"æľ¬è´¨":3903,"è½¬è¿ĩ":3904,"èģĶç»ľ":3905,"åĨĽæĸ¹":3906,"ä¸ĺçº³æĸ¯":3907,"åĭīå¼º":3908,"æł¡":3909,"æĹ¶åĪ»":3910,"æ²¡æľīéĹ®é¢ĺ":3911,"å®¶éĩĮ":3912,"èĢģå¤´":3913,"æ»¡è¶³":3914,"åĪĩå°Ķ":3915,"ä»¿ä½Ľåľ¨":3916,"å·®çĤ¹":3917,"èµŀç¾İ":3918,"åĬ¿åĬĽ":3919,"èī¾å°Ķåħ°":3920,"åįķçīĩçľ¼éķľ":3921,"æĨ":3922,"çļĦéĤ£ä½į":3923,"å¤¸":3924,"ç»¸":3925,"éĢĨ":3926,"ç¬¬ä¸Ģæ¬¡":3927,"æĬ¬æīĭ":3928,"çĮİéŃĶ":3929,"çĮ®ç¥Ń":3930,"æĺ¯ä¸ª":3931,"æĮ¡":3932,"ä¸īåįģ":3933,"è½¬ç§»":3934,"æĻļä¸Ĭ":3935,"èİ«éĽ·":3936,"Ġåķª":3937,"æĭ¾":3938,"è¯´çļĦ":3939,"ç¥Ĥä»¬":3940,"é»Ħéĵľ":3941,"ä¸Ŀç»¸":3942,"èĭıå°¼äºļ":3943,"ä¿®ä¼ļ":3944,"çļĦä¿¡å¾Ĵ":3945,"äºļä¼¯æĭīç½ķå®¶æĹı":3946,"Ġåģļ":3947,"ä¸ĬåįĪ":3948,"å¤ļäºĨ":3949,"æĹłæķ°":3950,"å¦Ļ":3951,"åĿĽ":3952,"åĺĽ":3953,"å¡Ķç½ĹçīĮ":3954,"æĶ¯ä»ĺ":3955,"é£İæļ´æķĻä¼ļ":3956,"çĩĥçĥ§":3957,"åĳĵè¯Ń":3958,"è¾ħåĬ©":3959,"ĠåĹ¯":3960,"ä»ĩ":3961,"ç©¿éĢı":3962,"ç¥ŀç§ĺç©ºéĹ´":3963,"åĲĮæł·çļĦ":3964,"ĠåĲ¬åĪ°":3965,"æĪª":3966,"å¾ª":3967,"æĥ³èµ·äºĨ":3968,"çķı":3969,"åĲ¬çĿĢ":3970,"çĭĤçļĦ":3971,"çĲĨæĻº":3972,"å±Ĥå±Ĥ":3973,"åıįæĬĹ":3974,"å¹½æļĹ":3975,"åģ·çĽĹ":3976,"éĺ»æŃ¢":3977,"æİıåĩº":3978,"Ġçł°":3979,"è¿İ":3980,"æĪĳçŁ¥éģĵ":3981,"åĪ°æĹ¶åĢĻ":3982,"ä¸ĭåİ»":3983,"æ³ķå¸Ī":3984,"éĵº":3985,"å¡Į":3986,"èµ°åĪ°":3987,"æīĵäºĨä¸ª":3988,"å¢ŀ":3989,"äºĮæĺ¯":3990,"éĶĻè¯¯":3991,"æ¯įç¥ŀ":3992,"éĻĲåĪ¶":3993,"çŀĦäºĨ":3994,"ï¼ļâĢľ":3995,"ä¸ĭæĿ¥çļĦ":3996,"èµ°åĲĳäºĨ":3997,"æĳĬ":3998,"æįŁ":3999,"åĽłä¸ºä»ĸ":4000,"çİ°åľ¨çļĦ":4001,"æĳĨæĶ¾":4002,"åŁºæľ¬":4003,"å¤º":4004,"æĦī":4005,"è°Ī":4006,"å¹¶ä¸įæĺ¯":4007,"å¼łå¼Ģ":4008,"ç¿ĺ":4009,"æ¥¼æ¢¯":4010,"Ġå°±åľ¨è¿Ļä¸ªæĹ¶åĢĻ":4011,"åĩĢåĮĸ":4012,"çĪ¶äº²":4013,"çļĦçĹķè¿¹":4014,"AåħĪçĶŁ":4015,"ä¸Ģåľº":4016,"åĲ»":4017,"æĪĪ":4018,"è¯Ī":4019,"æĸľ":4020,"å°±è¦ģ":4021,"ä½įäºİ":4022,"æīĭæİĮ":4023,"è®©ä½ł":4024,"å¹¶æľª":4025,"æĶ¶æķĽ":4026,"åıįéĹ®éģĵ":4027,"æĢ»ç»ĵ":4028,"åĲ¸è¡Ģ":4029,"æ¯įäº²":4030,"Ġè¯´è¯Ŀ":4031,"ĠçªģçĦ¶":4032,"æľīç§į":4033,"ä¸¤ä¾§":4034,"å¨ħ":4035,"æŃ»åİ»":4036,"åľ£èµĽ":4037,"çĶµæĬ¥":4038,"äºĨä¸¤ç§Ĵ":4039,"çªĹå¤ĸ":4040,"çĺ¦":4041,"ä¸Ģä»½":4042,"æł¸":4043,"æķŀ":4044,"æĸ¯å¡Ķ":4045,"çĮľ":4046,"å¿Ļç¢":4047,"å»ºè®®":4048,"åİĨåı²åŃĶéļĻ":4049,"èĨĢ":4050,"è¡¬è¡£":4051,"åĲŁ":4052,"åįı":4053,"æ¬º":4054,"æĳ©":4055,"è§£è¯»":4056,"åı¦ä¸Ģä¸ª":4057,"åģľæŃ¢":4058,"æİĴéĻ¤":4059,"å·®ä¸įå¤ļ":4060,"å±ħæ°ĳ":4061,"éĢĶå¾ĦçļĦåºıåĪĹ":4062,"å±Ĥæ¬¡çļĦ":4063,"Ġè¯´åĪ°è¿ĻéĩĮ":4064,"»çļĦ":4065,"æĺ¯ä¸įæĺ¯":4066,"è¾Ĩ":4067,"çľĭå®Ī":4068,"åīįéĿ¢":4069,"æĦŁåħ´è¶£":4070,"çĶ·ä»Ĩ":4071,"åģľçķĻ":4072,"åĳĬè¯īæĪĳ":4073,"é»¯æ·¡":4074,"å¯ĦçĶŁ":4075,"è´Ńä¹°":4076,"èİ«éĽ·èĴĤ":4077,"åĲ¸è¡Ģé¬¼":4078,"çŃ¾":4079,"çģµéŃĤ":4080,"æµ·ä¸Ĭ":4081,"åħ¨èº«":4082,"éķĳçļĦ":4083,"è¸ı":4084,"å¼¥æ¼«":4085,"æİ©é¥°":4086,"æ¯«ä¸įçĬ¹è±«":4087,"Ġæ²¡":4088,"ä¸Ģæĺ¯":4089,"ä¸Ģæĸ¹éĿ¢":4090,"çĶ³":4091,"éĩĮéĿ¢çļĦ":4092,"èī°":4093,"éĺ¿éĩĮå®ī":4094,"åĮºåĪ«":4095,"åĩĨç¡®":4096,"çļĦéĤ£ç§į":4097,"æ¤ħåŃĲ":4098,"ç¾¤å²Ľ":4099,"æµĵéĥģ":4100,"éĺ¿éĩĮå®īå¨ľ":4101,"ıåĪ¶":4102,"ä½Ĳ":4103,"ä¸įæĹ¶":4104,"åĲİæĿ¥":4105,"å±ı":4106,"åĮł":4107,"å¤ªè¿ĩ":4108,"çĽ¸ç»§":4109,"éļıåı£":4110,"æĲº":4111,"ä»·æł¼":4112,"æ¦Ĥçİĩ":4113,"ä¸°å¯Į":4114,"éĺģä¸ĭ":4115,"éģıåĪ¶":4116,"ä¹Łä¸įæĺ¯":4117,"å¸¦æĿ¥çļĦ":4118,"éŃĶèį¯çļĦ":4119,"ä¼łè¯´":4120,"åħ¬çĪµ":4121,"çļĦå¤§éĹ¨":4122,"é¼ĵ":4123,"éĤªç¥ŀ":4124,"çļĦé»ĳæļĹ":4125,"éĢĿ":4126,"ä¹Łä¸įä¼ļ":4127,"çıł":4128,"éĤ£å°±":4129,"è®©ä»ĸä»¬":4130,"ä½ĨæĪĳ":4131,"éķ¿çļĦ":4132,"æĭīæĸ¯":4133,"ä¹¦æ¡Į":4134,"çķ¥æĦŁ":4135,"çĸ¯çĭĤçļĦ":4136,"çł´ç¢İ":4137,"è¯ģæĺİ":4138,"åĨ²åĬ¨":4139,"çļĦä¸ľè¥¿":4140,"è¾ī":4141,"åĵĳ":4142,"åĬ¨éĿĻ":4143,"ç¨Ģ":4144,"æĮĩçĿĢ":4145,"æŁ¥å°¼æĸ¯":4146,"çķ¥å¾®":4147,"ç§ĳå°Ķæł¼":4148,"è¿ľåı¤å¤ªéĺ³":4149,"æľĿ":4150,"çĤ¹çĩĥ":4151,"è°ĵ":4152,"çĪ¬":4153,"åĸī":4154,"æŃ»äºĨ":4155,"å¦Ĥæŀľä½ł":4156,"è¯·æ±Ĥ":4157,"è°ĥæķ´":4158,"ä¼łéĢģ":4159,"æĹ§æĹ¥":4160,"çļĦå¥³":4161,"çļĦèĢģ":4162,"æīĭéĩĮ":4163,"è®©èĩªå·±":4164,"è®©å®ĥ":4165,"èĦĸåŃĲ":4166,"æĻĵ":4167,"å¤©ç©º":4168,"èĥľ":4169,"ç©¿è¿ĩ":4170,"å¸ĥæıĲ":4171,"æĪĸèĢħè¯´":4172,"ç«ĻäºĨèµ·æĿ¥":4173,"å±ķçİ°":4174,"åı¤èĢģçļĦ":4175,"èµ«å¯Ĩæĸ¯è¯Ń":4176,"åģ·çĽĹèĢħ":4177,"ĠéļıçĿĢ":4178,"ĮçĶŁ":4179,"æľīä¸Ģä¸ª":4180,"ä¹ĭéĹ¨":4181,"å¯¹æŃ¤":4182,"å¯¹è±¡":4183,"åĪĨæŀĲ":4184,"çĥģ":4185,"éĩĳèī²":4186,"è®¤çŁ¥":4187,"è½¬åĬ¨":4188,"æ´»å°¸":4189,"é»ĺé»ĺ":4190,"ç´§å¼ł":4191,"è¿ŀç»Ń":4192,"éĹªçĥģ":4193,"éĢĤåĲĪ":4194,"çĽĳæİ§":4195,"çļĦä¸Ń":4196,"äºĳ":4197,"ä¸ĢåĿĹ":4198,"ä¹ĭå¤ĸ":4199,"çľĭå¾Ĺ":4200,"éĻĮçĶŁ":4201,"é»ĳåıĳ":4202,"æľĢå¥½":4203,"åķ¦":4204,"ç©ºæĥ³":4205,"ç»ĿæľĽ":4206,"æľįé£Ł":4207,"æĿĥæŁĦ":4208,"æ½ľæĦıè¯Ĩ":4209,"å¤®":4210,"ä¸Ģå¤©":4211,"ä½©":4212,"æĺ¯æĪĳ":4213,"ä¸įå¥½":4214,"åºĩä½":4215,"æĹ¶ä¸įæĹ¶":4216,"ä»¥æŃ¤":4217,"éĻ¨":4218,"æīĭä¸Ń":4219,"æľ¬ä¹¦":4220,"çħ¤æ°Ķ":4221,"Ġä¸įçŃī":4222,"åĨ·éĿĻ":4223,"éĺ¶æ¢¯":4224,"çĵ¦å°Ķçī¹":4225,"æģįçĦ¶":4226,"æŁ¥å°¼æĸ¯éĹ¨":4227,"åºĩä½ĳ":4228,"ç½ª":4229,"æ·ĭ":4230,"çļĦçĲ":4231,"çĸĹ":4232,"åĺ¿":4233,"çº¢å¤©ä½¿":4234,"èī¾å¼¥":4235,"æħ¢æħ¢":4236,"èĸª":4237,"èĦ±åı£":4238,"ä¸ºä»Ģä¹Īè¦ģ":4239,"å®ĺæĸ¹":4240,"å®¡åĪ¤":4241,"å¯Łè§īåĪ°":4242,"æ°¸æģĴ":4243,"èī¾å¼¥çķĻ":4244,"éĤĥ":4245,"æ²¡åİ»":4246,"å¤§éĩı":4247,"èĢĮåĩº":4248,"çļĦç¼":4249,"éķ¿è£Ļ":4250,"æĢ§çļĦ":4251,"çº¢æľĪ":4252,"è±ª":4253,"é©¬èµ«":4254,"åŃĺåľ¨çļĦ":4255,"çĶ±äºİ":4256,"å·´é¡¿":4257,"æĮĳéĢī":4258,"åĪĽéĢł":4259,"è´´èº«":4260,"åįģåŃĹæŀ¶":4261,"é©¬èµ«çī¹":4262,"è¿Ļåº§":4263,"åĩºéĹ¨":4264,"æµĳ":4265,"å¼ĢæĿ¥":4266,"æŃ£å¼ı":4267,"æ·±æ²ī":4268,"åĲ¸å¼ķ":4269,"éļĲç§ĺç»Ħç»ĩ":4270,"åĨ°åĨ·":4271,"éĴĪå¯¹":4272,"åĽ°éļ¾":4273,"ä¹Ķæ²»":4274,"æĸŁéħĮçĿĢ":4275,"æĺ¨æĻļ":4276,"åĴĮæĪĳ":4277,"éħįåĲĪ":4278,"ä½ĻçļĦ":4279,"æĻ®éĢļäºº":4280,"æ¯«æĹłçĸĳéĹ®":4281,"æ²¿çĿĢ":4282,"åĩ¶":4283,"å·«":4284,"ä¹ĭå¿ĥ":4285,"ä»¬çļĦ":4286,"çĤ®":4287,"çī¹éĽ·":4288,"éĵ¾":4289,"å¾®ä¸įåı¯":4290,"æ¯ıä¸Ģä¸ª":4291,"å¾Īå¿«å°±":4292,"èĥ¸åı£":4293,"èĢĲå¿ĥ":4294,"çī¹éĽ·èĮľ":4295,"ä¸įæ¸ħæ¥ļ":4296,"æĥķ":4297,"éĤ£æĿ¡":4298,"æ¸Ĭ":4299,"æ°Ķè´¨":4300,"åįĬä¸ª":4301,"ç¬¬äºĶ":4302,"åı²å¯Ĩæĸ¯":4303,"èŃ¦æĥķ":4304,"å®¢åİħ":4305,"æŁĶåĴĮ":4306,"æ²Ł":4307,"çī¢":4308,"èµ¢":4309,"åİĦ":4310,"èĩªåĺ²":4311,"æĬļ":4312,"åŃĲçļĦ":4313,"Ġè¿Ļæł·":4314,"ä½Ĩè¿Ļ":4315,"æĺİçĳŀ":4316,"æīĢè°ĵ":4317,"é£İæł¼":4318,"åĳ¨æĺİçĳŀ":4319,"äºĮæ¥¼":4320,"å¼ĹéĽ·":4321,"çıĬ":4322,"æľ¬èº«çļĦ":4323,"æłĭæĪ¿å±ĭ":4324,"æģ©å°¤":4325,"éĩĳåıĳ":4326,"ä¸īä½į":4327,"åĽ¾çĵ¦":4328,"ç»´åĽ¾çĵ¦":4329,"åį¡ç»´åĽ¾çĵ¦":4330,"ç¤¼è²Į":4331,"ç§°åĳ¼":4332,"æµªè´¹":4333,"æµ·ç¥ŀæĿĥæĿĸ":4334,"æ£ĢæŁ¥":4335,"æģ©å°¤å°¼":4336,"Ġåı¯":4337,"çļĦåı¯èĥ½":4338,"çļĦæııè¿°":4339,"éļľ":4340,"æĹłæļĹ":4341,"æĤŁ":4342,"æļĹçº¢":4343,"æľªçŁ¥":4344,"ç¤¾":4345,"è¿Ļæł·ä¸ĢæĿ¥":4346,"èĦ¸èī²":4347,"æİĮæİ§":4348,"æºĥ":4349,"è¿ľç¦»":4350,"ä¼Ĭæģ©":4351,"åĢ¼å¾Ĺ":4352,"éĹªè¿ĩ":4353,"æĭľè®¿":4354,"ç¿»æ»ļ":4355,"çĶ³è¯·":4356,"çļĦèº«ä½ĵ":4357,"çĽĶ":4358,"æĭĶ":4359,"èº«è¾¹":4360,"è¡¨æ¼Ķ":4361,"å¾Ģä¸Ĭ":4362,"æ¼ł":4363,"åĵªä¸ª":4364,"èĻļç©º":4365,"é½¿":4366,"æİ¢ç´¢å°ıéĺŁ":4367,"çĮİéŃĶèĢħ":4368,"å¾®ä¸įåı¯è§ģ":4369,"Ġéĺ¿èĴĻ":4370,"ä¹¡":4371,"è¿ĻæĿ¡":4372,"æĪĳèĥ½":4373,"åīįæıĲ":4374,"æľĢä¸Ĭé¦ĸ":4375,"çļĦçĭ":4376,"éļĲèĶ½":4377,"éĵ¶èī²":4378,"æĴķ":4379,"èĵĿèī²":4380,"å©´":4381,"å¹¿åľº":4382,"çļĦçĪ¶äº²":4383,"æŃ¦åĻ¨":4384,"äºĨæĮĩ":4385,"åĪĢ":4386,"ä»ĸå°±":4387,"æĪĳåĴĮ":4388,"èµĲ":4389,"åıªè§ģ":4390,"è¿Ļä¸ªä¸ĸçķĮ":4391,"åĲ¬å®Į":4392,"å¤ľæĻļ":4393,"é£İæļ´ä¹ĭä¸»":4394,"çļĦç¬ĳå®¹":4395,"äºĨåĲĹ":4396,"ä¸Ģè·¯":4397,"è¿Ļæĸ¹éĿ¢çļĦ":4398,"ä»ĸåıĪ":4399,"åľ¨åĵªéĩĮ":4400,"éĤĢ":4401,"ç¥Ŀ":4402,"åĳľ":4403,"çİ°åľº":4404,"æ·±åĪ»":4405,"çĪ¸":4406,"æħĪ":4407,"æļĹèĩª":4408,"åĵªäºĽ":4409,"å·¥åĮł":4410,"éģ¿åħį":4411,"éĽªä¼¦":4412,"è¡¥åħħéģĵ":4413,"ç£¨":4414,"ä¸Ŀç»¸ç¤¼å¸½":4415,"Ġåģļå®Į":4416,"èī¾å¼¥çķĻæĸ¯":4417,"ĠæŀľçĦ¶":4418,"åħ»":4419,"ä»ĸçľĭè§ģ":4420,"ç»ĺ":4421,"ä½łçŁ¥éģĵ":4422,"âĢĻãĢģâĢĺ":4423,"çŁ¥æĻĵ":4424,"æ±ī":4425,"æ»¡äºĨ":4426,"å·¦æİĮ":4427,"éĺ´åĨ·":4428,"é²ģæģ©çİĭåĽ½":4429,"å©´åĦ¿":4430,"Ġå½ĵ":4431,"åĲī":4432,"å®£":4433,"åĴĻ":4434,"æ²¡æĥ³åĪ°":4435,"å¯¹éĿ¢çļĦ":4436,"éĿ¢äºº":4437,"çķĶ":4438,"èµ°åĩº":4439,"åĵįèµ·":4440,"éľ²åĩºäºĨ":4441,"åĻ©":4442,"è°¢è°¢":4443,"é¼ł":4444,"èłķåĬ¨":4445,"åĸīåĴĻ":4446,"Ġè´Ŀåħĭåħ°å¾·":4447,"ä¸ĢåĬ¨":4448,"ä¸įåĩº":4449,"å¾ĹåıĬ":4450,"çľŁç¥ŀ":4451,"åĲĪæĭ¢":4452,"èĭıéĨĴ":4453,"å±ħå®¤":4454,"èķ´":4455,"éĴ¢éĵģ":4456,"ä¼Łå¤§çļĦ":4457,"çļĦçĲĨ":4458,"äºĨåĩºåİ»":4459,"æĪĳè¿ĺ":4460,"éĿ¢åĮħ":4461,"å¾·è¡Ĺ":4462,"æĺŁç©º":4463,"ĠéĤ£æĺ¯":4464,"åį¡çī¹":4465,"ä»ĬæĻļ":4466,"å°½éĩı":4467,"æī¿è¯º":4468,"éĺ¶æ®µ":4469,"é¸Ł":4470,"åĳµåĳµç¬ĳéģĵ":4471,"çĿģå¼Ģ":4472,"çļĦåĹĵéŁ³":4473,"åı¶":4474,"ä¸įå±ŀäºİ":4475,"è¿Ļåı¥è¯Ŀ":4476,"çĶľ":4477,"ä¼ļè¢«":4478,"ä¹ĭåŁİ":4479,"å¾Ĺå¾Ī":4480,"å¦Ī":4481,"å®¶åºŃ":4482,"å·²çĦ¶":4483,"å½±åŃĲ":4484,"åħ¬åħ±":4485,"ç±³åĪĩå°Ķ":4486,"æ¶Īå¤±ä¸įè§ģ":4487,"å¾ĭå¸Ī":4488,"èĢ³çķĶ":4489,"æľĽäºĨçľ¼":4490,"çļĦä»ªå¼ı":4491,"çļĦåİŁåĽł":4492,"åīĤ":4493,"æĮ¤":4494,"æĹłéĿ¢äºº":4495,"å®ļäºĨ":4496,"æł¼æĭī":4497,"æĦŁåºĶ":4498,"æĢĿè·¯":4499,"éĩįçĤ¹":4500,"å¾®çļ±":4501,"éļ¾æĢª":4502,"å¾Ģå¾Ģ":4503,"ç´§ç»·":4504,"é¢Ħè¨Ģ":4505,"åĿ¦çĦ¶":4506,"çĪĨåıĳ":4507,"åĨ¥æĥ³":4508,"éĤĢè¯·":4509,"ä¸įè¡Į":4510,"éĻ¡":4511,"åĵİ":4512,"æŁľ":4513,"åĬ¨äºĨ":4514,"æļĸ":4515,"å·²æĺ¯":4516,"èĻĶ":4517,"è¡¨è¾¾":4518,"åģ¶å°Ķ":4519,"ç«Ļèµ·":4520,"äºĨä¸¤åı¥":4521,"è¿Īåħĭ":4522,"èī°éļ¾":4523,"å¥¶":4524,"èī¯":4525,"è®©åħĭèİ±æģ©":4526,"åĿĲä¸ĭ":4527,"ä¸įçŁ¥ä»Ģä¹ĪæĹ¶åĢĻ":4528,"æĪĴæĮĩ":4529,"15":4530,"·èĸĩ":4531,"æ§":4532,"çļĦæĥħæĬ¥":4533,"ä¸įåıĬ":4534,"è¯Ħ":4535,"æĪĳä¹Ł":4536,"èĩªçĶ±":4537,"å¤§ä¸»æķĻ":4538,"äºĨä¸Ģç¤¼":4539,"çľ¼ä¸Ń":4540,"æĹłæģ¯":4541,"æ¸´":4542,"åıĪæĺ¯":4543,"å¤ĸéĿ¢çļĦ":4544,"éĿŀåĩ¡æĿĲæĸĻ":4545,"è£¤":4546,"å¦Ĥæŀľä¸įæĺ¯":4547,"ä½İå¤´":4548,"æĮĩäºĨæĮĩ":4549,"åĽĽä¸ª":4550,"ç®ĢçĽ´":4551,"èĶ·èĸĩ":4552,"æĹłå£°æĹłæģ¯":4553,"çļĦä¸»äºº":4554,"æľºæ¢°ä¹ĭå¿ĥ":4555,"åĩ¸æĺ¾":4556,"æĲºå¸¦":4557,"30":4558,"ĵé£İ":4559,"çĿ£":4560,"æīĭæľº":4561,"é£ĵé£İ":4562,"å½±åĥı":4563,"è¿Ľä¸ĢæŃ¥":4564,"è¡Ģä¹ĭä¸Ĭå°Ĩ":4565,"æ£®æŀĹ":4566,"è¶³ä»¥":4567,"åĮħè£¹":4568,"èĥ¡å¾·":4569,"èĶĵå»¶":4570,"èĻĶè¯ļ":4571,"æĿľ":4572,"è¾ŀ":4573,"æĪĲäºĨä¸Ģ":4574,"å¥½åĥı":4575,"ä¿Ĺ":4576,"åįĬé«ĺ":4577,"è¯Ńåı¥":4578,"åı¤ç¥ŀ":4579,"åıĳçİ°äºĨ":4580,"ç©¿è¶Ĭ":4581,"æŁ¥å¾·æ£®":4582,"ç¢į":4583,"åį±éĻ©çļĦ":4584,"ä¹Łä¸įçŁ¥éģĵ":4585,"æ³¨è§ĨçĿĢ":4586,"ä¹ĺåĿĲ":4587,"çłģå¤´":4588,"¨èĥĢ":4589,"çļĦçľ¼çľ¸":4590,"åı®":4591,"éģµ":4592,"éĩĮæĸ¯":4593,"æĭŁ":4594,"æĸ¯åĿ¦":4595,"æĥħä¹Ŀ":4596,"åºĶå¯¹":4597,"ç¦ģ":4598,"æŃ¤åĪ»":4599,"é£İè¡£":4600,"æ£º":4601,"è£Ķ":4602,"è¡£åħľ":4603,"æ¯ıå¤©":4604,"åĽ½çİĭ":4605,"åĨĽæĥħä¹Ŀ":4606,"æ¶Īå¤±åľ¨äºĨ":4607,"åĩĿèģļ":4608,"éĺ¿åħ¹åħĭéĵľåĵ¨":4609,"åİĭåĪ¶":4610,"èĨ¨èĥĢ":4611,"è¹²":4612,"æĹłå½¢çļĦ":4613,"åĨĽæĥħä¹Ŀå¤Ħ":4614,"åĩī":4615,"è¯Ĺ":4616,"å¥ĭ":4617,"è®¢":4618,"åİ¢":4619,"ä¹ŁæĹłæ³ķ":4620,"ä¿¯":4621,"å¾Īæ¸ħæ¥ļ":4622,"è°İ":4623,"ç½ĹçıĬ":4624,"åįĬæĺ¯":4625,"ä¸īä¸ĸ":4626,"åįķçº¯":4627,"èĪ¹åıª":4628,"ä¸Ŀæ¯«":4629,"ä¹Įé»¯":4630,"å¼ķå¯¼":4631,"çĶ²æĿ¿":4632,"éĻ¨èĲ½":4633,"ĠçŃī":4634,"ä¸įåľ¨":4635,"ç½ĹæĢĿ":4636,"è¡ĮäºĨä¸Ģç¤¼":4637,"åĸ·":4638,"è§£éĻ¤":4639,"åİŁæĿ¥":4640,"çŃĶåºĶ":4641,"è¿ĻéĩĮçļĦ":4642,"é©¬çģ¯":4643,"å¹³æĹ¶":4644,"åıĳçĶŁäºĨä»Ģä¹Ī":4645,"è·³è·ĥ":4646,"æ¸¸è®°":4647,"æĬ¬èµ·åı³æīĭ":4648,"åĤ¬çľł":4649,"æł¸å¿ĥ":4650,"ä¹Įé»¯éŃĶçĭ¼":4651,"ç½ĹæĢĿå¾·":4652,"08":4653,"ä¸įæŃ»":4654,"ĠâĢľâĢ¦âĢ¦âĢĿ":4655,"è®¶":4656,"éĺ±":4657,"æīĭèĩĤ":4658,"éĽĩ":4659,"ä½Ĩä»ĸ":4660,"çļĦçħ":4661,"æµ·åŁŁ":4662,"çĸ¼":4663,"æ·±æ¸Ĭ":4664,"ç»Ļåĩº":4665,"åı¤æĢª":4666,"æķ´ä½ĵ":4667,"åıĬæĹ¶":4668,"ç»Ŀå¤§éĥ¨åĪĨ":4669,"èĵĿèī²çļĦ":4670,"æ²»çĸĹ":4671,"éĻ·éĺ±":4672,"çģ°çĻ½éĽ¾æ°Ķ":4673,"é¢ĨåŁŁçļĦ":4674,"åĥµç¡¬":4675,"60":4676,"ĠéĤ£ä½į":4677,"Ġåı¦å¤ĸ":4678,"ĮèĤī":4679,"ä¹ĭèĽĩ":4680,"å¾Īå®¹æĺĵ":4681,"ä¸Ģä¸ªäºº":4682,"ä¿¡çº¸":4683,"éļĲçŀĴ":4684,"å¼ºå¤§çļĦ":4685,"æĥĬè®¶":4686,"åĤ²":4687,"ä¸§":4688,"éĢ»":4689,"èºģ":4690,"åĲİè£Ķ":4691,"éĹ®äºĨä¸Ģåı¥":4692,"æĤ¦":4693,"æ²īçĿ¡":4694,"æ¡¥":4695,"çº¢æīĭå¥Ĺ":4696,"åŃ¦èĢħ":4697,"æ´»åĬ¨":4698,"åĵ¥åĵ¥":4699,"æľªæĿ¥åı·":4700,"ä¹Ķæ²»ä¸īä¸ĸ":4701,"çĽĶçĶ²":4702,"ä»ĸæīį":4703,"éĤ£è¾¹":4704,"æ³Ľ":4705,"è¿ĺç®Ĺ":4706,"çī¹çļĦ":4707,"ä½Ĩåį´":4708,"å¤ĸçķĮ":4709,"éĶĢ":4710,"æĿ¡ä»¶":4711,"éĺŁåĳĺ":4712,"æ¯ıæ¬¡":4713,"è¡¥äºĨä¸Ģåı¥":4714,"å´ĩ":4715,"Ġè¿ĩ":4716,"âĢĿï¼Ł":4717,"ä¸Ģçľĭ":4718,"åħĭä¼¦":4719,"çī¹åĪ«":4720,"æľĪåŁİ":4721,"é¦ĸé¢Ĩ":4722,"æĴĴ":4723,"é¢ĦæĸĻ":4724,"ä¼¯åħĭä¼¦":4725,"åı¯æĢķçļĦ":4726,"ä¿¡ä½¿å°ıå§Ĳ":4727,"å»·æł¹å¸Ĥ":4728,"æ¯ģçģŃ":4729,"éĽķåĥı":4730,"å¸ĥæıĲæĸ¯":4731,"ä¼¯åħĭä¼¦å¾·è¡Ĺ":4732,"ä¹ĥ":4733,"æİł":4734,"çĤ¹ä»Ģä¹Ī":4735,"æĶĴ":4736,"å¦»":4737,"äºĭæĥħçļĦ":4738,"çĲĨæŁ¥å¾·æ£®":4739,"åĬłä¸Ĭ":4740,"åĩºçİ°äºİ":4741,"çĥĪéĺ³":4742,"ç»§ç»Ńè¯´éģĵ":4743,"åĲ«ç¬ĳ":4744,"ä¸ĢæŃ¥æŃ¥":4745,"ä¾µèļĢ":4746,"äºĨèĩªå·±":4747,"åľ¨äºĨä¸Ģ":4748,"çīµ":4749,"èº«æĹģ":4750,"æĸ¹æ³ķ":4751,"åıĳæĮ¥":4752,"åİ»åģļ":4753,"å¾Īä¹ħ":4754,"åĽłç´ł":4755,"é©¶":4756,"åıįå¤į":4757,"ä»ħæĺ¯":4758,"å°Ĭæķ¬":4759,"èĳ¬":4760,"èĤļåŃĲ":4761,"æĮ£æīİ":4762,"çļĦå¥³å£«":4763,"ä¸Ģç«ł":4764,"åĲ¼":4765,"ä¸įèĩª":4766,"è¯¾":4767,"æŃī":4768,"ç¥ŀçĪ¶":4769,"æ¬ł":4770,"ä¸Ńå¤®":4771,"åıįæŃ£":4772,"åħ³æ³¨":4773,"èĬ±åĽŃ":4774,"çļ®çº¸":4775,"æ½ľåħ¥":4776,"éĢıæĺİçļĦ":4777,"æī§äºĭ":4778,"å¿Ļç¢Į":4779,"çļĦæĥħç»ª":4780,"ä¸Ģåº§":4781,"æĪĳçİ°åľ¨":4782,"çľĭä¼¼":4783,"åĢį":4784,"å½ĵåľº":4785,"æ¶Ĥ":4786,"èįĴ":4787,"çĭ±":4788,"åĪļèĲ½":4789,"è½»æķ²":4790,"åĪĻæĺ¯":4791,"ä¹¦ç±į":4792,"æ»¡æĦı":4793,"éĿłæĭ¢":4794,"èĬ±è´¹":4795,"æİĮæı¡äºĨ":4796,"çļĦä¿¡æģ¯":4797,"èİİä¼¦å°ıå§Ĳ":4798,"æ¸¯åı£":4799,"å¿½åľ°":4800,"çī§ç¾Ĭ":4801,"äºµæ¸İä¹ĭ":4802,"çī§ç¾Ĭäºº":4803,"Ġç¥Ĥ":4804,"åĩı":4805,"åľ¨äºİ":4806,"è®°è½½":4807,"äºĶå®ĺ":4808,"æĢĢè¡¨":4809,"æĶ¯æĴĳ":4810,"åĳ¼åĲ¸":4811,"åħįå¾Ĺ":4812,"åĮĹå¤§éĻĨ":4813,"è½¬è¿ĩèº«ä½ĵ":4814,"è¿ľåı¤å¤ªéĺ³ç¥ŀ":4815,"éĤ£æŀļ":4816,"èĥ½è®©":4817,"Ġè¿ĻäºĽ":4818,"ä½ĨåıĪ":4819,"éĴŀ":4820,"æļĹç¤º":4821,"é¦Ī":4822,"åĪ©å§Ĩ":4823,"åĭĩ":4824,"å¡ĶåĪ©å§Ĩ":4825,"æ»¡æľĪ":4826,"ç§ĳæģ©":4827,"å¸ĥæ»¡":4828,"ä¹Įæīĺ":4829,"Ġè¯´å®Į":4830,"ä¹ĮæīĺéĤ¦":4831,"æĺ¯æľĢ":4832,"çĶ¨äºĨ":4833,"å®īä¿Ŀ":4834,"æĤ£":4835,"èĢģé¼ł":4836,"æīĵå¼ĢäºĨ":4837,"åįģäºĶ":4838,"å¢¨":4839,"äºĨä¸ĭåİ»":4840,"æīĢæľīäºº":4841,"æĭħå¿§":4842,"è·Łéļı":4843,"çº¯åĩĢ":4844,"æ³¨æĦıåĬĽ":4845,"ä¸ĵä¸ļ":4846,"çıŃè¥¿":4847,"Ġå¯¹äºİ":4848,"äºµæ¸İçŁ³æĿ¿":4849,"éģ®æİ©":4850,"åıªåī©ä¸ĭ":4851,"æĭĴç»Ŀ":4852,"è¯¸å¤ļ":4853,"è¾¾åħĭå¨ģå°Ķ":4854,"éĴŀç¥¨":4855,"Ġåı¯æĺ¯":4856,"åħĭèİ±æģ©æĹłå£°":4857,"çĽ¾":4858,"åİ¨":4859,"é¢ĳ":4860,"åĽŀå®¶":4861,"çĻ½éª¨":4862,"åĪĹè½¦":4863,"æ£ĺ":4864,"å¾ĢåĲİ":4865,"åįłæį®":4866,"é»ĺçĦ¶":4867,"é»ĳå¤ľæķĻä¼ļ":4868,"åĨ°å±±":4869,"æĹħè¡Įç¬Ķè®°":4870,"12":4871,"æ¾":4872,"æľīä¸ª":4873,"éĤ£åıª":4874,"åĩºç§Ł":4875,"å¤§èĩ´":4876,"éķ¿çĽ¸":4877,"ç§įç§į":4878,"å®ŀè´¨":4879,"æļĹå¤©ä½¿":4880,"æĶ¾åľ¨":4881,"ĠèĢĮä¸Ķ":4882,"èİ·å¾ĹäºĨ":4883,"åľĪåŃĲ":4884,"çľĭäºĨçľĭ":4885,"çªĹæĪ·":4886,"çļĦç¥ŀå¥ĩçī©åĵģ":4887,"ç¢İçīĩ":4888,"æĶ¶åĽŀè§Ĩçº¿":4889,"å©ļ":4890,"èģĮäººåĳĺ":4891,"çİ¯é¡¾äºĨä¸ĢåľĪ":4892,"åľ°åĿĢ":4893,"åĴĮä»ĸ":4894,"äºĨä¸Ģå®ļçļĦ":4895,"å£®":4896,"è¿ĺè¦ģ":4897,"åıĳæķ£":4898,"éķ¿èĢģ":4899,"ç¼ª":4900,"æł¹æł¹":4901,"å¥ĩæĸ¯":4902,"çº³å¥ĩæĸ¯":4903,"éŁ¦":4904,"å»Ĭ":4905,"äº¤ç»Ļ":4906,"æ´»çĿĢ":4907,"éľįçº³å¥ĩæĸ¯":4908,"æĢ¥çĿĢ":4909,"æķ´ä¸ªäºº":4910,"èĩªè¯Ńéģĵ":4911,"å´©æºĥ":4912,"ç½ĳåĿĢ":4913,"æĦ§æĺ¯":4914,"æīĭæľºçīĪ":4915,"äºµæ¸İä¹ĭçīĮ":4916,"çļĦå®¶ä¼Ļ":4917,"äºĨä»ĸ":4918,"å¯¸":4919,"èĢĮä¸įæĺ¯":4920,"å¾Īå¤§":4921,"å¤©æīį":4922,"æĺİäº®":4923,"å¤±è¸ª":4924,"ç®Ĺæĺ¯":4925,"çĶ·äºº":4926,"çģ°éĽ¾ä¹ĭä¸ĬçļĦ":4927,"æ¢ħè¿ª":4928,"èħ°èĥĮ":4929,"å®«æ®¿åĨħ":4930,"æķıéĶĲ":4931,"çķıæĥ§":4932,"ç¼ªå°Ķ":4933,"æ¢ħè¿ªå¥ĩ":4934,"è¿Ļè¾¹":4935,"æĢľ":4936,"åľ°åĽŀçŃĶ":4937,"çĽ¯":4938,"åĽŀå¤´":4939,"æŃ£ç¡®":4940,"ç¬ĳæĦı":4941,"æķĻåĽ¢":4942,"éĩįè§Ĩ":4943,"æĽ´æĸ°":4944,"éĩĳéķĳ":4945,"åŃ¦å¾Ĵ":4946,"å»ī":4947,"æĮĩåĲĳ":4948,"è¥¿æĸ¯":4949,"é»ĺå¿µ":4950,"èĥĮæ¤ħ":4951,"éļ¾ä»¥éģıåĪ¶":4952,"å¿ĥçĲĨåĮ»çĶŁ":4953,"æ¤ħèĥĮ":4954,"å»¶ä¼¸":4955,"æľ«æĹ¥":4956,"åľ£èµĽç¼ªå°Ķ":4957,"æ°¸æģĴçĥĪéĺ³":4958,"æĸ¯åĿ¦é¡¿":4959,"Ĩæ£ĺ":4960,"çļĦéĿŀåĩ¡èĥ½åĬĽ":4961,"çļĦçº¿ç´¢":4962,"æľīä¸Ģå®ļçļĦ":4963,"å¯Ĥ":4964,"åĩºä¸Ģ":4965,"æĭĲ":4966,"ä½łèĥ½":4967,"æŃ£è£ħ":4968,"åı£è¢ĭ":4969,"çļĦç®":4970,"ä¸¤ä¸ī":4971,"èĤ²":4972,"èįĨæ£ĺ":4973,"æ¼ı":4974,"èħķ":4975,"æĹ©å·²":4976,"æķ°ä¸įæ¸ħ":4977,"æ¨¡æł·":4978,"é¢Ŀå¤ĸ":4979,"ç¥ŃåĿĽ":4980,"æ°¸è¿ľ":4981,"æĬµè¾¾äºĨ":4982,"ĠåıĪ":4983,"ĳéĩį":4984,"çļĦéŃĶèį¯éħįæĸ¹":4985,"æĺ¯è¿Ļæł·":4986,"æĪĳå¾Ī":4987,"æ²¾":4988,"éĻĪ":4989,"åĵŃ":4990,"Ġè¿Ļä¸ĢåĪ»":4991,"éĥĳéĩį":4992,"åĲ¬è¯´":4993,"åİŁåĪĿ":4994,"æ°´éģĵ":4995,"æĸĩå¾·å°Ķ":4996,"åį¡å¹³":4997,"çħ§äº®":4998,"èĲ¨æĸ¯":4999,"åħľå¸½":5000,"ä¸Ģæł¹æł¹":5001,"æĸŁéħĮ":5002,"æ¬£åĸľ":5003,"Ġå¾Īå¿«":5004,"çļĦé»ĳ":5005,"çļĦåį±éĻ©":5006,"æľīåı¯èĥ½":5007,"æī¹":5008,"èĢ¸":5009,"æĬĽ":5010,"æ³ī":5011,"çģµæķĻåĽ¢":5012,"æ¶©":5013,"å¾Ģåīį":5014,"çİĭå®¤":5015,"å¸®æĪĳ":5016,"åį°è±¡":5017,"è¿Ļä¸Ģå¹ķ":5018,"çĬ¶åĨµ":5019,"æĺłçħ§":5020,"èİ±æĽ¼":5021,"è¡į":5022,"åĲİæĸ¹":5023,"é»ĳçļĦ":5024,"åĬĽçļĦ":5025,"èĪ±":5026,"æįķ":5027,"åį¡å°Ķ":5028,"å®Īåį«":5029,"æ¿ĢåĬ¨":5030,"çģ¾éļ¾":5031,"è½»è½»é¢Ķé¦ĸéģĵ":5032,"èİ±æĽ¼è¯º":5033,"Ġå®īå¾·æ£®":5034,"Ġç»ıè¿ĩ":5035,"Ģåļ":5036,"çļĦåįĬç¥ŀ":5037,"çļĦåľºæĻ¯":5038,"çļĦçİ¯å¢ĥ":5039,"äºĨå¼ł":5040,"å®´":5041,"ä¸įè§ī":5042,"æĪĳä¸į":5043,"å°±è¿Ļæł·":5044,"çĮĽçĦ¶":5045,"é²ľè¡Ģ":5046,"å®ģéĿĻ":5047,"åĨ°å±±ä¸Ńå°Ĩ":5048,"é³":5049,"çģĮ":5050,"è´§":5051,"çŁĽ":5052,"éĵİ":5053,"ç¼ĸ":5054,"éĩĳéĴ±":5055,"é£İéĻ©":5056,"åı¤èµ«å¯Ĩæĸ¯è¯Ń":5057,"åĪ©å°Ķ":5058,"åĽ¾éĵİ":5059,"åłĤå¨ľ":5060,"è§¦ç¢°":5061,"è¯ĿéŁ³åĪļèĲ½":5062,"è½°éļĨ":5063,"Ġè¯´è¯ĿéĹ´":5064,"éŀ":5065,"æĪĳä¹ĭåīį":5066,"åľ°æĥ³çĿĢ":5067,"æĦ¤":5068,"ç¥ŀå¥ĩ":5069,"ä¹Łåı¯ä»¥":5070,"ä¿ĥ":5071,"å®¶çļĦ":5072,"ä½¿å¾Ĵ":5073,"çŁ¥éģĵäºĨ":5074,"çªģåľ°":5075,"è¯ķæİ¢":5076,"åıªæĺ¯ä¸Ģä¸ª":5077,"åĵªä½į":5078,"æĸ¯å¸ķç½ĹçļĦ":5079,"Ġä¸įçŁ¥":5080,"å®ĿèĹı":5081,"èĲ¨æĸ¯åĪ©å°Ķ":5082,"67":5083,"Ġä»İ":5084,"æģ³":5085,"çĿĢä¸Ģä¸ª":5086,"åľ°åĽŀåºĶéģĵ":5087,"åºĹ":5088,"çģµä¹ĭèĻ«":5089,"åķ¤":5090,"æĽ´æĺ¯":5091,"è¿Ļä¸ªéĹ®é¢ĺ":5092,"åĲĪçĲĨ":5093,"éĹªçİ°":5094,"æ¬²æľĽä½¿å¾Ĵ":5095,"çİ¯é¡¾ä¸ĢåľĪ":5096,"çİĽä¸½":5097,"çļĦç¾İ":5098,"ä¿¯è§Ĩ":5099,"ç½ĹæĢĿå¾·ç¾¤å²Ľ":5100,"çļĦå¹´è½»":5101,"æľīçĶ¨":5102,"åħĭåĪ¶":5103,"ä¸Ĭæĸ¹":5104,"ä¹ĭæīĢä»¥":5105,"æĹłäºº":5106,"Ġè¿Ļå°±æĺ¯":5107,"èĤĮèĤī":5108,"æī¾ä¸įåĪ°":5109,"æ²īå£°":5110,"ä»¶çī©åĵģ":5111,"åłĤçļĦ":5112,"è´Ŀåħĭåħ°å¾·çļĦ":5113,"éĺ¿èĴĻçļĦ":5114,"åĬŀåħ¬":5115,"äºĨåĩłåı¥":5116,"è½¬èĢĮéĹ®éģĵ":5117,"ç¼ĿéļĻ":5118,"è¿Ļä¸ĢçĤ¹":5119,"è¿Ļæ®µæĹ¶éĹ´":5120,"æĪĳéĥ½":5121,"æ²¡åģļ":5122,"å½¹":5123,"èīĺ":5124,"çľ¼è§Ĵ":5125,"è¡Įç¤¼":5126,"æĪ´ä¸Ĭ":5127,"éª¤":5128,"å¹³è¡¡":5129,"é¡¶ç«¯":5130,"ç¬¬äºĮçĻ¾":5131,"æ¸©æļĸ":5132,"èµĽçĲ³å¨ľ":5133,"åĲ¬è§ģäºĨ":5134,"æ³¥åľŁ":5135,"éķ¶åµĮ":5136,"éĽªä¼¦å¤«äºº":5137,"ä»ĵ":5138,"æģ¨":5139,"è®Ń":5140,"åĬĪ":5141,"åģ¥":5142,"éĹ´çļĦ":5143,"å°ĳè®¸":5144,"å°¼æł¹":5145,"æ®ĸ":5146,"åŁĥå¾·":5147,"Ġè¿Ļä¸ªè¿ĩç¨ĭä¸Ń":5148,"å¦¹å¦¹":5149,"å¹ħåº¦":5150,"ä¸¹":5151,"éĤ£æīĩ":5152,"åľ°çĭ±":5153,"æĸ¹æ¡Ī":5154,"Ġè¿Ļæł·çļĦ":5155,"çľŁçĽ¸":5156,"æľ¬åľ°":5157,"æľ¬æĿ¥":5158,"ç¬ĳç¬ĳéģĵ":5159,"å®ŀåľ¨":5160,"æ±Ĺ":5161,"é«ĺå±Ĥ":5162,"å¹¶éĿŀ":5163,"æĶ¾å¤§":5164,"åı¤åħ¸":5165,"èį¯åīĤ":5166,"éĿłä½ı":5167,"æµģæ·":5168,"ç»´æĸ¯":5169,"æĥħåĨµä¸ĭ":5170,"é¢ĦæĦŁ":5171,"çŃīå¾ħçĿĢ":5172,"èĶļ":5173,"è§¦æīĭ":5174,"æİ§åĪ¶ä½ı":5175,"åĪºæĿĢ":5176,"æ³¨æĦıåĪ°":5177,"æĪĴå¤ĩ":5178,"åİŁå§ĭæľĪäº®":5179,"é©¬èµ«çī¹è®®åĳĺ":5180,"çŁĽçĽ¾":5181,"ä¸ĢåįĬ":5182,"ä¸įåĥı":5183,"èİ²":5184,"éĺĶ":5185,"éĵĥ":5186,"è·¯çģ¯":5187,"è·¯å¾·ç»´å°Ķ":5188,"æĸĩåŃĹ":5189,"æķ°éĩı":5190,"æµ·çĽĹå°ĨåĨĽ":5191,"éĤªæģ¶":5192,"çĩķ":5193,"æĶ¶åĽŀçĽ®åħī":5194,"é¼»åŃĲ":5195,"å¤§åľ°æ¯įç¥ŀ":5196,"æĹ¶ä»£çļĦ":5197,"æ³¡":5198,"éĥ¡":5199,"ä»İæľª":5200,"æĤĶ":5201,"åŃ¦ä¹ł":5202,"åĵįæĮĩ":5203,"åĲĦç§įåĲĦ":5204,"è¯¡ç§ĺä¹ĭä¸»":5205,"èĤ©èĨĢ":5206,"Ġåĺīå¾·ä¸½éĽħ":5207,"ĢåĴķ":5208,"çļĦéĥ¨åĪĨ":5209,"åľ°çĤ¹":5210,"å°±çľĭè§ģ":5211,"åĺĢåĴķ":5212,"èµ°å»Ĭ":5213,"æĳĺ":5214,"è½»å¾®":5215,"å¾Ģå¤ĸ":5216,"ä»£ä»·":5217,"é»ĺå°Ķ":5218,"åľ£å¾½":5219,"è¿Ļä¹Īå¤ļ":5220,"éĨĴæĿ¥":5221,"è¿·èĮ«":5222,"æĤłéĹ²":5223,"çīĻé½¿":5224,"åĳ¨ä¸Ģæ±Ĥæİ¨èįĲç¥¨":5225,"çļĦç§ĺå¯Ĩ":5226,"åħµ":5227,"æĺ¯ä»ĸ":5228,"æĪĳè¦ģ":5229,"æĿ¥åĽŀ":5230,"åī²":5231,"å¯¹çĿĢ":5232,"è´«":5233,"æıĲåĩº":5234,"æĶ¾å¿ĥ":5235,"äºĨä¸ĭéģĵ":5236,"ä¼¼ä¹İåľ¨":5237,"äº¤æį¢":5238,"å¯Ĩä¿®ä¼ļ":5239,"é©¬çĶ²":5240,"çľŁå®ŀçļĦ":5241,"é¡¶å¤ļ":5242,"èĢĥèĻĳåĪ°":5243,"åİĭä½İ":5244,"åİŁæľ¬çļĦ":5245,"éĤªå¼Ĥ":5246,"èĢ³æľµ":5247,"ä¸°æĶ¶":5248,"æ²ŁéĢļ":5249,"çļĦéĽ¾æ°Ķ":5250,"åħĦ":5251,"å¥ī":5252,"åħĭèİ±æģ©åľ¨å¿ĥéĩĮ":5253,"èº«æĿĲ":5254,"èµ·å±ħå®¤":5255,"å¾Īå°ĳ":5256,"æł¼èİ±":5257,"çĽ¸æ¯Ķ":5258,"çĥĤçļĦ":5259,"ç©¿é»ĳèī²":5260,"ä¼Ĭèİ²":5261,"ä¼łéĢĴ":5262,"æĲ¬":5263,"å¸ĮæľĽèĥ½":5264,"æ¯įæłĳ":5265,"éĻįä½İ":5266,"æĺıæļĹ":5267,"åħ±åĲĮ":5268,"æī§æİĮ":5269,"è´´èº«çĶ·ä»Ĩ":5270,"éĻ¡çĦ¶":5271,"çļĦå¤©ä½¿":5272,"çļĦè¾¹ç¼ĺ":5273,"äºĨå¥½åĩł":5274,"æľīæľºä¼ļ":5275,"è¯½":5276,"è¿ĻçĤ¹":5277,"æģ¼":5278,"èµĸ":5279,"å°±è¢«":5280,"æ²¡å¿ħè¦ģ":5281,"ä¹ĭå¢Ļ":5282,"å¤§åŃ¦":5283,"äºĨä¸Ģç§Ĵ":5284,"åīįçļĦ":5285,"è¿ĺä¼ļ":5286,"éĩįéĩį":5287,"æľĪåħī":5288,"åĲ¬åĪ°äºĨ":5289,"æ²īçľł":5290,"è¾¾åĪ°":5291,"åįłåįľè¯Ńåı¥":5292,"æĹ¶éĹ´åĨħ":5293,"åį¡æĭī":5294,"æĻļé¤Ĳ":5295,"å¯»æ±Ĥ":5296,"è¿ĶåĽŀäºĨ":5297,"å®īéĿĻåľ°":5298,"è®¤çľŁåľ°":5299,"åİļçļĦ":5300,"ãĢĭï¼Į":5301,"åĵĴåĵĴ":5302,"æł¼èİ±æŀĹ":5303,"Ġå®ĥä»¬":5304,"è¿Ŀ":5305,"åºĨ":5306,"åİĤ":5307,"ä½łæĥ³":5308,"è¯´çĿĢ":5309,"å¤´é¡¶":5310,"çļĦçª":5311,"ä»İèĢĮ":5312,"æ·±æ·±":5313,"ç¨¿":5314,"èĲ½ä¸ĭ":5315,"æ¶Īæķ£":5316,"å§ĭç¥ĸ":5317,"æ¢¦ä¸Ń":5318,"åºķéĥ¨":5319,"å°½å¤´":5320,"åģĩè£ħ":5321,"äº§çĶŁäºĨ":5322,"èħ¹è¯½":5323,"æĬĢå·§":5324,"å¤¸å¼ł":5325,"æħĪåĸĦ":5326,"çļĦæĦıæĢĿ":5327,"åħĭèİ±æģ©å°Ĩ":5328,"å¯¹æĪĳ":5329,"å¤´éĥ¨":5330,"æİ¥è¿ĩ":5331,"å®Įæ¯ķ":5332,"éļĲå£«":5333,"çĶ·å£«":5334,"åĳĬçŁ¥":5335,"å¼Ģåı£éĹ®éģĵ":5336,"åĮħåĲ«":5337,"éģŃåıĹ":5338,"è®²è¿°":5339,"æī®æ¼Ķæ³ķ":5340,"éĺħè¯»ç½ĳåĿĢ":5341,"ç¼łç»ķ":5342,"æł¼ç½Ĺå¡ŀå°Ķæ¸¸è®°":5343,"ç§ĳæģ©é»İ":5344,"æīĭæľºçīĪéĺħè¯»ç½ĳåĿĢ":5345,"åķ¤éħĴ":5346,"èª":5347,"åħĭèİ±æģ©åľ¨":5348,"ä¸ĭèĲ½":5349,"è´¡":5350,"äºĭå®ŀ":5351,"æ°Ľ":5352,"Ġè¿Ļä¸Ģæ¬¡":5353,"çĻ½çļĦ":5354,"çİĭåŃĲ":5355,"å¤įä»ĩ":5356,"ä»ħä»ħ":5357,"åı¦å¤ĸä¸Ģ":5358,"æłĳæľ¨":5359,"èº²éģ¿":5360,"æīĢåľ¨çļĦ":5361,"èĶļèĵĿ":5362,"çļĦå·¥":5363,"åħģ":5364,"çĿĢä»Ģä¹Ī":5365,"è¦ģä¸į":5366,"ç¬¬ä¸Ģä¸ª":5367,"èĥĸ":5368,"ä¸īç«ł":5369,"å¤Ħåľ¨":5370,"å¹³å¤į":5371,"å½¢æĢģ":5372,"æ¡ĮåŃĲ":5373,"æľ¨åģ¶":5374,"åŁºäºİ":5375,"ç¥·åĳĬ":5376,"æ½ľèĹı":5377,"æ¬²æľĽæ¯įæłĳ":5378,"è¹¬è¹¬":5379,"å¥ĩè¿¹å¸Ī":5380,"çļĦéĹ¨":5381,"çļĦèĦĳè¢ĭ":5382,"äºĨæıī":5383,"è¿Ļä¼ļ":5384,"çĶ©":5385,"å¯¹è¯Ŀ":5386,"å¤ļè¯´":5387,"è§ģè¯Ĩ":5388,"Ġä»ĸéļıåį³":5389,"å°ıéķĩ":5390,"ä½Ĩæĺ¯":5391,"åħīçĤ¹":5392,"éľľ":5393,"çļĦç¤":5394,"æ¶¡":5395,"æĶ¶èµ·":5396,"ç±³å°Ķ":5397,"ç¾İä¸½":5398,"åħŃç«ł":5399,"æĻĭåįĩåºıåĪĹ":5400,"è¿ĩç¨ĭéĩĮ":5401,"éĻ·åħ¥":5402,"æĸĳé©³éķ¿æ¡Į":5403,"èµĲäºĪ":5404,"åħ¬åħ±é©¬è½¦":5405,"50":5406,"çļĦæķĪæŀľ":5407,"åħ½":5408,"ä¸Ģæŀļ":5409,"åĨĮ":5410,"å··":5411,"æĹ¶çļĦ":5412,"å¤§æķĻä¼ļ":5413,"æĹłéľĢ":5414,"ä¸¤å¤©":5415,"æıĲè¿ĩ":5416,"æıĲé«ĺ":5417,"å·²ç»ıè¢«":5418,"å°ģä¿¡":5419,"ä¼Ĭä¸½èİİ":5420,"ç¬ĳå®¹éģĵ":5421,"åĿ¦çĻ½":5422,"ä¸Ģéģĵéģĵ":5423,"èĳĹ":5424,"çĨŁæĤīçļĦ":5425,"æıīäºĨæıī":5426,"è½¯å¸½":5427,"å°¼æł¹åħ¬çĪµ":5428,"©æ¶¡":5429,"²æĥ":5430,"ä¸Ģæīĭ":5431,"ä¸ĢæĬĬ":5432,"åĲ±":5433,"å®°":5434,"æĿĤçļĦ":5435,"æĸ½":5436,"åħĭèİ±æģ©æ²¡æľī":5437,"äººæł¼":5438,"æĿ¥ä¸´":5439,"ä¸ĭæ°´éģĵ":5440,"åĳĥ":5441,"æĭ§":5442,"èº«åĲİ":5443,"æ³Ħ":5444,"åĮĨ":5445,"å¿ĥèĦı":5446,"çļĦç±":5447,"åĪĨè¾¨":5448,"æķĻåłĤçļĦ":5449,"èĥĨ":5450,"éħ·":5451,"èĭ±":5452,"æ²īåĲŁ":5453,"è½¬å¤´":5454,"æ¼©æ¶¡":5455,"è¶Ĭæĺ¯":5456,"æİĮå¿ĥ":5457,"åĿĲåĪ°":5458,"æĺŁä¹ĭ":5459,"è¿Ļç§įäºĭæĥħ":5460,"äºĨä¸Ģä¸ĭéģĵ":5461,"çģµæĢ§ä¹ĭå¢Ļ":5462,"ç§ĺåģ¶å¤§å¸Ī":5463,"èĨĿ":5464,"ç¨³å®ļ":5465,"é³ŀ":5466,"²æĥ«":5467,"Ġç§ĳæŀĹ":5468,"ä¸Ľ":5469,"äºĨåĲ§":5470,"ä¸Ģå®¶":5471,"æĺ¯æľī":5472,"éĤ£æľ¬":5473,"çĦ¶èĢĮ":5474,"ä½łåľ¨":5475,"çķª":5476,"ä¸ŃåįĪ":5477,"å¹´ä»£":5478,"æľªåģļ":5479,"æĶ¶æĭ¾":5480,"æ»¡æĺ¯":5481,"åĲĦä¸ª":5482,"å°ıå§ĲçļĦ":5483,"æŁĲä½į":5484,"ç¢§":5485,"èģļåĲĪ":5486,"æĿĢäºº":5487,"æ¤į":5488,"ç®ĢåįķçļĦ":5489,"åĪºæ¿Ģ":5490,"è¯ļæģ³":5491,"åĲİç»ŃçļĦ":5492,"ç¯·":5493,"æīĢè°ĵçļĦ":5494,"åĬŀåħ¬å®¤":5495,"åĳĢ":5496,"æĻķ":5497,"åĲĳåĲİ":5498,"è¡ĮæĿİ":5499,"å¥³åŃ©":5500,"åıĺå¼Ĥ":5501,"é«ĺçº§":5502,"æįĤ":5503,"çĭĴ":5504,"å¼ºçĥĪ":5505,"éĺ´æ²ī":5506,"å°Ŀè¯ķçĿĢ":5507,"åĳĨæ»ŀ":5508,"æ¼Ĥæµ®":5509,"åħģè®¸":5510,"å¾¡":5511,"ä¸įå°ıçļĦ":5512,"æľīå¤ļ":5513,"ä»ĸåĴĮ":5514,"æĥ©":5515,"æĪĳæ²¡æľī":5516,"æĪĳåĪļæīį":5517,"åħĭèİ±æģ©åĴĮ":5518,"è¡°":5519,"èĥ½åľ¨":5520,"å¯¹äºĨ":5521,"çĶ¨æĿ¥":5522,"åħĪæĺ¯ä¸Ģ":5523,"éŃĩ":5524,"çŃīçŃī":5525,"å®ŀéªĮ":5526,"åĩłæ¬¡":5527,"æķĻæ´¾":5528,"èĪĮ":5529,"éĵ¶è¡Į":5530,"ä¿Ŀè¯ģ":5531,"çģ«åħī":5532,"çŁ³å¤´":5533,"ä¼¯çī¹":5534,"çĥĪçĦ°":5535,"æį®è¯´":5536,"çļĦä¸ĢäºĽ":5537,"æŁĵä¸ĬäºĨ":5538,"ä¹Ŀç«ł":5539,"åħ«ç«ł":5540,"ç¥ŀè¯ĿçĶŁçī©":5541,"æł¼èİ±æŀĹçī¹":5542,"çļĦèĦ¸åºŀ":5543,"åħĭèİ±æģ©åıĪ":5544,"åĩºå£°":5545,"ä¸ĭå·´":5546,"çĶŁçļĦ":5547,"åıªå¥½":5548,"çķħ":5549,"é«ĺèĥĮæ¤ħ":5550,"åķ§":5551,"æı¡çĿĢ":5552,"æĸĩä»¶":5553,"ä¸ĥç«ł":5554,"åī©ä¸ĭçļĦ":5555,"æ³¢çī¹":5556,"é¢¤æĬĸ":5557,"æ·±çº¢æĺŁè¾°":5558,"å¦»åŃĲ":5559,"å®īä¿Ŀåħ¬åı¸":5560,"çĩķå°¾":5561,"ä¼Ĭä¸½èİİçĻ½":5562,"Ġæľī":5563,"å¾Ĭ":5564,"å¯ĵ":5565,"å°Ķæł¹":5566,"èº¯":5567,"æĥ³éģĵ":5568,"æĦıè§ģ":5569,"è¡¨æĺİ":5570,"èĲ¥":5571,"å¿«æŃ¥":5572,"æħ°":5573,"éĹ®é¢ĺçļĦ":5574,"åı¯èĥ½æĺ¯":5575,"åĽĽç«ł":5576,"æķ´é½Ĳ":5577,"åıĮæĸ¹":5578,"æĲģ":5579,"ç¤ºæĦı":5580,"æľ¨ä¹ĥ":5581,"ä¸ĢçĽ´åľ¨":5582,"åĩĿéĩį":5583,"ç§¯ç´¯":5584,"å°¤åħ¶":5585,"æĶ¾å¼ĥäºĨ":5586,"å¾®ä¸įåı¯è§ģåľ°":5587,"Ġåģļå®Įè¿Ļä¸ĢåĪĩ":5588,"åİĭä½İåĹĵéŁ³":5589,"æľ¨ä¹ĥä¼Ĭ":5590,"65":5591,"Ġä¸ĭ":5592,"ĺå¾Ĭ":5593,"çļĦåıĺåĮĸ":5594,"çļĦå°¸ä½ĵ":5595,"ä¸Ģéĥ¨åĪĨ":5596,"å¾ĺå¾Ĭ":5597,"è¯ŀ":5598,"çľ¯":5599,"åľ°è®²":5600,"çºł":5601,"ä½łæľī":5602,"äºİå°Ķæł¹":5603,"è¦ģæĥ³":5604,"æŃ£å¥½":5605,"åĿį":5606,"è¡Įèµ°":5607,"æ»ĭ":5608,"çº¢èĮ¶":5609,"çľĭè§ģäºĨä¸Ģ":5610,"éļıæīĭ":5611,"éª°":5612,"å»ĵ":5613,"çļĦä¸ĢåĪĩ":5614,"è½®å»ĵ":5615,"çĨŁç»ĥ":5616,"è¯¡æ³ķå¸Ī":5617,"æĬ±æŃī":5618,"åĢ¾åĲ¬":5619,"çª¥ç§ĺ":5620,"çŀĦäºĨçľ¼":5621,"11":5622,"çļĦåºıåĪĹ":5623,"çļĦä¸ĸçķĮ":5624,"ç»ĳ":5625,"æĪĳåıªæĺ¯":5626,"ä½łåºĶè¯¥":5627,"çĶŁçģµ":5628,"çľ¼çıł":5629,"å¦ĩ":5630,"çĽ´å¥Ķ":5631,"é«ĺæ¬§":5632,"çĸı":5633,"ä¸įæĺ¯éĤ£ä¹Ī":5634,"èµ°åĩºäºĨ":5635,"çĪ·":5636,"åĸĺ":5637,"çĭł":5638,"åĶĶ":5639,"åŃ¦æł¡":5640,"çĬ¬":5641,"åıĸä¸ĭ":5642,"ä¸ľæĭľæľĹ":5643,"ç½Ĺå¡ŀå°ĶæĹ¥è®°":5644,"æ¢ħé«ĺæ¬§":5645,"æĿĤçī©":5646,"çļĦç¥ŀçģµ":5647,"å·§åĲĪ":5648,"éĺ²å¤ĩ":5649,"ç»´å°ĶæĿľ":5650,"æĥ³äºĨæĥ³éģĵ":5651,"é«ĺåºıåĪĹå¼ºèĢħ":5652,"æ¢ħé«ĺæ¬§ä¸Ŀ":5653,"æī¶":5654,"ä»ĸå°Ĩ":5655,"æĹ¶ä¹ĭèĻ«":5656,"æĸ¯æķı":5657,"è½¨":5658,"åīįèĢħ":5659,"å¾·åŃĲçĪµ":5660,"æ²¡æľīäºĨ":5661,"éĥ½æĹłæ³ķ":5662,"åı£åĲ»":5663,"æĤļ":5664,"åĪ©ç»´":5665,"åıįåĢĴ":5666,"åĻľ":5667,"çĿ¡è§ī":5668,"æĸ¯çī¹ç¦ı":5669,"ä¸ĵæ³¨":5670,"åį·çĥŁ":5671,"ç¬ĳäºĨç¬ĳéģĵ":5672,"æ§½":5673,"çļĦçĶ»éĿ¢":5674,"åıĽ":5675,"è¿Ļä¸į":5676,"å¥ı":5677,"åħĭèİ±æģ©ä¸Ģè¾¹":5678,"èµİ":5679,"èµļ":5680,"çĽĽ":5681,"æĿ¥åİĨ":5682,"ä¸Ĭåİ»":5683,"æĹ¶éĴĪ":5684,"è¾ĳ":5685,"åĵĿ":5686,"ä¸¤ç§į":5687,"çĥ¤":5688,"ä»£æĽ¿":5689,"æ¢¦æĥ³":5690,"è¯·æķĻ":5691,"ç§°ä¸º":5692,"ç¥Ńåı°":5693,"åħ´å¥ĭ":5694,"åĴķåĵĿ":5695,"çļĦçĸ¯":5696,"ç»¯çº¢ä¹ĭ":5697,"é¹¤":5698,"å°Ĭæķ¬çļĦ":5699,"åľ£èµĽç¼ªå°ĶæķĻåłĤ":5700,"è¦ģä¸įçĦ¶":5701,"çļĦæĢªçī©":5702,"çļĦå§¿æĢģ":5703,"éģĵçĲĨ":5704,"å¿ł":5705,"äººéĢł":5706,"åĩºåıĳ":5707,"æĿ¥å¾ĹåıĬ":5708,"èº«ä¸º":5709,"èº«ä¸ĬçļĦ":5710,"å¼ĢçļĦ":5711,"å¤©æ°Ķ":5712,"åħīä¹ĭ":5713,"è®¸æĦ¿":5714,"åĽĽåįģ":5715,"çº¸é¹¤":5716,"åĩºçİ°åľ¨äºĨ":5717,"ä¼¯æł¼":5718,"ä¸ºä»Ģä¹Īä¸į":5719,"çļ±èµ·":5720,"ç¥ŀçģµçļĦ":5721,"æĭĽåĳ¼":5722,"æĦŁåıĹåĪ°äºĨ":5723,"çŀ³åŃĶ":5724,"å´ĩæĭľ":5725,"çļĦåİĨåı²":5726,"æľ´":5727,"å®¿":5728,"éĹ¹":5729,"æ²¡éĹ®é¢ĺ":5730,"åģ¿":5731,"æĥ³èµ·":5732,"è¯´æ³ķ":5733,"åıĳåĩºäºĨ":5734,"æŃ£éĿ¢":5735,"éĩĳæ¯Ľ":5736,"æ·±é»ĳ":5737,"ç»Ļäºº":5738,"å°ĳéĩı":5739,"åĮºçļĦ":5740,"å¸®æīĭ":5741,"éĺŁä¼į":5742,"æŀģç«¯":5743,"ä»ªå¼ıçļĦ":5744,"è¿ĩåİ»çļĦ":5745,"éĽĨä½ĵ":5746,"é¢Ŀè§Ĵ":5747,"æııè¿°çļĦ":5748,"èįīèį¯":5749,"åĩŃç©º":5750,"èµ¢å®¶":5751,"æĺŁä¹ĭæĿĸ":5752,"æĸ¯çī¹ç¦ıå¾·åŃĲçĪµ":5753,"ç»¯çº¢ä¹ĭæľĪ":5754,"åıī":5755,"åĲĽ":5756,"ä»ĸæ²¡æľī":5757,"æ²¡äºº":5758,"çľĭåĪ°äºĨ":5759,"ä»¥èĩ³äºİ":5760,"Ġè¿ĻéĩĮ":5761,"æľĢå¤§çļĦ":5762,"éľ¾":5763,"çļĦçł":5764,"ç¼ļ":5765,"èĢģæĿ¿":5766,"åŃ¦çĶŁ":5767,"åĽ¾ä¹¦":5768,"æĹ©é¤Ĳ":5769,"éģĩä¸Ĭ":5770,"åħ¬å¯ĵ":5771,"ç»ĦæĪĲ":5772,"éĺ´æļĹ":5773,"èŃ¦å®ĺ":5774,"çĭĤæļ´":5775,"åĲĲæ§½":5776,"æķĳèµİ":5777,"éĻ·åħ¥äºĨ":5778,"åºĬä¸Ĭ":5779,"æ©ĺ":5780,"çĿģå¼Ģçľ¼çĿĽ":5781,"åľ¨äºĨä¸Ģèµ·":5782,"ä¸įèĩªè§ī":5783,"¶åĨµ":5784,"Ġæĥ³åĪ°":5785,"çļĦæ¢¦å¢ĥ":5786,"ä¸Ģè½¬":5787,"å°Ķå¤«":5788,"å¤§çĭĹ":5789,"å±Ī":5790,"è¢ĸ":5791,"å°ĨæĿ¥":5792,"æļĤçļĦ":5793,"å£°éĩĮ":5794,"éĥ¨éĹ¨":5795,"æīĵæī®":5796,"çĲĨçĶ±":5797,"è®¸ä¹ħ":5798,"çĮ«":5799,"è½¦åİ¢":5800,"æĹģè§Ĥ":5801,"ä¼Ĭåº·":5802,"æĲŃ":5803,"è¸©":5804,"çŁŃæļĤçļĦ":5805,"æ¶Īå¤±äºĨ":5806,"éĻĦèº«":5807,"çļĦçĬ¶åĨµ":5808,"ä¹Ŀå¤©":5809,"è§Ħéģ¿":5810,"ç§»åĬ¨":5811,"ä¸įéĶĻçļĦ":5812,"æĬ¬èµ·èĦĳè¢ĭ":5813,"çī§å¸Ī":5814,"çļĦçĸĳ":5815,"æ¬£èµı":5816,"è´ŁéĿ¢æķĪæŀľ":5817,"åŁĥå¾·èĲ¨åħĭ":5818,"ä¼Ĭåº·çĳŁ":5819,"äºĨéĤ£":5820,"å°ĺ":5821,"ä»ĸå¯¹":5822,"æģ©ä½Ĳ":5823,"ä¼ļåľ¨":5824,"ç¥ŀåľ£":5825,"âĢĻâĢ¦âĢ¦":5826,"æīĭæŀª":5827,"å¤ļå¹´":5828,"èĪ°":5829,"å®¹çº³":5830,"ç¥ŀç§ĺçļĦ":5831,"æģ¶æĦı":5832,"çŁ³æŁ±":5833,"æĢ»ä¹ĭ":5834,"é¢Ħæĥ³":5835,"æĥĬåĸľ":5836,"çģµæĢ§çĽ´è§ī":5837,"Ġä¸Ģéģĵ":5838,"åħ·ä½ĵçļĦ":5839,"èı²":5840,"åĢ¾åĲĳ":5841,"å¼¯èħ°":5842,"æĦ¤æĢĴ":5843,"¾æĸ¯æķı":5844,"äºĨæĪĳ":5845,"äºĨä»ĸçļĦ":5846,"åħĨ":5847,"æĺ¯ä¸Ģä½į":5848,"ä¸įçĶ±":5849,"åĩ¯":5850,"ä»ĸä¹Ł":5851,"èĩªæĿĢ":5852,"è¾Ī":5853,"è¦ģä¸įè¦ģ":5854,"è´¾æĸ¯æķı":5855,"å°ĨéĤ£":5856,"çŃīä¸ĭ":5857,"æł¼æĸĹ":5858,"æĺİæĺİ":5859,"æıĲåıĬ":5860,"çĽ®éĢģ":5861,"åĮĸæĪĲ":5862,"å¼ºè°ĥ":5863,"èĲ½åĪ°äºĨ":5864,"åıįé¦Ī":5865,"åĽĽæŃ¥":5866,"æµģç¨ĭ":5867,"èĹıåľ¨":5868,"ä¾§æĸ¹":5869,"åħŃåįģ":5870,"çľīæ¯Ľ":5871,"èĦĳæµ·éĩĮ":5872,"éĺ´å½±éĩĮ":5873,"åĴķåĻľ":5874,"æħĮä¹±":5875,"æ¹¿":5876,"ç¤¾ä¼ļ":5877,"èİ±æĽ¼è¯ºçļĦ":5878,"éĽĨä½ĵæ½ľæĦıè¯Ĩ":5879,"è¿Ļå°±":5880,"æī©":5881,"çľº":5882,"è§Ī":5883,"éĢ¼":5884,"æ²¡è°ģ":5885,"ç¬ĥ":5886,"ç¥ŀæĥħ":5887,"ç¥ŀçļĩ":5888,"èº«åīį":5889,"çī¹ä¼¦":5890,"æĹłçº¿":5891,"åģļå¥½":5892,"çļĦç¨":5893,"åĪļå¥½":5894,"æĺ¾çĦ¶":5895,"åĢĴæĺ¯":5896,"éĢĶä¸Ń":5897,"æĹ¥å¸¸":5898,"é¢Ħå¤ĩ":5899,"ä¸įçŁ¥ä¸įè§ī":5900,"æ¸Ĳæ¸Ĳ":5901,"æĺ¯åĲ¦æľī":5902,"èĽĭ":5903,"å¡Ķç½Ĺä¼ļæĪĲåĳĺ":5904,"å±±èĦī":5905,"éĹŃä¸Ĭ":5906,"èıľ":5907,"è¿ªè¥¿":5908,"è±¡å¾ģç¬¦åı·":5909,"èĪŀä¼ļ":5910,"è¯¡ç§ĺä¾įèĢħ":5911,"çĸ¾çĹħä¸Ńå°Ĩ":5912,"éĿĴéĵľéķ¿æ¡ĮæľĢä¸Ĭé¦ĸ":5913,"æ±ĩæĬ¥":5914,"æĨ¾":5915,"çĩķå°¾æľį":5916,"ä¹Ŀå¤©ç¥ŀçļĩ":5917,"çī¹ä¼¦ç´¢æĸ¯çī¹":5918,"1000":5919,"æľīä¸įå°ĳ":5920,"åħĭèİ±æģ©æ²¡":5921,"åľ°ä½į":5922,"çĤİ":5923,"æĪĲå½¢":5924,"éĽĩä½":5925,"Ġä»ĸæ²¡":5926,"ä¸¤æĿ¡":5927,"éĥĬ":5928,"è£ģ":5929,"éĺ¿å°Ķå¼ĹéĽ·":5930,"åĨĻä¿¡":5931,"ç¤¼æľį":5932,"éģĹæĨ¾":5933,"ä»Ĩå½¹":5934,"æ¸İç¥ŀ":5935,"çĳŀå°Ķ":5936,"æ¯Ĵç´ł":5937,"ç¾½æ¯Ľ":5938,"åį¡çī¹çĲ³å¨ľ":5939,"åįĬé«ĺä¸Ŀç»¸ç¤¼å¸½":5940,"åıĳçĶŁäºĨä»Ģä¹Īäºĭæĥħ":5941,"éĢ»è¾ĳ":5942,"çıŃè¥¿æ¸¯":5943,"èİ±æĽ¼è¯ºçļĦæĹħè¡Įç¬Ķè®°":5944,"éĽĩä½£":5945,"éĺ¿å°Ķå¼ĹéĽ·å¾·":5946,"çļĦçĽ®æłĩ":5947,"çļĦèº«ä»½":5948,"ä¸Ģå±Ĥ":5949,"ä»ĸå·²ç»ı":5950,"åīĬ":5951,"è¯´åĩº":5952,"èĢĮéĿŀ":5953,"å°Ĩå®ĥä»¬":5954,"å¾Īéķ¿":5955,"æ¸ł":5956,"æıĲåĪ°":5957,"åĩłåįģ":5958,"çĽ´èĩ³":5959,"éĩįåıł":5960,"èµ°åĪ°äºĨ":5961,"åĪ»æĦı":5962,"äºĨåĩłæŃ¥":5963,"åĢŁæŃ¤":5964,"ä¸ºä»Ģä¹Īä¼ļ":5965,"æľ¨éĹ¨":5966,"å¹½æ·±":5967,"åħŃäºº":5968,"äºĨä¸Ģå£°éģĵ":5969,"å±ħä½ı":5970,"ä»ĺåĩº":5971,"æľīä»Ģä¹Īäºĭæĥħ":5972,"çĪ¶æ¯į":5973,"åĨħå¿ĥçļĦ":5974,"ä¼įå¾·":5975,"åĩĮä¹±":5976,"ç¨įå¾®":5977,"ä»ĵåºĵ":5978,"100":5979,"500":5980,"Ġè¿ĩäºĨ":5981,"ĠçľĭåĪ°":5982,"åħĥ":5983,"ä¸Ģæ®µ":5984,"ä¸įåıĺ":5985,"æľīä¸Ģå®ļ":5986,"åľ°å¼Ģåı£éģĵ":5987,"æłĹ":5988,"çľĭä¸įåĪ°":5989,"å¾·åįİ":5990,"ç«Ń":5991,"ä¸ŃéĹ´":5992,"ä¸¤æ¬¡":5993,"ä¸¤æŃ¥":5994,"æľĽåİ»":5995,"çĲ´":5996,"æĽ´è¿Ľä¸ĢæŃ¥":5997,"æ·±èĵĿ":5998,"è±Ĩ":5999,"ä¸Ģä¸ĭåıĺå¾Ĺ":6000,"ä¼łéĹ»":6001,"è¿Ļä¹Īä¸Ģä¸ª":6002,"èİ«è´Ŀ":6003,"æĢ¥éĢŁ":6004,"å¯Łè§īåĪ°äºĨ":6005,"å±±å³°":6006,"çº·åĳĪ":6007,"åı¤ä»£åŃ¦èĢħ":6008,"é»ĦæĺıéļĲå£«":6009,"åľ°çĭ±ä¸Ĭå°Ĩ":6010,"300":6011,"çļĦä¸Ģä¸ª":6012,"ä¸ĢèĦ¸":6013,"ä¸Ģèĩ´":6014,"å®Ĺ":6015,"ä¸įèµ·":6016,"åĨł":6017,"å°Ķå¥ĩ":6018,"çģ¿":6019,"ä½łè¦ģ":6020,"ä»¥å¾Ģ":6021,"è§ģçļĦ":6022,"æ¶¦":6023,"æĺİç¡®":6024,"å®ŀçİ°":6025,"éĩĳèī²çļĦ":6026,"ä¸ĸçķĮçļĦ":6027,"å¡Ķä¸Ŀ":6028,"çħ§èĢĢ":6029,"çĶµè½¬":6030,"çŁŃæĹ¶éĹ´åĨħ":6031,"ä¼¤åı£":6032,"æĺıé»Ħ":6033,"æĿ¯åŃĲ":6034,"å¤ıå¡Ķä¸Ŀ":6035,"è¿ĪæŃ¥":6036,"èĭ¥æĺ¯":6037,"ç¾Ĭçļ®çº¸":6038,"çİ©ç¬ĳ":6039,"åĿļæĮģ":6040,"åĴļåĴļ":6041,"åĻ©æ¢¦":6042,"å¾®çļ±çľīå¤´":6043,"éŁ¦å°Ķå¥ĩ":6044,"ä¸ĢéĹª":6045,"å®ľ":6046,"ä»ĸä¸Ģçľ¼":6047,"æĸ¥":6048,"åħĭéĩĮ":6049,"æĪĳè®¤ä¸º":6050,"çĽı":6051,"äºĭåĽ¢":6052,"éĥ½è¢«":6053,"å§ĵ":6054,"Ġä»ĸæĹĭåį³":6055,"æİ¥ä¸ĭæĿ¥çļĦ":6056,"çĸ²æĥ«":6057,"æĢ§æł¼":6058,"æ¢³":6059,"æī¾äºĨä¸ª":6060,"ä¸¥æł¼":6061,"æĬ½åĩº":6062,"ä¸ĵéĹ¨":6063,"ç¨ĭåº¦ä¸Ĭ":6064,"èĪ¹éķ¿å®¤":6065,"éĶģå®ļ":6066,"æĥ¨åı«":6067,"åıįæĬĹåĨĽ":6068,"åĿ¦çĻ½åľ°è®²":6069,"æ¸İç¥ŀèĢħ":6070,"Ġæ²¡æľī":6071,"Ġä¸Ģä¸ª":6072,"åĪ¹":6073,"åħĭè¡Ĺ":6074,"ç§Ģ":6075,"å¯¹ä»ĸ":6076,"èµ·çļĦ":6077,"èī³":6078,"å°Ĩä»ĸ":6079,"èĦĨ":6080,"ä¸¤èĢħ":6081,"æķĻå¯¼":6082,"åįģåĩł":6083,"å¢ħ":6084,"å¢Ł":6085,"æ¡¶":6086,"éĢļéģĵ":6087,"éĽ¾éľ¾":6088,"æĶ¶åĪ°":6089,"åĪ«å¢ħ":6090,"æĢİä¹Īåı¯èĥ½":6091,"çķĻçĿĢ":6092,"å½¢æĪĲ":6093,"æı¡ä½ı":6094,"ç§ĳåĭĴ":6095,"ç»ĦæĪĲçļĦ":6096,"å·¥åİĤ":6097,"åĻĹ":6098,"è®®äºĭåĽ¢":6099,"æĸĹç¯·":6100,"ä½ľä¸ºä¸ĢåĲį":6101,"éĢĥç¦»":6102,"åķĨäºº":6103,"åĸĬéģĵ":6104,"æĺ¨å¤©":6105,"èĸªæ°´":6106,"åĩºç§Łé©¬è½¦":6107,"åĿįå¡Į":6108,"åħŃäººè®®äºĭåĽ¢":6109,"é»ĦæĺıéļĲå£«ä¼ļ":6110,"¡èĲ":6111,"Ġåĳľ":6112,"çļĦæĪ¿å±ĭ":6113,"åıĶ":6114,"ä¸įè¯¥":6115,"ä»ĸæľī":6116,"éĤ£æĪĳ":6117,"äººåģ¶":6118,"ä¹ĭäºĭ":6119,"ä¹ĭå¤Ħ":6120,"è¿ĺå¾Ĺ":6121,"ä½ĵè¡¨":6122,"å¤©å°Ĭ":6123,"çļĦçŀ":6124,"è¡Ģèī²":6125,"å¹´çĶ·åŃĲ":6126,"ä¸įä¼ļæľī":6127,"çĶ·æĢ§":6128,"åĿĲäºĨä¸ĭæĿ¥":6129,"å²¸":6130,"æĴŃ":6131,"èİ·å¾ĹçļĦ":6132,"åı¦å¤ĸçļĦ":6133,"æ¸©åĴĮ":6134,"çŁ¥è¯Ĩä¸İ":6135,"é¸£":6136,"èĳ¡èĲ":6137,"èĭįèĢģ":6138,"åºŁå¢Ł":6139,"éĩĳæ¯Ľå¤§çĭĹ":6140,"æ¸łéģĵ":6141,"èĳ¡èĲĦ":6142,"82":6143,"çļĦå¥¥é»Ľä¸½":6144,"ä¸įå¦Ĥ":6145,"åĨķ":6146,"åħĭèİ±æģ©å¿½çĦ¶":6147,"åħĭèİ±æģ©èĭ¥æľīæīĢæĢĿåľ°":6148,"æĦļ":6149,"èĩªå®¶":6150,"æĭ¼":6151,"æĸ¹ä¾¿":6152,"åĮ¿":6153,"ç©·":6154,"åĪĨè£Ĥ":6155,"éļĲæĤ£":6156,"åĶ±":6157,"æľªèĥ½":6158,"æĬĬæīĭ":6159,"ç»´æıĲ":6160,"ç¼ĵæŃ¥":6161,"èĤ¯å®ļçļĦ":6162,"åıĮçľ¼":6163,"æį¢åıĸ":6164,"å¹½å½±":6165,"åı¬éĽĨ":6166,"åĳĬè¯īä»ĸ":6167,"éĩįè¦ģçļĦ":6168,"çĪ±å¾·åįİ":6169,"åķªåľ°":6170,"éº¦ç»´æıĲ":6171,"é©±ä½¿":6172,"åħ·çİ°åĩº":6173,"æµģæ·Į":6174,"ä¸Ģè¯ķ":6175,"ä¸įæĦ§æĺ¯":6176,"æĥļ":6177,"èĩªä¸»":6178,"æĬĳ":6179,"å¤§ä½¿":6180,"çľĭæ¸ħæ¥ļ":6181,"åıªä¼ļ":6182,"æĮĸ":6183,"è§ģåĪ°":6184,"æ¸º":6185,"ä½ĵéªĮ":6186,"ä½Ĩä¹Ł":6187,"éķ¿æľŁ":6188,"ç½Ĺä¼Ĭ":6189,"çĽ´åīĳ":6190,"æ¯Ķå°Ķçī¹":6191,"æľªèĲ½":6192,"åĪ«äººçļĦ":6193,"èĦ¸éĥ¨":6194,"æµģæµª":6195,"è¿ŀå¿Ļ":6196,"åŁºéĩĳ":6197,"å¹²åĩĢ":6198,"ç»ĵæĿŁäºĨ":6199,"æ¶Įçİ°":6200,"å°ıå¿ĥç¿¼":6201,"ĠæŃ¤æĹ¶æŃ¤åĪ»":6202,"æĻºæħ§ä¹ĭç¥ŀ":6203,"äº«åıĹ":6204,"äºĴçĽ¸":6205,"æĤ²ä¼¤":6206,"å±ıéļľ":6207,"éª¤çĦ¶":6208,"çļĦç±»":6209,"å°ıå¿ĥç¿¼ç¿¼":6210,"Ġçģ°éĽ¾ä¹ĭä¸Ĭ":6211,"Ġå¿½çĦ¶":6212,"Ġä¹Łå°±æĺ¯è¯´":6213,"è¿Ļæīį":6214,"èĢ½":6215,"åľ¨æĪĳ":6216,"æŀ¯":6217,"åĵĲ":6218,"æ¯¯":6219,"ç½ļ":6220,"æĽ¦":6221,"å®ļä½į":6222,"é«ĺåħ´":6223,"æĽ´ä¸º":6224,"çªĿ":6225,"æ¸ħéĻ¤":6226,"ç´¢å°Ķ":6227,"åŃ¦å®¶":6228,"ä½İä¸ĭ":6229,"éĤ£ä¸ªæĹ¶åĢĻ":6230,"æĢİä¹Īä¼ļ":6231,"é»Ħæ°´æĻ¶":6232,"åĲĬåĿł":6233,"åı³æİĮ":6234,"è¨Ģåĸ":6235,"ä»ªå¼ıéŃĶæ³ķ":6236,"æłĩåĩĨ":6237,"åĢŁåı£":6238,"èģļéĽĨ":6239,"ç¬¬äºĮçºª":6240,"ç±»ä¼¼çļĦäºĭæĥħ":6241,"è´¹åĨħ":6242,"è·Łè¸ª":6243,"æİĮæı¡çĿĢ":6244,"åī©ä½ĻçļĦ":6245,"éĢīæĭ©äºĨ":6246,"ä¸ĵå®¶":6247,"å¹ķå¸ĥ":6248,"èģĮä¸ļ":6249,"æĤ¬èµı":6250,"æŃĮèĢħ":6251,"è¯ĿéŁ³æľªèĲ½":6252,"ä¿Ŀéķĸå°ıå§Ĳ":6253,"åįģäºĮç«ł":6254,"ä¹Įçī¹æĭīå¤«æĸ¯åŁºç¥ŀçĪ¶":6255,"éĻĪæĹ§":6256,".ãĢĤ":6257,"Ġèİİä¼¦":6258,"æĺ¯ä½į":6259,"ä¸įä¸Ĭ":6260,"èĢĹ":6261,"åį¢":6262,"éĤ£æł·çļĦ":6263,"çĿĢè¯´éģĵ":6264,"åľ°çĲĥ":6265,"åĩºçĶŁ":6266,"çĤī":6267,"æ³ª":6268,"èµ·ä¼ı":6269,"éĥ½å¾Ī":6270,"è§ģéĿ¢":6271,"åģļçļĦäºĭæĥħ":6272,"æ·¹":6273,"ç¬ĳä¸Ģå£°":6274,"å¤ĦçļĦ":6275,"å¤Ħå¢ĥ":6276,"æĭīå¼Ģ":6277,"å®¹è²Į":6278,"è¯ķä¸Ģè¯ķ":6279,"å¡ŀè¥¿":6280,"åį´æ²¡æľī":6281,"åĺ´è¾¹":6282,"è¿Ĳæ°Ķ":6283,"æ¡Įä¸Ĭ":6284,"äºĨåĩłåĪĨ":6285,"åĩºäºĨä¸Ģéģĵ":6286,"åģĩçļĦ":6287,"ç»ķè¿ĩ":6288,"å±ĢåĬ¿":6289,"è§£éĩĬéģĵ":6290,"è°¨æħİåľ°":6291,"æĭ³å¤´":6292,"åĩĮæĻ¨":6293,"åħĭéĩĮç»´æĸ¯":6294,"02":6295,"ĠéľįçĦ¶":6296,"çļĦåĨ²åĬ¨":6297,"åħ¼":6298,"ä¸įå®ī":6299,"ä¸įæĦ¿æĦı":6300,"è¿Ļä»¶":6301,"å¥Ī":6302,"è¡·":6303,"éĢĤçļĦ":6304,"æµ¸":6305,"åĵĹ":6306,"å¥½åĲ§":6307,"åĪĨç¦»":6308,"å¤ªä¹ħ":6309,"èį£":6310,"èį·":6311,"çĲī":6312,"èµ°èĩ³":6313,"ç»Ļä»ĸ":6314,"ç»ĻåĩºäºĨ":6315,"èĢģåħĪçĶŁ":6316,"æįĲ":6317,"éĵ¶åĪ¶":6318,"ç²¾èĩ´":6319,"æĹ©æľī":6320,"ç±³ç´¢å°Ķ":6321,"æ¡ĪåŃĲ":6322,"çľ¸åħī":6323,"æııç»ĺ":6324,"æľĢåĲİçļĦ":6325,"è§Ħå¾ĭ":6326,"åįİä¸½":6327,"æģįæĥļ":6328,"æ¼Ĥäº®":6329,"åį·çĥŁçĽĴ":6330,"çŁ¥è¯Ĩä¸İæĻºæħ§ä¹ĭç¥ŀ":6331,"åĵĲå½ĵ":6332,"Ġå¤©æīį":6333,"Ļåį°":6334,"çļĦèĻļå¹»":6335,"åľ¨ä»ĸ":6336,"å¸Ĩ":6337,"èµł":6338,"ï¼ļ.ãĢĤ":6339,"è¿ĩå¤ļä¹ħ":6340,"ç¥ŀæĢ§":6341,"äºĨä¸Ģåı£":6342,"æľ¬ç«Ļ":6343,"æĺİæĸ¯":6344,"æ±ģ":6345,"è¿Ļä¸ªæľºä¼ļ":6346,"è®°èĢħ":6347,"éĢļå¾Ģ":6348,"å¹³æ·¡":6349,"æ´»è·ĥ":6350,"çļĦäººå½±":6351,"åıĸåĩº":6352,"å¹»è§ī":6353,"é¥±":6354,"èĴĤäºļ":6355,"ç§°åı·":6356,"åįĪé¤Ĳ":6357,"éĵģåĪ¶":6358,"çģµçķĮçĶŁçī©":6359,"çĸĳæĥĳåľ°":6360,"åī§çĥĪ":6361,"ç»¿èī²çļĦ":6362,"ç¥ŀç§ĺåŃ¦çŁ¥è¯Ĩ":6363,"éĻĦè¿ĳçļĦ":6364,"èĴ¸æ±½åĪĹè½¦":6365,"çº·çº·":6366,"Ġä½Ĩæĺ¯":6367,"èĮĥåĽ´åĨħ":6368,"ä¸Ģç§Ĵè®°ä½ı":6369,"Ġå¤©æīįä¸Ģç§Ĵè®°ä½ı":6370,"æľ¬ç«Ļåľ°åĿĢ":6371,"Ġå¤©æīįä¸Ģç§Ĵè®°ä½ıæľ¬ç«Ļåľ°åĿĢ":6372,"ä¸Ģåĳ¨":6373,"ä¸įåıĹ":6374,"å¸ĤçļĦ":6375,"æ²¡åĬŀæ³ķ":6376,"ä¹ĭåľ£èĢħ":6377,"å°Ĩæīĭ":6378,"åİ»æī¾":6379,"çģµæĳĨ":6380,"ï¼ŁâĢĿâĢľ":6381,"æľĢé«ĺ":6382,"å®īæĬļ":6383,"Ġåħĭèİ±æģ©æ²¡æľī":6384,"åįģåĩłç§Ĵ":6385,"å¼ºçļĦ":6386,"å±Ĥåıł":6387,"æĶ¶ç¼©":6388,"æĿ°æ£®":6389,"è¡£æľį":6390,"ä¹Įæ´Ľ":6391,"åĬĽéĩıçļĦ":6392,"çĨĦ":6393,"æĥĬæģĲ":6394,"æ¨ª":6395,"å¡Ķç½Ĺèģļä¼ļ":6396,"çļĩåĲİ":6397,"é¢Ŀå¤ĸçļĦ":6398,"åıĳçĶŁäºĨ":6399,"éĢĶå¾ĦçļĦéĿŀåĩ¡èĢħ":6400,"æ°ĳä¼Ĺ":6401,"èĴ¸æ±½ä¸İ":6402,"ç»ĥä¹ł":6403,"Ġä¸ĭä¸Ģç§Ĵ":6404,"æĹłçº¿çĶµ":6405,"åĪ¹éĤ£":6406,"ä¹Įæ´ĽçĲī":6407,"Ġè¢«":6408,"ĠçľĭçĿĢ":6409,"åħļ":6410,"æľīéĹ®é¢ĺ":6411,"éģĤ":6412,"çº±":6413,"ä¸ºæŃ¤":6414,"äºİåįĬç©º":6415,"çĶ¨åĬĽ":6416,"Ġè¿Ļç§į":6417,"åĬ¨çī©":6418,"åĿĳ":6419,"å¤ªå¤ļçļĦ":6420,"å¡«":6421,"èµ°åĽĽæŃ¥":6422,"æ·±éĤĥ":6423,"æį·":6424,"çŀ§":6425,"çĶ·åŃ©":6426,"è´ĿåħĭæľĹ":6427,"æĪĺç¥ŀ":6428,"Ġå¥¹çļĦ":6429,"èĻļå¼±":6430,"ä¾§è¿ĩ":6431,"è½¦å¤«":6432,"å¨ģä¸¥":6433,"å¨ģå»ī":6434,"å®Įåħ¨åı¯ä»¥":6435,"å®¢äºº":6436,"è¿½éĢĲ":6437,"ä»Ĭå¤©çļĦ":6438,"è¹¿":6439,"è´ŁéĿ¢å½±åĵį":6440,"éļ¾ä»¥éģıåĪ¶åľ°":6441,"èİ«è´Ŀçī¹":6442,"æĺİæĸ¯åħĭè¡Ĺ":6443,"·æħ¨":6444,"ĠåĪļ":6445,"Ġéĺ¿åħ¹åħĭ":6446,"çļĦç»ĵæŀľ":6447,"çļĦåĳ³éģĵ":6448,"âĢĿï¼ĮâĢľ":6449,"æģŃ":6450,"æĪĳå¾Ĺ":6451,"æĪĳå¸ĮæľĽ":6452,"æĿ¥æºĲäºİ":6453,"è¿ĩæĿ¥çļĦ":6454,"çĤ½":6455,"å¾Ĺä¸Ĭ":6456,"çľĭåĩº":6457,"åĲĮåŃ¦":6458,"å®¶ä¾¦æİ¢":6459,"çŃīæĪĳ":6460,"éĵŃ":6461,"éķ¿åıĳ":6462,"æĽ´å¥½":6463,"å¿«è¦ģ":6464,"åĸĥ":6465,"çŁ¥éģĵçļĦ":6466,"æħ·æħ¨":6467,"æ²īç¨³":6468,"éĶļ":6469,"æĬ¥æľº":6470,"åıĹåĪ°äºĨ":6471,"çº¸ç¬Ķ":6472,"çº¸çīĮ":6473,"ĠéĤ£äºĽ":6474,"èĪ¹åĳĺ":6475,"éģĹå¿ĺ":6476,"çĸ¯åŃĲ":6477,"åħħåĪĨ":6478,"æ¿ĢçĥĪ":6479,"ç¼ĵæħ¢åľ°":6480,"æ²¹çĶ»":6481,"æ±ĤæľĪç¥¨æİ¨èįĲç¥¨":6482,"çĪĨçĤ¸":6483,"éĹ²èģĬ":6484,"è¾ħåĬ©æĿĲæĸĻ":6485,"æĸ¯å¡ĶçĲ³":6486,"æĹłæļĹåįģåŃĹ":6487,"°ĩ":6488,"åª":6489,"çļĦè¡Ģæ¶²":6490,"ä¸Ģç¬ĳ":6491,"ä¸Ĭåīį":6492,"ä¸ºä¸»":6493,"éĻª":6494,"è´¦":6495,"èĢĮæĿ¥":6496,"åĮ¹":6497,"çĶ¨çļĦ":6498,"ç©´":6499,"ä½Ĩè¿ĺæĺ¯":6500,"çŃīçĿĢ":6501,"çĽ´è§Ĩ":6502,"æķĻèĤ²":6503,"å®īå®ģ":6504,"èĢģç§ĳåĭĴ":6505,"åįģæĿ¥":6506,"æĶ¶æĬ¥æľº":6507,"è¸±":6508,"éĵģé»ĳèī²":6509,"åħ¶ä»ĸäºº":6510,"éģŃéģĩäºĨ":6511,"åħ«åįģ":6512,"é¦Ļåĳ³":6513,"èŀįåĲĪ":6514,"è¤Ĳèī²":6515,"éĢĨèµ°åĽĽæŃ¥":6516,"åħ¨èº«éķľ":6517,"èįĨæ£ĺå®īä¿Ŀåħ¬åı¸":6518,"æ®ĸæ°ĳ":6519,"çļĦç¤¼":6520,"èĴ¸æ±½ä¸İæľºæ¢°":6521,"ĠåĴĮ":6522,"ä¸Ģç¬ĳéģĵ":6523,"éĤ®":6524,"å·¡":6525,"åħĭèİ±æģ©çĶ¨":6526,"çİĦ":6527,"åĴĮä½ł":6528,"å¤§äººçī©":6529,"äºĨä¸Ģä»¶äºĭæĥħ":6530,"çľĭä¸Ģçľĭ":6531,"åĵ¼":6532,"è´¤":6533,"æĪĲçĨŁ":6534,"æĹłè¾¹":6535,"åģļè¿ĩ":6536,"é«ĺç©º":6537,"å¤±æľĽ":6538,"åĬłå°Ķ":6539,"å¹³æģ¯":6540,"ä¹¦æĪ¿":6541,"éľĢè¦ģçļĦ":6542,"ä»»çĶ±":6543,"æļ´é£İ":6544,"æ¯ıåĳ¨":6545,"åº§æ¤ħ":6546,"å°±åĥıåľ¨":6547,"äº²èĩª":6548,"ä¼Ĺäºº":6549,"ä½Ļåħī":6550,"éļĲç§ĺçļĦ":6551,"å¢Ļä¸Ĭ":6552,"åĸĿäºĨåı£":6553,"çĬ¶ä¼¼":6554,"æ¼Ĩé»ĳçļĦ":6555,"æĻºæħ§ä¹ĭçľ¼":6556,"ç§ģå®¶ä¾¦æİ¢":6557,"ä¸ĢæĹ¶ç«Ł":6558,"æĬ«çĿĢ":6559,"é»İæĺİ":6560,"æĻ¨æĽ¦":6561,"æĦīå¿«":6562,"åįģäºĶç«ł":6563,"éĿłä½ıæ¤ħèĥĮ":6564,"©åºı":6565,"Ġæ¢ħä¸½èİİ":6566,"įæĻļ":6567,"ıè§Ī":6568,"ä¸Ģæľ¬":6569,"ç»½":6570,"ç§©åºı":6571,"æµıè§Ī":6572,"äºĭåĬ¡":6573,"Ġä»ĸæ²¡æľī":6574,"å®ļå¾ĭ":6575,"ä½Ĩåħĭèİ±æģ©":6576,"èĤ¢":6577,"åķ¸":6578,"èĥĥ":6579,"æĳĶ":6580,"åĲ¬èµ·æĿ¥":6581,"åĲ¬è¯´è¿ĩ":6582,"æ¯Ķèµ·":6583,"éļıèº«":6584,"åı¤åł¡":6585,"çŃĶå¤į":6586,"åįķçĭ¬":6587,"ä¿Ŀåºķ":6588,"åĻ¬":6589,"èİīåį¡":6590,"èĩ´åĳ½":6591,"æĶ¯æĮģ":6592,"ä¸ĥåħ«":6593,"åĤįæĻļ":6594,"èłķèĻ«":6595,"æĻ®éĢļçļĦ":6596,"æĦıæĢĿæĺ¯":6597,"å®«å»·":6598,"åįĥå¹´":6599,"è½¬èĢĮè¯´éģĵ":6600,"å¢ĵåĽŃ":6601,"èĤ¡ä»½":6602,"ç¬ĳäºĨç¬ĳ":6603,"åį¡å°Ķå¾·":6604,"æķĳèµİèĶ·èĸĩ":6605,"æ·¹æ²¡":6606,"åĵĹåķ¦":6607,"çĨĦçģŃ":6608,"è´¤èĢħ":6609,"çļĦæ°Ķæģ¯":6610,"ä¸Ģå¹´":6611,"ä¸ĢåĽ¢":6612,"ä¸Ģé¢Ĺ":6613,"ä¸įè®©":6614,"ä¸įæħ¢":6615,"æĪĳè®°å¾Ĺ":6616,"éĤ£æł¹":6617,"å°±è¡Į":6618,"ä¹ĭé¾Ļ":6619,"è¾ĵ":6620,"äºĨä¸Ģä½į":6621,"å°ıå£°":6622,"æĺİæĤŁ":6623,"å¤ªå¤§":6624,"æĢĿåħ°":6625,"å®īä¹Ĳ":6626,"å®īæ´ģ":6627,"å±ĤçļĦ":6628,"åıįéĹ®":6629,"ç»ĵå±Ģ":6630,"ä¿Ŀå¯Ĩ":6631,"è¥¿å¨ħ":6632,"è¿Ļæĺ¯ä¸Ģä¸ª":6633,"èĹ¤":6634,"è¶³è¶³":6635,"çĶ±è¡·":6636,"ä¼ĬæĢĿåħ°":6637,"åĨĻéģĵ":6638,"ç¿»èº«":6639,"çĽ¸å½ĵäºİ":6640,"çº§çļĦ":6641,"ä¸įåĨįæľī":6642,"ä¸ĩèĥ½":6643,"ä¸ĩéķĳ":6644,"è¾Ľè¥¿å¨ħ":6645,"ä¹Ķä¼įå¾·":6646,"æ£ķèī²":6647,"è°ĭåĪĴ":6648,"éĢļçģµèĢħ":6649,"æ£ºæĿĲ":6650,"åºĨå¹¸":6651,"äººéĢłæŃ»ç¥ŀ":6652,"°ĩæĭ¥":6653,"å®īæ´ģèİīåį¡":6654,"Ġå¾Ī":6655,"ĠåĪ°äºĨ":6656,"çļĨ":6657,"ä»Ļ":6658,"ä¸įå°ı":6659,"çľ¨":6660,"åħĭèİ±æģ©å°±":6661,"ä¸ĬæĿ¥":6662,"æŀĿ":6663,"èº«é«ĺ":6664,"èĩªå·±åľ¨":6665,"è§ģè¯ģ":6666,"æĹłå¥Ī":6667,"åĬ¨æīĭ":6668,"åģļçĿĢ":6669,"åĲĳåīį":6670,"æī¾åĩº":6671,"åĹĸ":6672,"æ°´éĵ¶":6673,"åĽĽä¸ĭ":6674,"åĿĲåĪ°äºĨ":6675,"æ¢¦éŃĩ":6676,"è§Ĵåº¦":6677,"äº®èµ·":6678,"åı¦ä¸Ģæĸ¹éĿ¢":6679,"æŀģå¤§çļĦ":6680,"éĨī":6681,"ä¼łæĿ¥":6682,"é¢ĦåħĪ":6683,"éĢıéľ²":6684,"æİĴæŁ¥":6685,"ä¹Łè®¸æĺ¯":6686,"é¡ºä¾¿":6687,"ä¹Ŀåįģ":6688,"æĽ¿èº«":6689,"æ¸ħæĻ¨":6690,"æĶ¿åºľ":6691,"èħ¾èµ·":6692,"æģ¢å¤įäºĨæŃ£å¸¸":6693,"åĳ¨ä¸Ģæ±Ĥæİ¨èįĲç¥¨æľĪç¥¨":6694,"çļĦæĪ¿éĹ´":6695,"âĢĿâĢľ":6696,"æģ°":6697,"éĤ£ä»¶":6698,"ä¸Ĭä¸ĭ":6699,"åıĳæĺİ":6700,"ç«¥":6701,"çļĦç´":6702,"æµ·åĨĽ":6703,"å®īå¨ľ":6704,"ç¬¬ä¸ĥ":6705,"æīĵæī°":6706,"åĮĸçļĦ":6707,"åĲĪéĢĤçļĦ":6708,"çģ°èĴĻ":6709,"åĲįçļĦ":6710,"ç»ĵè®º":6711,"éĺ³åı°":6712,"éľĢæ±Ĥ":6713,"å±ŀäºİèĩªå·±çļĦ":6714,"åıĮèĦļ":6715,"æĿĢæİī":6716,"èµĦæºĲ":6717,"åİĭæĬĳ":6718,"åĨ²çªģ":6719,"éĢĥè·ĳ":6720,"è£Ĥå¼Ģ":6721,"å°¾å£°":6722,"éĿ¢åīįçļĦ":6723,"ç¦ıçĶŁ":6724,"é»Ħéĩĳæ¢¦æĥ³":6725,"ä¹łæĥ¯æĢ§":6726,"å·«çİĭ":6727,"æĹłçº¿çĶµæĶ¶æĬ¥æľº":6728,"13":6729,"ĠèĢģå°¼å°Ķ":6730,"çļĦåĬ¨ä½ľ":6731,"çļĦå¯¹è±¡":6732,"åľ¨èĥ¸åı£":6733,"æĪĳå¯¹":6734,"æĪĳåİ»":6735,"æµİ":6736,"å¥½åıĭ":6737,"å¤ĸè¡¨":6738,"æıĲè®®":6739,"èĪį":6740,"é«ĺåº¦":6741,"éĢļçŁ¥":6742,"åĮĸèº«":6743,"ç¨ł":6744,"å·²ç»ıæĺ¯":6745,"ç´¢ä¼¦":6746,"äº¤ç»ĩ":6747,"åı·çļĦ":6748,"éĿłçĿĢ":6749,"æİīèĲ½":6750,"ä¾§éĿ¢":6751,"åĳ¨åĽ´åĮºåŁŁ":6752,"çľŁæŃ£åľ°":6753,"è¿ĩäºĨå¤ļä¹ħ":6754,"é¡ºåĬ¿":6755,"ä¸´æĹ¶":6756,"è§£åĨ³äºĨ":6757,"è¡¨çİ°å¾Ĺ":6758,"å¥ĩæĢªçļĦ":6759,"æģĲæĢĸçļĦ":6760,"æ¬§åĨħ":6761,"æ¬§æł¹":6762,"è¿Łçĸĳ":6763,"æķŀå¼Ģ":6764,"åĩ¶æīĭ":6765,"çľ¼è§Ĵä½Ļåħī":6766,"è´¡çĮ®":6767,"ä¹Įæ´ĽçĲīæĸ¯":6768,"20":6769,"¯æķĳ":6770,"ä¸įè§£":6771,"ä¸įåŃĺåľ¨":6772,"ä¼°":6773,"ä¼Ĳ":6774,"èİ½":6775,"çĽŁ":6776,"å°±éĤ£æł·":6777,"ä¹ĭä¸ĭ":6778,"èĩªç§°":6779,"æĭ¯æķĳ":6780,"ä½łä¸įæĺ¯":6781,"ä¹Łæľª":6782,"é¢Ĭ":6783,"è´ª":6784,"å¥½ç¬ĳ":6785,"å°Ĩèĩªå·±":6786,"å¾ĪæŃ£å¸¸":6787,"é»ĳèįĨæ£ĺå®īä¿Ŀåħ¬åı¸":6788,"åĪĨäº«":6789,"å¥³åĦ¿":6790,"Ġåħĭèİ±æģ©çļĦ":6791,"çº¢èī²":6792,"å£«åħµ":6793,"èħ¥":6794,"åĿĲèĩ³":6795,"åĳ½ä»¤":6796,"èĤ¯å®ļä¸įä¼ļ":6797,"æĦŁè§īåĪ°":6798,"ç®Ģæ´ģ":6799,"æĿĢæŃ»":6800,"æ½ĺ":6801,"æĬ½åĬ¨":6802,"ç¨ĭåº¦çļĦ":6803,"çĽ®çļĦåľ°":6804,"æ¨¡ç³ĬçļĦ":6805,"é¥°åĵģ":6806,"èĥ¡é¡»":6807,"åİŁå§ĭå²Ľå±¿":6808,"èħĲçĥĤ":6809,"åİĨåı²åŃĶéļĻå½±åĥı":6810,"å··åŃĲ":6811,"æ¬§åĨħæĸ¯":6812,"Ġæł¹æį®":6813,"Ġè½°éļĨ":6814,"ĢçĴ":6815,"æĺ¯æĢİä¹Ī":6816,"ä¸įå¿«":6817,"æĥ¹":6818,"æĿ¥æºĲ":6819,"ä»¥ä¸Ĭ":6820,"âĢĻï¼ŁâĢĿ":6821,"å¿ĥæĻº":6822,"çĻ½çº¸":6823,"åĩłæŃ¥":6824,"éĹ¨è¾¹":6825,"ç»Ļèĩªå·±":6826,"é»Ľè¥¿":6827,"è¯ķçĿĢ":6828,"è¿Ľåħ¥çģ°éĽ¾ä¹ĭä¸Ĭ":6829,"ç«ĭäºİ":6830,"æ¯ıä¸Ģä½į":6831,"ä¼łåĩº":6832,"ä½łä»¬çļĦ":6833,"å·¥äºº":6834,"éĤ£ä¹Īå¤ļ":6835,"å·¨äººè¯Ń":6836,"åī©ä¸ĭ":6837,"åĳ½è¿Ĳä¹ĭèĽĩ":6838,"èĥ¸éĴĪ":6839,"éĢĴç»ĻäºĨ":6840,"å¼łå¼Ģåĺ´å·´":6841,"æ¬ºè¯Ī":6842,"ä½©æĪ´":6843,"éĽĩä¸»":6844,"åĲĦç§įåĲĦæł·çļĦ":6845,"çļĦçŀ³":6846,"è´¹åĨħæ³¢çī¹":6847,"å®īä¹Ĳæ¤ħ":6848,"ä¸Ģåī¯":6849,"åĩºæīĭ":6850,"ä¹ĭçĽĴ":6851,"æĸ¯åĽ¾":6852,"ä¹Łåľ¨":6853,"æľĢå¼Ģå§ĭ":6854,"éķ¿çĿĢ":6855,"åĨįæ²¡æľī":6856,"é«ĺé«ĺ":6857,"å®Įç¾İ":6858,"è¾¾æĪĲ":6859,"æĶ¶åħ¥":6860,"å¸ķçī¹":6861,"è¥¿æĭľæľĹ":6862,"ç§ĴéĴŁ":6863,"åį´åıĪ":6864,"å·¦ä¾§":6865,"éĹªè¿ĩäºĨ":6866,"ä¸Ģæł·çļĦ":6867,"æį¢äºĨ":6868,"å¹½èĵĿ":6869,"èµĦæ·±":6870,"å±ħæīĢ":6871,"æĪĳæĥ³è±¡":6872,"æķ²éĹ¨":6873,"åħįè´¹":6874,"éŃĶå¥³æķĻæ´¾":6875,"æī§æĶ¿":6876,"æī«è¿ĩ":6877,"Ġä½ľä¸ºä¸ĢåĲį":6878,"å¾½ç«ł":6879,"ç²īæľ«":6880,"é»Ħéĵľä¹¦":6881,"æĶ¶æķĽä½ı":6882,"å¤§éĩıçļĦ":6883,"èī¾å¼¥çķĻæĸ¯ä¸Ĭå°Ĩ":6884,"éĵģåĪ¶åį·çĥŁçĽĴ":6885,"ä¿ĿåºķæľĪç¥¨":6886,"ĢçĴ¨":6887,"Ġç»Īäºİ":6888,"å°ļ":6889,"è¿Ļä¹Łæĺ¯":6890,"æĿ¥ä¸įåıĬ":6891,"å¯¹äºİ":6892,"è´¸":6893,"åİ»çģ°éĽ¾ä¹ĭä¸Ĭ":6894,"æľĢå¤§":6895,"èĤĸ":6896,"ä»İåĵªéĩĮ":6897,"ä¸»å®°":6898,"åĪ©åħ¹":6899,"å¯Ĩå¯Ĩ":6900,"ç´§ç´§":6901,"æŀģå¤§":6902,"æºĲå¤´":6903,"è¿¹è±¡":6904,"äºĶæµ·":6905,"æłĩè¯Ĩ":6906,"åŀ«":6907,"å¹½éĤĥ":6908,"æĻ®åĪ©åħ¹":6909,"è¿Ļä¸ĢåĪ»":6910,"åĨ²åĩ»":6911,"éº»éº»":6912,"åħ¶ä¸Ńä¸Ģä¸ª":6913,"åī§æĥħ":6914,"ä¸ĭåįĪå¥½":6915,"æľīæīĢæģįçĦ¶":6916,"æĦ£äºĨä¸Ģä¸ĭ":6917,"å¿ħçĦ¶ä¼ļ":6918,"èī¾ä¼¦åĮ»çĶŁ":6919,"Ġæ²¡è¿ĩå¤ļä¹ħ":6920,"æĹ§æĹ¥ä¹ĭçĽĴ":6921,"æµĳèº«":6922,"æķ°ä¸įæ¸ħçļĦ":6923,"ç«ŃåĬĽ":6924,"èĢ½æĲģ":6925,"çļĩåĲİåĮº":6926,"æĸ¯åĽ¾äºļçī¹":6927,"å¸ķçī¹éĩĮåħĭ":6928,"160":6929,"ĠéĤ£ä¸ª":6930,"å°¬":6931,"è¿ĻåĴĮ":6932,"æĿĨ":6933,"åĪ°äºĨä¸Ģ":6934,"å¤§éĽ¾éľ¾":6935,"ä½įéĺ¶":6936,"éĥ½åı¯ä»¥":6937,"æĮ½":6938,"å¤©çģ¾":6939,"éŃħ":6940,"ç½ĹèĲ¨":6941,"è·Į":6942,"è¡Įäºº":6943,"æ¢ģ":6944,"éļĲåĮ¿":6945,"äºĨä¸ĭæīĭ":6946,"éĵ¶éªĳå£«":6947,"å¸®ä½ł":6948,"èº«ä½ĵçļĦ":6949,"éĺŁåıĭ":6950,"ĠéĤ£éĩĮ":6951,"åį±å®³":6952,"äºĨåĩłä¸ĭ":6953,"èĵĦ":6954,"æĬķèµĦ":6955,"æŁĵçĿĢ":6956,"æ¦Ĥå¿µ":6957,"å´ĸ":6958,"å°ĸé¡¶":6959,"è§ĴèĲ½éĩĮ":6960,"èĭıå°¼äºļæµ·":6961,"çļĦçĲĨçĶ±":6962,"çİĦé»Ħ":6963,"åį¡å°Ķå¾·éļĨ":6964,"æ½ĺå¨ľ":6965,"çļĦçŀ³åŃĶ":6966,"æī§æĶ¿å®ĺ":6967,"å¯Ĩå¯Ĩéº»éº»":6968,"ç½ĹèĲ¨æĪĪ":6969,"Ġä¸Ģä½į":6970,"çļĦæĿĲæĸĻ":6971,"å¼ĺ":6972,"åħĭèİ±æģ©è¾¹":6973,"éĤ£ä¼ļ":6974,"åľ°å°Ĩ":6975,"å°Ķå¸Į":6976,"åŃ¤":6977,"ä¹ĭä¹¦":6978,"ä¹Łå¾Ĺ":6979,"åı¯æĢľ":6980,"åĽŀä¿¡":6981,"åĨħä¾§":6982,"ä¸¤å¼ł":6983,"è°·":6984,"åĩłåĪĨ":6985,"ä»İæĿ¥":6986,"æīįä¼ļ":6987,"æ°Ķåľº":6988,"åĨįè¯´":6989,"éĴī":6990,"å¨ĥ":6991,"æĶ¾ç¼ĵ":6992,"åĮĸä¸º":6993,"æ¯ĶæĪĳ":6994,"èĲ½åľ°":6995,"ç¿ģ":6996,"èī¾æĸ¯":6997,"éĿŀåĩ¡èĢħçļĦ":6998,"æºĲè´¨":6999,"æ·¡åĮĸ":7000,"æĬķåĲĳ":7001,"éĽĨä¸Ń":7002,"ç¬¬äºĮä¸ª":7003,"æĿĤå¿Ĺ":7004,"çľīå¿ĥ":7005,"æģ¢å¼ĺ":7006,"åĲĲåĩº":7007,"åįĥçº¸é¹¤":7008,"å§Ķåĳĺ":7009,"äººç±»çļĦ":7010,"çļĦç¾½":7011,"æĳĨèĦ±äºĨ":7012,"åĲīå°Ķå¸Į":7013,"æ¸´æľĽ":7014,"æĴĴè°İ":7015,"åħĦå¼Ł":7016,"çļĦç¨ĭ":7017,"èĳ¡èĲĦéħĴ":7018,"ä¼ĬæĢĿåħ°çī¹":7019,"æ½ĺå¨ľèĴĤäºļ":7020,"ĠåĪļæīį":7021,"ĠæĢĿç»ª":7022,"ä½£":7023,"ä¸įè¿ľå¤Ħ":7024,"åľ¨è¿Ļ":7025,"åľ¨è¿Ļä¸ª":7026,"âĢ¦âĢ¦âĢĺ":7027,"ä¸ªäºº":7028,"åħĭèİ±æģ©æĢĿç»ª":7029,"éĤ£æĬĬ":7030,"èµĮ":7031,"ç¥ŀæĪĺ":7032,"å¤§äºº":7033,"ä½łä¸į":7034,"èĢĮæĪĳ":7035,"åħīè¾ī":7036,"çĻ½èī²çļĦ":7037,"æĦŁåıĹåĪ°":7038,"å¥³åŃĲ":7039,"ä¸»æĿĲæĸĻ":7040,"åĺ±":7041,"å¼łäºĨå¼ł":7042,"åĹ½":7043,"å¤įèĭı":7044,"ä¸Ģæ¬¡æ¬¡":7045,"æģ¶å¿ĥ":7046,"è¡Ĺä¸Ĭ":7047,"è¡ĹåĮº":7048,"æĪĲåĳĺçļĦ":7049,"æĭľå°Ķæĸ¯":7050,"çļĦä¸Ģå£°":7051,"éļ¾ä»¥è¨Ģåĸ":7052,"åĳ½è¿ĲçļĦ":7053,"åīįæĸ¹çļĦ":7054,"å¹ķåĲİ":7055,"çĪ±å¥½":7056,"çĤ¹äºĨçĤ¹å¤´éģĵ":7057,"æĶ¹åıĺäºĨ":7058,"å¿ĥä¸Ńä¸Ģ":7059,"åĴ³åĹ½":7060,"ä¹Įçī¹æĭīå¤«æĸ¯åŁºä¸»æķĻ":7061,"æīĵäºĨä¸ªåĵįæĮĩ":7062,"çľĭå®ĪèĢħ":7063,"çļĦç®¡":7064,"é³ŀçīĩ":7065,"ç¦ıçĶŁçİĦé»Ħ":7066,"æª":7067,"Ġå¸ķåĪĹæĸ¯":7068,"çļĦéĺ¿èĴĻ":7069,"äºĨè¿Ľåİ»":7070,"è¿Ļå®¶ä¼Ļ":7071,"åºĻ":7072,"çĽĬ":7073,"å°±å°Ĩ":7074,"æĹ¶åħī":7075,"æīĭä¸ĭ":7076,"èĩªå·±åĴĮ":7077,"å¾Īå°ı":7078,"ä¸Ģä¸ªéĹ®é¢ĺ":7079,"æŁ´":7080,"æī¾æľºä¼ļ":7081,"åħ¨é»ĳ":7082,"ç´¢åħĭ":7083,"è¶Ĭè¿ĩ":7084,"å¡Ķç´¢åħĭ":7085,"åĳĬè¾ŀ":7086,"åĳ½ä¸Ń":7087,"äºĶåįģ":7088,"å°±åĥıæĺ¯":7089,"æķ£åıĳ":7090,"èµĦæł¼":7091,"è¯»å¿ĥ":7092,"å¤±æİ§çļĦ":7093,"çļĦæīĭæİĮ":7094,"ä¸įçĶ¨æĭħå¿ĥ":7095,"èĦļæŃ¥å£°":7096,"ä¸įç®¡æĢİä¹Īæł·":7097,"æ»ĳèħ":7098,"ä¹ĺå®¢":7099,"ä¼¸åĩºåı³æīĭ":7100,"ç¥Ŀç¦ı":7101,"è¯Ĺäºº":7102,"çļĦçħ§":7103,"å¯ĤéĿĻ":7104,"çħ§äº®äºĨ":7105,"ĠåĽŀåĪ°":7106,"çļĦéķ¿":7107,"çļĦè¡¨çİ°":7108,"ä¸įåĬ¨":7109,"ä»ĸè¿ĺ":7110,"å·¾":7111,"æİĪ":7112,"ä¸Ĭç¿ĺ":7113,"èĥ½åĲ¦":7114,"å¾Īæĺ¯":7115,"æľĢå¼º":7116,"æľĢæĹ©":7117,"åĪĨä¹ĭä¸Ģ":7118,"æĦŁæŁĵ":7119,"æµ·æ°´":7120,"çĽ¸ä¼¼":7121,"å¦Ĥä»Ĭ":7122,"è¿Ļä¸ªæĹ¶ä»£çļĦ":7123,"è¾¾å°Ķ":7124,"åĬłæĽ´":7125,"å½¢å¼ı":7126,"åĭĭ":7127,"æŀģçĤ¹":7128,"åıĮèĩĤ":7129,"çĭĤé£İ":7130,"å¼ķèµ·":7131,"å¯¼å¸Ī":7132,"è´¹çĶ¨":7133,"è·Łåľ¨":7134,"è¿½èµ¶":7135,"å¾ģåħĨ":7136,"çļĦä¸»è¦ģ":7137,"ä¸įæĸŃåľ°":7138,"åĪĿæŃ¥çļĦ":7139,"åĮĹæĸ¹":7140,"å°Ħåĩ»":7141,"åı¹äºĨåı£æ°Ķéģĵ":7142,"å«Į":7143,"åİĦè¿Ĳ":7144,"çĪ¸çĪ¸":7145,"åģ¥åº·":7146,"ä¸°æĶ¶æķĻåłĤ":7147,"è¡ĮæĿİç®±":7148,"çª¥ç§ĺäºº":7149,"æĿĤçī©åłĨ":7150,"è¤":7151,"èĿ":7152,"Ġçī¹èİīä¸Ŀ":7153,"ĠæĹłå£°æĹłæģ¯":7154,"ä¸²":7155,"ä¸Ģéģį":7156,"æľīçļĦæĹ¶åĢĻ":7157,"æľīè¶£":7158,"è®¯":7159,"åħĭèİ±æģ©å¿įä¸įä½ı":7160,"çľĭä¸įè§ģ":7161,"æµĨ":7162,"è¯´æľį":7163,"å¥½è¿Ĳ":7164,"è®©æĪĳä»¬":7165,"è®©å®ĥä»¬":7166,"Ġä»ĸåĪļ":7167,"ä¸Ģä¸ªæĺ¯":7168,"åħīæĺİ":7169,"ä¸¤ä»¶":7170,"æıĲç¤º":7171,"å¸¸è¯Ĩ":7172,"éĹ¨å¤ĸ":7173,"åįĬéĢıæĺİ":7174,"å°ĳå¹´":7175,"æĭīç»´":7176,"æĦļèĢħåħĪçĶŁ":7177,"éª¸":7178,"éĤ£éĩĮçļĦ":7179,"è°ĥéħį":7180,"åıĮèħ¿":7181,"éģĩè§ģ":7182,"æİ¨å¼Ģ":7183,"éĺ´è°ĭ":7184,"é¢ĨçĿĢ":7185,"åĨ·éħ·":7186,"éĽ·æĸ¯":7187,"éªĮè¯ģ":7188,"æī¿æĭħ":7189,"çļ±çº¹":7190,"éª¨çģ°":7191,"æıĲä¾ĽçļĦ":7192,"å¯Įç¿ģ":7193,"æµ®çİ°åĩº":7194,"èŃ¦å¯Łéĥ¨éĹ¨":7195,"çŀĦåĩĨ":7196,"ä¸¥éĩįçļĦ":7197,"å¥ĳçº¦":7198,"éķ¶åµĮçĿĢ":7199,"æ½®æ°´":7200,"Ġè¿ĩäºĨä¸Ģéĺµ":7201,"åĽ¾ä¹¦é¦Ĩ":7202,"çº·åĳĪéĹ´":7203,"é»Ħæ°´æĻ¶åĲĬåĿł":7204,"çļĦç¨ĭåº¦":7205,"´å°¬":7206,"çļĦåĲĦç§į":7207,"äºĨèĩªå·±çļĦ":7208,"å°´å°¬":7209,"ä¸įåģļ":7210,"æī³":7211,"ä»ĸåıĳçİ°":7212,"ç»°":7213,"æĪĳå°Ĩ":7214,"æĪĳéľĢè¦ģ":7215,"èµĭ":7216,"äººçļ®":7217,"ä¸ºéļ¾":7218,"åĲİéĿ¢çļĦ":7219,"å£³":7220,"è¯´å®Į":7221,"èĢĮè¿Ļ":7222,"ä»Ģä¹Īéĥ½æ²¡æľī":7223,"çľ¼è§ģ":7224,"è°¦":7225,"è¡Įäºİ":7226,"æĦŁæĥħ":7227,"æŃ»åı·":7228,"éĹ®é¢ĺåľ¨äºİ":7229,"è¾¾æĸ¯çī¹":7230,"çģ°èī²":7231,"éªĤ":7232,"æĬ¥åĳĬ":7233,"èĦ¸é¢Ĭ":7234,"åĩºçİ°çļĦ":7235,"æº¢":7236,"çģ«æŁ´":7237,"çĦ¶åĲİæīį":7238,"æĮģæľī":7239,"åį¡æĸ¯":7240,"åį¡æĸ¯å¸ķ":7241,"æĬ¬èµ·äºĨ":7242,"çİ¯èĬĤ":7243,"åŀ®":7244,"åĨ·æ¼ł":7245,"æĥĬæĤļ":7246,"åİĭåĬĽ":7247,"éģ¿å¼Ģ":7248,"é¬ĵ":7249,"è¡¨çİ°åĩº":7250,"é¼»æ¢ģ":7251,"èĮ¶åĩł":7252,"å®īæıĲåĵ¥åĬªæĸ¯å®¶æĹıç¬Ķè®°":7253,"ä¸įçĶ±èĩªä¸»":7254,"BF":7255,"ç°ĩæĭ¥":7256,"çļĦæ°´":7257,"ä¸Ģä»¶äºĭæĥħ":7258,"å¥ĸ":7259,"æĪĳä¸įçŁ¥éģĵ":7260,"éĤ£ä¸Ģ":7261,"åľ°åıįéĹ®éģĵ":7262,"æłı":7263,"æ²¡å¤ļä¹ħ":7264,"æµ´":7265,"è´©":7266,"å¥½å¥½":7267,"éĽĦ":7268,"æĮ¯":7269,"éĹ´éļĶ":7270,"ä½ĵä¼ļ":7271,"è¶Ł":7272,"æľĢå¥½çļĦ":7273,"æıĲéĹ®":7274,"æĢĿç»´":7275,"åĮĸä½ľ":7276,"å¦Ĥæŀľæľī":7277,"çł¸":7278,"çº¿æĿ¡":7279,"æļ´åĲĽ":7280,"å¸Įå°Ķ":7281,"èĤ¯å®ļæĺ¯":7282,"åĩĨå¤ĩçļĦ":7283,"å®¢è½®":7284,"æ¢¦å¢ĥåįłåįľ":7285,"çªĹå¸ĺ":7286,"æ®ĭä½Ļ":7287,"ç»ķçĿĢ":7288,"å¦®å¨ľ":7289,"è¿Ļæ¬¡çļĦ":7290,"å¿ĥçģµå·¨é¾Ļ":7291,"èĤ¤èī²":7292,"éĢĤåºĶ":7293,"åľ°ä¸ĭå®¤":7294,"æĪıåī§":7295,"ä¼ĺåĬ¿":7296,"Ġä¸įçŁ¥è¿ĩäºĨå¤ļä¹ħ":7297,"çļĦå·¥å¤«":7298,"åį¡æĸ¯å¸ķæĸ¯":7299,"çļĦéģĵè·¯":7300,"æľ¦":7301,"å®Ľ":7302,"ä»ĸæ²¡":7303,"åĽļ":7304,"çĿ¹":7305,"åĪ°çİ°åľ¨":7306,"åľ°ç¬ĳéģĵ":7307,"å¤§å°ıçļĦ":7308,"åĽŀè¿ĩ":7309,"æı´":7310,"ä»Ģä¹Īéĥ½":7311,"é»ĳè¢į":7312,"æ·»":7313,"èī²æ³½":7314,"éľī":7315,"å¤ĸåĩº":7316,"è¡Įåİ»":7317,"å¤ªå¤§çļĦ":7318,"çĽ¸åĲĮ":7319,"èĥ§":7320,"èµ°äºĨåĩºæĿ¥":7321,"è®¤åĩº":7322,"æīĵçł´":7323,"å¹´çºª":7324,"æĭ¿èµ°":7325,"åıįèĢĮ":7326,"åħ³å¿ĥ":7327,"åĵįäºĨ":7328,"å¯ĨåĪĩ":7329,"ä¾Ŀæ¬¡":7330,"æĲĲ":7331,"åģľåľ¨äºĨ":7332,"åİĨåı²è¿·éĽ¾":7333,"åĳĬè¯īä½ł":7334,"åĨ°éľľ":7335,"é¡ºæĹ¶éĴĪ":7336,"çļ±çľī":7337,"æ²»å®ī":7338,"æĳĩå¤´éģĵ":7339,"äºĨåĩłç§Ĵéģĵ":7340,"ä¼Łå¤§":7341,"çļĦçĹĽ":7342,"äº«çĶ¨":7343,"çĽ¸åħ³çļĦ":7344,"ç¬ĳäºĨä¸Ģå£°éģĵ":7345,"èĪªéģĵ":7346,"èµ¤çº¢çļĦ":7347,"å¢ŀåĬł":7348,"åīįæıĲæĺ¯":7349,"è¯ŀçĶŁ":7350,"éĹŃä¸Ĭçľ¼çĿĽ":7351,"çĪ±å¾·åįİåħ¹":7352,"èĴ¸æ±½ä¸İæľºæ¢°ä¹ĭç¥ŀ":7353,"ç»½æĶ¾":7354,"ä¹Ķä¼įå¾·åĮº":7355,"ä¸įå¿«ä¸įæħ¢":7356,"Ġåħ¶å®ŀ":7357,"ä¸Ī":7358,"çļĦä¸ī":7359,"ä¸Ģåı£":7360,"ä»ĸä¼ļ":7361,"åįĳ":7362,"åĨ¬":7363,"éĿ´":7364,"äººé±¼":7365,"æİĢ":7366,"å°±å·²ç»ı":7367,"å°±ä»¿ä½Ľ":7368,"åĴĮä½Ľå°ĶæĢĿ":7369,"å¯¹åħĭèİ±æģ©":7370,"äºĨä¸ĢæĿ¡":7371,"åıªä¸įè¿ĩ":7372,"ä»Ģä¹Īæł·çļĦ":7373,"çľ¼éĩĮ":7374,"åı£ä¸Ń":7375,"ä½ĨæľĢç»Ī":7376,"åħīéĹ¨":7377,"åħĪçĶŁåĴĮ":7378,"ä»ĸä»¬åľ¨":7379,"èµ°åİ»":7380,"åºıåĪĹçļĦ":7381,"å°¼å§Ĩ":7382,"éļ¾åº¦":7383,"åĪ«çļĦåľ°æĸ¹":7384,"åŁİåł¡":7385,"åĵįåºĶ":7386,"æ´»çĿĢçļĦ":7387,"åºķå±Ĥ":7388,"éķĳçİ°éĩĳ":7389,"çķ¥æľī":7390,"èĪ¹èĪ±":7391,"è§īå¾Ĺè¿Ļ":7392,"åı²èĴĤ":7393,"æ·¡éĩĳ":7394,"è§¦åĬ¨":7395,"çĻ½éĵ¶åŁİçļĦ":7396,"ä¾¿å®ľ":7397,"éļĶå£ģ":7398,"åĶ¤éĨĴ":7399,"çļĦç¥ŀè¯Ŀ":7400,"å½»åºķæ¶ĪåĮĸ":7401,"æİ©çĽĸ":7402,"ä¸ĢæĿ¡æĿ¡":7403,"é¡µæĹ¥è®°":7404,"å¿ħè¦ģçļĦ":7405,"å¿ĺè®°äºĨ":7406,"åĨ¥çķĮ":7407,"åºŁå¼ĥ":7408,"ä¸§éĴŁ":7409,"çļĦçªĹ":7410,"èı²å°Ķ":7411,"çļĦçĹĽèĭ¦":7412,"Ġåĩłä¹İ":7413,"ĠçĽ´åĪ°":7414,"ŁåĽ":7415,"çļĦçŃĶæ¡Ī":7416,"æĪĳå¹¶ä¸į":7417,"æ²ĥ":7418,"æ²Į":7419,"æĭĨ":7420,"ä½łæĢİä¹Ī":7421,"è¯´ä»Ģä¹Ī":7422,"éĥ½è¦ģ":7423,"å¿ĥå¤´":7424,"å¾Īåĥı":7425,"è§ģçĬ¶":7426,"å°ıçĵ¶":7427,"æ°Ķæ°Ľ":7428,"èĪ·":7429,"æ²īæĢĿ":7430,"è¯ŃéĢŁ":7431,"å¼ºåĬĽ":7432,"è¿ĻéĩĮéĿ¢":7433,"ä¼¼ä¹İæľī":7434,"åĬ©æīĭ":7435,"è§Ĵèī²":7436,"èĥĮå½±":7437,"çĹĩ":7438,"çĹķ":7439,"æ¯ıä¸Ģ":7440,"åĽ½åº¦":7441,"å®Įåħ¨æ²¡æľī":7442,"å®ĪæĬ¤":7443,"è¯ģå®ŀ":7444,"é»ĳæļĹæ·±å¤Ħ":7445,"èĭ¦ä¿®":7446,"æĬ½æĲĲ":7447,"ç¡®å®ŀæĺ¯":7448,"æ··æ²Į":7449,"æĵįä½ľ":7450,"éĩĬæĶ¾":7451,"åĮ»éĻ¢":7452,"å¥Ķè·ĳ":7453,"ç»¿èī²":7454,"æĩĴ":7455,"åĽºå®ļ":7456,"æĤ¬æĮĤ":7457,"æĹħè¡Įå®¶":7458,"æĵħäºİ":7459,"äºĮåįģäºĮ":7460,"èħĲèļĢ":7461,"èº«ç©¿é»ĳèī²":7462,"èĬ±çº¹çļĦ":7463,"åİŁåĪĿéŃĶå¥³":7464,"ä¸Īå¤«":7465,"çļĦåıįåºĶ":7466,"çļĦå°ĳå¥³":7467,"ä»²":7468,"ä»ĸå¿½çĦ¶":7469,"åħĭèİ±æģ©ä»İ":7470,"éĤ£åĿĹ":7471,"ä¸ĬäºĨä¸Ģ":7472,"åī¥":7473,"å¯¹æīĭ":7474,"ä½łè¿ĺ":7475,"è¾ľ":7476,"å¾·æĭīæĸ¯":7477,"å¥½å¤Ħ":7478,"å¤´æĪ´":7479,"æĹłç©·":7480,"èī²å½©":7481,"åıĪä¸Ģéģĵ":7482,"ä½Ĩåľ¨":7483,"çĻ½ä¹ĭ":7484,"å¤ĸç¥ŀ":7485,"æĦŁçļĦ":7486,"çĥĻåį°":7487,"æīĵæĸŃ":7488,"çĪ½":7489,"æį¡":7490,"æŃ¥ä¼Ĳ":7491,"è½»å¿«":7492,"è¡Ģçļĩå¸Ŀ":7493,"æĭ¿åĩºäºĨ":7494,"åĬłå¿«":7495,"æ±Ĥä¿ĿåºķæľĪç¥¨":7496,"ä¼¼ä¹İæĺ¯":7497,"å§Ĩæĸ¯":7498,"åı³ä¾§":7499,"è¿Ļä¹Īåģļ":7500,"æĢ»éĥ¨":7501,"å½±åĵįåĪ°":7502,"è¶ħè¶Ĭ":7503,"æĺ¯ä¸Ģç§į":7504,"çĽ®åīįçļĦ":7505,"è¾Ľå¾·æĭīæĸ¯":7506,"æ¸¸æĪı":7507,"åĶ¯ä¸ĢçļĦ":7508,"çĭ¼äºº":7509,"åħħæ»¡äºĨ":7510,"å¿ĥä¸Ńä¸ĢåĬ¨":7511,"èĩªè¯ŃäºĨä¸Ģåı¥":7512,"ç¬ĳçĿĢè¯´éģĵ":7513,"è®¾è®¡":7514,"ç»Łæ²»":7515,"éľĩæĥĬ":7516,"å«ģ":7517,"æ¯ıä¸ªäºº":7518,"çļĦç¼Ŀ":7519,"ä¸įå±ŀäºİè¿Ļä¸ªæĹ¶ä»£çļĦ":7520,"çĽ¯çĿĢ":7521,"èªĵ":7522,"åĲ±åĳĢ":7523,"ä¸ĩèĥ½éĴ¥åĮĻ":7524,"49":7525,"Ġè´Ŀå°Ķçº³é»Ľ":7526,"ä¸Ģä¸Ģ":7527,"ä¸Ģä¸¤":7528,"ä¹ĵ":7529,"ä¸įåİ»":7530,"ä¸įä¸Ģå®ļ":7531,"åľ¨çģ°éĽ¾ä¹ĭä¸Ĭ":7532,"æĪĳåıª":7533,"ä¸ĬéĹ¨":7534,"å¤§è¡£":7535,"ä½łå¯¹":7536,"äºĨä¸Ģè·³":7537,"çľĭè¿ĩ":7538,"è¦ģä¸įæĺ¯":7539,"âĢĻãĢĤ":7540,"å¥½äºĭ":7541,"å¤ļåįĬ":7542,"åħĪæĽ´":7543,"æ¸Ĺ":7544,"æīįæľī":7545,"é«ĺä½į":7546,"çĽ®çļĦæĺ¯":7547,"èĢģèĢħ":7548,"åĸĢåļ":7549,"ç¡Ģ":7550,"è¡Ģèħ¥":7551,"å¥¥é»Ľä¸½å°ıå§Ĳ":7552,"è´ĿåĪ©":7553,"åıįéĶģ":7554,"èĢĥçī¹":7555,"ä¹¦ä¸Ń":7556,"è·¯è¿ĩ":7557,"èĥĮè´Ł":7558,"éĿŀå¸¸åį±éĻ©":7559,"éľįæģ©":7560,"æľįåĬ¡":7561,"åıªæľīä¸Ģä¸ª":7562,"å®¶æĹıçļĦ":7563,"åŁºç¡Ģ":7564,"å¿įèĢĲ":7565,"æĺ¯ä¸Ģä»¶":7566,"è¿½è¸ª":7567,"æīŃå¤´":7568,"éĤªæķĻ":7569,"çľŁæĺ¯ä¸Ģä¸ª":7570,"æī«äºĨ":7571,"æĤłæĤł":7572,"æĢĶäºĨä¸Ģä¸ĭ":7573,"éļıæĦıåľ°":7574,"å®¡è§Ĩèµ·":7575,"åĲĵäºĨä¸Ģè·³":7576,"è±ªåįİ":7577,"å¦Īå¦Ī":7578,"æ¶ĤæĬ¹":7579,"åħĪæĽ´åĲİ":7580,"åĸĢåļĵ":7581,"XåħĪçĶŁ":7582,"çļĦé»Ħ":7583,"çļĦçģ«çĦ°":7584,"çļĦæĹ¥è®°":7585,"ä¸ĢæĿ¯":7586,"æĺ¯åºıåĪĹ":7587,"å·į":7588,"æĭ¦":7589,"æĪĲéķ¿":7590,"åŁ¹":7591,"ç½ĹéĹ¨":7592,"åĪĨæĺİ":7593,"ç§ĺä¹¦":7594,"å®īä¸ľ":7595,"çĸ«":7596,"ä¿¡å¿ĥ":7597,"çĽ®çĿ¹":7598,"éħ¸":7599,"èµ°çĿĢ":7600,"æīĵåĩ»":7601,"å¾®åĬ¨":7602,"ç¦»åİ»":7603,"å¾Ģå¸¸":7604,"åĶ¾":7605,"å¸ķåĪĩ":7606,"æİ¨æµĭ":7607,"é¢Ħå®ļçļĦ":7608,"æģĲæĢķ":7609,"å¹½çģµ":7610,"çĽ®æłĩçļĦ":7611,"æ¢¦å¢ĥéĩĮ":7612,"æŀļéĩĳå¸ģ":7613,"èł¢":7614,"æģ¢å¤įæŃ£å¸¸":7615,"ç«¯èµ·":7616,"éĹ»è¨Ģ":7617,"æľ¬èĥ½å°±":7618,"çģ¾åıĺ":7619,"éĵ¶çĻ½çļĦ":7620,"æ¹¾":7621,"æĳĬå¼Ģ":7622,"Ġè¿Ļæł·ä¸ĢæĿ¥":7623,"çĿ£å¯Ł":7624,"åİĭä½İåĹĵéŁ³éģĵ":7625,"è¯»å¿ĥèĢħ":7626,"ä»²è£ģ":7627,"åħĪæĽ´åĲİæĶ¹":7628,"å®īä¸ľå°¼":7629,"å¸ķåĪĩç§ĳ":7630,"·é«":7631,"ĠæŃ£":7632,"Ġéļ¾éģĵ":7633,"çļĦæŃ»äº¡":7634,"çļĦæľĭåıĭ":7635,"çļĦå°ĬåĲį":7636,"ä¸Ģæ¥¼":7637,"ä¸įå¤§":7638,"æľīéĻĲ":7639,"æ²«":7640,"ä¸ªå°ıæĹ¶":7641,"åħĭèİ±æģ©å¯¹":7642,"åħĭèİ±æģ©çªģçĦ¶":7643,"æĿ¥æī¾":7644,"åĴĮåħĭèİ±æģ©":7645,"èĥ½ä¸įèĥ½":7646,"èĩªåĬ¨":7647,"èĩªé¡¾":7648,"å¤§å°ı":7649,"æĸ¯é¡¿":7650,"æĪĲå¹´":7651,"åıĳèĩª":7652,"çľ¼å¸ĺ":7653,"å¾Īç®Ģåįķ":7654,"æľ¬æĥ³":7655,"éĥİ":7656,"ç§ĺä¹ĭåľ£èĢħ":7657,"æīĢç½ĹéĹ¨":7658,"å¦Ĥä½ķ":7659,"æīįæĺ¯":7660,"æīĵåĲ¬":7661,"æĶ¾åħ¥":7662,"è£¸":7663,"åłµ":7664,"éª·é«":7665,"æĸ°éĹ»":7666,"æĿ°åħĭ":7667,"ç½®èº«":7668,"æŀģéĻĲ":7669,"æĪĲä¸ºåįĬç¥ŀ":7670,"ç±³çļĦ":7671,"çĶ»åĥı":7672,"éħĴä¿Ŀ":7673,"éħĴæĿ¯":7674,"èĲ¨é»ĺå°Ķ":7675,"æľĢè¿ĳçļĦ":7676,"è¿ĶåĽŀçİ°å®ŀä¸ĸçķĮ":7677,"æłĳæŀĹ":7678,"åĢ¼å¤ľèĢħå°ıéĺŁ":7679,"æľ¬èĥ½åľ°":7680,"éĺ²å¾¡":7681,"åħ³éĶ®æĹ¶åĪ»":7682,"åĩ¸èĤļ":7683,"é¢¤æłĹ":7684,"çĭĤæļ´æµ·":7685,"çļĦç±»åŀĭ":7686,"æĻ®åĪ©åħ¹æ¸¯":7687,"è¾Ľå¾·æĭīæĸ¯çĶ·çĪµ":7688,"ä¸įå±ŀäºİè¿Ļä¸ªæĹ¶ä»£çļĦæĦļèĢħ":7689,"éª·é«ħ":7690,"ps":7691,"®èĦı":7692,"ĠçıŃæ£®":7693,"è¿Ļä¹Ł":7694,"åľ¨èĩªå·±":7695,"éĤ»":7696,"éĩĮæľī":7697,"å¾Ĺå¤ª":7698,"èº«èº¯":7699,"ä»¥ä¸ĭ":7700,"æīĭä¸Ĭ":7701,"éĥ½å¸Ĥ":7702,"ä»Ģä¹Īéĥ½æ²¡":7703,"èĤ®èĦı":7704,"åĨįåĬłä¸Ĭ":7705,"æĽ´æľī":7706,"æĽ´å¥½çļĦ":7707,"èĥģ":7708,"æĭīæł¼":7709,"æ¸ħçĲĨ":7710,"å¤įæĿĤçļĦ":7711,"ç²Ĵ":7712,"äºĮä¸ĸ":7713,"é¦ĸåħĪ":7714,"æĮīä½ı":7715,"çĻ¾å¹´":7716,"ä¼Ĺå¤ļ":7717,"éĻĦåĴĮ":7718,"éļĶæĸŃ":7719,"è¿Ļä»¶äºĭæĥħä¸Ĭ":7720,"éĢĢåĲİ":7721,"æĢ¨çģµ":7722,"èĸĦèĸĦ":7723,"é±¼äºº":7724,"åı¹æģ¯éģĵ":7725,"éģĹçķĻçļĦ":7726,"æįŁå¤±":7727,"åİ¨æĪ¿":7728,"çºłç¼ł":7729,"çī¹ä¼¦ç´¢æĸ¯çī¹é»Ħéĵľä¹¦":7730,"å¾Īéķ¿ä¸Ģæ®µæĹ¶éĹ´":7731,"å¡ŀè¥¿çİĽ":7732,"ĠæĹłå£°æĹłæģ¯éĹ´":7733,"èĩªé¡¾èĩª":7734,"Ġèķ¾å¦®çī¹":7735,"ĩæĮĩ":7736,"åĪ®":7737,"åľ¨è¿Ļæĸ¹éĿ¢":7738,"æĪĳåıĪ":7739,"åĬ£":7740,"åĪ°å¤Ħ":7741,"çĽ²":7742,"æĿ¥çľĭ":7743,"ä¼ļè®©":7744,"é»ı":7745,"æĭĩæĮĩ":7746,"çİ°è±¡":7747,"çŃ¹":7748,"çī¹æĦı":7749,"çī¹å¾ģ":7750,"Ġä»ĸè¦ģ":7751,"Ġè¿Ļè®©ä»ĸ":7752,"æ·Ģ":7753,"åĲĮäºĭ":7754,"æľ¬äºº":7755,"ç´«":7756,"æķĻæİĪ":7757,"åįĬå¤ľ":7758,"åı¯ä»¥çĽ´æİ¥":7759,"å®ĮäºĨ":7760,"å¥¥æĭīç»´":7761,"è¿Ļä¸ªèº«ä»½":7762,"æĳ§":7763,"ä¸īå¤©":7764,"è¾¾åĪ°äºĨ":7765,"æĭ¿ä¸Ĭ":7766,"æ¶ĪèĢĹ":7767,"åıįé©³":7768,"æĬ¥å¤į":7769,"å¤ľèī²":7770,"èĦ¸ä¸ĬçļĦ":7771,"çķĻæĦı":7772,"çļĦäººç±»":7773,"çļĦéĤ£æł·":7774,"å¨ģèĥģ":7775,"è°ģçŁ¥éģĵ":7776,"åĸľæĤ¦":7777,"æ¨¡ä»¿":7778,"éļĲç§ĺåŃĺåľ¨":7779,"å¿ĥçĲĨåŃ¦":7780,"åı°éĺ¶":7781,"ç«ĭåĪ»å°±":7782,"éĻĲäºİ":7783,"åıłåıł":7784,"æīŃæĽ²çļĦ":7785,"æĤłçĦ¶":7786,"åĪ·åĪ·":7787,"æĬĢæľ¯":7788,"çļĦèĢģèĢħ":7789,"æİłå¤º":7790,"éľįçº³å¥ĩæĸ¯å±±èĦī":7791,"éŀŃ":7792,"ç¢§ç»¿":7793,"éª°åŃĲ":7794,"å®Ľèĭ¥":7795,"Ġå¤ļéĩĮå®ī":7796,"çļĦå¤ªéĺ³":7797,"çļĦå¼ºèĢħ":7798,"ä¸Ģè¾Ĩ":7799,"ä¸įå¥½çļĦ":7800,"è¿Ļèĥ½":7801,"è¿Ļä»½":7802,"ä»ĸä»İ":7803,"æĸ§":7804,"æĪĳèĩªå·±":7805,"éģĵèº«å½±":7806,"åħĭèİ±æģ©èĦĳæµ·åĨħ":7807,"å°±å¦ĤåĲĮ":7808,"å¯¹èĩªå·±":7809,"åĲİéĢĢ":7810,"çľĭçľĭ":7811,"éĻĭ":7812,"æĥ³è¿ĩ":7813,"åīįåĲİ":7814,"è¿ĺä¸įéĶĻ":7815,"åıªçľ¼çĿĽ":7816,"æīĭæ®µ":7817,"æĹłåħ³":7818,"å¦Ĩ":7819,"ä¾ł":7820,"ä½ĵåĨħçļĦ":7821,"è¡ĮåĬ¨çļĦ":7822,"åĽłéľįæģ©":7823,"çĽ¸è¿ĳ":7824,"åı¯ä»¥è®©":7825,"è¿Ļä¸ªåįķè¯į":7826,"è®°èµ·äºĨ":7827,"æī¾åĽŀäºĨ":7828,"åĪļåĪļ":7829,"æĶ¾å¥½":7830,"åĳ¨æĹ¥":7831,"æ¯Ķä¼¯":7832,"ç©ºçĻ½":7833,"äºļéº»":7834,"åĽłä¸ºè¿Ļ":7835,"éĿĻé»ĺ":7836,"åĬ©åŃ¦":7837,"çķĻä¸ĭäºĨ":7838,"ä¹¦çŃ¾":7839,"èī¾åĽłéľįæģ©":7840,"è¿ŀçİ¯":7841,"å·¦è¾¹":7842,"æħ¢æĤłæĤł":7843,"èĬ±è¡Ĺ":7844,"ç±³åĭĴ":7845,"çĶ»äºĨä¸ª":7846,"ç¾İäººé±¼":7847,"æķ£åıĳåĩº":7848,"æ´¾äºº":7849,"äºĨä¸¤å£°":7850,"è¯ģæį®":7851,"è¿½éĹ®éģĵ":7852,"æľīä¸Ģå¤©":7853,"é»ĳæļĹéĩĮ":7854,"åĮºåŁŁçļĦ":7855,"æĬĹæĭĴ":7856,"çļĦå£°éŁ³éĩĮ":7857,"Ġåľ¨ä»ĸ":7858,"å®¡è®¯":7859,"åºŀå¾·":7860,"ä¸¢å¤±":7861,"ä¸įæķ¢çĽ¸ä¿¡":7862,"çł°çł°":7863,"ä¸ĭåįĪéķĩ":7864,"åĸĦèī¯":7865,"åĮĹåĮº":7866,"æĺłåħ¥":7867,"æĳ©æĸ¯":7868,"èĢĲå¿ĥçŃīå¾ħ":7869,"æĴķè£Ĥ":7870,"é£ĵé£İä¸Ńå°Ĩ":7871,"æ¼ıæ´ŀ":7872,"æ¤įçī©":7873,"çļĦçĸ¯çĭĤ":7874,"åŁĥå¾·èĲ¨åħĭçİĭåŃĲ":7875,"æ°´éĵ¶ä¹ĭèĽĩ":7876,"æľ¦èĥ§":7877,"èĭ¦ä¿®å£«":7878,"ĠæľīäºĨ":7879,"çļĦä¼¦çº³å¾·":7880,"çļĦä»»åĬ¡":7881,"ä¸Ģç¬Ķ":7882,"çľģ":7883,"åĬ±":7884,"åľ°æ¯¯":7885,"ç§½":7886,"å¤§ä¾¦æİ¢":7887,"æĥ³åĬŀæ³ķ":7888,"æŃ£ç¥ŀ":7889,"æĹłä»İ":7890,"å°ıåŃ©":7891,"éĹ´æİ¥":7892,"ä¸Ģä¸ªåıĪä¸Ģä¸ª":7893,"Ġè¿Ļä¸įæĺ¯":7894,"åĪĨä¹ĭ":7895,"æ±¤":7896,"æī¾äºº":7897,"æ²īæ·Ģ":7898,"å¥ĩçī¹":7899,"åħ°å¨ľ":7900,"æ£Ĵ":7901,"åħ³ä¸Ĭ":7902,"éĢĶå¾ĦåºıåĪĹ":7903,"å¸Įå¾·":7904,"åĲ§åı°":7905,"èĪ¹ä¸Ĭ":7906,"ç»ĦåĲĪ":7907,"é²ģèİ½":7908,"è¿·æĥĳ":7909,"çĬ¶æĢģçļĦ":7910,"èĭ¦ä¿®ä¼ļ":7911,"æ³¢åĬ¨":7912,"åİļåİļçļĦ":7913,"çľ·é¡¾":7914,"çĴĢçĴ¨":7915,"èŀįåĮĸ":7916,"ç§¯æĶĴ":7917,"æķıæį·":7918,"äºĴæį¢":7919,"çļĦé£İéĻ©":7920,"èµ¤çº¢":7921,"ç¾½ç¿¼":7922,"å¾ªçİ¯":7923,"å®ĺæĸ¹éĿŀåĩ¡èĢħ":7924,"å¼ĹéĽ·æł¼æĭī":7925,"ä½łçŁ¥éģĵçļĦ":7926,"å®´ä¼ļ":7927,"åį¡æĭīæĽ¼":7928,"è¿ĿèĥĮ":7929,"åį¡æĸ¯åħ°å¨ľ":7930,"æĳ©æĸ¯èĭ¦ä¿®ä¼ļ":7931,"çļĦçĶŁæ´»":7932,"äºĨå£°":7933,"ä¸įä¸Ģæł·":7934,"è¿Ļå¼ł":7935,"å¥¢":7936,"æĪĳæĽ¾ç»ı":7937,"åĪ°çģ°éĽ¾ä¹ĭä¸Ĭ":7938,"åľ°æĿ¿":7939,"æŃĩ":7940,"ä¸ĭæ¬¡":7941,"éĢĬ":7942,"ç¥ŀä¹ĭ":7943,"å¯¹è§Ĩ":7944,"å¯¹åĩĨ":7945,"ä½łä¼ļ":7946,"åĵĢ":7947,"å¿ĥæĢģ":7948,"åĨħæķĽ":7949,"è§ģåĪ°äºĨ":7950,"çĶ¨è¿ĩ":7951,"æİ¥å¾ħ":7952,"è°ķ":7953,"æ¶¨":7954,"æıĲèµ·":7955,"æµ·æµª":7956,"æµ·çº³æĸ¯":7957,"å®īå¦®":7958,"Ġåħĭèİ±æģ©æ²¡":7959,"æĽ´æİ¥è¿ĳ":7960,"éĩĳé»Ħ":7961,"æŃ¤ä¹ĭåīį":7962,"ä½ľå®¶":7963,"åĪļä¸Ģ":7964,"åĪ¶æĪĲçļĦ":7965,"çº³å°Ķ":7966,"æ¸ħäºĨ":7967,"åĲįä¹ī":7968,"çīĩåĪ»":7969,"ç¾ŀ":7970,"èĥ½åĬĽçļĦ":7971,"å½¢æĪĲäºĨ":7972,"æĺŁçķĮ":7973,"åºĶè¯¥æľī":7974,"çĪµå£«":7975,"æį¢åģļ":7976,"èģĶæĥ³åĪ°äºĨ":7977,"èŃ¦åĳĬ":7978,"çľ¸åŃĲ":7979,"èİīèİīä¸Ŀ":7980,"å¼ķæĿ¥":7981,"å¹½é»ĳ":7982,"ç¡®è®¤äºĨ":7983,"æĿŁç¼ļ":7984,"æ±¡ç§½":7985,"åĸĿéħĴ":7986,"éĹŃä¸ĬäºĨ":7987,"çĸ¯çĭĤåĨĴéĻ©å®¶":7988,"èµ¶ç´§":7989,"æĦıä¹īä¸ĬçļĦ":7990,"çħ¤æ°Ķè·¯çģ¯":7991,"èĦ±åı£èĢĮåĩº":7992,"èķ´èĹıçĿĢ":7993,"åı®åĺ±":7994,"éĽĨä½ĵæ½ľæĦıè¯Ĩå¤§æµ·":7995,"çĶµè½¬éĹ´":7996,"éļĲåĮ¿è´¤èĢħ":7997,"åĬ©åŃ¦åŁºéĩĳ":7998,"ºçī":7999,"Ġç¬¬äºĮ":8000,"çļĦæł¼å°ĶæĽ¼":8001,"çļĦæĸ¹åĲĳ":8002,"çļĦéĢŁåº¦":8003,"çļĦè¡Įä¸º":8004,"çļĦæĢģåº¦":8005,"äºĨé¡¿":8006,"è¿Ļéĥ½æĺ¯":8007,"æĿĳ":8008,"åħĭæĭīæł¼":8009,"éĤ¸":8010,"çīºçī":8011,"åħĭèİ±æģ©ä¸Ģéĺµ":8012,"éĤ£ä»½":8013,"ç¥Ģ":8014,"åĩºåı£":8015,"æİº":8016,"ä¸ĬéĿ¢çļĦ":8017,"åŃ£":8018,"ä½łåĴĮ":8019,"è´¯":8020,"èīĩ":8021,"è¢«åıĳçİ°":8022,"æ³ķæľ¯":8023,"åıĪæľī":8024,"ä½Ĩä¸į":8025,"èĤĨ":8026,"æķĻåĮº":8027,"éĥ¨çļĦ":8028,"éħ¿":8029,"æĪĸæĺ¯":8030,"æľĪä»½":8031,"è½¬åĲĳ":8032,"æĶ¾çī§":8033,"éĶħ":8034,"çº¢çľ¼":8035,"éļıä¾¿":8036,"å¼Ĥç§į":8037,"å¦Ĥæŀľæ²¡æľī":8038,"åŁİéĤ¦":8039,"åĵįèµ·äºĨ":8040,"çķĻåľ¨":8041,"æĪĺåľº":8042,"åľ£åłĤ":8043,"åĩ»æĿĢ":8044,"åıĺå¾Ĺå¼Ĥå¸¸":8045,"èµ·äºĨçľīå¤´":8046,"ç«Ļèµ·èº«":8047,"æ·¡æ·¡":8048,"çĨĬ":8049,"ç¿»åĬ¨":8050,"åı¦å¤ĸä¸Ģè¾¹":8051,"èµ«å°Ķ":8052,"æ¨¡æĭŁ":8053,"å®ĪåĪĻ":8054,"ç¥Ńç¥Ģ":8055,"æĬĵä½ıäºĨ":8056,"è¿½æŁ¥":8057,"èµŀåĲĮ":8058,"ä¸Ģçľ¼éģĵ":8059,"è¿ĻäºĽäºĭæĥħ":8060,"æĪĸè®¸æĺ¯":8061,"çļĦæīĭèĩĤ":8062,"æ³¢æµª":8063,"é¸Ń":8064,"ä¸įè§ģäºĨ":8065,"ç©¿çĿĢé»ĳèī²":8066,"è´¢å¯Į":8067,"ä½İè¯Ńéģĵ":8068,"ä¿¯è§ĨçĿĢ":8069,"é«ĺçº§æī§äºĭ":8070,"æł¼èİ±æŀĹçī¹åŃĲçĪµ":8071,"çļĦçĸĳæĥĳ":8072,"ä½İä¸ĭèĦĳè¢ĭ":8073,"èĤĸåĥı":8074,"ç¦ıçĶŁçİĦé»Ħå¤©å°Ĭ":8075,"çļĦç¼ĿéļĻ":8076,"èĢĥçī¹æĽ¼":8077,"çīºçī²":8078,"200":8079,"Ġè¿ĺæľī":8080,"Ĳå¿":8081,"çļĦå¸®åĬ©":8082,"çļĦéħįæĸ¹":8083,"çļĦçģ°çĻ½éĽ¾æ°Ķ":8084,"äºĨå¾Īå¤ļ":8085,"ä¸ĢèĪ¬":8086,"ä¸Ģæī«":8087,"æĺ¯å¦ĤæŃ¤":8088,"ä¸įæŃ¢":8089,"åħĭçī¹æĭī":8090,"èİ±åħĭçī¹æĭī":8091,"å¿Ĳå¿":8092,"åĴĮåºıåĪĹ":8093,"æĹ¶åĪĨ":8094,"å¤§åįĬ":8095,"å¤§èĦĳ":8096,"å¤§çģ¾åıĺ":8097,"æŀ¢":8098,"åīįåĢ¾":8099,"çŁ®":8100,"èīº":8101,"åĮķ":8102,"å°Ĩæ³¨æĦıåĬĽ":8103,"å¤ļæľī":8104,"é»ĳå½±":8105,"åģļäºĭ":8106,"åģļäºĨä¸ª":8107,"åħ¥åĨħ":8108,"å®¶äºº":8109,"æµ·åºķ":8110,"é«ĵ":8111,"åı¯ä»¥åľ¨":8112,"éĿŀåĩ¡éĢĶå¾Ħ":8113,"çº³æĸ¯çī¹":8114,"æŃ»çģµ":8115,"æ£į":8116,"æĭ¿åĪ°äºĨ":8117,"ä½İåºıåĪĹ":8118,"åıĹä¼¤":8119,"èĢĥéªĮ":8120,"ä¸Ģä¸ĭå°±":8121,"èĥĮæĻ¯":8122,"åŁĥèİ±åħĭçī¹æĭī":8123,"è¿ŀæİ¥":8124,"åį¡è¥¿":8125,"çħ§çīĩ":8126,"äºĨä¸Ģä¸ªåıĪä¸Ģä¸ª":8127,"æ¡Īä»¶":8128,"èģĶæĥ³":8129,"ä¹Łä¸įèĥ½":8130,"å¼ķäºº":8131,"åŁºéĩĳä¼ļ":8132,"æ¢ħçº³å¾·":8133,"çĶŁçī©æ¯Ĵç´ł":8134,"çļĦä¿¡ä½¿":8135,"åĩłä¹İæ²¡æľī":8136,"èº²åľ¨":8137,"èĴ¸åıĳ":8138,"è¿Łç¼ĵ":8139,"æĩĤå¾Ĺ":8140,"è¯±æĥĳ":8141,"ç©ºæĥ³ä¹ĭé¾Ļ":8142,"åĭĩæ°Ķ":8143,"è®Ńç»ĥ":8144,"Ġæĥ³åĪ°è¿ĻéĩĮ":8145,"å¿Ĳå¿ĳ":8146,"Ġåı¯æĥľ":8147,"çļĦçĻ½èī²":8148,"äºĨä¸ī":8149,"äºĨå¼ĢæĿ¥":8150,"åĪĥ":8151,"æľīè¿ĩ":8152,"åħĭéĽ·æĸ¯":8153,"çĶ¸":8154,"æĪĳæľĢè¿ĳ":8155,"æĪĳæĺİçĻ½äºĨ":8156,"åħĭèİ±æģ©åĺ´è§Ĵ":8157,"åĴĮä»ĸçļĦ":8158,"åīįæĿ¥":8159,"æĶĢ":8160,"ä¿Ĭ":8161,"æĹłåĬĽ":8162,"ä½ĵçļĦ":8163,"æľĢåħĪ":8164,"éķ¿è£¤":8165,"æıĲåĩºäºĨ":8166,"åĥ»":8167,"éĶ¡":8168,"çģ°èī²çļĦ":8169,"åĹ¡":8170,"æĭ¿èµ·äºĨ":8171,"ç»ĵæŀĦ":8172,"èĦĳåŃĲ":8173,"å¹³åĴĮ":8174,"æķ´çĲĨ":8175,"åĽ¾åĿ¦":8176,"é¡¿äºĨé¡¿":8177,"çļĦéĤ£å¼ł":8178,"å¸ĥéĽ·":8179,"ä¼łæĴŃ":8180,"æĢ»ç®Ĺ":8181,"å¼Ĺçº³å°Ķ":8182,"èĢĮä¸Ķè¿ĺ":8183,"å¾ĹåĪ°çļĦ":8184,"çľĭäºĨä»ĸä¸Ģçľ¼":8185,"åī©ä½Ļ":8186,"çģµçķĮæİłå¤º":8187,"æĪĲåĬŁäºĨ":8188,"çĽĸåŃĲ":8189,"ä¸ĵå¿ĥ":8190,"çĥĽçģ«":8191,"èĥĮåĲİçļĦ":8192,"èµıéĩĳçĮİäºº":8193,"å¹¸è¿ĲçļĦæĺ¯":8194,"å®īæıĲåĵ¥åĬªæĸ¯å®¶æĹıçļĦ":8195,"æ¯«ä¸įçĬ¹è±«å°±":8196,"æľįé£ŁéŃĶèį¯":8197,"çļĦçħ¤æ°Ķ":8198,"åı£è¢ĭéĩĮ":8199,"çļĦå¹´è½»çĶ·åŃĲ":8200,"æĤłéĹ²åľ°":8201,"æıīäºĨæıīé¢Ŀè§Ĵ":8202,"å°±è¡ĮäºĨ":8203,"åĲīå°Ķå¸Įèī¾æĸ¯":8204,"éļ¾ä»¥è¨Ģåĸ»çļĦ":8205,"åħ¨é»ĳä¹ĭçľ¼":8206,"æī³æľº":8207,"åħĭéĽ·æĸ¯æ³°":8208,"å¸ĥéĽ·æģ©":8209,"çļĦåı¤èĢģ":8210,"çļĦå½¢è±¡":8211,"çļĦåı£åĲ»":8212,"è¿¸":8213,"äºĨå¥½":8214,"åħĢ":8215,"åħĶ":8216,"è¿Ļåıªæĺ¯":8217,"è¿Ļè¯´æĺİ":8218,"ä»ĸèĥ½":8219,"æĪĳä¸įä¼ļ":8220,"æĪĳä¸ĢçĽ´":8221,"è®½":8222,"éĤ£ä½ł":8223,"éĤ£æ¬¡":8224,"æłª":8225,"ä¸Ĭæµģ":8226,"æĹ¶å¸¸":8227,"çĶŁæĦı":8228,"äºĨä¸Ģå®ļ":8229,"äºĨä¸Ģæ¬¡":8230,"çŃĸ":8231,"äºĭåĲİ":8232,"åıªéľĢè¦ģ":8233,"ç½Ĳ":8234,"è¢«ç§°ä¸º":8235,"åħ¥ä¾µ":8236,"çļĦç¡":8237,"çļĦç¢":8238,"æµ·çİĭ":8239,"æķĻå£«":8240,"éĩįç»Ħ":8241,"å¡ĳ":8242,"æ¢Ń":8243,"è¿Ļä¸ªåĲįåŃĹ":8244,"æŃ»çļĦ":8245,"æ¡ĳ":8246,"å¦Ĥæŀľæĺ¯":8247,"åĪ«çļĦäºĭæĥħ":8248,"å¸¦æĿ¥äºĨ":8249,"åħ³èģĶ":8250,"éĺ³çĤİ":8251,"æİ¢åĩº":8252,"æºĲèĩª":8253,"äºĨä¸Ģä¸ªéĹ®é¢ĺ":8254,"æĮīå¼Ģ":8255,"èĦļè¸ı":8256,"é£İæļ´æķĻä¼ļçļĦ":8257,"å¿įçĿĢ":8258,"éļĶç»Ŀ":8259,"çģ¯ç¥ŀ":8260,"çģ¯ç¬¼":8261,"æŃ»äº¡æī§æĶ¿å®ĺ":8262,"æł¹æľ¬æ²¡æľī":8263,"è¯ļå®ŀ":8264,"ä»ĭæĦı":8265,"å³¨":8266,"ç»ıéªĮä¸°å¯Į":8267,"æŁĲç§įç¨ĭåº¦ä¸Ĭ":8268,"ç»¯çº¢çļĦ":8269,"ä¸»è¦ģæĺ¯":8270,"ä¸įç®Ĺå¤ª":8271,"èİ«éĩĮäºļèĴĤä¾¦æİ¢":8272,"æ¹ĸ":8273,"ç¹ģå¤į":8274,"é¡¹éĵ¾":8275,"æ¤ħåŃĲä¸Ĭ":8276,"è´«æ°ĳ":8277,"å·įå³¨":8278,"åį¡è¥¿ç±³":8279,"049":8280,"äºĨè®¸å¤ļ":8281,"ä¸ĢéĿ¢":8282,"ä¸įè¶³":8283,"æľīä»·åĢ¼":8284,"æĹ·":8285,"åľ¨æĹģè¾¹":8286,"åĽ±":8287,"åħĭèİ±æģ©æļĹèĩª":8288,"éĤ£éģĵ":8289,"å°±ä¸įä¼ļ":8290,"ä¹Łå¾Ī":8291,"æı£":8292,"æĹłè¾ľ":8293,"åħĪç¥ĸ":8294,"æĻĴ":8295,"éķ¿ä¹ħ":8296,"è·ª":8297,"åĨįä¹ŁæĹłæ³ķ":8298,"åĺŁåĽ":8299,"å¿«ä¹Ĳ":8300,"ä¸īäºº":8301,"æ²īåĩĿ":8302,"çº¢ç¥Ńåı¸":8303,"æ¯ĶæĪĳæĥ³è±¡":8304,"åĶ®":8305,"åĶĨ":8306,"åĢĴéľī":8307,"æĹ¶éĹ´çļĦ":8308,"æµģéĢĿ":8309,"å¾ħåľ¨":8310,"åºĶè¯¥å°±æĺ¯":8311,"æĦŁè§īèĩªå·±":8312,"ç¦»å¼Ģè¿ĻéĩĮ":8313,"èĬ±æľµ":8314,"æĴ¬":8315,"åģľäºĨä¸ĭæĿ¥":8316,"æ·¡é»Ħ":8317,"ç¾İå¥½çļĦ":8318,"åĨĴåĩº":8319,"çº¦å®ļ":8320,"ä¸ĥç¥ŀ":8321,"é¾Ħ":8322,"æĻ¯è±¡":8323,"è´Łæĭħ":8324,"ï¼ĽâĢĿ":8325,"éĢĥèĦ±":8326,"åİļéĩį":8327,"æĶ¶åĽŀäºĨ":8328,"çĶŁåĳ½åŃ¦æ´¾":8329,"èº²èĹı":8330,"å¾®å¾®çĤ¹å¤´":8331,"çĥŁåĽ±":8332,"æŃĮå£°":8333,"å§¿åĬ¿":8334,"è¿·éĽ¾æµ·":8335,"å®Įæķ´çļĦ":8336,"éļıæĹ¶åı¯èĥ½":8337,"å®ŀéĻħä¸Ĭ":8338,"ä¼Łå¤§çļĦä¸»äºº":8339,"æł¼æĭīè¥¿æĸ¯":8340,"è¡£åħľéĩĮ":8341,"æĿĢäººæ¡Ī":8342,"éĵŃåĪ»":8343,"æĹłè¾¹æĹł":8344,"èĹ¤èĶĵ":8345,"åĩ¸èĤļçªĹ":8346,"éĤ»å±ħ":8347,"çĶŁçī©æ¯Ĵç´łçĵ¶":8348,"åĺŁåĽĶ":8349,"Ġä¹Łå°±æĺ¯":8350,"Ġè¿ĺå¥½":8351,"Ġä¸¤äºº":8352,"łæª":8353,"çļĦæµ·çĽĹ":8354,"çļĦç»ıéªĮ":8355,"çļĦè¿ĩç¨ĭä¸Ń":8356,"ä¸Ģä¸Ŀ":8357,"ä¸ĢæĶ¯":8358,"ä¸Ģé¡µ":8359,"å®¾":8360,"ä¸įè¶ħè¿ĩ":8361,"ä»ĸåľ¨å¿ĥéĩĮ":8362,"åĬ«":8363,"éĤ£åī¯":8364,"æĿ¥å²ģ":8365,"çĶŁåŃĺ":8366,"èĢĮçİ°åľ¨":8367,"å°Ĩè¿Ļ":8368,"æĮ²":8369,"å§ĳ":8370,"æŃ£ç»ı":8371,"æŁłæª":8372,"ä½Ĩæ²¡æľī":8373,"éĵħ":8374,"çĻ½å¤©":8375,"ä½ıçļĦ":8376,"åĩ¡æ£®":8377,"åĸĤ":8378,"å¼łå¼ĢäºĨ":8379,"çģ°çľ¸":8380,"å¸¦ä¸Ĭ":8381,"åŃĺæ´»":8382,"ç³ķ":8383,"ç³Ł":8384,"çªģåħĢ":8385,"åĿĲäºİ":8386,"æĪĺåĪ©":8387,"çķ¥ä½ľ":8388,"çķ¥æľīçĤ¹":8389,"ç¢ĳ":8390,"äºĨåĩłåĪĨéĴŁ":8391,"æľīäºĨä¸ª":8392,"ĠèĢĮè¿Ļ":8393,"å¨ģå°ĶéĢĬ":8394,"ä¸ĥéģį":8395,"å¸Ĥåľº":8396,"çŀ¬éĹ´å°±":8397,"è´µçļĦ":8398,"ä¸ĢæŃ¥ä¸ĢæŃ¥":8399,"è®¤è¯ĨçļĦ":8400,"å¤ıå°Ķå¤«":8401,"ä¸ĭæĦıè¯Ĩå°±":8402,"ä¸įåı¯éģ¿åħį":8403,"æ²³æµģ":8404,"è¿«ä¸įåıĬ":8405,"æĦıä¹īä¸Ĭ":8406,"æ²īéĩįçļĦ":8407,"æĬ¢åľ¨":8408,"æĬ¢åħĪ":8409,"å¼ĢåĲ¯äºĨ":8410,"åĽŀå½ĴäºĨ":8411,"åºľéĤ¸":8412,"æĳ©æĮ²":8413,"çľĭå¾ĹåĩºæĿ¥":8414,"çħ¤æ°Ķçģ¯":8415,"éĩĳåıĳçº¢çľ¼":8416,"çĶ²æĿ¿ä¸Ĭ":8417,"çīµæī¯":8418,"æŃ£ç¡®çļĦ":8419,"è¥¿æĸ¯äºĮä¸ĸ":8420,"çĩķå°¾æľįå°ıä¸ĳ":8421,"éĥĬå¤ĸ":8422,"çļĦç¥ŀè¯ĿçĶŁçī©":8423,"åħĭæĭīæł¼ä¿±ä¹Ĳéĥ¨":8424,"åĽ¾åĿ¦è¥¿æĸ¯äºĮä¸ĸ":8425,"æŁłæª¬":8426,"è¿«ä¸įåıĬå¾ħ":8427,"°çĭ":8428,"Ġå®ĥçļĦ":8429,"Ġèī¾å°Ķåħ°":8430,"ıæĤĶ":8431,"ï¼ĮãĢĬ":8432,"çļĦä¸įåĲĮ":8433,"çļĦçģµæĢ§":8434,"çļĦåħ³éĶ®":8435,"çļĦçľ·èĢħ":8436,"æĺ¯è¢«":8437,"ä¸įæĢķ":8438,"ä¸įçľł":8439,"åĩĦ":8440,"å¿ıæĤĶ":8441,"åĴĢåļ":8442,"åľ°æľĽçĿĢ":8443,"åĴĮå¥¹":8444,"å¼Ģçİ©ç¬ĳ":8445,"åĽŀäºĭ":8446,"èĢĮåİ»":8447,"Ġä»ĸåİŁæľ¬":8448,"æķĻåĶĨ":8449,"é«ĺå¤§":8450,"èĢģå®ŀ":8451,"æŃ¤åľ°":8452,"è§£éĻ¤äºĨ":8453,"æł¹èľ¡çĥĽ":8454,"æ¡£":8455,"é©¾":8456,"äºĨä¸ĭçľ¼çĿĽ":8457,"ç©¿æ¢Ń":8458,"äº¤æı¡":8459,"ä¿Ŀå®Ī":8460,"è¥¿åĮº":8461,"åįłåįľä¿±ä¹Ĳéĥ¨":8462,"ç«ĭçļĦ":8463,"åºķçīĮ":8464,"çħİ":8465,"æĪĺèĥľ":8466,"æĸĩçĮ®":8467,"çļ®ç®±":8468,"éĢıè¿ĩ":8469,"é¥¶":8470,"è¿Ļä½įåħĪçĶŁ":8471,"é£ŁæĮĩ":8472,"èµ«æĭīæĸ¯":8473,"è®²è§£":8474,"å¾Īå¤ļäºĭæĥħ":8475,"åĶĲæ³°æĸ¯åħĪçĶŁ":8476,"çĿģå¤§":8477,"å¼ĹèĲ¨åħĭè¯Ń":8478,"æĭĸå»¶":8479,"æĮºçĽ´":8480,"ä¼ĳæģ¯å®¤":8481,"ç®¡å®¶çĵ¦å°Ķçī¹":8482,"çļĦçĪ¶æ¯į":8483,"çļĦçĥĽ":8484,"å±Ĥå±Ĥåıłåıł":8485,"èĥĸèį¯å¸Ī":8486,"è¡°è´¥":8487,"è¢ĸåı£":8488,"æĲŃéħį":8489,"ä»²è£ģäºº":8490,"ä¾łçĽĹ":8491,"æĪĺåĪ©åĵģ":8492,"°çĭŀ":8493,"åĴĢåļ¼":8494,"ĠæĮīçħ§":8495,"Ġçľ¼è§ģ":8496,"Łæ¼":8497,"çļĦåīį":8498,"çļĦç¬¬ä¸Ģ":8499,"äºĨåĽŀåİ»":8500,"ä¸Ģäº®":8501,"è¿Ļä¸¤ä¸ª":8502,"åħĭèİ±æģ©è®©":8503,"åĴ¦":8504,"åľ°æĥ³éģĵ":8505,"ä¼ļè®®":8506,"ä¹ĭæ²³":8507,"èĩªä»İ":8508,"å¯¹ä½ł":8509,"ä¸ºèĩªå·±":8510,"ä½łåİ»":8511,"å¾·æĭī":8512,"æ²¡æľīè¯´è¯Ŀ":8513,"å¾Īåį±éĻ©":8514,"å¾Īå¤§çļĦ":8515,"ä¸ŃæĸŃ":8516,"Ġè¿Ļè®©":8517,"å¤©èĬ±":8518,"æľĢéĩįè¦ģ":8519,"åħīçļĦ":8520,"çŃīä½ł":8521,"æ¶Łæ¼":8522,"åĨįåģļ":8523,"åĺĺ":8524,"æ·±èī²":8525,"æĭīåħ¥":8526,"è§Ĩéĩİ":8527,"å¥¥é»Ľä¸½çļĦ":8528,"éļıæľº":8529,"åĹ¤":8530,"åĲįè¯į":8531,"æľªæĽ¾":8532,"å¦Ĥæŀľèĥ½":8533,"ç»ĵæĻ¶":8534,"çº¸å¸ģ":8535,"ç§ĴåĲİ":8536,"ä¹¦äºļ":8537,"èĥĮåıĽ":8538,"ç´§éĹŃ":8539,"èĻļå½±":8540,"å¼Ģå§ĭäºĨ":8541,"æİ¨çĲĨ":8542,"æĪĲä¸ºåºıåĪĹ":8543,"æĴĩ":8544,"ä¸Ģå®ļè¦ģ":8545,"é¢Ĩç»ĵ":8546,"æĥĬéĨĴ":8547,"éĻĦåĬł":8548,"çº¦ä¹¦äºļ":8549,"æĹłå£°èĩªè¯Ńéģĵ":8550,"çģ°çĻ½çļĦéĽ¾æ°Ķ":8551,"åĪ¶éĢłåĩº":8552,"èŀįåħ¥äºĨ":8553,"çĤ¹äºĨä¸ĭå¤´éģĵ":8554,"æĥ³è±¡çļĦ":8555,"æ£ķèī²çļĦ":8556,"æĪıæ³ķ":8557,"æµ·æ´ĭæŃĮèĢħ":8558,"æĪªçĦ¶":8559,"ç¨Ģçĸı":8560,"ç¬¬äºĶçºª":8561,"åĤ²æħ¢":8562,"è¯¾ç¨ĭ":8563,"æĸ½åĬł":8564,"èĪĮå¸½":8565,"çĨŁç»ĥåľ°":8566,"å§ĵåĲį":8567,"äºĶæµ·ä¹ĭçİĭ":8568,"æĳ§æ¯ģ":8569,"é¸ŃèĪĮå¸½":8570,"åĩ¡æ£®çī¹":8571,"ä¸įçľłèĢħ":8572,"å¤©èĬ±æĿ¿":8573,"æ¶Łæ¼ª":8574,"40":8575,"66":8576,"ĠéĻ¤äºĨ":8577,"çļĦè¡ĮåĬ¨":8578,"çļĦéĺ´å½±":8579,"äº¨":8580,"äºı":8581,"ä¸Ģåįģ":8582,"åľ¨éĤ£":8583,"åľ¨åľº":8584,"æİĺ":8585,"åİĮ":8586,"ä¹ĭåĽ½":8587,"ç¥ŀåºĻ":8588,"âĢĻï¼Ł":8589,"çķ¸":8590,"æŃ£éĹ¨":8591,"å¤ļæ¬¡":8592,"é»ĳçĻ½":8593,"é»ĳå¸®":8594,"é»ĳä¹ĭçİĭ":8595,"åĲĮä¸Ģ":8596,"æľĢä¸º":8597,"éķ¿åĩºäºĨ":8598,"ä¿¡ä»»":8599,"åįĬå¤©":8600,"ç¬¬åįģ":8601,"å¥¥åı¤":8602,"åĪ¶æľį":8603,"è¡ĢèĦī":8604,"é£İçľ·èĢħ":8605,"å¹´é¾Ħ":8606,"æĭ¿åĩºäºĨä¸Ģ":8607,"æ°´åĩĨ":8608,"åħ³éĹŃ":8609,"å·¨åŀĭ":8610,"èĢĥè¯ķ":8611,"é£ŀè¡Į":8612,"æİ¨åĬ¨":8613,"å·´æİĮ":8614,"å¥³å£«çļĦ":8615,"èĵĿçľ¼":8616,"æľ¬èº«å°±":8617,"äºĨä¸¤ä¸ĭ":8618,"çªĹè¾¹":8619,"éĢĶå¾ĦçļĦåįĬç¥ŀ":8620,"æ®ĭå¿į":8621,"ç«¯çĿĢ":8622,"äºīåıĸ":8623,"ç§»å¼Ģ":8624,"å¹ķåľºæĻ¯":8625,"æł¹æľ¬æ²¡":8626,"èĥ¸åīį":8627,"æµ®çİ°äºİ":8628,"é²ľçº¢":8629,"Ġå¦Ĥæŀľä¸įæĺ¯":8630,"çļĦçĮİ":8631,"æĬĬæı¡åĪ°äºĨ":8632,"ç§ģä¸ĭ":8633,"æ³½å°Ķ":8634,"èĦ±ç¦»äºĨ":8635,"çĻ»ä¸Ĭ":8636,"åĭĩæķ¢":8637,"æĿ¥åĽŀè¸±":8638,"çĭĴçĭĴ":8639,"çľºæľĽ":8640,"éļıèº«æĲºå¸¦":8641,"çĶ±è¡·åľ°":8642,"å¡Ķç´¢åħĭæ²³":8643,"åı²èĴĤå¤«":8644,"æ¯ĶæĪĳæĥ³è±¡å¾Ĺ":8645,"å¥¥åı¤æĸ¯":8646,"Ġåħ¶ä¸Ń":8647,"Ġèī¾è¾Ľæł¼":8648,"ĠçŁŃæļĤçļĦ":8649,"ĻçĿĢ":8650,"çļĦå¥¹":8651,"çļĦæĪĺæĸĹ":8652,"çļĦèģĶç³»":8653,"çļĦç»ħå£«":8654,"çļĦä»Ĩäºº":8655,"ä¸įæĺİçĻ½":8656,"è¿Ļå±ŀäºİ":8657,"ä»ĸæĥ³":8658,"ä»ĸä¹ĭåīį":8659,"éĹ·":8660,"åħĭèİ±æģ©èħ¹è¯½":8661,"çĿĢåĹĵéŁ³":8662,"å¿Į":8663,"æ²¡åıĳçİ°":8664,"çģ¼":8665,"çĤŃ":8666,"ï¼ģâĢľ":8667,"æ²¡æľīä¸Ŀæ¯«":8668,"æĦıå¿µ":8669,"å¤©èµĭ":8670,"åĲĮæĦı":8671,"æ´ª":8672,"è¡Įè¸ª":8673,"éĩįçİ°":8674,"è¿Ļä¸ªè¯Ŀé¢ĺ":8675,"çĪª":8676,"å¨ĺ":8677,"çŁ¥éģĵèĩªå·±":8678,"æŃ»èĢħ":8679,"ç©ºèį¡":8680,"ç©ºèīĩ":8681,"åłª":8682,"å¼ºè¿«":8683,"äºļæģ©":8684,"äº¤éĶĻ":8685,"çªģçł´":8686,"åįłåįľçļĦ":8687,"èĮ§":8688,"å¤ªéĺ³èĥ¸éĴĪ":8689,"éĻ¤æŃ¤":8690,"é£ŀç©ºèīĩ":8691,"åı³çľ¼":8692,"ç¦»å¼Ģè´Ŀåħĭåħ°å¾·":8693,"åĨ³æĸŃ":8694,"çŁ³éĹ¨":8695,"çŁ³åĥı":8696,"æĢ»çĿ£":8697,"æ¡Įä¸ĬçļĦ":8698,"éģĹçī©":8699,"ä½įç½®çļĦ":8700,"äºĨä¸¤æŃ¥":8701,"çĶŁçī©çļĦ":8702,"èĬĤå¥ı":8703,"éĩĮéĿ¢æľī":8704,"å£ģçĤī":8705,"çļ±èµ·äºĨçľīå¤´":8706,"æıĲä¾Ľå¸®åĬ©":8707,"æĢĿèĢĥèµ·":8708,"å¼¥è¡¥":8709,"é¸¡":8710,"åĶ¯ä¸ĢçļĦéĹ®é¢ĺ":8711,"åĽ°å¢ĥ":8712,"å¿½çķ¥":8713,"çĥŃæĥħ":8714,"çŀĦäºĨä¸Ģçľ¼":8715,"é»ĳå¤ľå¥³ç¥ŀæķĻä¼ļ":8716,"èļķ":8717,"è¿Ļçīĩç¥ŀç§ĺç©ºéĹ´":8718,"ç¬¼ç½©äºĨ":8719,"ç¬¼ç½©çĿĢ":8720,"éĴ»åħ¥äºĨ":8721,"åĽŀæĥ³èµ·äºĨ":8722,"çª¥è§Ĩ":8723,"é¹°":8724,"èĪĴäºĨåı£æ°Ķ":8725,"åĺ¶åĵĳ":8726,"èººåľ¨":8727,"è¡Įç¤¼éģĵ":8728,"é»ĺå°Ķç´¢":8729,"æľīå¤ļä¹Ī":8730,"çļĦç®¡å®¶":8731,"åŁĥèİ±åħĭçī¹æĭīä¸»æķĻ":8732,"ĠãĢĤ":8733,"ĠåĢŁåĬ©":8734,"Ġæµ·æŁĶå°Ķ":8735,"çļĦå¤ĸ":8736,"çļĦå·¨å¤§":8737,"ä¸Ģä¼ļ":8738,"è¿Ļä¸¤":8739,"æĪĳå¿ħé¡»":8740,"åħĭèİ±æģ©çľĭçĿĢ":8741,"äººçĶŁ":8742,"æĹ¶æľŁ":8743,"ä»¥æĿ¥":8744,"è¯´æĺ¯":8745,"åıªçĶ¨":8746,"è®©å¯¹æĸ¹":8747,"æĦıåĽ¾":8748,"çĶ¨åı¤èµ«å¯Ĩæĸ¯è¯Ń":8749,"æľĢå¤ļ":8750,"éķ¿éķ¿":8751,"å·²è¢«":8752,"ä¸»å³°":8753,"èĬĻ":8754,"æ»©":8755,"æĭīéĩĮ":8756,"çĲĨè®º":8757,"åħ¨çŁ¥":8758,"åĽłä¸ºå¥¹":8759,"åľºåĲĪ":8760,"åįłæĺŁ":8761,"çº¸æĿ¡":8762,"åĩºçİ°äºĨä¸Ģ":8763,"å¸Įå°Ķæĸ¯":8764,"åĢ¼å®Ī":8765,"æ¸ħæ¥ļåľ°":8766,"æĤ¨æĺ¯":8767,"åįĬç¥ŀåįĬ":8768,"æİĴæĸ¥":8769,"ç¿»çľĭ":8770,"åĬŁåĭĭ":8771,"æķĻåłĤåĨħ":8772,"éļĶç¦»":8773,"ä¸Ģéģĵäººå½±":8774,"åĨħéĥ¨çľĭå®ĪèĢħ":8775,"æ°¸æļĹ":8776,"æĬ±çĿĢ":8777,"ä¹Ķä¼Ĭ":8778,"éĽªæĽ¼":8779,"åķĨéĩı":8780,"æĳ¸äºĨ":8781,"æľīæķĪçļĦ":8782,"é£ĺå¿½":8783,"æ²¡åĨįå¤ļè¯´":8784,"çĦ¦é»ĳ":8785,"å¾·å°ĶåĬ³":8786,"åħ¨èº«çĽĶçĶ²":8787,"åįĬä¸ªå°ıæĹ¶":8788,"åį¡æĭīçī¹":8789,"æĥ©ç½ļ":8790,"æ··æ²Įæµ·":8791,"æīĢç½ĹéĹ¨å¸ĿåĽ½":8792,"å¥¥åı¤æĸ¯éĥ½":8793,"å¸Įå°Ķæĸ¯é¡¿":8794,"Ġä»¥":8795,"ĠåĻĹ":8796,"Łçĸ«":8797,"çļĦçģ°éĽ¾":8798,"çļĦçľŁå®ŀ":8799,"çļĦæ·±å¤Ħ":8800,"çļĦçī¹æ®Ĭ":8801,"çļĦæ¶Īæģ¯":8802,"çļĦæĪ¿éĹ´åĨħ":8803,"ä¸įèĢģ":8804,"ä¸įå®¹æĺĵ":8805,"è¿Ļæľ¬":8806,"åľ¨åħĭèİ±æģ©":8807,"æĪĳæĹłæ³ķ":8808,"æĪĳç¥Īæ±Ĥ":8809,"åħĭèİ±æģ©æīį":8810,"åħĭèİ±æģ©ä¸Ģä¸ĭ":8811,"çĿĢèĩªå·±":8812,"èĥ½çľĭè§ģ":8813,"èµ·åºĬ":8814,"æĥ³ä¸įåĪ°":8815,"âĢĻâĢ¦âĢ¦âĢĿ":8816,"åĢº":8817,"åĬ¨åĬĽ":8818,"åħīå½©":8819,"æł¼éĽ·":8820,"å¥³éĥİ":8821,"åĨįæĿ¥":8822,"ä¸İå¯¹æĸ¹":8823,"è¿Ļä¸ªä»»åĬ¡":8824,"åĪļæľī":8825,"æĭīå¤«":8826,"æĭīç±³":8827,"å±ĤéĿ¢çļĦ":8828,"éĵ¶èī²çļĦ":8829,"ä¿ĿéĻ©":8830,"çķĻä¸ĭçļĦ":8831,"çĽ´æİ¥å°±":8832,"åĿĲèµ·":8833,"åĿĲå§¿":8834,"åŃĺåľ¨äºİ":8835,"è·¯ä¸Ĭ":8836,"è¿ĲèĢħ":8837,"åıĮåĢį":8838,"æŃ£å¸¸æĿ¥è¯´":8839,"éľįæĭīç±³":8840,"æ·¡æ¼ł":8841,"ç¾İé£Ł":8842,"çĶļèĩ³åı¯èĥ½":8843,"åĻĻçĿĢ":8844,"è¶ħä¹İ":8845,"æ¯«åįĩ":8846,"å¥³ç¥ŀçļĦ":8847,"åİĨåı²æĬķå½±":8848,"å¼ĦåĪ°":8849,"éļĶçĿĢ":8850,"éĢģåĪ°":8851,"çļĦå¤§åİħ":8852,"Ġè¿Ļä¸ªçŀ¬éĹ´":8853,"éº»æľ¨":8854,"åģĩäºº":8855,"æ®ĭåŃĺ":8856,"åĳ½è¿Ĳå¤©ä½¿":8857,"éª¨å¤´":8858,"è´Ŀå°Ķä¸¹":8859,"å¾®å¾®çĤ¹å¤´éģĵ":8860,"èĭ¥éĿŀ":8861,"å¯¹åºĶçļĦåºıåĪĹ":8862,"åĿļå®ļ":8863,"åľ°ä¸ĭéģĹè¿¹":8864,"åłķèĲ½éĢłçī©ä¸»":8865,"è¶ģæľº":8866,"ç²īç¢İ":8867,"çĮľåĪ°":8868,"ä½Ĳçī¹":8869,"Ġä¸įçŃīåħĭèİ±æģ©":8870,"è°İè¨Ģ":8871,"é¢ĳç¹ģ":8872,"åĵĴåĵĴåĵĴ":8873,"è¹¬è¹¬è¹¬":8874,"æ»ĳèħ»":8875,"æĮģæľīèĢħ":8876,"æ²»å®īå®ĺ":8877,"æĹłè¾¹æĹłéĻħ":8878,"æĳ¸äºĨæĳ¸":8879,"éľįæĭīç±³åħĭ":8880,"ht":8881,"tps":8882,"ï½":8883,"Ġä¹ĭåīį":8884,"ĠçĻ½éĵ¶åŁİ":8885,"Ġåĩłç§Ĵ":8886,"ĠçĦ¶èĢĮ":8887,"ĠåĿ¦çĻ½åľ°è®²":8888,"Ġht":8889,"çļĦçģ«":8890,"çļĦåĽŀçŃĶ":8891,"çļĦå°ģåį°çī©":8892,"çļĦäºĨè§£":8893,"çļĦè¡¨éĿ¢":8894,"çļĦå¤´åıĳ":8895,"ä¸Ģæĥ³":8896,"ä¸ĢåĪĨ":8897,"æľīä½į":8898,"æľīçļĦæĺ¯":8899,"è¿Ļåĳ¨":8900,"è¿Ļåľº":8901,"ä»ĸçĶ¨":8902,"åľ¨åģļ":8903,"æĪĳä¸įæĺ¯":8904,"åħĭèİ±æģ©çľĭè§ģ":8905,"éĤ£åĲį":8906,"åĴ§":8907,"å°±çĿĢ":8908,"ä¸Ĭå±Ĥ":8909,"èĥ½ä»İ":8910,"ä¼ļåĩºçİ°":8911,"å°ĶæĽ¼":8912,"ä¹ĭåĬĽ":8913,"ä¹ĭé£İ":8914,"èĩªå¸¦":8915,"ä¹Łåı¯èĥ½":8916,"åİ»åĵªéĩĮ":8917,"å¤ļä¸ª":8918,"å¤ļäºĨä¸Ģ":8919,"åħĪè¡Į":8920,"Ġä»ĸçľĭè§ģ":8921,"åģļä¸ª":8922,"åģļåĪ°":8923,"ç®Ń":8924,"æĺİåĩĢ":8925,"å¥³äºº":8926,"å¸¸è§ģ":8927,"è¾¹çļĦ":8928,"æīįéģĵ":8929,"é«ĺå¤Ħ":8930,"è¡Ģç®¡":8931,"çº¢èī²çļĦ":8932,"æĶ¶å°¸":8933,"ç²ĺ":8934,"ç¾¡":8935,"çłĸ":8936,"äº¤ç»ĻäºĨ":8937,"åŁİéķĩ":8938,"èĢĥåı¤":8939,"çħ¤":8940,"ç¼ĵè§£":8941,"ĠéĤ£å°±æĺ¯":8942,"å¸Įä¼¯çī¹":8943,"è¡£å¸½":8944,"åĬŀåĪ°":8945,"è°ĥåĬ¨":8946,"æłĩå¿Ĺ":8947,"ä¹ĭåĲİçļĦ":8948,"åĨĽå®ĺ":8949,"ç¬¬äºĮåįģ":8950,"ç¬¬äºĮåĿĹ":8951,"èĦļä¸ĭ":8952,"æĭħä»»":8953,"èĬĤåĪ¶":8954,"çŀ¬æģ¯":8955,"æĻ®æĸ¯":8956,"åĩºäºĨä¸ĢæĿ¡":8957,"çľŁçļĦå¾Ī":8958,"æİĮæı¡çļĦ":8959,"æ¿ĢçĥĪçļĦ":8960,"åĲ«ç³Ĭ":8961,"æ¬¢è¿İ":8962,"é¢ĩæĦŁ":8963,"çķ¥æĺ¾èĭįèĢģ":8964,"åĪĨéĴŁåĲİ":8965,"åıĺæĪĲäºĨä¸Ģ":8966,"å©ª":8967,"çªĥè¿ĲèĢħ":8968,"éĿĴéĵľå¤§éĹ¨":8969,"å·¦åı³çľĭäºĨä¸Ģçľ¼":8970,"å´©è§£":8971,"æ²Ļåıĳä¸Ĭ":8972,"å¢ŀå¼º":8973,"æµªè´¹æĹ¶éĹ´":8974,"éļľç¢į":8975,"çļĦçĭĤ":8976,"çĸ¼çĹĽ":8977,"æ²īå£°è¯´éģĵ":8978,"æī§æİĮå¥½è¿Ĳ":8979,"åĮĨå¿Ļ":8980,"è¿ªè¥¿æµ·":8981,"è´ªå©ª":8982,"è´¸çĦ¶":8983,"Ġåĩłä¹İæĺ¯":8984,"å«ģæİ¥":8985,"èĦļè¸ıè½¦":8986,"èļķèĮ§":8987,"ä½Ĳçī¹åħ°":8988,"Ġhttps":8989,"Ġåĳ¨":8990,"Ġæł¼å°ĶæĽ¼":8991,"ĠçĽ®éĢģ":8992,"ĢåĦ":8993,"çļĦæĸ°":8994,"çļĦåĩĨå¤ĩ":8995,"ä¸įæĩĤ":8996,"æľīè°ģ":8997,"ä»ĸçªģçĦ¶":8998,"æĪĳåĨį":8999,"åĨ»":9000,"ä¸ªæľĪ":9001,"èĩŃ":9002,"æĿ¥èĢħ":9003,"åĳķ":9004,"æĹ¶å¤©ä½¿":9005,"ä¹ĭåĨħ":9006,"ä¹ĭå¤ĸçļĦ":9007,"èĩªä¿¡":9008,"æĬĦ":9009,"ä½łå·²ç»ı":9010,"éļ¶":9011,"çĤ¹çĤ¹":9012,"å±¹":9013,"è¯´å¾Ĺ":9014,"æĪĲç¥ŀ":9015,"çľ¼çªĿ":9016,"ä¸Ńå¹´":9017,"Ġä»ĸåĪļæīį":9018,"çŃīåĲĮ":9019,"çŃīçī©åĵģ":9020,"æµ·åĽł":9021,"çĽ´è§Ĥ":9022,"çĥ¬":9023,"åįĬå¹´":9024,"å¥¥åĪ©":9025,"èĥ³":9026,"è®°èµ·":9027,"è®¤åĲĮ":9028,"çº³å§Ĩ":9029,"å¾®å¦Ļ":9030,"åħ¨èĥ½":9031,"åĹħ":9032,"æ¶ĪéĻ¤":9033,"æ°´ä»Ļ":9034,"å¸ķèİİ":9035,"æľºä¸»æķĻ":9036,"æķ´æķ´":9037,"åĲĦæľī":9038,"å¸Įçº³å§Ĩ":9039,"è¿ŀéĢļ":9040,"åģ¶çĦ¶":9041,"åıĮæİĴ":9042,"æĳĩæĳĩæĻĥ":9043,"éķľéĿ¢":9044,"ĠèĢĮåľ¨":9045,"é¥µ":9046,"ç»§æī¿":9047,"èģĶæĥ³åĪ°":9048,"è¶ħè¿ĩäºĨ":9049,"å±ĭåĨħ":9050,"èį¡å¼Ģ":9051,"ä¸įåĨįéĤ£ä¹Ī":9052,"ç²¾ç¥ŀä¸Ģ":9053,"åı¤èĢģå®«æ®¿åĨħ":9054,"ä¾ĿæĹ§æĺ¯":9055,"åĤĢåĦ":9056,"å¡Ķç½Ĺä¼ļä¸Ĭ":9057,"æĺıè¿·":9058,"æµ®çİ°åĩºäºĨ":9059,"æľīäººåľ¨":9060,"æĻĥåĬ¨":9061,"ç¬¬ä¸īåįģ":9062,"é¢ľèī²çļĦ":9063,"å¼ĹèĲ¨åħĭå¸ĿåĽ½":9064,"åħ¸ç±į":9065,"çļĦç¾Ĭ":9066,"åĲŀæ²¡":9067,"å®½æķŀ":9068,"å·¦è½®æīĭæŀª":9069,"æ³½çĳŀå°Ķ":9070,"çº¯ç²¹çļĦ":9071,"å¯ĴåĨ·":9072,"æĦŁåı¹äºĨä¸Ģåı¥":9073,"æľªå¿ħèĥ½":9074,"ä¸¾è¡Įä»ªå¼ı":9075,"åģľæŃ¢äºĨ":9076,"ç©ºæĥ³å®¶":9077,"æĸŁéħĮçĿĢè¯´éģĵ":9078,"ç¦ģæŃ¢":9079,"é¢ĳçİĩ":9080,"æĥ©æĪĴ":9081,"ç¥ŀè¯ĿçĶŁçī©å½¢æĢģ":9082,"è¾ĪåŃĲ":9083,"æŀ¢æľºä¸»æķĻ":9084,"éĻ¤æŃ¤ä¹ĭå¤ĸ":9085,"æ°¸æļĹä¹ĭæ²³":9086,"æĭīå¤«çī¹":9087,"è¿ªè¥¿æµ·æ¹¾":9088,"æµ·åĽłå§Ĩ":9089,"åıĮæİĴæī£":9090,"æĳĩæĳĩæĻĥæĻĥ":9091,"åĤĢåĦ¡":9092,"ĠæľĢåĲİ":9093,"Ġäºİæĺ¯":9094,"ĠæĹ¢çĦ¶":9095,"ħèĨĢ":9096,"çļĦå®«æ®¿":9097,"çļĦæ¶²ä½ĵ":9098,"çļĦè¯´æ³ķ":9099,"ä¸Ģäºº":9100,"ä¸Ģæ»´":9101,"ä¸įè¢«":9102,"ä¸įèĩ³äºİ":9103,"ä¸įæİĴéĻ¤":9104,"è¿Ļæľ¬ä¹¦":9105,"ä»ĸä¸į":9106,"ä»ĸèĩªå·±":9107,"åħĭæĸ¯":9108,"æĥ¶":9109,"åħĭèİ±æģ©å·²":9110,"çĿĢæĢ¥":9111,"åĴĮä¼ĳ":9112,"æ²¡çĶ¨":9113,"åŃ½":9114,"ç¥ŀåĽ½":9115,"å¤§æ°Ķ":9116,"å¤§ç¥Ńåı¸":9117,"ä½łèĩªå·±":9118,"åĲİæĢķ":9119,"äºĨä¸Ģåľº":9120,"ä¹Łè¦ģ":9121,"äºİäºĨ":9122,"æıŃ":9123,"è®©ä»ĸçļĦ":9124,"çľ¼çļ®":9125,"å¤©èī²":9126,"æļĦ":9127,"åĲĳå¾Ģ":9128,"ä¸¤ç§Ĵ":9129,"å®ĥæĺ¯":9130,"éĹ¨éĵĥ":9131,"é«ĺå¸Įçº³å§Ĩ":9132,"è¿Ľåº¦":9133,"æĪĸå¤ļ":9134,"å°¼æĭľ":9135,"çĭŃ":9136,"ç©ºéĹ²":9137,"æľªæľī":9138,"éªĦ":9139,"æ±Ĥè´Ń":9140,"åħ³äºİ":9141,"è¥¿å¤§éĻĨ":9142,"éĤ£ä½įéĢłçī©ä¸»":9143,"åĭĥ":9144,"æ¢¦éĩĮ":9145,"æºħ":9146,"ä¸Ģä½įä½į":9147,"æĸĩæĺİ":9148,"çİ¯è§Ĩ":9149,"çļ®éĿ´":9150,"éĺ´æ£®":9151,"é¢Ĩåıĸ":9152,"é¥¼":9153,"å®¢æ°Ķ":9154,"å¼Ħå¾Ĺ":9155,"æľĽåĲĳåħĭèİ±æģ©":9156,"æĢĢçĸĳèĩªå·±":9157,"ä¸¤ä¸ªæľĪ":9158,"åħ´èĩ´":9159,"éĻĨç»Ń":9160,"æķ²åĵįäºĨ":9161,"è¯¢éĹ®éģĵ":9162,"åħ¶å®ŀæĺ¯":9163,"é²ľæĺİ":9164,"é²ľçº¢çļĦ":9165,"çī¹æ®ĬçļĦ":9166,"ç»ıåİĨè¿ĩ":9167,"åĳĪçİ°åĩº":9168,"å¯ĴæļĦ":9169,"éĩĳå±ŀå°ıçĵ¶":9170,"åĺ¶åĲ¼":9171,"æįıäºĨ":9172,"èµŀç¾İå¥³ç¥ŀ":9173,"ç¿ĺèµ·":9174,"åĲ»åĲĪ":9175,"ä¸įçŁ¥ä»Ģä¹ĪæĹ¶åĢĻå·²":9176,"åĸĺæģ¯":9177,"çļĦç¾½æ¯Ľ":9178,"çļĦçªĹæĪ·":9179,"ä¸Ĭæµģç¤¾ä¼ļ":9180,"ä¹Ķä¼Ĭæĸ¯":9181,"å°¼æĭľæĸ¯":9182,"Ġèī¾å¾·éĽ¯å¨ľ":9183,"ĠåİŁæĿ¥":9184,"ıåĺĺ":9185,"çļĦå¥³æĢ§":9186,"äºĨåĽŀæĿ¥":9187,"äºĨä¸Ĭåİ»":9188,"ä¸įå°ıå¿ĥ":9189,"åħĭèİ±æģ©ä¹Ł":9190,"åĪ°åºıåĪĹ":9191,"åĪ°æŀģçĤ¹":9192,"åľ°çļĦ":9193,"åĴĮä¸Ģ":9194,"èĥ½çĽ´æİ¥":9195,"æĸ¯è¯º":9196,"ä½łå°±":9197,"ä½łéľĢè¦ģ":9198,"ä½łåĪļæīį":9199,"çĶŁæĹ¥":9200,"æīĭéĩĮçļĦ":9201,"å¤ļéĹ®":9202,"éĹ´æµ·":9203,"çŁ¥åĲį":9204,"åģļå¥½äºĨ":9205,"çľŁçļĦæĺ¯":9206,"èĤ¿":9207,"ç§įæĹı":9208,"è·¨":9209,"è¡ĮçļĦ":9210,"æıĲéĺ²":9211,"ç¼ī":9212,"é«ĺå±Ĥæ¬¡":9213,"æĳĦ":9214,"ä¸īè§Ĵ":9215,"å¥ĩå¦Ļ":9216,"æĶ¾åľ¨äºĨ":9217,"å¾®åħī":9218,"æĪ´å¥½":9219,"æ£±":9220,"éĢļç¼ī":9221,"åĮĸæĪĲäºĨ":9222,"åĶıåĺĺ":9223,"ä¸ĸçķĮéĩĮ":9224,"åı¤å¼ĹèĲ¨åħĭè¯Ń":9225,"ç¥Ĥæĺ¯":9226,"éŁ³ä¹Ĳ":9227,"ç³ħ":9228,"èĢĥä¼Ĭ":9229,"åĿĲçĿĢ":9230,"é»Ħè¤Ĳèī²":9231,"èİ·åıĸ":9232,"éģĩåĪ°äºĨ":9233,"æľīäºĨäºĽ":9234,"çĵ·":9235,"èĦ±æİī":9236,"å¥³ç¥ŀåºĩä½ĳ":9237,"è®¤ä¸ºèĩªå·±":9238,"åıĳçĶŁçļĦäºĭæĥħ":9239,"ä¸įçŁ¥è¯¥":9240,"Ġè¿Ļä¸ªè¿ĩç¨ĭéĩĮ":9241,"æĪĲåĬŁçļĦ":9242,"æ¬¢æĦī":9243,"è®¡ç®Ĺ":9244,"éĢĢåĩº":9245,"çĽĴåŃĲ":9246,"èŀįåħ¥":9247,"æĤ¬åĲĬ":9248,"ä»ĭç»įéģĵ":9249,"åĲŀåĻ¬":9250,"å·¥ä½ľäººåĳĺ":9251,"å¾ªçĿĢ":9252,"çĺ¦åīĬ":9253,"èİ«éĽ·èĴĤåħĪçĶŁ":9254,"åĩıå¼±":9255,"ä¸¹é¡¿":9256,"æħĪåĸĦåĬ©åŃ¦åŁºéĩĳ":9257,"æĭ§åĬ¨":9258,"æ³Ħéľ²":9259,"æĹ©æľīåĩĨå¤ĩ":9260,"è¿ŀçİ¯æĿĢäººæ¡Ī":9261,"æ¸ħäºĨæ¸ħ":9262,"ï½ŀ":9263,"ä½Ĳçī¹åħ°è¡Ĺ":9264,"éªĦåĤ²":9265,"èĢĥä¼Ĭå§Ĩ":9266,"ĠåºıåĪĹ":9267,"ĠæĹ¶éĹ´":9268,"ĠæĪ´èİī":9269,"çļĦæĮĩ":9270,"çļĦåĮºåŁŁ":9271,"çļĦç»Ħç»ĩ":9272,"è¿¦":9273,"âĢĿï¼ļ":9274,"ä¸Ģå¯¸":9275,"æĺ¯çľŁçļĦ":9276,"æľīå¾Īå¤ļ":9277,"ä»ĸè¯´":9278,"æĪĳæīĵç®Ĺ":9279,"åħĭèİ±æģ©åĲ¬å¾Ĺ":9280,"äººåı£":9281,"åľ°çĤ¹äºĨä¸ĭå¤´":9282,"å°±æŃ¤":9283,"åŃķ":9284,"å¯¹æ¯Ķ":9285,"ä½łçľĭ":9286,"ä½łçİ°åľ¨":9287,"äºĨä¸Ģä»¶":9288,"éĿ¢å®¹":9289,"åĽŀæĿ¥äºĨ":9290,"äºĭé¡¹":9291,"çī¹èī²":9292,"å¥¹åľ¨":9293,"Ġä»ĸè¯ĿéŁ³åĪļèĲ½":9294,"å°ıåħĭ":9295,"ä¸¤åĳ¨":9296,"åĪĨå¼Ģ":9297,"åĩłåı¥":9298,"éĥ¨ä½į":9299,"éĴĵ":9300,"æĪĸå°ĳ":9301,"èĬľ":9302,"è½¬åĳĬ":9303,"å¾®ç¬ĳéģĵ":9304,"éĶĪ":9305,"éĢļè¯Ĩ":9306,"çľĭè§ģçļĦ":9307,"èħ®":9308,"ä¹¦åĨĮ":9309,"åĿĲçĽ´":9310,"å°ıå§ĲåĴĮ":9311,"å¸Įæĸ¯":9312,"åı¦ä¸Ģä½į":9313,"è¿ľçļĦ":9314,"æ¯ıå¹´":9315,"å¤«äººçļĦ":9316,"çŁ³åĪ¶":9317,"æŃ£å¸¸äºº":9318,"æĪ¿éĹ´åĨħçļĦ":9319,"å®ĥä»¬çļĦ":9320,"çıį":9321,"çļĦä¸Ģéĥ¨åĪĨ":9322,"åı¦å¤ĸä¸Ģä¸ª":9323,"çĭĤå¥Ķ":9324,"æ´ĽèĢĢ":9325,"çĿ¡çĿĢ":9326,"é¡¾ä¸įå¾Ĺ":9327,"æĿĤèįī":9328,"ç®ĢåįķæĿ¥è¯´":9329,"åıĭåĸĦ":9330,"çĽ¸ä¿¡æĪĳ":9331,"é¡ºæīĭ":9332,"åĶĲæ³°æĸ¯çļĦ":9333,"åį·æ¯Ľ":9334,"åŀĭçļĦ":9335,"è¯ºæĸ¯":9336,"æ¼«éķ¿çļĦ":9337,"è¡ĢæĹıçļĦ":9338,"åľĨå¡Ķ":9339,"ä¸Ģåı¥è¯Ŀ":9340,"åĩłä¸ªæľĪ":9341,"åľŁèĳĹ":9342,"éĴ»çŁ³":9343,"æĬĵä½ıæľºä¼ļ":9344,"åľ¨è´Ŀåħĭåħ°å¾·çļĦ":9345,"åĳ¨ä¸Ģæ±ĤæľĪç¥¨æİ¨èįĲç¥¨":9346,"è¯ĪéªĹ":9347,"å±ıèĶ½":9348,"æĮ¤åĩº":9349,"éģµå®Ī":9350,"å¹ħåº¦å¾Īå°ı":9351,"èĨĿçĽĸ":9352,"ç»Ļäººä¸Ģç§į":9353,"å°ıå¿ĥç¿¼ç¿¼åľ°":9354,"æļ´é£İéĽ¨":9355,"é»Ħéĩĳæ¢¦æĥ³åı·":9356,"é¬ĵè§Ĵ":9357,"çļĦé»Ħé»ĳä¹ĭçİĭ":9358,"çģµçķĮæİłå¤ºèĢħ":9359,"æī§æİĮå¥½è¿ĲçļĦé»Ħé»ĳä¹ĭçİĭ":9360,"æĸ¯è¯ºæĽ¼":9361,"æ¸ħäºĨæ¸ħåĸīåĴĻ":9362,"FF":9363,"xFF":9364,"®ä¸§":9365,"Ġå¾ĹåĪ°":9366,"ĩå®":9367,"çļĦå°±æĺ¯":9368,"çļĦçº¸å¼ł":9369,"å®ĩå®":9370,"æĺ¯éĿŀå¸¸":9371,"è¯ĳ":9372,"è¿Ļä¸Ģæ¬¡":9373,"æĪĳå½ĵæĹ¶":9374,"æ²®ä¸§":9375,"èİ±çī¹":9376,"åħĭèİ±æģ©ä¸Ģçľ¼":9377,"éĤ£åħ·":9378,"è¡ħ":9379,"ä¼ļåĳĺ":9380,"æĬ¼":9381,"è¿ĩéģĵ":9382,"èº«åĳ¨":9383,"çĤ¹åįĬ":9384,"è¿ĺåı¯ä»¥":9385,"è¿ĺä¸įå¤Ł":9386,"è¿ĺæ´»çĿĢ":9387,"è®©ç¥Ĥ":9388,"å¿ĥèĻļ":9389,"ä½ĵçİ°":9390,"è¶ĭ":9391,"æł¼æĸ¯çļĦ":9392,"çľŁæľī":9393,"çĻ½è¡¬è¡£":9394,"è¡ĮèĢħ":9395,"è¿Ļä¸ªå±Ĥæ¬¡":9396,"ä¸īå¤§æķĻä¼ļ":9397,"åįģç§Ĵ":9398,"ä¹İä¹İ":9399,"æ²īéĿĻ":9400,"æĶ¾åĪ°äºĨ":9401,"è¡Ģæ·ĭ":9402,"å¹´åīį":9403,"æ¶Īèŀį":9404,"åıįåĲĳ":9405,"éĵ¶éķľ":9406,"è¶Ĭæĥ³":9407,"ç³Ļ":9408,"è¥¿èĴĻ":9409,"æİĮä¸Ń":9410,"åĵªæĿ¡":9411,"çļĦäººä»¬":9412,"å°ģéĶģ":9413,"ç¼ĵåĴĮ":9414,"æİ¢æīĭ":9415,"é²¨":9416,"ç²¾æ²¹":9417,"éĽħå°Ķ":9418,"è¿Ļç§įæĸ¹å¼ı":9419,"çļ®åĪ¶":9420,"åŀł":9421,"ä¹Łä¸įæķ¢":9422,"æĥĬæĦķ":9423,"åıªæľīè¿Ļæł·":9424,"åĳ¼åĸĬ":9425,"ç§ĺåģ¶çļĦ":9426,"äº¡èĢħ":9427,"æľīä¸ĢäºĽ":9428,"é¾Ļæ³½å°Ķ":9429,"æ°ĳä¿Ĺ":9430,"åĲ«ä¹ī":9431,"æĽ¾ç»ıçļĦ":9432,"å¹³éĿĻåľ°":9433,"èĩªçĦ¶åľ°":9434,"æĮĳè¡ħ":9435,"ä¸įéľĢè¦ģåĨį":9436,"æİ¥è§¦åĪ°":9437,"èŃ¦å¯Łå±Ģ":9438,"å¥½å¥ĩåľ°":9439,"æŁĲä¸ªåľ°æĸ¹":9440,"æľªæĿ¥å¾ĹåıĬ":9441,"å¾®ç¬ĳè¯´éģĵ":9442,"åĬªåĬĽåľ°":9443,"éĩİåħ½":9444,"åįļéĽħå°Ķ":9445,"éĿĻéĿĻåľ°":9446,"è¿ĺæ²¡æĿ¥å¾ĹåıĬ":9447,"åŀĤä¸ĭ":9448,"é©±æķ£":9449,"ä¼ªè£ħæĪĲ":9450,"éĩĩçĶ¨":9451,"æ¬ºéªĹ":9452,"ä¸įå¥½æĦıæĢĿ":9453,"éĽĩåĳĺ":9454,"æĺłçħ§åĩºäºĨ":9455,"6700":9456,"çļĦçł´":9457,"åĪ«å¢ħåĨħ":9458,"æµģæµªæ±ī":9459,"å¨ģå»īå§Ĩæĸ¯":9460,"çĪ±å¥½èĢħ":9461,"å¸Įå°Ķæĸ¯é¡¿åĮº":9462,"æ°´ä»ĻèĬ±è¡Ĺ":9463,"æĥ¶æģĲ":9464,"æĪĸå¤ļæĪĸå°ĳ":9465,"åį·æ¯ĽçĭĴçĭĴ":9466,"å®ĩå®Ļ":9467,"è¥¿èĴĻå¦®":9468,"5000":9469,"ĠåĨį":9470,"ĠåĲĮæł·çļĦ":9471,"çļĦä¸į":9472,"çļĦéŃĶèį¯":9473,"çļĦè°ĥæŁ¥":9474,"çļĦæĪ¿éĹ¨":9475,"äºĨå¯¹æĸ¹":9476,"ä»ĸç»Īäºİ":9477,"æĪĳæĢĢçĸĳ":9478,"æ²¸":9479,"åĪ°èĩªå·±":9480,"ä¸ĭå±ŀ":9481,"å°±åĴĮ":9482,"å°Ķå®ī":9483,"å¤§èĥĨ":9484,"ä½łäºĨ":9485,"çĶŁçĹħ":9486,"æĥ³æĥ³":9487,"è¿ĺéľĢè¦ģ":9488,"éĥ½ä¸įä¼ļ":9489,"ä»Ģä¹ĪéĹ®é¢ĺ":9490,"è®©èĩªå·±çļĦ":9491,"å¤ļæķ°":9492,"è¶´":9493,"æł¼è¾¾":9494,"çľŁè¦ģ":9495,"éķ¿ç¤¼æľį":9496,"ç¼ķ":9497,"ä»İä¸Ń":9498,"çĽ´èµ·":9499,"ä½ıåľ¨":9500,"ä¸İä¹ĭåīį":9501,"è¡¨éĿ¢çļĦ":9502,"æĽ´åĥı":9503,"èµ°åľ¨":9504,"éĩĳè¾¹":9505,"æħķ":9506,"ä½ľèĢħ":9507,"æļĹèĹı":9508,"æŃ»åĲİ":9509,"çģ°çĥ¬":9510,"åı¤æĸ¯å¡Ķ":9511,"æĬ¥èŃ¦":9512,"ä¿ĿåŃĺ":9513,"ä¸Ģä½įåįĬç¥ŀ":9514,"è´Ŀåħĭåħ°å¾·å¤§éĽ¾éľ¾":9515,"èĻļæĭŁ":9516,"ä¾Ŀèµĸ":9517,"è¡£è£Ļ":9518,"è¿ŀåĲĮ":9519,"ä¼ĳåĴĮä½Ľå°ĶæĢĿ":9520,"æĹ©ä¸Ĭ":9521,"å²©":9522,"ä»¿ä½Ľè¢«":9523,"å¼Ģåı£è¯´éģĵ":9524,"åĨĻä¸ĭäºĨ":9525,"éĶĻæĦķ":9526,"æĶ¯æŁ±":9527,"å¹¶ä¸įå¤ļ":9528,"æīĺåĭĴ":9529,"æĢªçī©çļĦ":9530,"æī¿è®¤":9531,"çľŁæĺ¯è®©äºº":9532,"åİ»äºĨåĵªéĩĮ":9533,"ä¿®æĶ¹":9534,"æ··æĿĤ":9535,"æĵįçºµå¸Ī":9536,"ç¡¬å¸ģ":9537,"ä»£è¡¨çĿĢ":9538,"åįļæł¼è¾¾":9539,"åľ£èµĽçĲ³å¨ľ":9540,"çļĦå¥³åŃĲ":9541,"æŁ¥å°¼æĸ¯éĹ¨åĲİ":9542,"è¯Ħä»·":9543,"æ²¾æŁĵ":9544,"è´´èº«çĶ·ä»ĨçĲĨæŁ¥å¾·æ£®":9545,"æįĤä½ı":9546,"çĪ·çĪ·":9547,"ĠéľįçĦ¶ä¹ĭéĹ´":9548,"å°ĸé¡¶è½¯å¸½":9549,"ç¥ŀæĪĺéģĹè¿¹":9550,"æ·»åĬł":9551,"å®¡è®¯èĢħ":9552,"å§ĳå¨ĺ":9553,"æĶ¶å°¸äºº":9554,"èĢĥä¼Ĭå§Ĩåħ¬åı¸":9555,"åı¤æĸ¯å¡Ķå¤«":9556,"22":9557,"Ġè¿Ľåħ¥":9558,"ĠåĲĮæĹ¶":9559,"çļĦæ³¨è§Ĩ":9560,"çļĦåĲįåŃĹ":9561,"çļĦæĦıå¿Ĺ":9562,"åĲķ":9563,"å®ı":9564,"ä¸įè¯´":9565,"æľīä¸¤":9566,"ä»ĸå·²":9567,"ä»ĸå¹¶ä¸į":9568,"éģ¥":9569,"åħĭèİ±æģ©æļĹ":9570,"åħĭèİ±æģ©è¿ħéĢŁ":9571,"åĴ½":9572,"åĪ°æĿ¥":9573,"åľ°ä¸ĬçļĦ":9574,"å°±æĦıåĳ³çĿĢ":9575,"åĴĮé©¬éĩĮå¥ĩ":9576,"ä¸Ĭæł¡":9577,"ç¥ŀçģ¯":9578,"ç¥ŀèģĮäººåĳĺ":9579,"ç¥ŀåŃ½":9580,"å¤§æĦı":9581,"å¤§çīĩ":9582,"æĸ¯åİĦ":9583,"ä½łè®¤ä¸º":9584,"çľĭåĲĳäºĨ":9585,"ä½įæĪĲåĳĺ":9586,"å±İ":9587,"é¢Ĥ":9588,"æĸ¹å½¢":9589,"èĦĬ":9590,"å¾Īé«ĺ":9591,"Ġè¿Ļä¹Ī":9592,"ä¸İä»ĸ":9593,"ä¸İæŃ¤åĲĮæĹ¶":9594,"åı¯ä»¥çĶ¨":9595,"æĽ´æį¢":9596,"è§£çŃĶ":9597,"çĭ°çĭŀ":9598,"æĭīå°Ķ":9599,"å¦ĤæŀľæĪĳ":9600,"åĽĽä½į":9601,"ä¿ĿçķĻ":9602,"æĺŁçģµä½ĵ":9603,"é»ĺå¥ĳ":9604,"è¿Ļæĺ¯æĪĳ":9605,"æµģä¼ł":9606,"åĪļæīįéĤ£":9607,"è¢ĭéĩĮ":9608,"è¿ľè¿ľ":9609,"ç¤¼çī©":9610,"è´¨åıĺ":9611,"çĻ½éĵ¶ä¹ĭåŁİ":9612,"åı«ä»Ģä¹Ī":9613,"æīĺæĸ¯":9614,"ä»»ä½ķäºº":9615,"çº¯éľ²":9616,"è¡¥åģ¿":9617,"æµ·çĽĹä»¬":9618,"æ²īé»ĺåľ°":9619,"æŃ¤æĹ¶æŃ¤åĪ»":9620,"çĿĢä¸Ģå¼ł":9621,"åı¬åĶ¤åĩº":9622,"åħĪçĶŁçļĦçľ·èĢħ":9623,"åĤ»":9624,"ç¥Īç¥·åħīçĤ¹":9625,"é¢ĩæľīçĤ¹":9626,"æ¶ĪåĮĸå®Į":9627,"é¬¼éŃĤ":9628,"ç¬¬åĽĽåįģ":9629,"éĶģå®ļäºĨ":9630,"çĥ¦æģ¼":9631,"çļĦçĪ±":9632,"ä½İæ²īå¼Ģåı£éģĵ":9633,"æĳ¸ç´¢":9634,"æĬĺå¥½":9635,"æĬĵä½ıè¿Ļä¸ªæľºä¼ļ":9636,"åįļçī©":9637,"ç£ħ":9638,"å¼Ħæ¸ħæ¥ļäºĨ":9639,"è¤Ĳèī²çļĦ":9640,"æĦīæĤ¦":9641,"çĶµæĬ¥å±Ģ":9642,"åįıè°ĥ":9643,"èŃ¦æĥķåľ°":9644,"ä¸įæŃ»ä¹ĭçİĭ":9645,"æ¡¥åĮºåŁŁ":9646,"æ¾Ī":9647,"æ°ĽåĽ´":9648,"èĭ±ä¿Ĭ":9649,"åĪ©ç»´å¸Įå¾·":9650,"åģļå¥½åĩĨå¤ĩ":9651,"çģ¿çĥĤçļĦ":9652,"åıĶåıĶ":9653,"å«Įçĸĳ":9654,"åĭĩæķ¢èĢħ":9655,"æįıäºĨæįı":9656,"æĸ¯åİĦéĺ¿":9657,"ä¸ģ":9658,"çļĦèĩªå·±":9659,"çļĦç¥ŀç§ĺ":9660,"çļĦçĶŁçī©":9661,"çļĦéĢīæĭ©":9662,"çļĦçĽ®çļĦ":9663,"çļĦæĬ¥éħ¬":9664,"çļĦçľ¼ç¥ŀ":9665,"æĺ¯ä»İ":9666,"ä¸įåĩºæĿ¥":9667,"å¥´":9668,"å¼ĵ":9669,"åħĭèİ±æģ©å¿µå¤´":9670,"éĤ£æłĭæĪ¿å±ĭ":9671,"äººå£«":9672,"åľ°çĤ¹äºĨçĤ¹å¤´":9673,"å¤§éģĵ":9674,"ä¸ºæŃ¢":9675,"ä½łä¹Ł":9676,"ä½łè¯´":9677,"ä»¥æīĭ":9678,"è¿ĺåİŁ":9679,"è¿ĺæľªæĿ¥å¾ĹåıĬ":9680,"åıªçŁ¥éģĵ":9681,"ç«ŀ":9682,"ä»Ģä¹Īä¹Łæ²¡":9683,"åħĪåİ»":9684,"ä¾ĥ":9685,"åģļèµ·":9686,"æİ¥è¿ĩäºĨ":9687,"åĲĮä¸Ģä¸ª":9688,"åħīçĲĥ":9689,"å¤ĸåľ¨":9690,"æľ¬å°±":9691,"åĪĨåī²":9692,"æķĻè®Ń":9693,"åĨįéĹ®":9694,"ç¬¬åħŃåįģ":9695,"æī¾ä¸ª":9696,"æŃ»åľ¨äºĨ":9697,"æŃ»å°¸":9698,"æĭīå¼ĢäºĨ":9699,"å¾®å¼±":9700,"éĶ¤":9701,"éĶĭ":9702,"åĲĪåĲĮ":9703,"åĲĪéĢĤ":9704,"åĹ¦":9705,"äºļå¨ľ":9706,"èĲ½åĪ°":9707,"æĺ¾ç¤º":9708,"ä»ĸçļĦèº«ä½ĵ":9709,"æ¢¦è§ģ":9710,"èµ·æĿ¥çļĦ":9711,"èĥĮéĥ¨":9712,"ä¸Ģæ¬¡åıĪä¸Ģæ¬¡":9713,"èĤ¯å®ļæľī":9714,"èĤ¯å®ļèĥ½":9715,"æŀģèĩ´":9716,"æĴ¼":9717,"æ¸ħæ¥ļäºĨ":9718,"æĻļå®´":9719,"è°ģçŁ¥":9720,"å±ķç¤º":9721,"æķ°åŃĹ":9722,"èİīäºļå¨ľ":9723,"çŁŃæ¯Ľ":9724,"å¿ħé¡»æľī":9725,"é²ģæĸ¯":9726,"ç¬¬äºĮæ¬¡":9727,"å±ĭé¡¶":9728,"Ġè¿Ļæĺ¯ä»ĸ":9729,"åħ¶ä»ĸæĪĲåĳĺ":9730,"æ¿Ģåıĳ":9731,"æĬµæĬĹ":9732,"åħ±åĴĮ":9733,"å±ĢéĿ¢":9734,"ä¿ĿæĮģä½ı":9735,"æ¶ĪåĮĸæİī":9736,"çģ°çĻ½çļĦ":9737,"åľŁè±Ĩ":9738,"çĽĺæĹĭ":9739,"è¶ħåĩ¡çĶŁçī©":9740,"éĤ£çīĩç¥ŀç§ĺç©ºéĹ´":9741,"éĩįå¤įèµ·":9742,"è¯µå¿µéģĵ":9743,"å¤¹åħĭ":9744,"å¯Ĵé¢¤":9745,"å«©":9746,"å¾·ç»´å°ĶçĪµå£«":9747,"Ġè¯´è¯ĿçļĦåĲĮæĹ¶":9748,"åįıä¼ļ":9749,"åĽĽä¸ªèĦĳè¢ĭ":9750,"åİ¨å¸Ī":9751,"çģ°éĽ¾ä¹ĭä¸ĬçļĦç¥ŀç§ĺ":9752,"çģĮæ³¨":9753,"çİĽä¸½å¤«äºº":9754,"å¤įä»ĩèĢħ":9755,"åħīä¹ĭç¥Ńåı¸":9756,"çļ±èµ·çľīå¤´":9757,"æĦļå¼Ħ":9758,"ä¾§è¿ĩèĦĳè¢ĭ":9759,"æģŃæķ¬":9760,"å®«å»·éķ¿è£Ļ":9761,"ä¹¦ä¸Ńä¸ĸçķĮ":9762,"èĤĸåĥıçĶ»":9763,"é¥¶æľī":9764,"åĲķå°Ķå®ī":9765,"07":9766,"Ġäºİ":9767,"Ġç¡®è®¤":9768,"Ġå¿µå¤´":9769,"Ġé©¬éĩĮå¥ĩ":9770,"Ġä¹Ŀå¤©ç¥ŀçļĩ":9771,"çļĦæ·±":9772,"çļĦè±¡å¾ģ":9773,"çļĦèµĦæĸĻ":9774,"çļĦè®°å¿Ĩ":9775,"çļĦéĺ³åħī":9776,"çļĦé¦ĸé¢Ĩ":9777,"ä¸ĢæĬĸ":9778,"ä¸įæŃ£å¸¸":9779,"ä»ĸçľ¼åīį":9780,"åľ¨ä¸Ĭ":9781,"æĪĳè§īå¾Ĺ":9782,"è§ħ":9783,"åħĭèİ±æģ©ç¬ĳçĿĢ":9784,"éĤ£éĿ¢":9785,"çĿĢéĹ®éģĵ":9786,"åĩºå¤´":9787,"æ²¡è¢«":9788,"ä¹ĭäºº":9789,"ç¥ŀè°ķ":9790,"åĲİæĤĶ":9791,"æ³£":9792,"çľ¼æ³ª":9793,"éĹ®åĢĻ":9794,"æĦıæĦ¿":9795,"åĿŁ":9796,"å¤ĸå½¢":9797,"è¡Įé©¶":9798,"åĩłå¹´":9799,"çĲ¢":9800,"æ¢§":9801,"æĤ¯":9802,"ç¬¬åħŃ":9803,"ä¸īæ¥¼":9804,"æħĳ":9805,"æŃ»åľ¨":9806,"éĢļä½ĵ":9807,"æĪĳä»¬ä¼ļ":9808,"äºļåĪ©":9809,"äº¤è°Ī":9810,"åŁİå¸ĤçļĦ":9811,"è¿Ļæĺ¯åľ¨":9812,"åºĶè¯¥ä¸įä¼ļ":9813,"åľ£åĿĽ":9814,"æĸĩèģĮäººåĳĺ":9815,"åĪĿæ¬¡":9816,"æĪĲä¸ºéĿŀåĩ¡èĢħ":9817,"æĢ»è®¡":9818,"æĴ¤":9819,"å®Įåħ¨æ²¡":9820,"çģ°éĽ¾ä¹ĭä¸Ĭç¥ŀç§ĺç©ºéĹ´":9821,"ç¬¬ä¸ĢæĹ¶éĹ´":9822,"ç¿»éĺħ":9823,"çĮİæĿĢ":9824,"è°¢å°ĶæĽ¼":9825,"ä¹°ä¸ĭ":9826,"æ²¡ä»Ģä¹Īè¡¨æĥħ":9827,"æıĲåīįæĽ´æĸ°":9828,"ä¸ĩçī©":9829,"å¼¥æĴĴ":9830,"ä¸¾æĬ¥":9831,"äº§çĶŁçļĦ":9832,"åĳ¢åĪ¶":9833,"ç¼ĺçĶ±":9834,"å¸Ńåį·":9835,"æī«è¿ĩäºĨ":9836,"å¿½æľī":9837,"çİ«æŃĮ":9838,"éĺ»ç¢į":9839,"å¥¥å°Ķç±³å°Ķ":9840,"èĭįçĻ½çļĦ":9841,"åħ¸éĽħ":9842,"èµ°äºĨè¿ĩåİ»":9843,"çİ»çĴĥçªĹ":9844,"åĪ·åľ°":9845,"å®ĿçŁ³çļĦ":9846,"æīĳéĢļ":9847,"ä¸įäºĨå¤ļä¹ħ":9848,"è¶ģçĿĢ":9849,"æīĭæĮĩè½»æķ²":9850,"ç¯ĩ":9851,"ç¨įæľī":9852,"æľ¬è´¨ä¸Ĭ":9853,"è¾īèĬĴ":9854,"ç¬¬äºĶåįģ":9855,"æ¸´æ±Ĥ":9856,"èĢ¸ç«ĭ":9857,"æĳĺæİī":9858,"èªī":9859,"åĪ©ç»´çī¹":9860,"èĪ°éĺŁ":9861,"åĴļåĴļåĴļ":9862,"éĩĳæ¯Ľå¤§çĭĹèĭıèĮľ":9863,"å·¡éĢ»":9864,"ç¬¬ä¸ĥåįģ":9865,"éĽĦä¼Ł":9866,"æķĻåĶĨèĢħ":9867,"äºļåĪ©æĸ¯å¡Ķ":9868,"Ġéľįå°Ķä¼¯çĪµ":9869,"çļĦè¡£çī©":9870,"çļĦåħ³ç³»":9871,"çļĦç»ĨèĬĤ":9872,"ä¸Ģåįĥ":9873,"ä¸Ģæłĭ":9874,"è¿Ļå¯¹":9875,"ä»ĸäºº":9876,"ä»ĸçİ°åľ¨":9877,"ä»ĸçĽ¸ä¿¡":9878,"åľ¨ä»ĸçļĦ":9879,"æĪĳè¿ĺæĺ¯":9880,"åħĭèİ±æģ©é»ĺé»ĺ":9881,"éĤ£æĪĳä»¬":9882,"æİª":9883,"å°±çŃīäºİ":9884,"æ²¡çĽ´æİ¥":9885,"å¤§æ¡¥":9886,"ä½łå¿ħé¡»":9887,"äºĨä¸ĢæŃ¥":9888,"çľĭèĥ½åĲ¦":9889,"æĥ³åģļä»Ģä¹Ī":9890,"åīįä»»":9891,"å¼ĢæĶ¾":9892,"å¤´é¹°":9893,"æĹłå¤´":9894,"åĬ¨çĶ¨":9895,"äºĽä»Ģä¹Ī":9896,"å®¶ä¸Ń":9897,"æł¼çļĦ":9898,"éķ¿æĿ¡":9899,"èĤ¥":9900,"åĪĨæĪĲ":9901,"æıĲäº¤":9902,"åĨįä¹Ł":9903,"ä¿¡å°ģ":9904,"ç¬¬åħ«åįģ":9905,"èµ°ä¸ĭ":9906,"ä¸īçĤ¹":9907,"ä¸īæ¬¡":9908,"åĲ¬è¿ĩ":9909,"æ¡Ĩ":9910,"å¾®ç¼©":9911,"åİŁä¸»":9912,"å·¨åīĳ":9913,"çŀ¥":9914,"å¤©ä½¿çļĦ":9915,"å¡Ķå°Ķ":9916,"ä¸Ģä½įåºıåĪĹ":9917,"åį´æĺ¯":9918,"ä¼¦çº³å¾·åĴĮ":9919,"åĪĩæĸ¯çī¹":9920,"èĹıèº«":9921,"ç§ĳå¡Ķå°Ķ":9922,"å¨ģå¾·":9923,"äºĨåı£åĶ¾":9924,"è¿Ļä¹Īè¯´":9925,"æİ¨æĸŃ":9926,"åĽ½å®¶":9927,"ä¸ľåĪĩæĸ¯çī¹":9928,"æ¡ĮçĲĥ":9929,"ç»§èĢĮ":9930,"å·¥åħ·":9931,"èģĶåĲĪ":9932,"è£ħé¥°":9933,"çĳĻ":9934,"çĻ¾åĪĨä¹ĭ":9935,"åĸľçĪ±":9936,"çļĦä¸Ģåĳĺ":9937,"åĮħå®¹":9938,"åĲĮæł·å¦ĤæŃ¤":9939,"æľŁéĹ´":9940,"æĹĭè½¬":9941,"æĹĭå¾ĭ":9942,"è¿½å¯»":9943,"å¿ĥçĲĨæļĹç¤º":9944,"æĢ¥äºİ":9945,"å¸Ĥæ°ĳ":9946,"é¡ºçĿĢ":9947,"ä¿®å»º":9948,"åħ±æľī":9949,"å®¹æĺĵè¢«":9950,"ç¨³ç¨³":9951,"é¸¦":9952,"æĺ¯ä»Ģä¹Īæł·åŃĲ":9953,"ç¬¬ä¸ĢçĻ¾éĽ¶":9954,"å¹´è½»äºº":9955,"è¯¥æĢİä¹Īåģļ":9956,"çİĽçĳĻ":9957,"è¿Ļçīĩæµ·åŁŁ":9958,"é£ĺæ¸º":9959,"åĽŀèį¡äºİ":9960,"å¤±è´¥äºĨ":9961,"è¯Ńè¨Ģéģĵ":9962,"é¹ħ":9963,"è¯±é¥µ":9964,"æ±ĩèģļ":9965,"ä¾ĭåŃĲ":9966,"äºļä¼¯æĭīç½ķå®¶æĹıçļĦ":9967,"åĩĨç¡®åľ°":9968,"æľĿä¸Ĭ":9969,"çļĦä¸Ńå¹´çĶ·åŃĲ":9970,"åĺ¿åĺ¿":9971,"èįĴèĬľ":9972,"åĩıå°ĳ":9973,"åħĪæĺ¯ä¸ĢæĦ£":9974,"è¡Įèµ°äºİ":9975,"å°ĺåŁĥ":9976,"Ġä¸ĭä¸Ģç§ĴéĴŁ":9977,"ä¸įå¿«ä¸įæħ¢åľ°":9978,"è¡Ģæ·ĭæ·ĭ":9979,"åįļçī©é¦Ĩ":9980,"Ġå¥½":9981,"Ġä¸¤":9982,"Ġä¸ºäºĨ":9983,"Ġçŀ¬æģ¯":9984,"çļĦè¾¾å°¼åħ¹":9985,"çļĦéĿĴ":9986,"çļĦè¯Ńæ°Ķ":9987,"çļĦç»ıåİĨ":9988,"äºĨæĪĳçļĦ":9989,"äºĨè¿ĽæĿ¥":9990,"äºĨåįģåĩłç§Ĵ":9991,"ä¸Ģçķª":9992,"åĪĳ":9993,"ä¸įç¬¦åĲĪ":9994,"æĸ©":9995,"åľ¨æµ·ä¸Ĭ":9996,"åľ°ä»İ":9997,"åĴĮåĲĦç§į":9998,"ä¸Ĭæľī":9999,"èĩªæķĳ":10000,"ä½łä¼¼ä¹İ":10001,"æŀķ":10002,"å¾Ĺåĩº":10003,"å¾ĹæĽ´":10004,"çľĭéĹ¨":10005,"åĽŀåĳ³":10006,"å¿ĥæĢĿ":10007,"å¿ĥåºķ":10008,"æĹłåŀł":10009,"ä¸Ģä¸ªæľĪ":10010,"æŁ©":10011,"è¢«åĬ¨":10012,"åģļä¸Ģæ¬¡":10013,"æİ¥ä¸Ģä¸ª":10014,"åĿª":10015,"å½ĵå½ĵ":10016,"ä¸»å¯¼":10017,"è®¤åı¯":10018,"èĬ½":10019,"ç»Ļå¥¹":10020,"æľĪåĨķ":10021,"ä¸īæĺ¯":10022,"è§£æķĳ":10023,"æĶ¾è¿ĩ":10024,"çº¢åıĳ":10025,"æĶ¶èĹı":10026,"åĪ©äºİ":10027,"åħ³èĬĤ":10028,"è¿ĻéĩĮæľī":10029,"ä¼¼ä¹İå·²":10030,"èħĶ":10031,"è¶Ĭå¤ļ":10032,"å¯Ĩå°ģ":10033,"ç¿ł":10034,"ä¹¦æŀ¶":10035,"åĩºæĿ¥äºĨ":10036,"åį´æĹłæ³ķ":10037,"èī¾æł¼æĸ¯":10038,"è¿ľåİ»":10039,"äºĶåĪĨéĴŁ":10040,"åĲ¸æĶ¶":10041,"å¯»è§ħ":10042,"éĵģåįģåŃĹ":10043,"é¡¶éĥ¨":10044,"éĿŀåĩ¡çī¹æĢ§çļĦ":10045,"æĬĵç´§":10046,"èµŀåı¹":10047,"é¡¾å®¢":10048,"æĬ½è±¡":10049,"ä¸įåĨįæĺ¯":10050,"åĵĪå¨ľ":10051,"æ²īé»ĺäºĨåĩłç§Ĵ":10052,"æĸ¯çī¹æĭīå°Ķ":10053,"é²ģæģ©æħĪåĸĦåĬ©åŃ¦åŁºéĩĳ":10054,"è§Ħæ¨¡":10055,"æĬ¤èº«":10056,"èĨĬ":10057,"å°¾å·´":10058,"çĬ¶çļĦ":10059,"æ¼«éķ¿":10060,"éĺ²æŃ¢":10061,"çĥŁæĸĹ":10062,"åĽ°æī°":10063,"èįīåĿª":10064,"æĹłå½¢ä»Ĩå½¹":10065,"çĺŁçĸ«":10066,"çļĦçĪĨ":10067,"ä¾§å¤´æľĽåĲĳ":10068,"äºĭä»¶çļĦ":10069,"æ·±çº¢æľĪåĨķ":10070,"æī¬èµ·":10071,"èģĬå¤©":10072,"å®½æħ°":10073,"è¿·éĽ¾å°ıéķĩ":10074,"çª¥æİ¢":10075,"èĪĴæľį":10076,"æīĵéĩıäºĨ":10077,"è¿Ļæĸ¹éĿ¢çļĦäºĭæĥħ":10078,"çīĽå¥¶":10079,"ä»¿ä½Ľåľ¨æĢĿèĢĥ":10080,"å¥¶æ²¹":10081,"æ£ºæŁ©":10082,"åĸ·èĸĦ":10083,"æīĢæľīäººéĥ½":10084,"æĢľæĤ¯":10085,"å¾ĺå¾Ĭäºİ":10086,"çĭłçĭł":10087,"çģ¿çĥĤ":10088,"èĤ¢ä½ĵ":10089,"å¿ĥæĻºä½ĵ":10090,"åŀ®å¡Į":10091,"æ¸ĹéĢı":10092,"ç½®èº«äºİ":10093,"èĥ³èĨĬ":10094,"ç³ħåĲĪ":10095,"åħ±åĴĮåĽ½":10096,"Ġå¼Ĺåħ°åħĭ":10097,"ĠçĶ±äºİ":10098,"ĩæ·ĭ":10099,"çļĦæķħäºĭ":10100,"çļĦåĲįç§°":10101,"ä¸įç»ı":10102,"ä¸įä½İ":10103,"ä¸įåĲ«":10104,"æĪĳæĿ¥":10105,"æĪĳæ²¡":10106,"éĿ©":10107,"éĤ£åĽ¢":10108,"ç§ĭ":10109,"æĭŃ":10110,"ä»¥åħį":10111,"èµ·äºĨä¸Ģ":10112,"çĤ¹äº®":10113,"å¥½è½¬":10114,"éĥ½ä¸įæĺ¯":10115,"å¾ĪæĦŁåħ´è¶£":10116,"ç©¹":10117,"åģļä¸ĢäºĽ":10118,"æ·ĩæ·ĭ":10119,"ä½Ĩå¥¹":10120,"çľŁåĲį":10121,"ä¸¤å£°":10122,"éķ¿åĩºäºĨä¸Ģ":10123,"éķ¿æŀª":10124,"èĴĤçļĦ":10125,"å¼łæľĽ":10126,"åĬłåħ¥äºĨ":10127,"èĲ½åľ¨äºĨ":10128,"åıįå°Ħ":10129,"å¤ľéĩĮ":10130,"åĵģå°Ŀ":10131,"è¶Ĭé«ĺ":10132,"æĢİæł·çļĦ":10133,"éĢłæĪĲçļĦ":10134,"æĸ°å¹´":10135,"èĴĻçī¹":10136,"å½¢å®¹":10137,"ä¼¦çº³å¾·çļĦ":10138,"ĠéĤ£æĺ¯ä¸Ģ":10139,"Ġå¥¹éļıåį³":10140,"çģ«çĲĥ":10141,"æĦŁè§īåĪ°äºĨ":10142,"åĲ¦å®ļ":10143,"çħ§åħ¥":10144,"åĽŀåºĶäºĨ":10145,"åįĬç¥ŀçº§":10146,"å¿½çĦ¶çľĭè§ģ":10147,"æľ¨åĪ¶":10148,"æľ¬èº«å°±æĺ¯":10149,"åħīèĬĴçļĦ":10150,"å¹²æİī":10151,"éĢģä¸Ĭ":10152,"éŃĤçģµ":10153,"ç²¾ç¥ŀçĬ¶æĢģ":10154,"åĨ°æ·ĩæ·ĭ":10155,"åıªè¦ģèĥ½":10156,"èģļä¼ļéĩĮ":10157,"çĵ¦è§£":10158,"å¼±çĤ¹":10159,"å½ĴæĿ¥":10160,"å¯Įè±ª":10161,"ä¸»åĬ¨åľ°":10162,"è¿ªå°Ķ":10163,"çĥŃéĹ¹":10164,"ç¬¬ä¸īçºª":10165,"éĤ£æł·ä¸ĢæĿ¥":10166,"å°¤éĩĮæĸ¯":10167,"æĳ¸äºĨä¸ĭ":10168,"æīĢåľ¨çļĦä½įç½®":10169,"åĭ¾åĭĴåĩº":10170,"æ°´æĻ¶çĲĥ":10171,"åħ°å°Ķä¹Įæĸ¯çļĦ":10172,"çĭĹå±İ":10173,"åĺ²è®½":10174,"ç©ºæ°ĶéĩĮ":10175,"çº¸äººæĽ¿èº«":10176,"çīĽèĤī":10177,"å¼Łå¼Ł":10178,"ç«ĸçĽ´":10179,"ä¸ĬåįĪå¥½":10180,"æ¥¼æ¢¯åı£":10181,"çļĦä¸Ńå¹´":10182,"ç½ªçĬ¯":10183,"çĤ®å¼¹":10184,"åīįæıĲä¸ĭ":10185,"ç©¿è¶ĬèĢħ":10186,"åĲĪçĲĨçļĦ":10187,"è®¸æĦ¿ç¥ŀçģ¯":10188,"åį¢åħĭ":10189,"åį¢åį¡":10190,"åªĴ":10191,"çģ°èĴĻèĴĻ":10192,"å¹½èĵĿå¤įä»ĩèĢħ":10193,"æĿĤçī©åłĨéĩĮ":10194,"å®ĪæĬ¤èĢħ":10195,"åĽ¾åĿ¦è¥¿æĸ¯äºĮä¸ĸæľ¨ä¹ĥä¼Ĭ":10196,"æĪıæ³ķå¤§å¸Ī":10197,"0782":10198,"å°¤éĩĮæĸ¯å®ī":10199,"62":10200,"Ġæĺ¯":10201,"Ġæİ¥ä¸ĭæĿ¥":10202,"ĠåĴļ":10203,"çļĦå¢Ļå£ģ":10204,"çļĦæ¨¡æł·":10205,"äºĨæĮī":10206,"ä¸Ģæ¨¡":10207,"ä¸Ģè¶Ł":10208,"ä¸įéĤ£ä¹Ī":10209,"æľīä¸¤ä¸ª":10210,"è¿Ļæ®µ":10211,"æĹĹ":10212,"çľ©":10213,"åľ¨åįĬç©º":10214,"æĪĳä»İ":10215,"æĪĳåĪļ":10216,"éģĵå°Ķ":10217,"éĹ¯":10218,"åľ°åľ¨å¿ĥéĩĮ":10219,"ä¸ĭåĳ¨":10220,"æ²¡æĢ¥çĿĢ":10221,"ç¥ŀä½¿":10222,"æĪĲäº¤":10223,"æīĭèħķ":10224,"å¤´æĿ¥":10225,"çī¹è´¨":10226,"éĥ½å°Ĩ":10227,"æĹłå°½":10228,"æİ¥ä½ı":10229,"åıĪèĥ½":10230,"åħīåįİ":10231,"ä¸½èĬĻ":10232,"éĺ¿è¾¾å°Ķ":10233,"å®īæł¼å°Ķ":10234,"åįĬå¼ł":10235,"èµ°åħ¥äºĨ":10236,"æŃ¤äºĭ":10237,"ä¼¦æĸ¯":10238,"è½¬è¿Ĳ":10239,"éļĲèº«":10240,"æĶ¾åĪ°":10241,"å¾®è½¬":10242,"åĳ¨èĸª":10243,"æĪĳä»¬åı¯ä»¥":10244,"è´Ŀæĭī":10245,"æ¼±":10246,"èĲ½çļĦ":10247,"èĲ½äºİ":10248,"åıįå¯¹":10249,"æĬ¥éĶĢ":10250,"æĮĩçļĦæĺ¯":10251,"èħĭ":10252,"çº¿äºº":10253,"é©¬åĮ¹":10254,"åıªæĺ¯åľ¨":10255,"åį´åıĳçİ°":10256,"å°ģçļ®":10257,"åĪĩåľ°":10258,"çĹ¹":10259,"åį±æľº":10260,"åľ¨äºĨåİŁåľ°":10261,"è¿Ļä¹Īå¿«":10262,"ä½łä»¬åı¯ä»¥":10263,"å¼Ģåı£äºĨ":10264,"âĢĻï¼ĮâĢĺ":10265,"ĠèĢĮè¿Ļä¸ªæĹ¶åĢĻ":10266,"åĨ·å³":10267,"éĴŁæ¥¼":10268,"æĦ¿å¥³ç¥ŀåºĩä½ĳ":10269,"éĻĦå¸¦":10270,"è¿·ç³Ĭ":10271,"åİĨåı²çļĦ":10272,"è¿½æ±Ĥ":10273,"éº»çĹ¹":10274,"èĽ®":10275,"èĽĽ":10276,"æ®ĭä½ĻçļĦ":10277,"çļĦæīĭæ®µ":10278,"çļĦä¸»æĿĲæĸĻ":10279,"åįĹå¨ģå°Ķ":10280,"ç§¯èĵĦ":10281,"å¹´è½»çĶ·åŃĲ":10282,"ç¢°æĴŀ":10283,"æĥ¨éģŃ":10284,"æŀĲåĩº":10285,"ä¼ĺéĽħ":10286,"è¯§å¼Ĥåľ°":10287,"ä¸ĢåĪ»éĴŁ":10288,"æĦŁæħ¨äºĨä¸Ģåı¥":10289,"åĴĸåķ¡é¦Ĩ":10290,"æĮ£èĦ±":10291,"çĩĥçĥ§çĿĢ":10292,"äºĨä¸¤ç§Ĵéģĵ":10293,"ç»ĿæľĽéŃĶå¥³":10294,"çī¢çī¢":10295,"åİĦéļ¾":10296,"ç¤¼è²Įåľ°":10297,"èķ´åĲ«":10298,"çŃĶåºĶäºĨä¸ĭæĿ¥":10299,"æĸ¯åĿ¦é¡¿åħĪçĶŁ":10300,"åĲĦç§įåĲĦæł·":10301,"æĳĺä¸ĭ":10302,"å¥īçĮ®":10303,"èģļåĲĪå®ļå¾ĭ":10304,"åĲĲæ§½äºĨä¸Ģåı¥":10305,"Ġä¸Ģéģĵéģĵ":10306,"ç¬ĥå®ļ":10307,"ç¬ĳä¸Ģå£°éģĵ":10308,"å°ļæľª":10309,"éŃħåĬĽ":10310,"å¼łäºĨå¼łåĺ´":10311,"åıĳèĩªåĨħå¿ĥ":10312,"éĺ³çĤİç¬¦åĴĴ":10313,"å®¾å®¢":10314,"æĪªçĦ¶ä¸įåĲĮ":10315,"æĭīéĩĮæĺĤ":10316,"ä¸ĢåĪĨä¸Ģç§Ĵ":10317,"ç²ĺç¨ł":10318,"çİ«æŃĮåºĦåĽŃ":10319,"éĵģåįģåŃĹè¡Ĺ":10320,"æĬ¤èº«ç¬¦":10321,"ç©¹é¡¶":10322,"åªĴä»ĭ":10323,"å®īæł¼å°Ķå¨ģå¾·":10324,"ĠçŃīå¾ħ":10325,"Ġæķ´ä¸ª":10326,"Ġè¯ĿéŁ³åĪļèĲ½":10327,"ĠåĵĲå½ĵ":10328,"Įè±Ĩ":10329,"Ŀéħ¿":10330,"çļĦä½Ľå°ĶæĢĿ":10331,"çļĦé£Łçī©":10332,"çļĦå¿ĥæĥħ":10333,"çļĦçī¹çĤ¹":10334,"çļĦå°½å¤´":10335,"çļĦä¸ĭèĲ½":10336,"ä¸Ģç¼©":10337,"ä¸ĢåĪĨéĴŁ":10338,"åĲµ":10339,"æĺ¯ä½ł":10340,"åĩ¹":10341,"æģĭ":10342,"ä»ĸçľĭè§ģäºĨ":10343,"æĪĳåºĶè¯¥":10344,"éģĵéĻ¢":10345,"æ²ģ":10346,"éĤ£æĹ¶åĢĻ":10347,"çĿĢä»ĸ":10348,"çĿĢçľ¼çĿĽ":10349,"åľ°å¯¹":10350,"åĴĮæ¢ħä¸½èİİ":10351,"ä¸Ĭåĳ¨":10352,"ä¼ļåıĳçĶŁ":10353,"å¤§äºĭ":10354,"æ³¼":10355,"æ³Ĭ":10356,"ä»¥ä¾¿":10357,"æĥ³éĹ®":10358,"å¾Īæĺ¾çĦ¶":10359,"åĨħèĦı":10360,"è§ģéĹ»":10361,"æĹłäººçļĦ":10362,"å°ıåģ·":10363,"è¢«ä»ĸ":10364,"è¢«ç¼ļ":10365,"åģļåĩĨå¤ĩ":10366,"åı£çĲ´":10367,"åĲĮæĥħ":10368,"åĲĮèī²":10369,"çľŁè¯Ŀ":10370,"çļĦçĨ":10371,"çļĦçı":10372,"ç¬ĳå£°":10373,"ä»İèĻļç©º":10374,"åĨįåİ»":10375,"é«ĺèĢ¸":10376,"ä¿¡å¥ī":10377,"åįĬéĢıæĺİçļĦ":10378,"éħĿéħ¿":10379,"èµ°åħ¥":10380,"èĬĤçļĦ":10381,"æľĪåĪĿ":10382,"ä¸īç§į":10383,"è½¬è½®":10384,"éļĲåĲ«":10385,"è±Įè±Ĩ":10386,"éļ¾åħį":10387,"åı¯èĥ½çļĦ":10388,"ä½İåĵĳ":10389,"ç»ĵå©ļ":10390,"åľºéĿ¢":10391,"å·¨äººçļĦ":10392,"ç©¿ä¸Ĭ":10393,"è¥¿éĩĮæĸ¯":10394,"å¹³å¸¸":10395,"è¿Ļæĺ¯åĲ¦":10396,"åĽ¾æ¡Ī":10397,"ĠéĤ£æĺ¯ä¸Ģä¸ª":10398,"è¿ĺæľīä»Ģä¹Ī":10399,"è¿ĺæľīåĪ«çļĦ":10400,"é²¸":10401,"é£ŀåĩº":10402,"è°ĥä¾ĥ":10403,"Ġä¸įç®¡":10404,"Ġä¸įæĦ§æĺ¯":10405,"èĤīä½ĵ":10406,"æĮīäºĨæĮī":10407,"çĵľ":10408,"ç¬¬ä¸ĢåĿĹ":10409,"ç¾İçļĦ":10410,"å¥ĹçĿĢ":10411,"ä¹Łè®¸ä¼ļ":10412,"åĩĿè§Ĩ":10413,"éĺ¿åħ¹åħĭåħĪçĶŁçļĦ":10414,"é»ĳæļĹä¸Ń":10415,"å£ģçģ¯":10416,"åĨ°åĩī":10417,"æĻºåķĨ":10418,"æĥħç»ªçļĦ":10419,"é²ģæģ©äºº":10420,"ä¹°äºĨ":10421,"æĽ¾ç»ıæĺ¯":10422,"ä¿®éģĵéĻ¢":10423,"è½»è½»çĤ¹å¤´":10424,"çĵ¦åĵĪå¨ľ":10425,"æ´Ĺæ¼±":10426,"çļĦæīĭå¥Ĺ":10427,"æĪĲçļĦåįķçīĩçľ¼éķľ":10428,"åĺ´è§Ĵéģĵ":10429,"é¦Ļæ§":10430,"çĤ¹äºĨåĽĽä¸ĭ":10431,"ç¬¬ä¸ĢçĻ¾ä¸ĥ":10432,"æµ®çİ°åĩºäºĨä¸Ģ":10433,"ä¼´éļı":10434,"çĿģå¼ĢäºĨ":10435,"å°ĨçĽ®åħīæĬķåĲĳ":10436,"éķ¿è¢įçļĦ":10437,"æħĮå¿Ļ":10438,"å¥ĩè¿¹ä¹ĭåŁİ":10439,"åĩŃåĢŁ":10440,"èĪªè¡Į":10441,"å¸ĥç½®ä»ªå¼ı":10442,"å¥ĩå¼ĤçļĦ":10443,"èĭıå°¼äºļå²Ľ":10444,"æĳĨæĶ¾çĿĢ":10445,"é¼ĵèµ·":10446,"æľªçŁ¥çļĦ":10447,"éļĲèĶ½åľ°":10448,"åĩ¸æĺ¾äºĨåĩºæĿ¥":10449,"éĿłæĭ¢è¿ĩåİ»":10450,"åĺĢåĴķäºĨä¸Ģåı¥":10451,"åı¦å¤ĸä¸Ģä¾§":10452,"ĠéľįçĦ¶éĹ´":10453,"å¸ĨèĪ¹":10454,"æħ·æħ¨ä¹ĭåŁİ":10455,"åĬłå°Ķæĸĩ":10456,"çĶ»äºĨä¸ªç»¯çº¢ä¹ĭæľĪ":10457,"åĥ»éĿĻ":10458,"è¡£å¸½æŀ¶":10459,"çļĦç¾Ĭçļ®çº¸":10460,"çĲ¢ç£¨":10461,"è¢«ç¼ļä¹ĭç¥ŀ":10462,"é¦Ļæ§Ł":10463,"2000":10464,"·ç¼©":10465,"ĠçĶ¨":10466,"ĠåĩºäºĨ":10467,"Ġç½Ĺå¡ŀå°Ķ":10468,"Ġå¨ģå°Ķ":10469,"ĠçľŁæĺ¯":10470,"ĠéĿ¢å¯¹":10471,"ĠèĭıèĮľ":10472,"Ġèµ«æ¸©":10473,"çļĦä¸¤":10474,"çļĦä¸įæĺ¯":10475,"çļĦçŁ¥è¯Ĩ":10476,"ä¸ĢéĹ®":10477,"ä¸ĢæĹı":10478,"æĺ¯ä¸ºäºĨ":10479,"è¿Ļæŀļ":10480,"èĢ»":10481,"æĪĳè¿Ļä¸ª":10482,"éĤ£æłĭ":10483,"åĩºéĹ®é¢ĺ":10484,"ä¸Ĭè¾ĪåŃĲ":10485,"æ²¡äºĭ":10486,"èĩªè¨Ģ":10487,"ä½łå°Ĩ":10488,"èº«å¿ĥ":10489,"æĥħæĦŁ":10490,"æĥ³å¥½":10491,"æĥ³çŁ¥éģĵ":10492,"è¯´è¾¹":10493,"è¯´åĩºäºĨ":10494,"è¯´äºĨä¸Ģåı¥":10495,"è¯´è¾ŀ":10496,"æ¯Ļ":10497,"æ²¡æľīåĬŀæ³ķ":10498,"å¤´çļ®":10499,"éĥ½å±ŀäºİ":10500,"éĥ½åıĺå¾Ĺ":10501,"å¿ĥçĸ¼":10502,"å¾Īæ·±":10503,"ä¸Ńäº§":10504,"æĹłèģĬ":10505,"Ġä»ĸå°Ĩ":10506,"Ġä»ĸè¯ĿéŁ³æľªèĲ½":10507,"è¢«æ±¡æŁĵ":10508,"ä½ĵç³»":10509,"åħ¥æ¢¦":10510,"ä½Ĩä¾ĿæĹ§":10511,"æľĢä½İ":10512,"ç¼Ģ":10513,"ä»İä»ĸ":10514,"æīĢè§ģ":10515,"æķĻå¸Ī":10516,"å®īéŃĤ":10517,"å®īçľł":10518,"èµ°äºĨåĩłæŃ¥":10519,"ç»ĻçļĦ":10520,"æįº":10521,"åĪ¶æĪĲ":10522,"èģª":10523,"æĶ¾çºµ":10524,"è¡ĢæľĪ":10525,"åĩºäºĨéĹ®é¢ĺ":10526,"åı¤æľ´":10527,"å¯ĨçļĦ":10528,"é©¬æĪı":10529,"å¹³åİŁ":10530,"ç¿ħèĨĢ":10531,"è¿ĺæĺ¯å¾Ĺ":10532,"æķ´çīĩ":10533,"èĹī":10534,"æļ´éĽ¨":10535,"åı¦ä¸Ģ":10536,"æŀģæľī":10537,"èĪ¹ç¥¨":10538,"åĨ³å¿ĥ":10539,"éģĩä¸ĬäºĨ":10540,"æĳĩäºĨä¸ĭå¤´":10541,"æĢ»è§īå¾Ĺ":10542,"ç±³é«ĺçļĦ":10543,"é¥®":10544,"æĮīæįº":10545,"åįĬç¥ŀçļĦ":10546,"ç®¡çĲĨ":10547,"ç¿»åĪ°äºĨ":10548,"çŁŃçŁŃ":10549,"é¡¶çĿĢ":10550,"ç¬¬äºĮæĽ´":10551,"æ´Ľç»ľ":10552,"è¿·è·¯":10553,"åıĳçĶŁçļĦ":10554,"åıĳçĶŁè¿ĩ":10555,"äºĨä¸¤ä¸ª":10556,"æµ®åĬ¨":10557,"åħŃç¿¼":10558,"çĿ¡çľł":10559,"èĢĥèĻĳèµ·":10560,"çļĦå¤§äººçī©":10561,"çľ¼çľ¸åĨħ":10562,"æķħä½ľ":10563,"é½Ĳé½Ĳ":10564,"åģļåĩºåĨ³å®ļ":10565,"åį·åħ¥":10566,"éĢĥèµ°":10567,"éĩįè¦ģçļĦäºĭæĥħ":10568,"è£Ĥç¼Ŀ":10569,"æł¹æľ¬æ²¡æ³ķ":10570,"çº¹ç«ł":10571,"ç¡®å®ļäºĨ":10572,"å½Ĵäºİ":10573,"èľ·ç¼©":10574,"æ²¹çĦ¶":10575,"åıįåºĶè¿ĩæĿ¥":10576,"å¥½åĩłæ¬¡":10577,"æ¶Įåĩº":10578,"åĪ¶éĢłçļĦ":10579,"æĽ¿æį¢":10580,"é¢Ķé¦ĸéģĵ":10581,"ç¬¬ä¸īä¸ª":10582,"æľ«äºĨ":10583,"äº¤æĺĵå¸Ĥåľº":10584,"å¹¿æ³Ľ":10585,"æĢĶæĢĶ":10586,"è¿ĻçīĩåĮºåŁŁ":10587,"æĬĬæı¡åĪ°":10588,"é»ĦéĩĳéĿ¢åħ·":10589,"å®½éĺĶ":10590,"æĪ´èİīå¥³å£«":10591,"èħĲçĥĤçļĦ":10592,"æĭįäºĨä¸ĭ":10593,"åŁĭèĳ¬":10594,"æĵ¦æĭŃ":10595,"çļĦé£İæł¼":10596,"èĭıåĭĴçļĦ":10597,"æĭ¥æĬ±":10598,"èĪªæµ·":10599,"çĳŁå¤«":10600,"æ©±":10601,"æīĵäºĨä¸ªå¯Ĵé¢¤":10602,"å¯ĦçĶŁèĢħ":10603,"ç¨Ģå°ĳ":10604,"ç¨ĢèĸĦ":10605,"çļĦç¼ĺ":10606,"çłģå¤´åĮº":10607,"æ¾¡":10608,"èħķéĥ¨":10609,"åį¡å°Ķæ£®":10610,"å¯¹æĪĳæĿ¥è¯´":10611,"æĮĸæİĺ":10612,"ä¸įåıĹæİ§åĪ¶":10613,"ä½©æĪ´èĢħ":10614,"æľĢå¼ºçĮİäºº":10615,"åĮĹæĸ¹ä¹ĭçİĭ":10616,"çŃ¹çłģ":10617,"çŁ³åĥıé¬¼":10618,"çĽ´èµ·èº«ä½ĵ":10619,"éĩĳè¾¹çľ¼éķľ":10620,"çģ°éĽ¾ä¹ĭä¸ĬçļĦç¥ŀç§ĺä¸»å®°":10621,"èħĭä¸ĭ":10622,"æ´Ľç»ľå¡Ķ":10623,"Ġä½ł":10624,"Ġä»Ģä¹Ī":10625,"Ġæį®":10626,"Ġä¹Łè®¸":10627,"ĠæľĢç»Ī":10628,"Ġåį³ä½¿":10629,"Ķç¾Ĭ":10630,"çļĦå¼Ĥå¸¸":10631,"çļĦè¯ħåĴĴ":10632,"çļĦå½¢å¼ı":10633,"ä¸Ģæľµ":10634,"æĺ¼":10635,"åĪĬ":10636,"ä¸įæĺİ":10637,"ä¸įå®Įæķ´":10638,"æĪĳæĽ´":10639,"æĪĳæĢİä¹Ī":10640,"æĪĳåİŁæľ¬":10641,"å¸·":10642,"åħĭèİ±æģ©ç»Īäºİ":10643,"åħĭèİ±æģ©åĨįæ¬¡":10644,"åĩºä¼Ĺ":10645,"å°±è®©":10646,"åĴĮä¹ĭåīį":10647,"åĴĮçĽ¸åºĶçļĦ":10648,"ä¼ļæĺ¯":10649,"çĤ«":10650,"äºİå¿ĥéĩĮ":10651,"æĥ³çļĦ":10652,"å±ĳ":10653,"æ²¡æľīåĪ«çļĦ":10654,"éĥ½å·²ç»ı":10655,"è®©ç§ĺåģ¶":10656,"å¥¹å¯¹":10657,"å¾ĪæĬ±æŃī":10658,"å¤ļæľĪ":10659,"Ġä»ĸå¯¹":10660,"å®ļæł¼":10661,"è¢«æĪĳ":10662,"åºĶçĶ¨":10663,"åĲĮç±»":10664,"å£°èī²":10665,"æľĢæľī":10666,"ç§ĺæ³ķå¸Ī":10667,"æ±ª":10668,"æīĢçŁ¥":10669,"å¦Ĥå®ŀ":10670,"æŀľå®ŀ":10671,"ä½ıæīĢ":10672,"é«ĺéĢŁ":10673,"ä»ĸä»¬éĥ½":10674,"éĩĳé¦Ļ":10675,"è®¤åĩºäºĨ":10676,"æ·±æļĹ":10677,"æįī":10678,"æī¾æĪĳ":10679,"åįģåĪĨéĴŁ":10680,"ä½ľåĵį":10681,"æŃ»äºº":10682,"é£İåĲ¹":10683,"å¥¥é»Ľä¸½åĴĮ":10684,"äºĨä¸ĭåĺ´åĶĩ":10685,"æĭ¿çĿĢä¸Ģ":10686,"å¦Ĥæŀľä¸į":10687,"å¸¦èµ°":10688,"ï¼ģâĢĿâĢľ":10689,"åĩºçİ°åľ¨":10690,"ç»´åħĭ":10691,"ç«łèĬĤ":10692,"å¤ªéĺ³ç©´":10693,"éŃĶèį¯åĲįç§°":10694,"æģ¶åĬ£":10695,"éĺ¿èĴĻåĪĨèº«":10696,"èĪ¹èĪ·":10697,"æĹģåĲ¬":10698,"å²Ķ":10699,"è¿Ļç§įç¨ĭåº¦":10700,"è¿Ļç§įæĥħåĨµä¸ĭ":10701,"éĨĴæĤŁ":10702,"éĶĻäºĨ":10703,"æĮīèĥ¸":10704,"çĸ¯äºĨ":10705,"çĸ¯æİī":10706,"è¸¢":10707,"äº§çī©":10708,"æ´¾ç³»":10709,"éĴ±çļĦ":10710,"å¿įä½ıäºĨ":10711,"çªĹå¤ĸçļĦ":10712,"åŃĶæ´ŀ":10713,"éĢĶå¾ĦçļĦå¤©ä½¿":10714,"å¾Īå¤ļæĹ¶åĢĻ":10715,"çļĦå¤§æµ·":10716,"æĿĤä¹±":10717,"åĵĪæ£®":10718,"æĺ¯åĲ¦èĥ½":10719,"æĸ¯çī¹è¡Ĺ":10720,"æĬµå¾¡":10721,"è§Ħå®ļ":10722,"åĪºç©¿":10723,"åĪºå®¢":10724,"å®īéĿĻåĲ¬å®Į":10725,"èĨľ":10726,"è§£åĨ³æİī":10727,"éĹŃçľ¼çĿĽ":10728,"ç«ŁçĦ¶æĺ¯":10729,"åıłåĬł":10730,"è¾Ľèĭ¦":10731,"åī§åľº":10732,"è¸ªè¿¹":10733,"æŀľçĦ¶æĺ¯":10734,"å°ĸå¡Ķ":10735,"å°ĸéĶĲ":10736,"å¥½å¥ĩéĹ®éģĵ":10737,"æĮ¥èĪŀ":10738,"åĿļç¡¬":10739,"å¼ĹèĲ¨åħĭäºº":10740,"åº·æĸ¯é¡¿":10741,"è¡¥åħħäºĨä¸Ģåı¥":10742,"éĥģéĩĳé¦Ļ":10743,"èħ¹éĥ¨":10744,"ç¬¬åĽĽçºªçļĦ":10745,"æĭ³åĩ»":10746,"çļĦé«ĺå±Ĥ":10747,"ä½İè¯ŃäºĨä¸Ģåı¥":10748,"éĢĨè½¬":10749,"æĭ¾åıĸ":10750,"å¿Ļç¢ĮçĿĢ":10751,"æ¯«ä¸įçĬ¹è±«åľ°":10752,"æ¦Ĥçİĩä¹ĭ":10753,"éŃĶèį¯çļĦéħįæĸ¹":10754,"ç¤¾äº¤":10755,"æĦŁåºĶåĪ°":10756,"åĽĽä¸ªéĩĳåıĳçº¢çľ¼":10757,"åįłæį®äºĨ":10758,"èµ·å±ħå®¤åĨħ":10759,"èĲ¥åľ°":10760,"è½¨åħ¬åħ±é©¬è½¦":10761,"åĴķåĵĿäºĨä¸Ģåı¥":10762,"æī©æķ£":10763,"å®īä¹Ĳæ¤ħä¸Ĭ":10764,"åī¥å¤º":10765,"æİºåĲĪ":10766,"åħ¨çŁ¥åħ¨èĥ½":10767,"å¥´éļ¶":10768,"çľ©æĻķ":10769,"æ©±æŁľ":10770,"Ġéĺ¿éĩĮå®īå¨ľ":10771,"Ġéļ¾æĢª":10772,"Ġè¿Īåħĭ":10773,"ķåĬ¨":10774,"çļĦåľ£":10775,"çļĦæ±¡æŁĵ":10776,"çļĦåĪ¤æĸŃ":10777,"çļĦæķĮäºº":10778,"çļĦèĦ¸åŃĶ":10779,"çļĦçĶ·äºº":10780,"ä¸Ģæīĩ":10781,"ä¸Ģæľ¬ä¹¦":10782,"ä½³":10783,"æĺ¯èĩªå·±":10784,"æĺ¯æĮĩ":10785,"æľīåºıåĪĹ":10786,"è¿ĻæŃ£æĺ¯":10787,"ç»³":10788,"ç»Ĵ":10789,"çĶĺ":10790,"æĪĳæĦŁè§ī":10791,"æĪĳçĶļèĩ³":10792,"åħĭèİ±æģ©åĪļ":10793,"åħĭèİ±æģ©æĥ³äºĨæĥ³":10794,"åħĭèİ±æģ©å¾®ç¬ĳ":10795,"éĤ£ä¸¤":10796,"éĤ£åıĮ":10797,"åľ°æľĽåĲĳ":10798,"ä¹ĭæĪĺ":10799,"å¤§å£°":10800,"åĲİéĿłä½ıæ¤ħèĥĮ":10801,"çĶŁçĶŁ":10802,"äºĨä¸Ģå¼ł":10803,"å±ł":10804,"è¯´çĤ¹ä»Ģä¹Ī":10805,"è¿ĺä¸į":10806,"åıĳäº®":10807,"å¤´éª¨":10808,"å¤´çĸ¼":10809,"å¥¹æĺ¯":10810,"å¥¹æīį":10811,"æŃ£ç»Ł":10812,"çĶ¨çļĦæĺ¯":10813,"åģļå¾Ĺ":10814,"éŃĤçļĦ":10815,"ä¸¤çĤ¹":10816,"çĻ½çİĽçĳĻ":10817,"åĩłçľ¼":10818,"çĽ´éĿ¢":10819,"åĨįæľī":10820,"åķ°":10821,"ç¬¬ä¹Ŀåįģ":10822,"èµ°äºĨè¿ĩæĿ¥":10823,"ä¸īåĽĽ":10824,"æī¾åĽŀ":10825,"è¡Ģçº¢":10826,"ç©ºéļĻ":10827,"åı¯èĥ½åŃĺåľ¨çļĦ":10828,"åĬłæ·±":10829,"åĬłå¼º":10830,"å¸ķå¾·":10831,"åįķäºº":10832,"å¹³ç¼ĵ":10833,"å¹³æĸ¯çī¹è¡Ĺ":10834,"ç«ĭåľ¨éĤ£éĩĮ":10835,"ä¹¦ä¿¡":10836,"ä¹ĭä¸ĬçļĦ":10837,"æķ´åº§":10838,"è¿Ļæĺ¯æĪĳçļĦ":10839,"åĽ¾è°ĭ":10840,"è·¯çº¿":10841,"é¦ĸéĥ½":10842,"èĻļåĮĸ":10843,"è¿ĺæľīä¸Ģä¸ª":10844,"å·¦èĥ¸":10845,"è¿ľçļĦåľ°æĸ¹":10846,"ç²¾åĩĨ":10847,"äºĶæĮĩ":10848,"æİ¨äºĨ":10849,"åħ¬è¯ģ":10850,"åıĺå¾Ĺæŀģä¸º":10851,"ç±³æĸ¯çī¹æĭīå°Ķ":10852,"éĶĻè¿ĩ":10853,"éĢıçĿĢ":10854,"èĵ¬":10855,"éĽ·å¸ķå¾·":10856,"ç®¡éģĵ":10857,"çĶļåľ¨æĦı":10858,"èŃ¦åĳĺ":10859,"å®Įåħ¨ä¸į":10860,"çļĦä¸Ģç§į":10861,"æŁĵè¡Ģ":10862,"å¼ķé¢Ĩ":10863,"å¹¶ä¸įæ¸ħæ¥ļ":10864,"å°¸éª¨":10865,"ä¸ĥä½į":10866,"çĽ®æłĩæĺ¯":10867,"å·®è·Ŀ":10868,"æĬĵæįķ":10869,"æľīä¸Ģç§į":10870,"åİĭè¿«":10871,"åĵĪæ¬ł":10872,"åı¤èĢģæĢ¨çģµ":10873,"çľŁæĺ¯å¤ª":10874,"æ®ĭç¼º":10875,"è¿ħéĢŁå°±":10876,"æĪ¿å±ĭåĨħ":10877,"ä¸Ģéģĵèº«å½±":10878,"æķ²åĩ»":10879,"å¼±å°ı":10880,"æ®¿ä¸ĭ":10881,"æķĮäººçļĦ":10882,"éĹ»åĪ°äºĨ":10883,"åĪĽä½ľ":10884,"åĪĽä¼¤":10885,"æĺłåħ¥äºĨ":10886,"èĴ¸æ±½æķĻä¼ļ":10887,"è£ĻæĳĨ":10888,"å®ģæĦ¿":10889,"éķ¶éĵ¶":10890,"çİ»çĴĥçĵ¶":10891,"éĽ¨æ°´":10892,"åĽłèĴĤæĸ¯åħ±åĴĮåĽ½":10893,"å¼¯æĽ²":10894,"ç»¯çº¢æľĪåħī":10895,"é½ĲæŀĹæł¼æĸ¯çļĦ":10896,"æĦŁåı¹éģĵ":10897,"åĪ¶ä½ľçļĦ":10898,"è´¢æĶ¿":10899,"çŁŃæļĤç«Ł":10900,"æĮ¡ä½ıäºĨ":10901,"éĵºçĿĢ":10902,"å©ļå§":10903,"åīĬå¼±":10904,"å®ĹæķĻ":10905,"èĤ¯å®ļçļĦçŃĶå¤į":10906,"ä¸įåĬ¨å£°èī²":10907,"è°¦åįĳ":10908,"åĨ°éľľå·¨é¾Ļ":10909,"éĤªæķĻå¾Ĵ":10910,"åŁ¹åħ»":10911,"Ġåľ¨ä»ĸçľĭæĿ¥":10912,"Ġç¬¬äºĮå¤©":10913,"ç¾¡æħķ":10914,"å¤§æ°Ķæ±¡æŁĵ":10915,"é¥¶æľīåħ´èĩ´":10916,"ä¸ľåĪĩæĸ¯çī¹éĥ¡":10917,"èģªæĺİ":10918,"é©¬æĪıåĽ¢":10919,"æ¦Ĥçİĩä¹ĭéª°":10920,"¹æ¶Į":10921,"ĠãĢĬ":10922,"ĠåĲ¬å®Į":10923,"ĠåĪ¹éĤ£":10924,"çļĦçģµ":10925,"çļĦçī¹æĢ§":10926,"çļĦéĵģ":10927,"çļĦè§Ĩçº¿":10928,"çļĦèİİä¼¦":10929,"çļĦèĦ¸ä¸Ĭ":10930,"çļĦå®ŀåĬĽ":10931,"äºĨäºĽ":10932,"ä¸ĢåıĮ":10933,"æĺ¯å¯¹":10934,"æĺ¯åı¯ä»¥":10935,"ä¸įå¤§çļĦ":10936,"ä¸įå¹¸":10937,"ä¸įçĶļåľ¨æĦı":10938,"è¿Ļä¼ļä¸įä¼ļ":10939,"ä»ĸçŁ¥éģĵ":10940,"åľ¨åľ°ä¸Ĭ":10941,"æĪĳçľĭ":10942,"åħĭèİ±æģ©åĲĲäºĨåı£æ°Ķ":10943,"äººè®¾":10944,"ä¸ĭéĿ¢":10945,"ä¸ĭéĻį":10946,"éĢĹ":10947,"çº½":10948,"ä¼ļçĽ´æİ¥":10949,"çŁ¿":10950,"åıĳä¸Ŀ":10951,"å¿ĥè·³":10952,"å¤ļäºĨåĩłåĪĨ":10953,"æĦıåľ°":10954,"ä¸ŃåºıåĪĹ":10955,"è§ģè¿ĩçļĦ":10956,"çĶ¨ä»Ģä¹Ī":10957,"å¦ĸ":10958,"ä¸Ģä¸ªæİ¥ä¸Ģä¸ª":10959,"åģļäºĨä»Ģä¹Ī":10960,"åħ¥çĿ¡":10961,"åıĪä¸ĢæĿ¡":10962,"å½ĵæĪĲ":10963,"ä¸¤ç±³":10964,"éķ¿åĩº":10965,"æ±¹æ¶Į":10966,"ä¸»è§Ĵ":10967,"åįĬè½¬":10968,"å¥¥é©¬":10969,"æľĪåºķ":10970,"æīĵçīĮ":10971,"å¨±ä¹Ĳ":10972,"å¥ĩçī¹çļĦ":10973,"éļĲéļĲçº¦":10974,"è½»åĴ³":10975,"å¾®åį·":10976,"é©Ń":10977,"åĪ©å¥¥é©¬":10978,"èĲ½èĩ³":10979,"çļĦäºĭæĥħäºĨ":10980,"ä¸įä¼ļè¢«":10981,"æĢİä¹Īåģļ":10982,"ç¿ķåĬ¨":10983,"åĭº":10984,"çħ¦":10985,"åºĶè¯¥èĥ½":10986,"åĳĬæŃ»åı·":10987,"é»ĳèī²éĥģéĩĳé¦Ļ":10988,"çģ«ç§į":10989,"æĮģç»Ń":10990,"ç»Ĩçº¿":10991,"é¢Ħå®ļ":10992,"é¢Ħéĺ²":10993,"éĺ´ç»¿":10994,"åģľæ»ŀ":10995,"æ·¡èĸĦ":10996,"ä¸įå°ĳäºº":10997,"æĬķåħ¥":10998,"æĬķåħ¥äºĨ":10999,"æĥĬæħĮ":11000,"ç¬¬ä¸Ģçºª":11001,"åĨĽçģ«":11002,"æķ£åİ»":11003,"è¿½éĹ®":11004,"è¿½æįķ":11005,"çĬ¶æĢģä¸ĭ":11006,"é¤Ĳæ¡Į":11007,"çªĹåı£":11008,"è¶³å¤ŁäºĨ":11009,"çİ°å®ŀçļĦ":11010,"æĢ¥ä¿ĥ":11011,"æİ§åĪ¶ä½ıäºĨ":11012,"æĿ¥èĩªäºİ":11013,"çģ«çĦ°è·³è·ĥ":11014,"ç¥Īæ±Ĥå£°":11015,"åįĹåĮĹå¤§éĻĨ":11016,"åĿĲåľ¨éĤ£éĩĮ":11017,"åºĬè¾¹":11018,"æİ¥è§¦è¿ĩ":11019,"æľīæīĢæĺİæĤŁ":11020,"äºļçī¹é²ģ":11021,"æĮ¥æīĭ":11022,"åľŁåľ°":11023,"çļĦçĸ¼":11024,"éģ®ä½ı":11025,"æıĲçĿĢé©¬çģ¯":11026,"è¡Ĺéģĵä¸Ĭ":11027,"æĢĴåĲ¼":11028,"å¼¯ä¸ĭ":11029,"éĩįå¤įäºĨä¸Ģéģį":11030,"æŀĦæĪĲ":11031,"æŀĦå»º":11032,"ä¼ĺç§Ģ":11033,"éŃĶéķľåįłåįľ":11034,"çĻ»ä¸ĬäºĨ":11035,"æ±Ĥæİ¨èįĲç¥¨æľĪç¥¨":11036,"å¸ĺå¸ĥ":11037,"æ©¡":11038,"æ°´æīĭä»¬":11039,"éļıåı£éĹ®éģĵ":11040,"åįĬé«ĺç¤¼å¸½":11041,"å»īä»·":11042,"äºĨå¥½åĩłç§Ĵ":11043,"äºİå°Ķæł¹å¾ĭå¸Ī":11044,"åĨłåĨķ":11045,"æĦļèł¢":11046,"çļĦç´§":11047,"å¨ĥå¨ĥ":11048,"è´ĿåĪ©äºļ":11049,"æĴ¬åĬ¨":11050,"é©¾é©Ń":11051,"åĶ¯ä¸ĢçļĦéĹ®é¢ĺæĺ¯":11052,"å¥¥åĪ©å®īå¨ľ":11053,"ĠæĹ¶éĹ´ä¸ĢåĪĨä¸Ģç§Ĵ":11054,"æĬĵç´§æĹ¶éĹ´":11055,"è¿ªå°ĶæŁ¥":11056,"åħŃç¿¼çŁ³åĥıé¬¼":11057,"éļĲéļĲçº¦çº¦":11058,"åĪ©å¥¥é©¬æĸ¯çī¹":11059,"18":11060,"3000":11061,"ĠåķĬ":11062,"ĠåĸĢåļĵ":11063,"çļĦæīĢæľī":11064,"çļĦç§ĺåģ¶":11065,"çļĦç¥Īç¥·":11066,"çļĦèŃ¦å¯Ł":11067,"çļĦåŃ©åŃĲ":11068,"çļĦå»ºçŃĳ":11069,"äºĨå°ĳè®¸":11070,"ä¸ĢçŃī":11071,"ä¸ĢæĦ£":11072,"æĪĳè¯¥":11073,"æĪĳåıªèĥ½":11074,"éĿ¶":11075,"åħĭèİ±æģ©éģĵ":11076,"çĿĢèĩªå·±çļĦ":11077,"èµģ":11078,"åĩºèī²çļĦ":11079,"æĿ¥å¾Ģ":11080,"åĴĮåħ¶ä»ĸ":11081,"ä¹ĭæĦı":11082,"è¿ĩå¾Ĺ":11083,"ç¬Ľ":11084,"ç¥ŀæĿ¥":11085,"å¾ĹäºĨ":11086,"èº«äº¡":11087,"çľĭå®Į":11088,"è¦ģç´ł":11089,"åīįéĿ¢çļĦ":11090,"è¯´äºĨ":11091,"èĢĮä»ĸ":11092,"åıªå¾Ĺ":11093,"æīĭç¨¿":11094,"æ²¡æľīå¼Ģåı£":11095,"éĥ½ä¸įçŁ¥éģĵ":11096,"å¤ļä¹Ī":11097,"æĹłè§Ĩ":11098,"å°ıäºĭ":11099,"ä¸Ģä¸ªåºıåĪĹ":11100,"çŃīåľ°æĸ¹":11101,"æł¼æŀĹ":11102,"å½ĵçĿĢ":11103,"è°į":11104,"éķ¿æ»¡":11105,"èĤĺ":11106,"åĩłçĻ¾":11107,"å¸¸è§ģçļĦ":11108,"åıĺå¤§":11109,"ä¸»äººçļĦ":11110,"è¾¹è¯´è¾¹":11111,"å®ĥä¼ļ":11112,"Ġåħĭèİ±æģ©åĪļ":11113,"è§Ĩè§ī":11114,"ç©ºæ´ŀ":11115,"å¾ĢçĿĢ":11116,"æĪĳä»¬å¿ħé¡»":11117,"ç¨Ķ":11118,"åı¯èĥ½ä¼ļ":11119,"åħ¶æ¬¡":11120,"å·¨èĽĩ":11121,"ä¼¼ä¹İè¦ģ":11122,"ä»£åı·":11123,"æ´»äºĨè¿ĩæĿ¥":11124,"åºķä¸ĭ":11125,"é¡¿äºĨä¸Ģä¸ĭ":11126,"çİ°åľ¨å°±":11127,"æĪĺå£«":11128,"çľ¼çĿĽä¸Ģäº®":11129,"çļĦéĤ£é¢Ĺ":11130,"è¿Ļä¹ĪçľĭæĿ¥":11131,"ç®Ģæľ´":11132,"å¹»æľ¯":11133,"éģĹå¼ĥ":11134,"èĤīåĿĹ":11135,"åĨ·æ±Ĺ":11136,"ç³»åĪĹ":11137,"ä½įç½®åĿĲä¸ĭ":11138,"åĨĽéĺŁ":11139,"åıªæľīåºıåĪĹ":11140,"ä¹Łè®¸å°±æĺ¯":11141,"çģµæĢ§çļĦ":11142,"çĭĤçĥŃ":11143,"çļĩåĨł":11144,"ä¼¤åĬ¿":11145,"æµ®å¤¸":11146,"æ¦ľ":11147,"æľīä¸Ģéģĵ":11148,"çĨŁäºº":11149,"çĨŁç¨Ķ":11150,"æµ·çĽĹåĽ¢":11151,"åħĭèİ±æģ©çļĦèº«å½±":11152,"æķ¢äºİ":11153,"è¿Ļä¸ĢæŃ¥":11154,"ç²¾ç¥ŀæ±¡æŁĵ":11155,"é¡ºåºı":11156,"é£ŀå¿«åĭ¾åĭĴ":11157,"çºªåħĥ":11158,"ä¸´è¿ĳ":11159,"éĺ¶å±Ĥ":11160,"ç¡®å®ŀæľī":11161,"Ġè¯´çĿĢ":11162,"çľĭåĪ°è¿Ļä¸Ģå¹ķ":11163,"éģŃéģĩäºĨä»Ģä¹Ī":11164,"æĻĭåįĩä»ªå¼ı":11165,"çļĦä¿¡ä»°":11166,"è¡¨çİ°åĩºäºĨ":11167,"å¥Ķæ¶Į":11168,"ç©¶ç«ŁåıĳçĶŁäºĨä»Ģä¹Īäºĭæĥħ":11169,"åįĹåĮº":11170,"æĬ±æĢ¨":11171,"æ·±å¤ĦçļĦ":11172,"å°ĸåı«":11173,"æİ¥åıĹäºĨ":11174,"ä¾įå¥³":11175,"ä¸įå¤ªä¸Ģæł·":11176,"æľ«å°¾":11177,"çĭ¬çī¹":11178,"æĤ¬å´ĸ":11179,"éĢĴç»Ļ":11180,"ç§Łèµģ":11181,"ä¾§å¤´å¯¹":11182,"åĲĵå¾Ĺ":11183,"ç»ĻäºĪçļĦ":11184,"å®īåħ¨èĪªéģĵ":11185,"ä¸Ģåıªæīĭ":11186,"æŀģåħīä¼ļçļĦ":11187,"åŁĭä¼ı":11188,"æ»ŀæ¶©":11189,"ä¸ĭæĸ¹çļĦ":11190,"è¿İæİ¥":11191,"éĢĿåİ»":11192,"ä¹¦æ¡Įåīį":11193,"äºĳå±Ĥ":11194,"èĦ±åı£éĹ®éģĵ":11195,"åĪĽéĢłä¸ĢåĪĩ":11196,"æĹłæļĹèĢħ":11197,"æĭĲè§Ĵ":11198,"é«ĺèĥĮæ¤ħä¸Ĭ":11199,"çĮ«å¤´é¹°":11200,"æ´»è·ĥäºİ":11201,"æµİè´«":11202,"åĽļçĬ¯":11203,"çĻ½ä¹ĭéŃĶå¥³":11204,"è¿¸åıĳ":11205,"çļĦç¢İ":11206,"æĮīå¼ĢçľĭäºĨä¸Ģçľ¼":11207,"çķ¸å½¢":11208,"çľĭéĹ¨äºº":11209,"ä¸Ģæ¨¡ä¸Ģæł·":11210,"åķ°åĹ¦":11211,"ĠåŁºäºİ":11212,"çļĦçĻ½":11213,"çļĦåĲĹ":11214,"çļĦå¸ĥ":11215,"çļĦéĤĵæģ©":11216,"çļĦéĩįè¦ģ":11217,"çļĦåįķè¯į":11218,"çļĦä½ľçĶ¨":11219,"çļĦåĬ¨éĿĻ":11220,"ä»ĸè¿ĺæĺ¯":11221,"ä»ĸåºĶè¯¥":11222,"åľ¨æŃ¤ä¹ĭåīį":11223,"åħĭèİ±æģ©å½ĵåį³":11224,"éĤ£ä¸ī":11225,"åĪ°æĪĳ":11226,"åľ°åıĳçİ°":11227,"æĿ¥è®¿":11228,"åĴĮèĩªå·±":11229,"æ²¡éĤ£ä¹Ī":11230,"ä¹ĭä½Ļ":11231,"ä½łæľīä»Ģä¹Ī":11232,"åĲİæŀľ":11233,"çľĭæ³ķ":11234,"ä¹Łåıªæĺ¯":11235,"äºİåĨħ":11236,"è¦ģçŁ¥éģĵ":11237,"å¼ĢéĶĢ":11238,"è¿ĺä»¥ä¸º":11239,"åıĳæĬĸ":11240,"åĮª":11241,"å°Ĩæĺ¯":11242,"çī¹å®ļçļĦ":11243,"åİ»çľĭ":11244,"éĥ½æľª":11245,"å¿ĥçļĦ":11246,"Ġä»ĸåľ¨":11247,"ä½ĵéĿ¢":11248,"ä½Ĩå¯¹":11249,"åĿĩ":11250,"ä¸¤ä»½":11251,"åĪĨéħį":11252,"ç¬ĳå¾Ĺ":11253,"å®ŀçļĦ":11254,"æĦŁå®ĺ":11255,"æĦŁæ¿Ģ":11256,"åıĺå½¢":11257,"çĽ¸åıį":11258,"å®ĥèĥ½":11259,"æķĻçļĩ":11260,"éĩįéĩı":11261,"å¹¶åľ¨":11262,"åķĥ":11263,"åįĬèº«":11264,"åįĬçĤ¹":11265,"æ·±æµ·":11266,"ä¼¦åł¡":11267,"è½¬è¾¾":11268,"æĶ¾åĽŀäºĨ":11269,"é£İå£°":11270,"æ¸ħæ´Ĺ":11271,"åĹľ":11272,"åĲįå£°":11273,"å¦ĤæŀľçľŁæĺ¯":11274,"åħ³ä¸ĬäºĨ":11275,"åĢĴåľ¨äºĨ":11276,"å¹³ç¨³":11277,"èĢĥæĻ®æĸ¯":11278,"å¡ŀåħ¥äºĨ":11279,"èĮĦ":11280,"æı¡ä½ıäºĨ":11281,"å®¤åĨħ":11282,"ä¾§èº«":11283,"åľ£æ´ģ":11284,"åĩĨå¤ĩå¥½":11285,"ä¸Ģå®ļç¨ĭåº¦":11286,"åģľåľ¨":11287,"ç«Ļåı°":11288,"æį¢ä¸Ĭ":11289,"ç³»ç»Ł":11290,"çıĢ":11291,"éĵģéĶħ":11292,"ä¼¸åĩºäºĨ":11293,"åĨĴçĿĢ":11294,"å¹²ç¬ĳ":11295,"æľīä¸ĢæĿ¡":11296,"Ġè¿Ļæĺ¯ä¸Ģä¸ª":11297,"Ġå°±åľ¨ä»ĸ":11298,"ä½¿çĶ¨äºĨ":11299,"åºŀå¤§çļĦ":11300,"å¡Ķç½Ĺä¼ļçļĦ":11301,"æĪĳæĥ³çŁ¥éģĵ":11302,"åĪĴè¿ĩ":11303,"æĹ¢æĺ¯":11304,"è§Ĥå¯Łèµ·":11305,"é¸½":11306,"çĶŁåĳ½åĬĽ":11307,"åıĺæĪĲäºĨä¸Ģä¸ª":11308,"ç¬¬ä¸ĢçĻ¾äºĮåįģ":11309,"ç¬¬ä¸ĢçĻ¾ä¸īåįģ":11310,"ç¬¬ä¸ĢçĻ¾ä¸Ģåįģ":11311,"åĽŀåĪ°çİ°å®ŀä¸ĸçķĮ":11312,"å©ī":11313,"æļĤæĹ¶æ²¡æľī":11314,"éĹªçĶµé£İæļ´":11315,"è´£ä»»":11316,"é¼»ç«¯":11317,"éĺ»éļĶ":11318,"æ²¿éĢĶ":11319,"æµħç¬ĳ":11320,"åį§å®¤åĨħ":11321,"è¯´ä¸įåĩº":11322,"åłķèĲ½æ¯įç¥ŀ":11323,"æĹłè®ºæĺ¯":11324,"éľĩæĴ¼":11325,"åĤ¬ä¿ĥ":11326,"å¤§æ¦Ĥçİĩæĺ¯":11327,"éĩĩåıĸ":11328,"éĵºåŀ«":11329,"åİĨåı²åŃĶéļĻéĩĮ":11330,"çĤ¹çĩĥäºĨ":11331,"éĹªçĥģçĿĢ":11332,"æļĹçº¢èī²çļĦ":11333,"åľĪåŃĲéĩĮ":11334,"ä¸ĽæŀĹ":11335,"ĠçľĭåĪ°è¿Ļä¸Ģå¹ķ":11336,"æ¢³çĲĨ":11337,"èį£å¹¸":11338,"åĹĸåĹĸ":11339,"æģ°å¥½":11340,"æ°Ķåľºé¢ľèī²":11341,"èµ¤çº¢çļĦçģ«çĦ°":11342,"åĲ±åĳĢä¸Ģå£°":11343,"éĹŃä¸ĬäºĨçľ¼çĿĽ":11344,"èĦ±åı£èĢĮåĩºéģĵ":11345,"ä¸Ģä¼ļåĦ¿":11346,"çķ¥æĺ¾èĭįèĢģçļĦåĹĵéŁ³":11347,"åıĮæİĴæī£éķ¿ç¤¼æľį":11348,"çļĦçĸ¼çĹĽ":11349,"®é£Ł":11350,"¿èµ":11351,"éī":11352,"Ġçľĭè§ģ":11353,"Ġçİ°åľ¨":11354,"ĠçľĭæĿ¥":11355,"Ġä¼Ĭæģ©":11356,"ĠèĢĥèĻĳåĪ°":11357,"įåĮ":11358,"çļĦä¸ĢçĤ¹":11359,"çļĦæĪ´éĩĮåħĭ":11360,"åı¨":11361,"äºĨåħĭèİ±æģ©":11362,"ä¸Ģå¤Ħ":11363,"ä¸ĢçĻ¾":11364,"ä¸Ģæī¹":11365,"ä¸įå¼Ģ":11366,"æľīä¸Ģä½į":11367,"è¯Ĭ":11368,"è¿Ļä¸İ":11369,"è¿Ļåĩłå¤©":11370,"èĢ¶":11371,"æģ©èµĲ":11372,"æĪĳä¹Łæĺ¯":11373,"æĪĳçĽ¸ä¿¡":11374,"æĪĳä»Ĭå¤©":11375,"åħĭèİ±æģ©é¡¿æĹ¶":11376,"åħĭèİ±æģ©çķ¥æĦŁ":11377,"éĤ£ä»ĸ":11378,"åľ°åĲĳ":11379,"åľ°éĿ¢çļĦ":11380,"æ²¡æķ¢":11381,"å¤§å¤ļæķ°":11382,"çĤĸ":11383,"æĥħå¦ĩ":11384,"èµ·èĩªå·±":11385,"éĻĽ":11386,"å£ĳ":11387,"è´º":11388,"è´¿èµ":11389,"åĽŀæĿ¥çļĦ":11390,"åıªæĥ³":11391,"åıªçķĻä¸ĭ":11392,"åĮįåĮ":11393,"è®©èĩªèº«":11394,"æĮł":11395,"æŃ£å¾ħ":11396,"å¾Īåİīå®³":11397,"æĦıæĸĻ":11398,"Ġä»ĸä¹ĭåīį":11399,"å°ıåŀĭ":11400,"å°ıçĶ·åŃ©":11401,"é»ĳæŃ»åı·":11402,"å¦¥":11403,"è¢«è°ģ":11404,"æĻ¦":11405,"Ġè¿ĻæĦıåĳ³çĿĢ":11406,"åĬ¨å¼¹":11407,"åģļæ¢¦":11408,"å¤©çĦ¶":11409,"çŃīçº§":11410,"èĤł":11411,"æµ·ä¸ĬçļĦ":11412,"ç¼Ń":11413,"å¥³å·«":11414,"ä»İè¡£åħľéĩĮ":11415,"æĢ§åľ°":11416,"è¿ĽæĿ¥çļĦ":11417,"è¿Ļä¸ªåı¯èĥ½":11418,"çªĦ":11419,"èĲİ":11420,"æ·±çº¢çļĦ":11421,"æīĵçĿĢ":11422,"è¯ĿæĿ¥":11423,"æ¡ĥ":11424,"çº¢èĳ¡èĲĦéħĴ":11425,"è£ĤçļĦ":11426,"åħ¨éĿ¢":11427,"åħ¨åĬĽ":11428,"å¸¦åħľå¸½":11429,"å·¨çŁ³":11430,"ä¼¼ä¹İæĥ³":11431,"åĽĽéĿ¢":11432,"äº¤åıī":11433,"è¥¿äºļ":11434,"å¯Ĩå¥ĳ":11435,"é©¬æ¡¶":11436,"å¹³æ°ĳ":11437,"è¿Ļæĺ¯ä»ĸ":11438,"åĲĦä½į":11439,"åĲĦæĸ¹éĿ¢":11440,"åĺ´éĩĮ":11441,"åŃĺåľ¨ä¸Ģå®ļçļĦ":11442,"æĸ¯å¸ķç½ĹåħĪçĶŁ":11443,"åıĸåĩºäºĨ":11444,"éĤ£éĩĮå¾ĹåĪ°":11445,"æĸĩåŃ¦":11446,"æİ¨éĹ¨":11447,"è¿Ļç§įæĥħåĨµ":11448,"æľīäºĨçĤ¹":11449,"åģľä½ı":11450,"ĠèĢĮä»ĸ":11451,"éĢıåĩº":11452,"å¿ĻåıĪ":11453,"éħĴé¦Ĩ":11454,"ç«ĻçĿĢ":11455,"æĿ¾å¼Ģ":11456,"å±ķå¼ĢäºĨ":11457,"çĨ¬":11458,"ç¬¬ä¸ĢæĽ´":11459,"æŁĵä¸Ĭ":11460,"æķ£æŃ¥":11461,"éĿŀåĩ¡çī¹æĢ§èģļåĲĪå®ļå¾ĭ":11462,"è¿·å¤±":11463,"çĻ½éĵ¶åŁİæİ¢ç´¢å°ıéĺŁ":11464,"æľĢåĲİä¸Ģå¤©":11465,"åĳĬè¯«":11466,"çº¯çĻ½":11467,"é»ĳæļĹçļĦ":11468,"å£ģéĴŁ":11469,"æľīä»Ģä¹ĪéĹ®é¢ĺ":11470,"ä½ľä¸ºä¸Ģä¸ª":11471,"å¸ĤæĶ¿":11472,"æĬµä½ı":11473,"èģļä¼ļçļĦ":11474,"éĢĢåĩºäºĨ":11475,"æ··è¡Ģ":11476,"ç§ĺå¯Ĩä¹ĭä¹¦":11477,"çļĦæīĭæĮĩ":11478,"æ¸¸èµ°":11479,"ä¸įçĶ¨åĨį":11480,"çģ°çĻ½èī²":11481,"ĠâĢĶâĢĶâĢľ":11482,"éľ²åĩºç¬ĳå®¹":11483,"ä¸ĭåįĪèĮ¶":11484,"æīĭå¥ĹçļĦ":11485,"åįĸç»Ļ":11486,"æŁĲç§įæĦıä¹īä¸Ĭ":11487,"é£ĺèį¡":11488,"çĤ¸å¼¹":11489,"åľ°ä¸ĭäº¤æĺĵå¸Ĥåľº":11490,"ä¸įç®¡æĺ¯":11491,"ç®±åŃĲ":11492,"åĬ³ä¼¦æĸ¯":11493,"åĳĨæĦ£":11494,"éĩİèĽ®":11495,"ä¸īä¸ªæľĪ":11496,"éĻµå¢ĵ":11497,"çĦ¦æĢ¥":11498,"åħ°æ¯Ķæĸ¯çļĦ":11499,"çĽ´è§īåľ°":11500,"æī£åĬ¨äºĨ":11501,"å¼ĢåĲ¯çģµè§Ĩ":11502,"çļĦçĥŁ":11503,"æ®ĭçķĻçĿĢ":11504,"æĻļä¸Ĭå¥½":11505,"ä¼łè¯´éĩĮ":11506,"æ·±æ²īçļĦ":11507,"èĢĲå¿ĥåľ°":11508,"èĩªåĺ²ä¸Ģç¬ĳ":11509,"æĹłæļĹä¹ĭ":11510,"æĪĳè¿ĺä»¥ä¸º":11511,"éģµå¾ª":11512,"å¤¸å¼łçļĦ":11513,"å¿łè¯ļ":11514,"æĽ´å¥½åľ°":11515,"çļĦçħ§èĢĢ":11516,"ä¸ĬäºĨä¸Ģå±Ĥ":11517,"éĢļè¯ĨèĢħ":11518,"åĳ¢åĪ¶å¤§è¡£":11519,"çĤ«èĢĢ":11520,"éī´":11521,"è´¿èµĤ":11522,"åĮįåĮĲ":11523,"68":11524,"ĠéĢļè¿ĩ":11525,"Ġé©¬è½¦":11526,"Ġä¼Ĭåº·çĳŁ":11527,"ľæĮģ":11528,"çļĦæĪĳ":11529,"äºĨå¥¹":11530,"æĺ¯ä¸į":11531,"æľīåĵªäºĽ":11532,"è¿Ļè®©æĪĳ":11533,"ä»ĸåıªæĺ¯":11534,"èİ¹":11535,"æĪĳåħĪ":11536,"å°±ä¸į":11537,"åĴĮéĺ¿èĴĻ":11538,"åĴĮçħ¦":11539,"æĸ¯èĢĥ":11540,"çĶŁæ°Ķ":11541,"èº«å½¢":11542,"äºĨä¸Ģåº§":11543,"çľĭçļĦ":11544,"çŁľæĮģ":11545,"è¿ĺå·®":11546,"èĢĮéĤ£":11547,"èĢĮæĪĲ":11548,"æīĭèĥĮ":11549,"æ²¡æľīæİ©é¥°":11550,"ä»Ģä¹Īæĺ¯":11551,"ä»Ģä¹Īæł·åŃĲ":11552,"å¤ļç§į":11553,"å¤ļå¹´çļĦ":11554,"çĶ¨é¤Ĳ":11555,"éĹ´è°į":11556,"è¢«å°ģåį°":11557,"Ġè¿ĻåĴĮ":11558,"Ġè¿Ļæ¬¡":11559,"å¤©åĽ½":11560,"ä½Ĩéĥ½":11561,"çŃīä»·":11562,"æł¼èķ¾":11563,"éĵ¸":11564,"ä¸¤å¹´":11565,"æıĲä¸Ĭ":11566,"åĩłåĪĨéĴŁ":11567,"å¥³å·¥":11568,"åıĺåĽŀäºĨ":11569,"æľĽäºĨä¸Ģçľ¼":11570,"èĻĲ":11571,"æ°Ķä½ĵ":11572,"åĨįçŃī":11573,"æĽ´åĪ«":11574,"åºıåĪĹéĢĶå¾Ħ":11575,"èĢģç®¡å®¶":11576,"å°±æĺ¯è¿Ļæł·":11577,"æī¾äºĨ":11578,"èĭĹ":11579,"è½¬äºĨä¸ĢåľĪ":11580,"è½¬åĮĸä¸º":11581,"è½»å·§":11582,"æĶ¾äºİ":11583,"åĥıä¸ª":11584,"çº¢çĥŁåĽ±":11585,"åĲįåįķ":11586,"æ¼¾":11587,"æ¼ī":11588,"å·²ç»ıåľ¨":11589,"æĶ¶åĪ°äºĨ":11590,"åİŁåĪĻ":11591,"æĺ¾çľ¼":11592,"æ°´çļĦ":11593,"åıĳçİ°çļĦ":11594,"ç®ĹäºĨ":11595,"åĢĴä¸ĭ":11596,"ä¼¼ä¹İå¾Ī":11597,"åŃĺç¨¿":11598,"äº¤ä»£":11599,"çº¸ä¸Ĭ":11600,"ç³ĸ":11601,"æ»¡èĦ¸":11602,"å°ģéĹŃ":11603,"è´Ŀåħĭåħ°å¾·æķĻåĮº":11604,"ĠéĤ£åĲį":11605,"åĪļæīįéĤ£ä¸ª":11606,"èĹıäºİ":11607,"æĸŃäºĨ":11608,"çģ«çĤ®":11609,"éĿŀåĩ¡èĢħèģļä¼ļ":11610,"è¨Ģè¯Ń":11611,"èĬ±éĴ±":11612,"æİ¨å¼ĢäºĨ":11613,"éķľä¸Ń":11614,"é¢Ĩåı£":11615,"äºĨä¸Ģä¸ªä¸ª":11616,"éģĹäº§":11617,"ç«Ļç«ĭ":11618,"åįĩèµ·":11619,"æ·¡èĵĿ":11620,"åĳ³çļĦ":11621,"åħħæĸ¥":11622,"çĮİçī©":11623,"åĩĿæľĽçĿĢ":11624,"å°¸éª¸":11625,"çº¦çĳŁå¤«":11626,"å¹²æ¶ī":11627,"èµĦéĩĳ":11628,"æĹłå£°åľ°":11629,"æľīä¸Ģå¼ł":11630,"èį¡æ¼¾":11631,"æĬĹè¡¡":11632,"åģĩæī®":11633,"åĹĵéŁ³ä½İæ²ī":11634,"æĿ¥åĪ°çģ°éĽ¾ä¹ĭä¸Ĭ":11635,"åºŀå¤§":11636,"éĢĢåİ»":11637,"çİĩé¢Ĩ":11638,"æĻĭåįĩä¸º":11639,"å°±ä¼ļè¢«":11640,"ä¸ĢäºĽäºĭæĥħ":11641,"çļĦæīĭæĿĸ":11642,"æ³¢åıĬ":11643,"èľ¥":11644,"ç¼ºå°ĳ":11645,"è§£éĩĬäºĨä¸Ģåı¥":11646,"æĮĳæĪĺ":11647,"å¿ĥçģµå²Ľå±¿":11648,"æĦŁè°¢ä½łçļĦ":11649,"åĿļåĽº":11650,"åĩ¸èµ·":11651,"éģ®èĶ½":11652,"å¢ĵç¢ĳ":11653,"ç»Łä¸Ģ":11654,"ç²Ĺç³Ļ":11655,"éĽķåĪ»":11656,"éŃĶæ³ķæłĩè¯Ĩ":11657,"è¦ĨçĽĸçĿĢ":11658,"åĲĲäºĨåı£æ°Ķéģĵ":11659,"åĴ³åĴ³":11660,"æıĴåħ¥":11661,"éļıæĹ¶ä¼ļ":11662,"å¼Ĺèİ±å¨ħ":11663,"æĸĳé©³çļĦ":11664,"ä¸īåįģæĿ¥å²ģ":11665,"è¾Ĩé©¬è½¦":11666,"åģľçķĻäºİ":11667,"ä¹¡æĿĳ":11668,"çļĦçĭ¬":11669,"åĿ¦çĦ¶åĽŀçŃĶéģĵ":11670,"è£¤åŃĲ":11671,"èĶ·èĸĩä¸»æķĻ":11672,"ä¸ĵä¸ļçļĦ":11673,"è½»å¾®çļĦ":11674,"è´¡æł¹":11675,"æĸĳé©³éķ¿æ¡ĮçļĦè¾¹ç¼ĺ":11676,"èĥĥè¢ĭ":11677,"åį¡å°Ķå¾·éļĨåŁİ":11678,"ç¢§ç»¿çļĦçľ¼çľ¸":11679,"å¡ĳéĢł":11680,"å¼ĢåĲ¯äºĨçģµè§Ĩ":11681,"è¿«ä¸įåıĬå¾ħåľ°":11682,"ä¿ĿéĻ©æŁľ":11683,"çļĦçĨŁ":11684,"é»ĳèī²éĥģéĩĳé¦Ļåı·":11685,"æĸ¯èĢĥå°Ķ":11686,"400":11687,"Ġå°Ĩ":11688,"Ġä¸įæĺ¯":11689,"ĠéļĶ":11690,"ĠåĵªæĢķ":11691,"ĠåĵĹåķ¦":11692,"Ĳæµ´":11693,"çļĦåĨĴéĻ©å®¶":11694,"çļĦä¿ĿæĬ¤":11695,"çļĦå±ħæ°ĳ":11696,"çļĦæł¸å¿ĥ":11697,"çļĦæĿ¥åİĨ":11698,"æĺ¥":11699,"ä¸įæ¯Ķ":11700,"ä¸įåģľ":11701,"æľīè¶³å¤ŁçļĦ":11702,"è¿Ļæľī":11703,"è¿Ļè®©":11704,"ä»ĸè®¤ä¸º":11705,"æĪĳåĲ¬è¯´":11706,"åĬ²":11707,"æ²Ĳæµ´":11708,"åħĭèİ±æģ©ç¼ĵæħ¢":11709,"åħĭèİ±æģ©è½»è½»é¢Ķé¦ĸ":11710,"ç¥¸":11711,"åľ°éĵģ":11712,"æİĲ":11713,"ä¸ĭè¡Į":11714,"å°±å¾Ĺ":11715,"å°±å·²":11716,"å¤§åŀĭ":11717,"å¯¹å¥¹":11718,"æĸ¯ç»´":11719,"è¾£":11720,"è¾©":11721,"çľĭä¸įåĩº":11722,"åı¯ä¾Ľ":11723,"æĥ³ä¸Ģæĥ³":11724,"è¿ĺçľŁæĺ¯":11725,"èĢĮåħ¥":11726,"åıĳéº»":11727,"åıªåľ¨":11728,"æĽ³":11729,"èĩªå·±èº«ä¸Ĭ":11730,"è®©éĤ£":11731,"å¥¹åĴĮ":11732,"å¥¹çľĭè§ģ":11733,"çĶ¨å®ĥ":11734,"Ġä»ĸæīĵç®Ĺ":11735,"Ġè¿Ļä¸Ģ":11736,"åĲĳæĪĳ":11737,"åĲĳèĩªå·±":11738,"çļĦç¦":11739,"ä¸¤ä¸ĭ":11740,"èĤº":11741,"æľ¬è¯¥":11742,"è·µ":11743,"è¡Įä¸ļ":11744,"ä¸»æĦı":11745,"åĪ°äºĨæľĢåĲİ":11746,"é«ĺäºĨ":11747,"å¹¶å°Ĩ":11748,"è¡¨å±Ĥ":11749,"è¿Ľå±ķ":11750,"åı¯ä»¥éĢļè¿ĩ":11751,"å®Įå¥½":11752,"å°ĳæķ°":11753,"å¤±æķĪ":11754,"æ²īæµ¸":11755,"çĭ¡":11756,"æŃ¥æŀª":11757,"æļĹçº¢çļĦ":11758,"æĶ¾æħ¢":11759,"é©¯":11760,"ç©ºæĹ·":11761,"æ±Ĥæķĳ":11762,"æ¶ĪéĢĿ":11763,"åħ¹åħ¹":11764,"åıįéĹ®äºĨä¸Ģåı¥":11765,"éĤ£ä¸ªæĪ¿éĹ´":11766,"æľºåĻ¨":11767,"ç¥Ĥåľ¨":11768,"ä¼¼ä¹İè¢«":11769,"ä¼¼ä¹İå·²ç»ı":11770,"å¿ħå°Ĩ":11771,"ä¸įä¼ļåĨį":11772,"è¥¿ç»´":11773,"ä¸ĢçĤ¹ä¹Łæ²¡æľī":11774,"å¸®ä»ĸ":11775,"åĵªæľī":11776,"æ¢¦å¹»":11777,"éĢĶå¾ĦåįĬç¥ŀ":11778,"åį´æ²¡":11779,"åĲĦå¤§":11780,"ç»ĪçĤ¹":11781,"é¡¿ä½ı":11782,"çħ®":11783,"ç´§æĢ¥":11784,"çļĦéĤ£çīĩ":11785,"åı³è¾¹":11786,"æŀģåħ¶":11787,"åį¡éļĨ":11788,"èĬ±çĻ½":11789,"æĳĩæĽ³":11790,"åĨĻçļĦ":11791,"ç®ĢéĻĭ":11792,"é¥Ń":11793,"åıªèĥ½åľ¨":11794,"æĮīåľ¨äºĨ":11795,"ä¹Įé¸¦":11796,"èĦ±åĽ°":11797,"çĸ¯èĪ¹éķ¿":11798,"æľįè£ħ":11799,"éĢīé¡¹":11800,"å¯»å¸¸":11801,"è®®åĽ¢":11802,"é¾Ļåį·":11803,"æĺ¯åĲ¦ä¼ļ":11804,"åĢŁåĬ©åĨ¥æĥ³":11805,"ä¹ĲæĦı":11806,"è·³èĪŀ":11807,"åģĩè®¾":11808,"æłĳåı¶":11809,"æŁĶè½¯":11810,"éĢĥåĩº":11811,"èĩ³å°ĳå¾Ĺ":11812,"æľĢç»Īè¿ĺæĺ¯":11813,"åħ·ä½ĵæĥħåĨµ":11814,"æŁĲäºĽäºĭæĥħ":11815,"ç©¶ç«Łæĺ¯ä»Ģä¹Ī":11816,"æµĵåİļ":11817,"æĻĥèį¡":11818,"ç»ĻäºĨæĪĳ":11819,"æľīæīĢçĮľæµĭ":11820,"æīĩéĹ¨":11821,"å¥½å¥ĩåľ°éĹ®éģĵ":11822,"çĭ¬çī¹çļĦ":11823,"åľĨèħ¹":11824,"éĺ»æĭ¦":11825,"ä»£è¡¨ä»Ģä¹Ī":11826,"åı¯æĥľçļĦæĺ¯":11827,"éĺ¿ç½Ĺå¾·æĸ¯çļĦ":11828,"ä¸Ģåıªåıª":11829,"çļĦç²¾ç¥ŀçĬ¶æĢģ":11830,"åĽŀå¿ĨçĿĢ":11831,"éģĹçķĻçļĦéĿŀåĩ¡çī¹æĢ§":11832,"ç´¯ç§¯":11833,"æ´ĽèĸĩéĽħéķ¿èĢģ":11834,"è¯±å¯¼":11835,"éĩĩè®¿":11836,"ä¸įå¾Ĺä¸įè¯´":11837,"ä¾ĭå¤ĸ":11838,"ĠåĲ¬åĪ°è¿Ļåı¥è¯Ŀ":11839,"æĳ©æĵ¦":11840,"è¿ľåı¤å¤ªéĺ³ç¥ŀçļĦ":11841,"åĨ°åĨ·çļĦ":11842,"é²ģæģ©çİĭåĽ½çļĦ":11843,"è¯Ħè®®åĽ¢":11844,"ä¹ĺåĿĲé©¬è½¦":11845,"éŀĭ":11846,"å¤§åľ°æ¯įç¥ŀæķĻä¼ļ":11847,"éĤ£æľ¬ç¬Ķè®°":11848,"åķ§åķ§":11849,"æĤļçĦ¶":11850,"èĦĨå¼±":11851,"åĸĥåĸĥ":11852,"ä¼°è®¡":11853,"å§Ķåĳĺä¼ļ":11854,"å¥ĸåĬ±":11855,"åĽŀè¿ĩç¥ŀæĿ¥":11856,"ä½ĨæľĢç»Īè¿ĺæĺ¯":11857,"æ²ĥå°Ķ":11858,"ç©ºèį¡èį¡":11859,"çĲĨè®ºä¸Ĭ":11860,"Ġåĩłä¹İæĺ¯åĲĮæĹ¶":11861,"ä»¥æīĭæĮīèĥ¸":11862,"ä»¿ä½Ľåľ¨æĢĿèĢĥèĪ¬":11863,"åĩ¹éĻ·":11864,"æī£åĬ¨äºĨæī³æľº":11865,"è¥¿ç»´æĭīæĸ¯":11866,"é¾Ļåį·é£İ":11867,"Ġè¯·":11868,"Ġåıªè¦ģ":11869,"Ġéģĵæģ©":11870,"ĠæĪ´çĿĢ":11871,"Ġå·´é¡¿":11872,"Ġæĸĩå¾·å°Ķ":11873,"ĠåħĭéĩĮç»´æĸ¯":11874,"Ġæ¯Ķèµ·":11875,"çļĦåħĪçĶŁ":11876,"çļĦå¿µå¤´":11877,"çļĦæģĲæĢĸ":11878,"çļĦåĳĵè¯Ń":11879,"çļĦå¤©ç©º":11880,"äºĨåķĬ":11881,"åħĳ":11882,"ä¸Ģåĩ»":11883,"ä¸ĢæĬ¹":11884,"ä¹³":11885,"æľīè¶³å¤Ł":11886,"è¿ĻæĪĸè®¸":11887,"è¿ĻæĦıåĳ³çĿĢ":11888,"ä»ĸè¢«":11889,"ä»ĸèĦĳæµ·åĨħ":11890,"æĪĳæīį":11891,"æĪĳä¹Łä¸į":11892,"æĪĳåĸľæ¬¢":11893,"éĤ£åľº":11894,"äººæĢ§":11895,"äººéĻ¢":11896,"åĪ°è´Ŀåħĭåħ°å¾·":11897,"åĩºä»Ģä¹Ī":11898,"ä¹ĭæĥħ":11899,"æĭĵ":11900,"è¿ĩæĪĳ":11901,"ä¸ºä¸Ģ":11902,"ä½łä¹ĭåīį":11903,"äºĨä¸Ģçīĩ":11904,"ä¹Łè¢«":11905,"ä¹Łæ²¡æ³ķ":11906,"åı¯è§ģ":11907,"åĵ²":11908,"åıĳçĸ¯":11909,"èĩªå·±åı¬åĶ¤":11910,"éĥ½å¾Ĺ":11911,"ä»Ģä¹Īåľ°æĸ¹":11912,"å¥¹åıĪ":11913,"å¾Īå¼º":11914,"ä¸ŃçŃī":11915,"çĶ¨çģµæĢ§":11916,"Ġä»ĸè¿ħéĢŁ":11917,"ä½Ĩçİ°åľ¨":11918,"ä¸¤è¾¹":11919,"ä¸¤æĬĬ":11920,"çĻ½é²¨":11921,"åĩłæĿ¡":11922,"æµ·éĩĮ":11923,"ä»İéĩĮéĿ¢":11924,"ä»İè¡£çī©":11925,"åĪ°äºĨçģ°éĽ¾ä¹ĭä¸Ĭ":11926,"åĺİ":11927,"åįĬçĸ¯":11928,"ç»Ļä»ĸä»¬":11929,"èĢģçĪ·çĪ·":11930,"å°±æĺ¯åľ¨":11931,"æł¹æºĲ":11932,"å¥ĩåħĭ":11933,"è½»ç¬ĳéģĵ":11934,"æĶ¾åħ¥äºĨ":11935,"è¡Ģç»Ł":11936,"é£İæĻ¯":11937,"åĽłä¸ºå¦ĤæŃ¤":11938,"åı¤éĵľ":11939,"æĶ¶å°¾":11940,"èĲ½åľ¨":11941,"æ°´åħī":11942,"åįķæīĭ":11943,"åĢĴéĢĢ":11944,"åĬ©äºİ":11945,"èĴĻçĿĢ":11946,"çªģæľī":11947,"æĢİä¹ĪåĬŀ":11948,"éĤ£ä½įå¥³å£«":11949,"åıªæĺ¯åįķçº¯":11950,"é»ĺè®¸":11951,"è´Ŀåħĭåħ°å¾·æ¡¥åĮºåŁŁ":11952,"æļ´èºģ":11953,"é»ĳèī²é£İè¡£":11954,"éĺ¿å°ĶæĪĪ":11955,"è¨ĢèĢħ":11956,"è¯·åģĩ":11957,"åĩĨå¤ĩå¥½çļĦ":11958,"äºĶåħŃ":11959,"æŃ£å¸¸æĥħåĨµä¸ĭ":11960,"æľīäºĨç§į":11961,"åģľä¸ĭ":11962,"è¾¾å°¼åħ¹çļĦ":11963,"éľįä¼Ĭ":11964,"åĳ¨åĽ´çļĦäºº":11965,"åĨ·æ·¡":11966,"ç¬¬ä¸ĢåıįåºĶ":11967,"çĶµåħī":11968,"éĵģé»ĳèī²çļĦ":11969,"çŁŃåıĳ":11970,"åı¹ä¸Ģå£°":11971,"å¹¶ä¸įéĻĮçĶŁ":11972,"å±ħçĦ¶":11973,"æĻ®æĻ®éĢļ":11974,"åĩºäºĨä¸Ģå¼ł":11975,"åĲĲåĩºäºĨ":11976,"åĵ¥çī¹":11977,"æķħä¹¡":11978,"æłĳçļĦ":11979,"æŃ»äº¡çļĦ":11980,"è¹Ī":11981,"åī¯æķĻæİĪ":11982,"åħ«æĸ¹":11983,"æıĲä¾ĽäºĨ":11984,"ç¬Ķè®°æľ¬":11985,"æł¹æľ¬ä¸į":11986,"ä¸ĩéĩĳéķĳ":11987,"åĶ¯æľī":11988,"çĸĳæĥĳéĹ®éģĵ":11989,"å®Ŀåº§":11990,"æĥ³è¦ģçļĦ":11991,"å¥ĶåĲĳäºĨ":11992,"çģ°çĻ½èī²çļĦ":11993,"çĸ¯çĭĤåľ°":11994,"åįĹæĸ¹":11995,"å¥½åĩłç§Ĵ":11996,"å¤ĦçĲĨå¥½":11997,"èĪŀè¹Ī":11998,"æŃĮé¢Ĥ":11999,"æ£ķåıĳ":12000,"æ£ķé»Ħ":12001,"éķĩå®ļ":12002,"ä½İæ²īè¯´éģĵ":12003,"æĲľéĽĨåĪ°":12004,"æ²Ļåĵĳ":12005,"è¯¡å¼ĤçļĦ":12006,"èµ°åĲĳéĹ¨åı£":12007,"æ¯ĴèĽĩ":12008,"çĦ¦è·Ŀ":12009,"èİ«éĩĮäºļèĴĤåħĪçĶŁ":12010,"å¥³ä»Ĩå®īå¦®":12011,"ç²¾çģµçİĭ":12012,"å¤¹æĿĤ":12013,"èĪĴå±ķ":12014,"æīĵéĩıèµ·":12015,"å»ºç«ĭèµ·":12016,"åħ¶ä½ĻæĪĲåĳĺ":12017,"åĺ¶åĸĬ":12018,"åħ¥åı£ä¸Ń":12019,"éĢĨæĹ¶éĴĪ":12020,"è½¬ç§»åĪ°äºĨ":12021,"æīĵäºĨä¸ªåĵĪæ¬ł":12022,"éĵ¾æĿ¡":12023,"æ²Łå£ĳ":12024,"Ġè¿Ļæł·åķĬ":12025,"å¤ľæĻļçļĦ":12026,"éĽªä¼¦å¤«äººçļĦ":12027,"å°½éĩıä¸įè¦ģ":12028,"èī°éļ¾åľ°":12029,"ä¸įæŃ»é¸Ł":12030,"çļĦç®Ģ":12031,"ç±³å°Ķè´¡æł¹":12032,"å¾®ä¸įåı¯è§ģåľ°çĤ¹äºĨä¸ĭå¤´":12033,"è½¨è¿¹":12034,"çļĦçĸ¯åŃĲ":12035,"é¢Ħæĥ³å¾Ĺ":12036,"åĩ¯èĴĤ":12037,"ç²¾èĩ´çļĦ":12038,"æ®ĸæ°ĳåľ°":12039,"è¤ª":12040,"è°¦èĻļ":12041,"ä¼Łå¤§åŃĺåľ¨":12042,"ĠçĽ´åĪ°è¿Ļä¸ªæĹ¶åĢĻ":12043,"æŃĩå°Ķ":12044,"æ·¡æ·¡çļĦ":12045,"æ¢ħçº³å¾·è®®åĳĺ":12046,"å®īæıĲåĵ¥åĬªæĸ¯å®¶æĹıçļĦç¬Ķè®°":12047,"åįłæĺŁäºº":12048,"åįĬç¥ŀåįĬäººçļĦ":12049,"ç²¾ç¥ŀä¸ĢæĮ¯":12050,"èĻļæĭŁäººæł¼":12051,"è½¬è¿Ĳä»ªå¼ı":12052,"ç¬¬ä¸ĢçĻ¾ä¸ĥåįģ":12053,"çĿģå¼ĢäºĨçľ¼çĿĽ":12054,"é¥®æĸĻ":12055,"æİ¨äºĨæİ¨":12056,"å©ļå§»":12057,"åĪĽéĢłä¸ĢåĪĩçļĦä¸»":12058,"èĢĥæĻ®æĸ¯èĴĤ":12059,"åĽĽéĿ¢åħ«æĸ¹":12060,"æĸ¯ç»´åĽł":12061,"æĻ®æĻ®éĢļéĢļ":12062,"ĠåĨĻ":12063,"ĠçľĭäºĨçľ¼":12064,"Ġçĵ¦å°Ķçī¹":12065,"çļĦæľĢ":12066,"çļĦèģļä¼ļ":12067,"çļĦåĢ¼å¤ľèĢħ":12068,"çļĦç¬¦åı·":12069,"çļĦè·Ŀç¦»":12070,"çļĦä»·æł¼":12071,"çļĦæĸ¹æ³ķ":12072,"äºķ":12073,"äºĨçĤ¹":12074,"äºĨå¾Īä¹ħ":12075,"ä¸įåĥıæĺ¯":12076,"æľīè®¸å¤ļ":12077,"æľīå¤ļå°ĳ":12078,"è¿Ļè®©ä»ĸ":12079,"èĢķ":12080,"å¼ĳ":12081,"æĪĳè¯´":12082,"éģĵäººå½±":12083,"åħĭèİ±æģ©ä¹ĭåīį":12084,"åħĭèİ±æģ©æľĽçĿĢ":12085,"åħĭèİ±æģ©åıĪä¸Ģæ¬¡":12086,"åħĭèİ±æģ©éľįçĦ¶":12087,"åħĭèİ±æģ©éĻ©äºĽ":12088,"åħĭèİ±æģ©æľīæīĢæģįçĦ¶":12089,"åľ°åľ¨":12090,"æłħ":12091,"å°±æ²¡æľī":12092,"ä¸Ĭæŀ¶":12093,"èĥ½åıĳçİ°":12094,"èĥ½æī¾åĪ°":12095,"èĥ½æľīæķĪ":12096,"ä¼ļæľīä»Ģä¹Ī":12097,"ä¹ĭåŃĲ":12098,"èĢħæĺ¯":12099,"æĭĺ":12100,"å¤§éĥ½å¸Ĥ":12101,"èº¬":12102,"çĶŁéķ¿":12103,"å¼Ģå¤´":12104,"åĽŀå¤į":12105,"èĢĮæĿ¥çļĦ":12106,"æ²¡æľīçĬ¹è±«":12107,"å¤´ä¸Ĭ":12108,"å°Ĩè¦ģ":12109,"å°Ĩæīĭä¸ŃçļĦ":12110,"çī¹åĪ«çļĦ":12111,"éĥ½çŁ¥éģĵ":12112,"æĮª":12113,"éĹ®ä¸ĢéĹ®":12114,"å¾Īä½İ":12115,"ä¸ŃäºĨ":12116,"åħĪåīį":12117,"åģļèµ·äºĨ":12118,"åıĪè¢«":12119,"ä½ĨéĤ£":12120,"çŃīäºĭçī©":12121,"çľŁè¯ļ":12122,"å½ĵåģļ":12123,"å¤ĸåĽ´":12124,"æµ·éĿ¢":12125,"å®īå¿ĥ":12126,"é«ĺå¡Ķ":12127,"é«ĺæĸĩ":12128,"é«ĺä¸´":12129,"æĽ´æ·±":12130,"æ·±å¤ľ":12131,"å¿«åľ°":12132,"æīĵåıĳ":12133,"å°±æĺ¯ä¸Ģä¸ª":12134,"åĪ¶å®ļ":12135,"æŃ»å¯Ĥ":12136,"è¿ĳäºĨ":12137,"è£ķ":12138,"æ¯Ķèĩªå·±":12139,"åħ¨èĩªåĬ¨":12140,"åı¥åŃĲ":12141,"ç¡®ä¿¡":12142,"åĬłèµ·æĿ¥":12143,"åħ³éĹ¨":12144,"ç¾Ķç¾Ĭ":12145,"è¿Ļæł·åķĬ":12146,"åĪ»éĴŁ":12147,"ç±»åŀĭ":12148,"èĢĥæŁ¥":12149,"ç¿©":12150,"æ´»äºº":12151,"æĺŁåħī":12152,"çļĦäººçī©":12153,"å¡ŀåħ¥":12154,"æº¯":12155,"åį´è¢«":12156,"æĢªå¼Ĥ":12157,"åĪĩåī²":12158,"è¿ĺæľīçĤ¹":12159,"åŁĥéĩĮåħĭ":12160,"çļĦéĤ£æĿ¡":12161,"è¡£çĿĢ":12162,"å·¦èĩĤ":12163,"è¿ľæĸ¹":12164,"ç»Ĩå°ıçļĦ":12165,"è¯·ä½ł":12166,"ç¬ĶçĽ´":12167,"çĽ®åħīä¸Ģæī«":12168,"é¢ĦçŁ¥":12169,"æ¡ĮéĿ¢":12170,"ç®ĢçŁŃ":12171,"éģĹæ¼ı":12172,"è¡¨æĥħä¸¥èĤĥ":12173,"Ġä¸įçŁ¥éģĵ":12174,"èģĶæīĭ":12175,"å°±åĥıè¢«":12176,"ç¾İå¥½":12177,"ä»ħéĿł":12178,"æĶ¹åĸĦ":12179,"äº²æīĭ":12180,"çĽ¸å½ĵä¸įéĶĻ":12181,"ç¬¬äºĮç§į":12182,"æ¢¦å¢ĥè¡ĮèĢħ":12183,"ä¾¿äºİ":12184,"çģ¯çģ«":12185,"æ¯Ľåıĳ":12186,"è®©äººæĹłæ³ķ":12187,"ä¸¤ä¸ªå°ıæĹ¶":12188,"é²ģæģ©è¯Ń":12189,"æŀªè¢ĭ":12190,"ä¹°åĪ°":12191,"å®īéĿĻçļĦ":12192,"è½»è½»çĤ¹å¤´éģĵ":12193,"åħ±é¸£":12194,"ç¥Īç¥·åİħ":12195,"è¡¨çİ°åĩºæĿ¥çļĦ":12196,"è¶ĬæĿ¥è¶Ĭå¤ļ":12197,"èĥ¸èħ¹":12198,"ç©¶ç«Łæĺ¯è°ģ":12199,"æĩĤçļĦ":12200,"ç¬¬ä¸ĢçĻ¾åĽĽåįģ":12201,"ç¬¬ä¸ĢçĻ¾åħŃåįģ":12202,"ç¬¬ä¸ĢçĻ¾åħ«åįģ":12203,"ç¬¬ä¸ĢçĻ¾ä¹Ŀåįģ":12204,"ç¬¬ä¸ĢçĻ¾äºĶåįģ":12205,"éĿłè¿ĳäºĨ":12206,"æĻ¶èİ¹":12207,"å¤§éĥ¨åĪĨæĹ¶åĢĻ":12208,"å¿½è§Ĩ":12209,"çĭ¬èĩª":12210,"çĺª":12211,"éĽªèĮĦ":12212,"çĤ¼éĩĳ":12213,"åįĸæİī":12214,"è£ĻåŃĲ":12215,"è¯¯å¯¼":12216,"æľĽäºĨè¿ĩåİ»":12217,"è½»æĿ¾å°±":12218,"å»·æł¹å¸ĤçļĦ":12219,"èµŀæł¼å¨ģå°ĶçļĦ":12220,"èµ°äºĨè¿ĽæĿ¥":12221,"è®°å½ķå®ĺ":12222,"å¯¹æĬĹçĿĢ":12223,"ä¸įæĺ¯å¤ªå¥½":12224,"å¾Īåı¯èĥ½æĺ¯":12225,"åŁĭä½İ":12226,"åĴ¬çīĻ":12227,"æĭ¥æľīäºĨ":12228,"èĪĴç¼ĵ":12229,"ä½įæł¼åĴĮ":12230,"å¤§æ¦Ĥçİĩä¼ļ":12231,"æ½®æµģ":12232,"èĩªè¡Įè½¦":12233,"ç«ĸç«ĭ":12234,"çļĦé»ĳæļĹéĩĮ":12235,"éĻĮçĶŁäºº":12236,"çļĦç¼º":12237,"è¿ľç¦»äºĨ":12238,"æ·±åĪ»çļĦ":12239,"å®£ç§°":12240,"ä¹ĥèĩ³":12241,"çīµæ¶ī":12242,"åĵŃæ³£":12243,"æ²īå£°éĹ®éģĵ":12244,"ç¬¬äºĮçĻ¾éĽ¶":12245,"æģ¨ä¸įå¾Ĺ":12246,"æľ¬åľ°äºº":12247,"è¿ĶåĽŀäºĨçİ°å®ŀä¸ĸçķĮ":12248,"èĪĮå¤´":12249,"æ»ĭæ»ĭ":12250,"èĽĭç³ķ":12251,"åħ·çİ°åĩºçº¸ç¬Ķ":12252,"çľĭæ¸ħæ¥ļäºĨ":12253,"å¿ĥä¸Ńä¸Ģåĸľ":12254,"åĳ½ä¸ŃäºĨ":12255,"å¥¥æĭīç»´å²Ľ":12256,"åĮķé¦ĸ":12257,"æĶĢçĪ¬":12258,"äºĨå¥½ä¸Ģéĺµ":12259,"çĿĢåĹĵéŁ³éģĵ":12260,"æĢ»çĿ£åºľ":12261,"çļĦçĭĤé£İ":12262,"µ®":12263,"ĠçľŁ":12264,"Ġç¦»å¼Ģ":12265,"Ġèī¾ä¼¦":12266,"Ġè¹¬è¹¬è¹¬":12267,"çļĦåľ°":12268,"çļĦä¸ĭ":12269,"çļĦå¥½":12270,"çļĦå®¶":12271,"çļĦè¯Ŀ":12272,"çļĦéĴ±":12273,"çļĦéļĲç§ĺ":12274,"çļĦå°Ŀè¯ķ":12275,"çļĦå±Ĥæ¬¡":12276,"çļĦéĹ¨åı£":12277,"çļĦæĬķå½±":12278,"çļĦè¿¹è±¡":12279,"äºĨèº«ä½ĵ":12280,"ä¸ĢæľĪ":12281,"ä¸Ģä»£":12282,"ä¸Ģå¥Ĺ":12283,"ä¸ĢæĴĳ":12284,"æľīèĥ½åĬĽ":12285,"æľīäºĨä¸Ģå®ļçļĦ":12286,"åĩ³":12287,"ä¼ŀ":12288,"è¿Ļå¾Ī":12289,"è¿ĻåºĶè¯¥":12290,"æĪĳè¿ĺæľī":12291,"æĪĳçĽ®åīį":12292,"åħĭèİ±æģ©æľī":12293,"åħĭèİ±æģ©æĥ³":12294,"åħĭèİ±æģ©ä¸ĭæĦıè¯Ĩ":12295,"äººç¾¤":12296,"åĩºä¹İ":12297,"åĴĮåĨĽæĸ¹":12298,"èĥ½çĶ¨":12299,"ä¹ĭæīĭ":12300,"ä¹ĭæĸ§":12301,"å¹¼":12302,"ä½łä¸ºä»Ģä¹Ī":12303,"ä½łè®¤è¯Ĩ":12304,"å¾Ĺä½ı":12305,"åı¯çĪ±":12306,"è¯´èĩªå·±":12307,"å¼Ģå¿ĥ":12308,"å¼ĢæľĹ":12309,"èĢĮä¸į":12310,"äºĭåīį":12311,"åıªå·®":12312,"å¥½ä¸įå®¹æĺĵ":12313,"çī¹åĪ¶":12314,"çī¹éĩĮæĸ¯":12315,"å¥¹ä¹Ł":12316,"å¤ļæĥ³":12317,"Ġä»ĸçĶ¨":12318,"Ġä»ĸè®°å¾Ĺ":12319,"é»ĳæ²ī":12320,"é»ĳé©¬çĶ²":12321,"åıĪéģĵ":12322,"åħīå½±":12323,"ä¸¤ä»¶äºĭæĥħ":12324,"ç§įæ¤į":12325,"å·²æĪĲä¸º":12326,"ä¸½ä¸Ŀ":12327,"æµ·æĢª":12328,"æ°Ķæ³¡":12329,"åĨįçİ°":12330,"å®īæħ°":12331,"éĩįå¿ĥ":12332,"éĩįå»º":12333,"å¹¶ä¸įæĺ¯å¤ª":12334,"ç¬¬ä¹Ŀ":12335,"å¥¥å¾·æĭī":12336,"ç»ĻæĪĳçļĦ":12337,"æīĵäºĨå£°":12338,"åĲ¬æĩĤ":12339,"æĶ¾ä¸ĭäºĨ":12340,"çģ°èĵĿ":12341,"éļ¾æİ©":12342,"åĹĴ":12343,"åĶ¬":12344,"åĽłä¸ºæľī":12345,"åĽłä¸ºæĪĳ":12346,"äºĮåī¯":12347,"æĮĩå¤´":12348,"æĮĩçİ¯":12349,"ä¸įä¼ļå¤ª":12350,"çªģåıĳ":12351,"ä¹īå·¥":12352,"æĬĬå®ĥ":12353,"çļĦäººçĶŁ":12354,"æµģçķħ":12355,"åĳĬåĪ«":12356,"èĹıçĿĢä¸Ģ":12357,"æģ¶èĩŃ":12358,"ç»Ĩå¾®":12359,"è§ĤçĤ¹":12360,"åį±éĻ©ç¨ĭåº¦":12361,"çĪµä½į":12362,"æĢ»ä¼ļ":12363,"æłĩè®°":12364,"èĴĤè¥¿äºļ":12365,"è¿ĩåİ»äºĨ":12366,"ç§°å¾Ĺä¸Ĭ":12367,"è£ħä½ľ":12368,"è¿Ļä½įæĺ¯":12369,"çĸ¯äººéĻ¢":12370,"æĥĬåĲĵ":12371,"éĵľä¾¿å£«":12372,"åĻ¢":12373,"æģĲåĲĵ":12374,"æĳĨåĩº":12375,"è¯įè¯Ń":12376,"å°½æĺ¯":12377,"å¸®åĬ©æĪĳ":12378,"æĹłå£°èĩªè¯Ń":12379,"ä¸įçŁ¥è¯¥æĢİä¹Ī":12380,"å±ħé«ĺä¸´":12381,"åĳĬè¯īå¥¹":12382,"æ¸©åº¦":12383,"æĬ½åĩºäºĨ":12384,"åĵĪåĲī":12385,"åı°ä¸Ĭ":12386,"æī¿è½½":12387,"æİ§åĪ¶ä¸įä½ı":12388,"å°Ĭéĩį":12389,"éģ¿å¼ĢäºĨ":12390,"åī¯çĶ»éĿ¢":12391,"ä¸Ģèµ·åİ»":12392,"éĩįè¦ģçļĦæĺ¯":12393,"ç¼©å°ı":12394,"ç§ĺå¯ĨéĻµå¯Ŀ":12395,"ç«ŁçĦ¶æ²¡æľī":12396,"ãĢĭãĢĤ":12397,"çĶŁåĳ½æīĭæĿĸ":12398,"åģ·åģ·":12399,"ç¥ŀç§ĺåŃ¦å®¶":12400,"å¥½åĩłä¸ª":12401,"çļĦç²ī":12402,"å·§è¨ĢèĢħ":12403,"é²ľèĬ±":12404,"æĲľæŁ¥":12405,"æĽ¿ä»£":12406,"æĬ¥çº¸ä¸Ĭ":12407,"éĢĴäºĨè¿ĩåİ»":12408,"æĦ£ä½ı":12409,"ç»Ŀå¯¹çļĦ":12410,"æ²³æ°´":12411,"æ²³è°·":12412,"è½»æĿ¾åľ°":12413,"æ´ģçĻ½":12414,"èĮĥåĽ´åĨħçļĦ":12415,"çıŃæ£®åĴĮæ¢ħä¸½èİİ":12416,"è®¨åİĮ":12417,"åĪĨåĪ«æĺ¯":12418,"æ»ĳèĲ½":12419,"åĲŀäºĨåı£åĶ¾":12420,"æĭĸçĿĢ":12421,"æ¬£æħ°":12422,"ä¸Ĭå°Ĩéĺģä¸ĭ":12423,"æĭĽæīĭ":12424,"è¡¨ç¤ºèĩªå·±":12425,"æıĴåħ¥äºĨ":12426,"çļĦæĪĲåĳĺä»¬":12427,"æĵ¦äºĨ":12428,"é©±éĤª":12429,"èĮ«çĦ¶åľ°":12430,"å¿§èĻĳ":12431,"è´¢äº§":12432,"åĩĳèĩ³":12433,"çļĦå¥³åŃ©":12434,"èĥľè¿ĩ":12435,"èĦ¸èī²èĭįçĻ½":12436,"åĪĢåıī":12437,"å®£æī¬":12438,"é¸Łåŀĭ":12439,"åģ¶å°Ķä¼ļ":12440,"é£ĵé£İä¹ĭæĸ§":12441,"æ¶Īå¤±åľ¨äºĨåİŁåľ°":12442,"ä¹Įé»¯éŃĶçĭ¼ç§ĳå¡Ķå°Ķ":12443,"åıĳæĮ¥ä½ľçĶ¨":12444,"çļĦç¾İä¸½":12445,"æ±Ĺæ¯Ľ":12446,"æĶ¶æĭ¾å¥½":12447,"åıĺå¼ĤçļĦå¤ªéĺ³":12448,"åħĪæĺ¯ä¸ĢæĢĶ":12449,"çļĦä¸ĸçķĮéĩĮ":12450,"è®¸æĦ¿æľº":12451,"æ±ģæ¶²":12452,"èĪįä¸įå¾Ĺ":12453,"æķ²éĹ¨å£°":12454,"ä»İæĿ¥æ²¡æľī":12455,"éĺ´è°ĭå®¶":12456,"å¸Įå°Ķä¼¯çī¹":12457,"è±ªåįİåĪ«å¢ħåĨħ":12458,"éľįçº³å¥ĩæĸ¯å±±èĦīä¸»å³°":12459,"çļĦçħ¤æ°Ķè·¯çģ¯":12460,"æ´ªæµģ":12461,"æ²¸èħ¾":12462,"å¹½èĵĿå¤įä»ĩèĢħåı·":12463,"ä¸Ńäº§éĺ¶":12464,"çº½æī£":12465,"åįĬè½¬èº«ä½ĵ":12466,"Ġè¯´çĿĢè¯´çĿĢ":12467,"§æ¡ĳ":12468,"·è¡į":12469,"Ġè°ģ":12470,"Ġä¹ĭåĲİ":12471,"ĠéĺŁéķ¿":12472,"Ġä¸Ģä¸ªä¸ª":12473,"Ġåĵİ":12474,"çļĦé©¬è½¦":12475,"çļĦèľ¡çĥĽ":12476,"çļĦæĦŁåıĹ":12477,"çļĦé¢ľèī²":12478,"çļĦèĺĳèıĩ":12479,"çļĦæ·±çº¢æĺŁè¾°":12480,"çļĦæºĲå¤´":12481,"äºĨå½ĵ":12482,"âĢĿï¼Ī":12483,"ä¸Ģè¡Į":12484,"ä¸Ģé¡¿":12485,"ä¸Ģè·³":12486,"å®ł":12487,"ä¸įé«ĺ":12488,"ä¸įæŃ£å¸¸çļĦ":12489,"æľīéĴ±":12490,"æľīå¿ħè¦ģ":12491,"æĿµ":12492,"ä»ĸéĥ½":12493,"ä»ĸåıªèĥ½":12494,"ä»ĸå¹¶æ²¡æľī":12495,"æ²§æ¡ĳ":12496,"åħĭèİ±æģ©åıĳçİ°":12497,"åħĭèİ±æģ©åĪĻ":12498,"éĤ£æ®µ":12499,"åľ°çĤ¹å¤´éģĵ":12500,"åĩºæ²¡":12501,"åĩºèº«":12502,"ï¼ļãĢĤ":12503,"å°±åĲ¬è§ģ":12504,"åĴĮä¸Ģä¸ª":12505,"åĴĮä¼¦çº³å¾·":12506,"åĴĮå¦¹å¦¹":12507,"ä¸ĬçĻ¾":12508,"æķ·è¡į":12509,"ï¼ŁâĢĺ":12510,"è¿ĩä¸ĸ":12511,"ç¥ŀåĥı":12512,"å¾Ĺä»¿ä½Ľ":12513,"äºĨä¸Ģç§į":12514,"äºĨä¸Ģæ®µ":12515,"éĿ¢åŃĶ":12516,"äºİåľ°":12517,"çĤ¹æķ°":12518,"å±ģ":12519,"åĽŀæĬ¥":12520,"æĪĲä¸ĢåĽ¢":12521,"è¿ĺåŃĺåľ¨":12522,"è¿ĺä¸įåĪ°":12523,"èĢĮä½ł":12524,"æīĭå¸ķ":12525,"å¤´èĦĳ":12526,"å¥¹æľī":12527,"å¥¹å·²ç»ı":12528,"çĶ¨å¤Ħ":12529,"çĶ¨ä¸Ģç§į":12530,"æĹłæķĪ":12531,"æĹłçŀ³":12532,"å°ıæ¥¼":12533,"å°ıåĪĢ":12534,"å°ıå¥³åŃ©":12535,"ä¾Ī":12536,"Ġè¿Ļå°±":12537,"Ġè¿Ļæĺ¯ä¸Ģ":12538,"Ġè¿ĻéĩĮçļĦ":12539,"æ³ķå¾ĭ":12540,"å¤©çļĦ":12541,"æİ¥æīĭ":12542,"æľĢéĩįè¦ģçļĦ":12543,"åħīä¸İ":12544,"åħīäº®":12545,"åĿİ":12546,"ä¸¤åıª":12547,"ä¸¤åı¥":12548,"åĪĨä¸º":12549,"åĪĨå¤ĸ":12550,"å¸¸å¸¸":12551,"åıĺæ·¡":12552,"æ±ł":12553,"ä¸»çļĦ":12554,"éĹ¨åĲİ":12555,"åĪ°äºĨåºıåĪĹ":12556,"æŀľæĸŃ":12557,"Ġåħĭèİ±æģ©çĤ¹äºĨçĤ¹å¤´":12558,"å¥¥åħ¹":12559,"è¿Ļä¸ªæĥ³æ³ķ":12560,"çªľ":12561,"ç»Ļä½łä»¬":12562,"å°±æĺ¯ä¸ºäºĨ":12563,"æį§":12564,"è½¬åĮĸ":12565,"æĭīäºĨ":12566,"æĭīçĿĢ":12567,"æĭīèĴĤè¥¿äºļ":12568,"æ¡©":12569,"æĪ´åħľå¸½":12570,"çº¢é©¬çĶ²":12571,"æ¸ħæ¾Ī":12572,"ç©ºç©ºèį¡èį¡":12573,"çİĭæľĿ":12574,"å¼ıçļĦ":12575,"ä½İä¸ĭäºĨ":12576,"åĪĻæľī":12577,"åĪĻæĹ¥è®°":12578,"åº¦åģĩ":12579,"ä¸ĢçĤ¹ä¹Łæ²¡":12580,"æĸ°çĶŁ":12581,"çĶ·å¥³":12582,"å½¢æĪĲçļĦ":12583,"æķ´ä»¶äºĭæĥħ":12584,"åºĶè¯¥å°±èĥ½":12585,"ç´§æı¡":12586,"åĪļæīįéĤ£ä½į":12587,"ä¾Ŀæį®":12588,"çķ¥æľīäºĽ":12589,"é£ŀäºĨåĩºåİ»":12590,"ä¼ĳçļĦ":12591,"åľ£å®īä¸ľå°¼":12592,"è¯·è¿Ľ":12593,"å¸ĥåĳĬ":12594,"å¸ĥé²ģ":12595,"åĲ¦å®ļäºĨ":12596,"åľ¨äºĨéĤ£éĩĮ":12597,"é¢Ħæ¡Ī":12598,"ç±³æŃĩå°Ķ":12599,"åĨĻä¸ĭ":12600,"å·´åħ¹":12601,"éĽ·å°Ķå¤«":12602,"ä¹Łä¸įåı¯èĥ½":12603,"å¥³å£«ä»¬":12604,"èİ«ä¿®":12605,"èŃ¦æĸ¹":12606,"çļĦä¸ĢéĿ¢":12607,"ä¸įèĥ½åĨį":12608,"æĶ¹ä¿¡":12609,"æĶ¯éħį":12610,"ä¼Ĺä½įæĪĲåĳĺ":12611,"åĩĿæľĽ":12612,"è¿·å¹»":12613,"ä¸ĥå¤§":12614,"çĻ½éĵ¶åŁİéĢłçī©ä¸»":12615,"çĻ½éĵ¶åŁİé¦ĸå¸Ń":12616,"æııè¿°éģĵ":12617,"å¿įä½ı":12618,"åĬŁåĬ³":12619,"é¤ĲçĽĺ":12620,"èĭ¦æ¶©":12621,"ä¸įåĨįçĬ¹è±«":12622,"åĨ²åĲĳäºĨ":12623,"è·³åĬ¨":12624,"èº«ä»½è¯ģæĺİ":12625,"éĹŃäºĨ":12626,"éĢĥéģ¿":12627,"è¯ºè´ĿåĪ©":12628,"é¢ĩæĦŁåħ´è¶£":12629,"æĢ¨å¿µ":12630,"åħ·ä½ĵçļĦæĥħåĨµ":12631,"æŁĲäºĽæĹ¶åĢĻ":12632,"æ¶ĪåĮĸéŃĶèį¯":12633,"æ¼«æ¸¸":12634,"çĳŀæĸ¯":12635,"ä¹Ķå¾·":12636,"çĥŃæ°´":12637,"ç§Łä½ı":12638,"ç½Ĺå¡ŀå°Ķå¤§å¸ĿçļĦ":12639,"å·¨äººçİĭå±ħæīĢ":12640,"åĪļæīįçļĦè¯Ŀè¯Ń":12641,"è®¾å®ļ":12642,"éģ®æĮ¡":12643,"æıĲçĿĢçļĦ":12644,"åıĪä¸Ģéģį":12645,"ä¾µåħ¥":12646,"éĴ»åħ¥":12647,"çĽ¸åħ³çļĦäºĭæĥħ":12648,"æĭĽæĥ¹":12649,"æĬ¬å¤´æľĽåĲĳ":12650,"åĩºäºĨä¸Ģä¸ªåıĪä¸Ģä¸ª":12651,"ç¼ºä¹ıè¶³å¤ŁçļĦ":12652,"è¤Ĳåıĳ":12653,"åģļäºĨæ¬¡":12654,"éĤ£åº§åİŁå§ĭå²Ľå±¿":12655,"æľĢåĪĿéĤ£ä½įéĢłçī©ä¸»":12656,"æĬ¿äºĨ":12657,"åĪĩå°Ķè¯ºè´ĿåĪ©":12658,"æĨİ":12659,"ç©¿éĢıäºĨ":12660,"åĨ·éĿĻåľ°":12661,"æµĳåĻ©":12662,"åĲ¸å¼ķåĬĽ":12663,"é»ĺçĦ¶åĩłç§Ĵ":12664,"çİ¯é¡¾äºĨä¸ĢåľĪéģĵ":12665,"çļĦçİ¯å¢ĥéĩĮ":12666,"çİ¯é¡¾ä¸ĢåľĪéģĵ":12667,"çļĦå¹´è½»äºº":12668,"èīĺèĪ¹":12669,"å±ĤåıłçļĦ":12670,"æĪĺç¥ŀæķĻä¼ļ":12671,"ç¿»èº«åĿĲèµ·":12672,"Ġå¾Īæĺ¾çĦ¶":12673,"æĬ½åĬ¨äºĨä¸Ģä¸ĭ":12674,"å¤©çģ¾å¥³çİĭ":12675,"æı´åĬ©":12676,"è£¸éľ²":12677,"çĽ²çĽ®":12678,"é»ıç¨ł":12679,"å¥¢ä¾Ī":12680,"èµ«å°Ķèİ«ä¿®":12681,"åĩĦåİī":12682,"æĭ§åĬ¨æĬĬæīĭ":12683,"ç¿łè¥¿":12684,"èĹīæŃ¤":12685,"åľĨèħ¹éĴ¢ç¬Ķ":12686,"èĢķç§į":12687,"åħ¨èĩªåĬ¨è®¸æĦ¿æľº":12688,"åıĺå¼ĤçļĦå¤ªéĺ³åľ£å¾½":12689,"å¥¥åħ¹å°Ķ":12690,"èµ«å°Ķèİ«ä¿®åĽł":12691,"¨æ¸¸":12692,"Ġåıªæĺ¯":12693,"Ġæ³¨":12694,"Ġå®ĮæĪĲ":12695,"Ġä¸ĭåįĪ":12696,"çļĦä¼ĳ":12697,"çļĦæķĻåłĤ":12698,"çļĦæĹģè¾¹":12699,"çļĦéĵ¶çĻ½":12700,"çļĦå¤ľæĻļ":12701,"çļĦæĬĢå·§":12702,"çļĦé¦Ļåĳ³":12703,"ä»Ĺ":12704,"æľ½":12705,"ä¸ĢéĹ´":12706,"ä¸Ģåħ·":12707,"ä¸ĢèĪ¬çļĦ":12708,"æĪ³":12709,"ä¸įçŃī":12710,"ä¸įåºĶè¯¥":12711,"ä»ĸåı¯ä»¥":12712,"ä»ĸæīĵç®Ĺ":12713,"ä»ĸåĲ¬è§ģ":12714,"éģ¨æ¸¸":12715,"åľ¨ä½ł":12716,"åľ¨çĻ½éĵ¶åŁİ":12717,"åľ¨çİ°å®ŀä¸ĸçķĮ":12718,"åľ¨æĭľäºļå§Ĩ":12719,"æĪĳè¯¥æĢİä¹Ī":12720,"æĪĳä¹Łä¸įçŁ¥éģĵ":12721,"åħĭèİ±æģ©æŃ£è¦ģ":12722,"åħĭèİ±æģ©æĶ¶åĽŀè§Ĩçº¿":12723,"éĤ£æĺ¯ä¸Ģ":12724,"äººåľ¨":12725,"æŃ§":12726,"èĩ£":12727,"åĩºä¸Ģä¸ª":12728,"ä¹ĭéĻħ":12729,"è¿ĩå¾Ģ":12730,"åīª":12731,"ä¸ºä½ł":12732,"ä½łæĺ¯åĲ¦":12733,"äºĨä¸Ģæł·":12734,"çľĭæĬ¥çº¸":12735,"ä»¥ä¸ĬçļĦ":12736,"ä¹Łåı¯èĥ½æĺ¯":12737,"è¦ģåİ»":12738,"èĢĮèµ·":12739,"åıĳåĬ¨":12740,"åıĳåŁŁ":12741,"éĥ½æ²¡æ³ķ":12742,"èĦĵ":12743,"å¾Īå¥½çļĦ":12744,"ä¸ŃæŃ¢":12745,"åŃĲåĹ":12746,"çĶ¨äºİ":12747,"æĹłåħī":12748,"å°ıå·§":12749,"Ġè¿Ļä¹Łæĺ¯":12750,"Ġè¿Ļè®©å¥¹":12751,"æ³ķæ¡Ī":12752,"åģļçĤ¹ä»Ģä¹Ī":12753,"åĲĮä¼Ļ":12754,"éķ¿å¾Ĺ":12755,"å¤ĸä¹¡":12756,"ç¬ĳè¯Ŀ":12757,"åĩłæł¹":12758,"åĪ°äºĨä»ĸçļĦ":12759,"æľĽäºĨè¿ĩæĿ¥":12760,"éŃĶé¬¼":12761,"ä¸İä½ł":12762,"ä¸İèĩªå·±":12763,"å¹¶çĶ¨":12764,"è¿Ļä¸ªè¿ĩç¨ĭä¸Ń":12765,"ä¸įæĺ¯ä¸Ģä¸ª":12766,"æŃ¥åħ¥":12767,"åĪļè¦ģ":12768,"è½»ç¬ĳäºĨä¸Ģå£°":12769,"è¡Ģèī²çļĦ":12770,"è¡Ģæ±¡":12771,"éĢļæĬ¥":12772,"è§Ĩä½ľ":12773,"åĪ©æĸ¯":12774,"åĬłéĢŁ":12775,"æĿ¡æ¬¾":12776,"åħ¶ä»ĸçļĦ":12777,"æ±ĤåĬ©":12778,"æ¶Īçĺ¦":12779,"åıįåĻ¬":12780,"åħ³æĬ¼":12781,"èĦĳåĲİ":12782,"åĽĽæľĪ":12783,"äº¤éĢļ":12784,"ä¸įä¼ļæĺ¯":12785,"åįľæĿĸ":12786,"è¯ķéªĮ":12787,"èĩªå·±çļĦèº«ä½ĵ":12788,"èĩªå·±çļĦçĶŁåĳ½":12789,"æĺŁçĲĥ":12790,"è·¯æĺĵ":12791,"åį°è®°":12792,"èĥĮå¯¹":12793,"Ġå¥¹æ²¡æľī":12794,"Ġå¥¹æĹĭåį³":12795,"é¦ĸåıĳåŁŁ":12796,"æĸ¯å¸ķç½Ĺéģĵ":12797,"è¿ĺæľīä¸įå°ĳ":12798,"æĹ¥æľŁ":12799,"èī¾çķ¥":12800,"çĦ¶åĲİåĨį":12801,"è¡Ĺè¾¹":12802,"æ¯ıéļĶ":12803,"åĩĨå¤ĩå¥½äºĨ":12804,"åį¡è¯º":12805,"åį±éĻ©äºĨ":12806,"èĪ¬åľ°":12807,"èĪ¬è¯´éģĵ":12808,"éķľä¸ŃçļĦ":12809,"åıĺå¾ĹéĢıæĺİ":12810,"åıĺå¾ĹæĽ´åĬł":12811,"çļ®å¤¹":12812,"æĲŀ":12813,"ç«ĻçĽ´":12814,"èĤīçľ¼":12815,"æį¢ä¸ª":12816,"çł´çĥĤ":12817,"æĶ¯ç¦»":12818,"éĢļè¿ĩäºĨ":12819,"æ¶Īå¤±åľ¨":12820,"å¼ķçĪĨ":12821,"åĲĮæł·æĺ¯":12822,"ç±»ä¼¼çļĦæĥħåĨµ":12823,"æııè¿°äºĨä¸Ģéģį":12824,"èĻļå¹»ä¹ĭéĹ¨":12825,"çĿ¡åºĬ":12826,"ä¸įçŁ¥å¤ļå°ĳ":12827,"éļĲç§ĺä¹ĭ":12828,"éļĶç©º":12829,"æ¸©æŁĶ":12830,"ç²¾ç¥ŀçļĦ":12831,"æĺ¯åĲ¦åı¯ä»¥":12832,"äºĨè§£çļĦ":12833,"éĻįä¸ĭ":12834,"çŁ¥è¯ĨçļĦ":12835,"æłĳæŀĿ":12836,"åĤ¨":12837,"è½»è½»ä¸Ģ":12838,"éĢıæĺİèłķèĻ«":12839,"åį³ä½¿æľī":12840,"éŃĶå¥³çī¹èİīä¸Ŀ":12841,"çľ·èĢħçļĦ":12842,"ä¸¢åħ¥äºĨ":12843,"ä¾įä»İ":12844,"èĪŀåı°":12845,"åĸĦæĦı":12846,"çĿģçľ¼":12847,"åķĨä¸ļ":12848,"ç»Ŀå¯¹ä¸įèĥ½":12849,"åºĦä¸¥":12850,"è¿Ľè¡ĮäºĨ":12851,"ä¸Ģå¼łå¼ł":12852,"çĤ¸å¼Ģ":12853,"åľ°ä¸ĭåĮºåŁŁ":12854,"ç²Ĺçķ¥":12855,"ç²Ĺå£®":12856,"åłķèĲ½ä¼¯çĪµ":12857,"éĤ£çīĩåĮºåŁŁ":12858,"æĭįäºĨ":12859,"è®°ä½ıæľ¬ä¹¦":12860,"åĽŀæĥ³èµ·":12861,"åĽŀå¿Ĩèµ·":12862,"çŀĴè¿ĩ":12863,"å½ĵåīįçļĦ":12864,"éĹªçĥģéĹ´":12865,"æĸŁéħĮçĿĢéĹ®éģĵ":12866,"è¿Ļä¸ªä¸ĸçķĮä¸Ĭ":12867,"éľ²åĩºäºĨç¬ĳå®¹":12868,"åĮħè£¹ä½ı":12869,"åĸ·æ³ī":12870,"è¿ĺç®Ĺä¸įéĶĻ":12871,"é¦Īèµł":12872,"å¢¨æ°´":12873,"çģµæķĻåĽ¢äººéĢłæŃ»ç¥ŀ":12874,"åı¤èµ«å¯Ĩæĸ¯è¯Ńåįķè¯į":12875,"æµģæ·ĮçĿĢ":12876,"ç¼łç»ķçĿĢ":12877,"æĭ§å¼Ģ":12878,"æī¶æīĭ":12879,"åģ¿è¿ĺ":12880,"çļĦçłĶç©¶":12881,"çļĦçĸĳéĹ®":12882,"åĢ¾åĲĳäºİ":12883,"çħ§èĢĢä¸ĭ":12884,"å¾®çļ±çľīå¤´éģĵ":12885,"åķªåľ°æīĵäºĨä¸ªåĵįæĮĩ":12886,"éĻªä¼´":12887,"è´¦æĪ·":12888,"åĬłå°ĶåĬł":12889,"é»İæĺİéªĳå£«":12890,"æµıè§ĪäºĨä¸Ģéģį":12891,"çļĦçħ§çīĩ":12892,"æµĨæ´Ĺ":12893,"è´©åįĸ":12894,"èµ°çĿĢèµ°çĿĢ":12895,"æĹłè¾ľèĢħ":12896,"ä¸įåı¯éģ¿åħįåľ°":12897,"çļĦä»Ĩäººéĺ¿ç½Ĺå¾·æĸ¯":12898,"å±¹ç«ĭ":12899,"ç®ĢåįķæĿ¥è¯´å°±æĺ¯":12900,"å¼ķé¢Ĩä¸ĭ":12901,"Ġè¯·è®°ä½ıæľ¬ä¹¦":12902,"æīĵäºĨå£°æĭĽåĳ¼":12903,"éĹŃäºĨéĹŃçľ¼çĿĽ":12904,"æĬ¿äºĨæĬ¿":12905,"åŃĲåĹ£":12906,"é¦ĸåıĳåŁŁåĲį":12907,"Ġè¯·è®°ä½ıæľ¬ä¹¦é¦ĸåıĳåŁŁåĲį":12908,"80":12909,"Ġä¸ī":12910,"ĠæĹĭåį³":12911,"ĠæĶ¾ä¸ĭ":12912,"ĠåłĤå¨ľ":12913,"Ġæį¢åģļ":12914,"ģå¸ĥ":12915,"ĻèĿ":12916,"çļĦæľĢåĲİ":12917,"çļĦæİ¢ç´¢":12918,"çļĦæĬ¥çº¸":12919,"çļĦæģĲæĥ§":12920,"çļĦåŁİå¸Ĥ":12921,"çļĦéĻĲåĪ¶":12922,"çļĦéª¨çģ°":12923,"äºĨè¿ĳ":12924,"ä½¬":12925,"æĺ¯è¿Ļæł·çļĦ":12926,"ä¸įå®ļ":12927,"ä¸įå¿Ļ":12928,"è¿Ļæ¯Ķ":12929,"è¿ĻæłĭæĪ¿å±ĭ":12930,"ä»ĸå¾Ī":12931,"ä»ĸæĽ¾ç»ı":12932,"æĪĳäºĨ":12933,"æĪĳä»¥":12934,"åħĭèİ±æģ©æĵįçºµ":12935,"åľ°åĽ¾":12936,"åľ°çľĭäºĨ":12937,"åĩºåįĸ":12938,"è¡«":12939,"åĴĮä»ĸä»¬":12940,"èĥ½å¾ĹåĪ°":12941,"ä¼ļåĲĪ":12942,"çľĭè¿ĩçļĦ":12943,"ä¹Łç®Ĺ":12944,"éĿ¢è¯ķ":12945,"å±ī":12946,"é¢ģå¸ĥ":12947,"å£¶":12948,"è´¼":12949,"âĢĻï¼ģâĢĿ":12950,"èĢĮè¿ĩ":12951,"å¥½ä¹ħ":12952,"çī¹éĩĮ":12953,"éĥ½åĿ¦":12954,"å¥¹æ²¡æľī":12955,"å¿ĥåĬ¨":12956,"å¤ļä¸½ä¸Ŀ":12957,"ä¸Ńæĸĩ":12958,"çĶ¨è¯į":12959,"æ¸¡":12960,"å¦ĵ":12961,"å¤©äº®":12962,"æľĢå¿«":12963,"æ¬¡æķ°":12964,"éľĨ":12965,"å®ŀè·µ":12966,"çĽ´æĪª":12967,"å¦Ĥåħ¶":12968,"é«ĺä½İ":12969,"ä¿¡ä»¶":12970,"çĥ«":12971,"å°ĳå°Ĩ":12972,"æīĵåľ¨äºĨ":12973,"åĸ§":12974,"ä¸īå¹´":12975,"ä¸īåĪĨä¹ĭä¸Ģ":12976,"ä½ľåī§":12977,"éļĲèĹıçĿĢ":12978,"é©»":12979,"çľĭè§ģçļĦçĶ»éĿ¢":12980,"åĮĸæĪĲäºĨä¸Ģ":12981,"è±¸":12982,"æĪ¿ä¸ľ":12983,"çİĭåº§":12984,"æĪĳä»¬æĺ¯":12985,"ç¡®ä¿Ŀ":12986,"åĪ©äºļ":12987,"ç´¢çº³":12988,"æ¶ĪéĢĢ":12989,"æĬ¥ç®±":12990,"ä¼¼ä¹İä¹Ł":12991,"å¯¹æĸ¹æĺ¯":12992,"åĽĽçİĭ":12993,"åĽĽçļĩ":12994,"ä¹ĭåīįéĤ£ä¸ª":12995,"è¶Ĭå¤§":12996,"åįłåįľå¸Ī":12997,"æĬĬèĩªå·±":12998,"ç»Īç©¶":12999,"æļ´æĢĴ":13000,"ç¥ŀç§ĺä¸ĸçķĮ":13001,"æĥħåĨµçļĦ":13002,"éĿŀå¸¸å¥½":13003,"åıĸèµ°":13004,"æģ¶ä½ľåī§":13005,"åľ£åħ¸":13006,"æĹ©çĤ¹":13007,"é¢Ħè®¡":13008,"åº§ä½į":13009,"äºĨåĩłä¸ª":13010,"äºĨåĩłéģį":13011,"ä½łä»¬æľī":13012,"ä¸Ģå®ļç¨ĭåº¦ä¸Ĭ":13013,"ĠèĢĮåħĭèİ±æģ©":13014,"æĪ¿éĹ´çļĦ":13015,"ä¹Įäºĳ":13016,"éĽ·éľĨ":13017,"èİ«ç´¢çº³":13018,"è¶ħèĩªçĦ¶":13019,"æĶ¹éĢł":13020,"éĵģçĽĴ":13021,"æľ¨æĿ¿":13022,"ä¼Ĺå¤ļçļĦ":13023,"åĳ¼åķ¸":13024,"è½®åĢ¼":13025,"å®ĪæģĴ":13026,"ä¸ĥåħī":13027,"æııè¿°äºĨ":13028,"æīĺçĿĢ":13029,"å°ģåį°çī©çļĦ":13030,"åĬ¡æ±Ĥ":13031,"æľīä¸Ģä»¶":13032,"ä¸įçŁ¥åľ¨":13033,"æĿĤæ´»":13034,"æĬ½å±ī":13035,"Ġè¿Ļæĺ¯åħĭèİ±æģ©":13036,"æ³°å°Ķ":13037,"åı¤èĢģå®«æ®¿":13038,"çļĦç¥ŀæĥħ":13039,"ä¹ĿæľĪ":13040,"çľ¼çľ¸å¾®è½¬":13041,"éĤªçģµ":13042,"é²ģæģ©åĨĽæĸ¹":13043,"çĿĢä¸ĢåĪĩ":13044,"æŀªåı£":13045,"ä½¿çĶ¨çļĦ":13046,"åıªè¦ģä¸į":13047,"æ··åĲĪ":13048,"å¸¦çĿĢçĤ¹":13049,"æł¹æľ¬æĹłæ³ķ":13050,"èĻ«è±¸":13051,"çĸĳæĥĳåľ°éĹ®éģĵ":13052,"åĺ´è§Ĵå¾®":13053,"çļĦä¸»è§Ĵ":13054,"æĵįçºµçģ«çĦ°":13055,"æ²¹å½©":13056,"æĩµ":13057,"å»¶ç»Ń":13058,"éľ²åĩºç¬ĳå®¹éģĵ":13059,"é¦ĻæĸĻ":13060,"æ¼«æŃ¥":13061,"æµĵå¯Ĩ":13062,"Ġç´§è·ŁçĿĢ":13063,"çĳŀä¹Ķå¾·":13064,"å¿ĥçģµä¸ĸçķĮ":13065,"ç¬¬ä¸īæĽ´":13066,"åħ³éĶ®è¯į":13067,"æķıæĦŁ":13068,"è´´çĿĢ":13069,"åķĨåºĹ":13070,"å¹¿åĳĬ":13071,"éģ®ä½ıäºĨ":13072,"åĽŀèį¡åľ¨äºĨ":13073,"é»Ħéĩĳé¥°åĵģ":13074,"éŃĶæ³ķå¸Ī":13075,"äºĴåĬ¨":13076,"åĽŀå¿Ĩèµ·äºĨ":13077,"éľĩæħĳ":13078,"ç¹ģæ®ĸ":13079,"åŀĤä½ĵ":13080,"åļı":13081,"åĲ¸äºĨåı£æ°Ķéģĵ":13082,"æĮĤçĿĢ":13083,"æīĶåĲĳäºĨ":13084,"çĮ®ç¥Ńä»ªå¼ı":13085,"æŃ£å¼ıæĪĲåĳĺ":13086,"çļĦçĭ©çĮİ":13087,"åĬ¨äºĨåĬ¨":13088,"ç¢įäºİ":13089,"åı®åı®":13090,"æ½ľåħ¥èĢħ":13091,"éķ¿èĢģæ´ĽèĸĩéĽħ":13092,"éŁ¦çī¹":13093,"æ²¾æŁĵçĿĢ":13094,"èİ±æĽ¼è¯ºæĹħè¡Įç¬Ķè®°":13095,"æ±Ĺæ°´":13096,"åħ½çļ®":13097,"æ³¢çī¹åħ°":13098,"èįīèį¯ç²īæľ«":13099,"åįķçĭ¬äº¤æµģ":13100,"ç´¢ä¼¦å®¶æĹı":13101,"èµĦæ·±çļĦ":13102,"èĿĻèĿ":13103,"é¡ºæĹ¶éĴĪçĤ¹äºĨåĽĽä¸ĭ":13104,"æľįåĬ¡çĶŁ":13105,"çļĦçĥĽçģ«":13106,"å¼ºè¿«èĩªå·±":13107,"åĳķåĲĲ":13108,"åŃķèĤ²":13109,"ä»Ģä¹Īä¹Łæ²¡è¯´":13110,"åĿŁå¢ĵ":13111,"èĩªè¨Ģèĩªè¯Ń":13112,"èĪªæµ·å®¶":13113,"å¸·å¹ķ":13114,"å±łæĿĢ":13115,"å¼¯ä¸ĭèħ°èĥĮ":13116,"åĵĪåĲīæĸ¯":13117,"èĢķç§įèĢħ":13118,"è·¯æĺĵæĸ¯":13119,"éĥ½åĿ¦è¯Ń":13120,"çĽ´æĪªäºĨå½ĵ":13121,"èĿĻèĿł":13122,"17":13123,"51":13124,"AåħĪçĶŁçļĦ":13125,"XåħĪçĶŁçļĦ":13126,"~âĢĿ":13127,"Ġäºļå½ĵ":13128,"Ġç¥ĤçļĦ":13129,"Ġæ´ĽèĸĩéĽħ":13130,"ĠåĪ°æĹ¶åĢĻ":13131,"ĠAåħĪçĶŁ":13132,"Ġè´¾æĸ¯æķı":13133,"Ġä¹ĵ":13134,"ĥåľ":13135,"çļĦåı£":13136,"çļĦå·¨äºº":13137,"çļĦåĲĮä¼´":13138,"çļĦæİĮæİ§":13139,"çļĦé¡¶ç«¯":13140,"çļĦæĥ¨åı«":13141,"ãĢĤãĢĤ":13142,"è¿ģ":13143,"ä¸Ģå¯¹":13144,"ä¸Ģåħ±":13145,"æĺ¯æĥ³":13146,"æĺ¯éĤ£æł·çļĦ":13147,"ä¸įå¤ļçļĦ":13148,"ä¸įåĸľæ¬¢":13149,"ä¸įçģŃ":13150,"æľīä»»ä½ķ":13151,"è¿ĻéľĢè¦ģ":13152,"ä»ĸå¼Ģå§ĭ":13153,"åħĭçĳŀæĸ¯":13154,"ç»¼":13155,"åľ¨ä¸Ģä¸ª":13156,"åľ¨ç¥ŀç§ĺåŃ¦":13157,"æĪĳä»¥ä¸º":13158,"åĬĿ":13159,"åħĭèİ±æģ©ä¸į":13160,"åħĭèİ±æģ©çĽ¸ä¿¡":13161,"åħĭèİ±æģ©ä¸ĢæĹ¶":13162,"åħĭèİ±æģ©åħĪæĺ¯":13163,"éĤ£é¢Ĺ":13164,"éĤ£ä»¶çī©åĵģ":13165,"éĤ£å°ģä¿¡":13166,"çĿĢèĦĳè¢ĭ":13167,"æĿ¥å¾Ģå¾Ģ":13168,"å°±åİ»":13169,"å°±åıĳçİ°":13170,"åĴĮçī©åĵģ":13171,"æ²¡è¯´":13172,"ä¹ĭä¸ŃçļĦ":13173,"å¤§äºĨ":13174,"å¯¹å¾ħ":13175,"ä½łå¥½":13176,"åı¯éĹ®é¢ĺåľ¨äºİ":13177,"éĿ¢é¢Ŀ":13178,"æĥ³åİ»":13179,"çĤ¹ç¼Ģ":13180,"åīįæľŁ":13181,"çŃĴ":13182,"æĪĲç«ĭ":13183,"æīĭæľ¯":13184,"å°ĨæĪĳ":13185,"çī¹èī²çļĦ":13186,"éĥ½ä¼¼ä¹İ":13187,"æĮ¨":13188,"æŃ£å¤Ħäºİ":13189,"åĨħåħĭ":13190,"æ¸Ķ":13191,"Ġä»ĸçŁ¥éģĵ":13192,"Ġä»ĸå·²ç»ı":13193,"ä¸Ģä¸ªåįķè¯į":13194,"Ġè¿ĻéĩĮéĿ¢":13195,"Ġè¿ĻæŃ£æĺ¯":13196,"å¤©çĶŁ":13197,"å¤©çľŁ":13198,"åıĪæĥĬ":13199,"ä½ĨéĹ®é¢ĺåľ¨äºİ":13200,"åħīæ³½":13201,"èĤĭ":13202,"è·Ħ":13203,"åĪĨåĩº":13204,"åĪĨäºĶ":13205,"ç»ıè´¹":13206,"æµ·è¾¹":13207,"å¥³ä½£":13208,"çĽ¸å¤Ħ":13209,"çĸļ":13210,"ä¸İå¤ĸçķĮ":13211,"éĩįåĪĽ":13212,"Ġåħĭèİ±æģ©éļıåį³":13213,"è¿Ļä¸ªæł·åŃĲ":13214,"éĩĳå£³":13215,"ç»Ļå¯¹æĸ¹":13216,"æŃ¥éª¤":13217,"åĪļä»İ":13218,"è½»æŁĶ":13219,"æŃ»æŃ»":13220,"æĭīæĭ¢":13221,"éĹ®é¢ĺæĺ¯":13222,"é£İåº¦":13223,"å¾ĢåĨħ":13224,"æĪ¿åĨħ":13225,"æĪĳä»¬å¡Ķç½Ĺä¼ļ":13226,"å¤įåİŁ":13227,"çĬ·":13228,"ä½İå¿µ":13229,"éĤ£ä¸ªæģ¶çģµ":13230,"å¤ľä¹ĭåĽ½":13231,"çļĦäºĭæĥħåĲĹ":13232,"åĽĽåĪĨäºĶ":13233,"åķĬå¯¹":13234,"äº¤æĽ¿":13235,"è¥¿è¿¦":13236,"æĢİä¹Īéĥ½":13237,"æĺŁä¹ĭèĻ«":13238,"ä¸Ģä½įç©¿":13239,"ä¸Ģä½įå¤©ä½¿":13240,"æĹłæ³ķç¡®å®ļ":13241,"åĲĦå¤§æķĻä¼ļ":13242,"ç»´æģ©":13243,"æİ¢åħ¥":13244,"èĤ¯çī¹":13245,"åį°è¯ģ":13246,"çĹĴ":13247,"è¿ĺæľīäºĽ":13248,"é²į":13249,"çļĦéĤ£åº§":13250,"éĤ£éĩĮæľī":13251,"æĮģæı¡":13252,"ç»Ĩå°ı":13253,"åıĮæİĮ":13254,"æĹģçļĦ":13255,"çŁ³åĿĹ":13256,"äºĶä¸ª":13257,"çħ§å¾Ĺ":13258,"åģľéĿł":13259,"æĪĲåĳĺä»¬":13260,"éģĹä¼ł":13261,"éħĴç²¾":13262,"ä¹ĭåĲİåĨį":13263,"çľĭçĿĢä»ĸ":13264,"ç«ĻçĤ¹":13265,"Ġä¸įå¾Ĺ":13266,"åŀĥåľ":13267,"éĴŁå£°":13268,"èŃ¦éķ¿":13269,"èŃ¦å±Ģ":13270,"è¾ĥé«ĺ":13271,"è¸ī":13272,"æĳĨåľ¨":13273,"çł´äº§":13274,"æ¤Ĵ":13275,"çľŁæŃ£æĦıä¹īä¸ĬçļĦ":13276,"å¹½é»ĺ":13277,"éļ¾ä»¥æııè¿°":13278,"åĨĴåĩºäºĨ":13279,"æ¢ħæ¡ĳ":13280,"éĴ±åĮħ":13281,"æĬĵäºĨä¸Ģä¸ĭ":13282,"åħŃä½į":13283,"æĺ¯ä¸ĢåĲį":13284,"æĺ¯ä¸Ģçīĩ":13285,"èĢĥèĻĳè¿ĩ":13286,"çģ¯åħī":13287,"æĥ³åĪ°è¿ĻéĩĮ":13288,"æĥ³åĪ°äºĨä¸Ģä¸ª":13289,"åı¬åĶ¤ä¿¡ä½¿":13290,"èº«ä»½åĴĮ":13291,"åģļåĩºçļĦ":13292,"æ½ľåľ¨":13293,"äºīæĸĹ":13294,"æķ´ä¸ªä¸ĸçķĮ":13295,"å¸¦çĿĢäºĽè®¸":13296,"æĪĳæĥ³è¦ģ":13297,"éĺŁéķ¿éĤĵæģ©":13298,"ä¸¾åĬ¨":13299,"èķĬ":13300,"æĬ¬èµ·åıĮæīĭ":13301,"æĦıå¤ĸåľ°":13302,"æĪĺæĸĹéĩĮ":13303,"åĽºå®ļçļĦ":13304,"å°ĸåķ¸":13305,"æİ¨èįĲä¸Ģæľ¬ä¹¦":13306,"å¾Īæľīåı¯èĥ½":13307,"é¦ĸå¸Ńéĺģä¸ĭ":13308,"æĢĶäºĨ":13309,"ç¥ŀå¥ĩçī©åĵģçļĦ":13310,"éĻ¢è®®åĳĺ":13311,"çļĦçĸ¾çĹħ":13312,"å¤±åİ»çĲĨæĻº":13313,"æħĮä¸įå¿Ļ":13314,"éº¦éĿ¢åĮħ":13315,"éĶĲåĪ©":13316,"æī¿åıĹçļĦ":13317,"åĺ´åĶĩç¿ķåĬ¨":13318,"çļĦçĥŃ":13319,"è¾¨è®¤":13320,"çļĦåħīè¾ī":13321,"åįıè®®":13322,"åı¦ä¸Ģä¸ªæĸ¹åĲĳ":13323,"éŃĶèį¯çļĦåĲįç§°":13324,"èĦĸåŃĲä¸Ĭ":13325,"æľĢå¥½ä¸įè¦ģ":13326,"ç©ºæĥ³å¤©ä½¿":13327,"å®£å¸ĥ":13328,"èķ´èĹı":13329,"çŃĶåºĶäºĨ":13330,"æķıéĶĲåľ°":13331,"çķħéĶĢ":13332,"èĲ¥éĢł":13333,"åĴķåĻľåĸĿ":13334,"éĢ¼è¿«":13335,"æī¾äºĨä¸ªä½įç½®åĿĲä¸ĭ":13336,"æĭ¼åĩĳ":13337,"æ¶Įçİ°åĩºäºĨ":13338,"åªļ":13339,"ä¸Ĭåīįä¸¤æŃ¥":13340,"çļĦç¤¼å¸½":13341,"äººçļ®å¹½å½±":13342,"è´©åŃĲ":13343,"åħ³ä¸ĬæĪ¿éĹ¨":13344,"æĽ´æİ¥è¿ĳäºİ":13345,"èµ«å°Ķå¢¨":13346,"å¼łå¼ĢäºĨåĺ´å·´":13347,"æĳ©æĮ²çĿĢ":13348,"æĿ¥åĽŀè¸±æŃ¥":13349,"åıĮåĢįæľŁéĹ´":13350,"èĢĥåı¤åŃ¦å®¶":13351,"è´Ŀåħĭåħ°å¾·å¤§éĽ¾éľ¾äºĭä»¶":13352,"åĭĩæķ¢èĢħéħĴåĲ§":13353,"å¤§æ¡¥åįĹåĮº":13354,"åīįä»»é¦ĸå¸Ń":13355,"æ¡ĮçĲĥå®¤":13356,"çĨŁç¨Ķåľ°":13357,"æµİè´«éĻ¢":13358,"è¯´ä¸įåĩºè¯ĿæĿ¥":13359,"æŃĮé¢ĤèĢħ":13360,"æĵ¦äºĨæĵ¦":13361,"å±ģèĤ¡":13362,"åĬłå°ĶåĬłæĸ¯":13363,"åĽĽçļĩä¹ĭæĪĺ":13364,"åĽĽåĪĨäºĶè£Ĥ":13365,"åŀĥåľ¾":13366,"æ¢ħæ¡ĳèĢ¶":13367,"41":13368,"Ġä¸ºä»Ģä¹Ī":13369,"Ġåĳ¨æĺİçĳŀ":13370,"Ġè¯ĿéŁ³æľªèĲ½":13371,"ĠçļĩåĲİåĮº":13372,"ĠæĬĵä½ıè¿Ļä¸ªæľºä¼ļ":13373,"ħé¥¼":13374,"Ŀçģ«":13375,"çļĦåĺ´å·´":13376,"çļĦéĹªçĶµ":13377,"çļĦæĶ»åĩ»":13378,"çļĦéĵ¶èī²":13379,"çļĦéĻ·éĺ±":13380,"ä»ģ":13381,"ä¸Ģå¤§":13382,"ä¸Ģä¸ĸ":13383,"ä¸Ģè½®":13384,"ä¸ĢåłĨ":13385,"ä¸Ģä¸įå°ıå¿ĥ":13386,"æĺ¯æĹłæ³ķ":13387,"ä¸įåĪĨ":13388,"ä¸įç®Ģåįķ":13389,"åĩĽ":13390,"ä»ĸåĪļæīį":13391,"ä»ĸèĢĮè¨Ģ":13392,"çĶ°":13393,"åľ¨åľ°":13394,"åľ¨çģµçķĮ":13395,"åľ¨å¤ĸéĿ¢":13396,"åľ¨ç¬¬åĽĽçºª":13397,"åľ¨æŁĲç§įç¨ĭåº¦ä¸Ĭ":13398,"æĪĳæľĢ":13399,"æĪĳåıĳçİ°":13400,"ä¸ªåŃĲ":13401,"åħĭèİ±æģ©è¿Ľåħ¥":13402,"åħĭèİ±æģ©è¡¨æĥħ":13403,"åħĭèİ±æģ©æķħæĦı":13404,"éĤ£å¤©":13405,"éĤ£ç¾¤":13406,"äººä»¬":13407,"åĩºæµ·":13408,"æĿ¥åģļ":13409,"ä¸ĭåºĬ":13410,"ä¸ĭåĿł":13411,"å°±å¥½äºĨ":13412,"åĴĮæĪĳä»¬":13413,"åĴĮå¯¹æĸ¹":13414,"æ²¡æī¾åĪ°":13415,"å°Ķé¡¿":13416,"è¿ĩå¤ļ":13417,"å¯¹å¼Ģ":13418,"å¯¹åĲ§":13419,"ä½łåħĪ":13420,"è¾±":13421,"å¾Ĺèµ·":13422,"æµĬ":13423,"ä¹Łä¸Ģæł·":13424,"åı¯åį´":13425,"åı¯çİ°åľ¨":13426,"åīįå°±":13427,"åīįç½®":13428,"åĽŀåºĶçļĦ":13429,"èĢĮå·²":13430,"æ²¡æľīè¡¨æĥħ":13431,"å°Ĩè¿Ļä»¶äºĭæĥħ":13432,"éĥ½ä»¿ä½Ľ":13433,"éĥ½çĽ¸å½ĵ":13434,"éĥ½æ²¡èĥ½":13435,"å¿ĥéŃĩ":13436,"çĶ¨ä¸įäºĨå¤ļä¹ħ":13437,"å°ıæĹ¶åĢĻ":13438,"å°ıå¹ħåº¦":13439,"ä¾¯":13440,"è¢«éĺ¿èĴĻ":13441,"è¢«çĤ¹çĩĥ":13442,"è¢«åĪºæĿĢ":13443,"Ġè¿Ļäººå½±":13444,"åıĪè¦ģ":13445,"åĬĽæ°Ķ":13446,"ä½Ĩä½ł":13447,"çŃīäººçļĦ":13448,"çĻ½è¢į":13449,"å¤ĸæĿ¥èĢħ":13450,"åĪĨåĮĸ":13451,"è¡Įåįķè¯į":13452,"å®ŀä½ĵ":13453,"æĦŁåĪ°":13454,"æıĲåĪ°çļĦ":13455,"åħĪçĶŁéĤ£éĩĮ":13456,"æīĢå¤Ħ":13457,"æķĻåĳĺ":13458,"æ°Ķåĳ³":13459,"å®īç¨³":13460,"Ġåħĭèİ±æģ©æĥ³äºĨæĥ³":13461,"è¿ĽæĶ»":13462,"å®ĮåĸĦ":13463,"å¥¥æĸ¯é¡¿":13464,"è¿Ļä¸ªç»Ħç»ĩ":13465,"ä»ĸä»¬ä¼ļ":13466,"èµ°è¿Ĳ":13467,"æīĵèµı":13468,"å¤±ç¬ĳ":13469,"å¤Ħç½ļ":13470,"è§£å¼Ģ":13471,"è½¬è¿ĩäºĨ":13472,"æŃ»åīį":13473,"çĲĨäºĨä¸ĭ":13474,"æĶ¾çĿĢ":13475,"å¾®æĬ¬":13476,"é£İéĵĥ":13477,"éĢļåĲĳ":13478,"é¦ħé¥¼":13479,"æ¯Ķä»ĸ":13480,"äºĨä¸ĭèĩªå·±":13481,"çģ°æļĹ":13482,"æĭ¿äºĨ":13483,"èĲ½åħ¥":13484,"åħ¶å¦Ļ":13485,"ä½İç¬ĳéģĵ":13486,"åħ³åĪĩ":13487,"çīĩçīĩ":13488,"åŁİå¤ĸ":13489,"è¿Ļæł·ä¸Ģä¸ª":13490,"åĩºçİ°äºĨä¸Ģéģĵ":13491,"æĸ°é²ľ":13492,"å¯Ĩå°Ķé¡¿":13493,"çªģå¦Ĥåħ¶":13494,"å½¢æĪĲäºĨä¸Ģ":13495,"çļĦäººåĳĺ":13496,"åºĶè¯¥å·²ç»ı":13497,"è·¯åı£":13498,"ĠéĤ£çīĩ":13499,"æŀģåº¦":13500,"åľ£çī©":13501,"ç²¾åĬĽ":13502,"åĩĨå¤ĩçĿĢ":13503,"å¨ľå¨ħ":13504,"åĪĿæľŁ":13505,"å®³èĢħ":13506,"ä¸įåĲĮçļĦåľ°æĸ¹":13507,"çİ¯ç»ķ":13508,"åĨĻäºĨ":13509,"æľīäºĨæĸ°çļĦ":13510,"æĲħ":13511,"æĲĵ":13512,"å¹»æĥ³":13513,"æĪ¿éĹ´éĩĮ":13514,"æį¢åı¥è¯Ŀ":13515,"æĮīçĿĢ":13516,
[...]
